const unsigned char model[] __attribute__((aligned(4))) = {
  0x1c, 0x00, 0x00, 0x00, 0x54, 0x46, 0x4c, 0x33, 0x14, 0x00, 0x20, 0x00,
  0x1c, 0x00, 0x18, 0x00, 0x14, 0x00, 0x10, 0x00, 0x0c, 0x00, 0x00, 0x00,
  0x08, 0x00, 0x04, 0x00, 0x14, 0x00, 0x00, 0x00, 0x1c, 0x00, 0x00, 0x00,
  0x80, 0x00, 0x00, 0x00, 0xd8, 0x00, 0x00, 0x00, 0x40, 0x2e, 0x00, 0x00,
  0x50, 0x2e, 0x00, 0x00, 0xa0, 0x3c, 0x00, 0x00, 0x03, 0x00, 0x00, 0x00,
  0x01, 0x00, 0x00, 0x00, 0x04, 0x00, 0x00, 0x00, 0xae, 0xd0, 0xff, 0xff,
  0x0c, 0x00, 0x00, 0x00, 0x1c, 0x00, 0x00, 0x00, 0x3c, 0x00, 0x00, 0x00,
  0x0f, 0x00, 0x00, 0x00, 0x73, 0x65, 0x72, 0x76, 0x69, 0x6e, 0x67, 0x5f,
  0x64, 0x65, 0x66, 0x61, 0x75, 0x6c, 0x74, 0x00, 0x01, 0x00, 0x00, 0x00,
  0x04, 0x00, 0x00, 0x00, 0x9c, 0xff, 0xff, 0xff, 0x27, 0x00, 0x00, 0x00,
  0x04, 0x00, 0x00, 0x00, 0x08, 0x00, 0x00, 0x00, 0x6f, 0x75, 0x74, 0x70,
  0x75, 0x74, 0x5f, 0x30, 0x00, 0x00, 0x00, 0x00, 0x01, 0x00, 0x00, 0x00,
  0x04, 0x00, 0x00, 0x00, 0xa2, 0xd1, 0xff, 0xff, 0x04, 0x00, 0x00, 0x00,
  0x01, 0x00, 0x00, 0x00, 0x78, 0x00, 0x00, 0x00, 0x02, 0x00, 0x00, 0x00,
  0x34, 0x00, 0x00, 0x00, 0x04, 0x00, 0x00, 0x00, 0xdc, 0xff, 0xff, 0xff,
  0x2a, 0x00, 0x00, 0x00, 0x04, 0x00, 0x00, 0x00, 0x13, 0x00, 0x00, 0x00,
  0x43, 0x4f, 0x4e, 0x56, 0x45, 0x52, 0x53, 0x49, 0x4f, 0x4e, 0x5f, 0x4d,
  0x45, 0x54, 0x41, 0x44, 0x41, 0x54, 0x41, 0x00, 0x08, 0x00, 0x0c, 0x00,
  0x08, 0x00, 0x04, 0x00, 0x08, 0x00, 0x00, 0x00, 0x29, 0x00, 0x00, 0x00,
  0x04, 0x00, 0x00, 0x00, 0x13, 0x00, 0x00, 0x00, 0x6d, 0x69, 0x6e, 0x5f,
  0x72, 0x75, 0x6e, 0x74, 0x69, 0x6d, 0x65, 0x5f, 0x76, 0x65, 0x72, 0x73,
  0x69, 0x6f, 0x6e, 0x00, 0x2b, 0x00, 0x00, 0x00, 0x64, 0x2d, 0x00, 0x00,
  0x5c, 0x2d, 0x00, 0x00, 0x44, 0x2d, 0x00, 0x00, 0x2c, 0x2d, 0x00, 0x00,
  0xdc, 0x2c, 0x00, 0x00, 0xc0, 0x2c, 0x00, 0x00, 0xa0, 0x2c, 0x00, 0x00,
  0x80, 0x2c, 0x00, 0x00, 0x60, 0x2c, 0x00, 0x00, 0x40, 0x2c, 0x00, 0x00,
  0x28, 0x2c, 0x00, 0x00, 0x10, 0x2c, 0x00, 0x00, 0xf8, 0x2b, 0x00, 0x00,
  0xe0, 0x2b, 0x00, 0x00, 0xb8, 0x2b, 0x00, 0x00, 0x90, 0x2b, 0x00, 0x00,
  0x68, 0x2b, 0x00, 0x00, 0x40, 0x2b, 0x00, 0x00, 0x20, 0x2b, 0x00, 0x00,
  0x00, 0x2b, 0x00, 0x00, 0xe0, 0x2a, 0x00, 0x00, 0xc0, 0x2a, 0x00, 0x00,
  0xa8, 0x2a, 0x00, 0x00, 0x90, 0x2a, 0x00, 0x00, 0x78, 0x2a, 0x00, 0x00,
  0x60, 0x2a, 0x00, 0x00, 0x40, 0x2a, 0x00, 0x00, 0x20, 0x2a, 0x00, 0x00,
  0x00, 0x2a, 0x00, 0x00, 0xe0, 0x29, 0x00, 0x00, 0xd0, 0x01, 0x00, 0x00,
  0x00, 0x01, 0x00, 0x00, 0xe8, 0x00, 0x00, 0x00, 0xe0, 0x00, 0x00, 0x00,
  0xc8, 0x00, 0x00, 0x00, 0xb0, 0x00, 0x00, 0x00, 0xa8, 0x00, 0x00, 0x00,
  0xa0, 0x00, 0x00, 0x00, 0x98, 0x00, 0x00, 0x00, 0x90, 0x00, 0x00, 0x00,
  0x88, 0x00, 0x00, 0x00, 0x68, 0x00, 0x00, 0x00, 0x04, 0x00, 0x00, 0x00,
  0xbe, 0xd2, 0xff, 0xff, 0x04, 0x00, 0x00, 0x00, 0x54, 0x00, 0x00, 0x00,
  0x0c, 0x00, 0x00, 0x00, 0x08, 0x00, 0x0e, 0x00, 0x08, 0x00, 0x04, 0x00,
  0x08, 0x00, 0x00, 0x00, 0x10, 0x00, 0x00, 0x00, 0x24, 0x00, 0x00, 0x00,
  0x00, 0x00, 0x06, 0x00, 0x08, 0x00, 0x04, 0x00, 0x06, 0x00, 0x00, 0x00,
  0x04, 0x00, 0x00, 0x00, 0x00, 0x00, 0x00, 0x00, 0x00, 0x00, 0x0a, 0x00,
  0x10, 0x00, 0x0c, 0x00, 0x08, 0x00, 0x04, 0x00, 0x0a, 0x00, 0x00, 0x00,
  0x01, 0x00, 0x00, 0x00, 0x02, 0x00, 0x00, 0x00, 0x04, 0x00, 0x00, 0x00,
  0x06, 0x00, 0x00, 0x00, 0x32, 0x2e, 0x31, 0x30, 0x2e, 0x30, 0x00, 0x00,
  0x1e, 0xd3, 0xff, 0xff, 0x04, 0x00, 0x00, 0x00, 0x10, 0x00, 0x00, 0x00,
  0x31, 0x2e, 0x31, 0x33, 0x2e, 0x31, 0x00, 0x00, 0x00, 0x00, 0x00, 0x00,
  0x00, 0x00, 0x00, 0x00, 0x88, 0xc5, 0xff, 0xff, 0x8c, 0xc5, 0xff, 0xff,
  0x90, 0xc5, 0xff, 0xff, 0x94, 0xc5, 0xff, 0xff, 0x98, 0xc5, 0xff, 0xff,
  0x4e, 0xd3, 0xff, 0xff, 0x04, 0x00, 0x00, 0x00, 0x08, 0x00, 0x00, 0x00,
  0x00, 0x00, 0x00, 0x00, 0x00, 0x00, 0x00, 0x00, 0x62, 0xd3, 0xff, 0xff,
  0x04, 0x00, 0x00, 0x00, 0x08, 0x00, 0x00, 0x00, 0x00, 0x00, 0x00, 0x00,
  0x00, 0x00, 0x00, 0x00, 0xc4, 0xc5, 0xff, 0xff, 0x7a, 0xd3, 0xff, 0xff,
  0x04, 0x00, 0x00, 0x00, 0x08, 0x00, 0x00, 0x00, 0x00, 0x00, 0x00, 0x00,
  0x00, 0x00, 0x00, 0x00, 0x8e, 0xd3, 0xff, 0xff, 0x04, 0x00, 0x00, 0x00,
  0xc0, 0x00, 0x00, 0x00, 0xf2, 0x55, 0x20, 0xbf, 0xe2, 0x44, 0x0a, 0x3f,
  0x46, 0x0e, 0xee, 0x3e, 0x6c, 0x09, 0x08, 0x3f, 0xd0, 0x43, 0x1f, 0xbf,
  0x44, 0xd3, 0x10, 0xbf, 0xb2, 0x9a, 0x69, 0x3f, 0xc2, 0x69, 0xce, 0xbe,
  0x48, 0xac, 0x7e, 0x3f, 0x75, 0x49, 0xde, 0x3e, 0x8a, 0x64, 0xab, 0x3e,
  0x0e, 0x34, 0x99, 0x3e, 0xca, 0x63, 0x84, 0x3e, 0x03, 0x37, 0x52, 0xbf,
  0xa1, 0x11, 0x21, 0x3f, 0xd0, 0x1b, 0x77, 0x3f, 0xd9, 0x27, 0x17, 0x3d,
  0xaf, 0x5d, 0x0c, 0x3f, 0x8b, 0xce, 0x4e, 0x3f, 0xfa, 0x22, 0x33, 0xbf,
  0x76, 0x3e, 0x38, 0xbe, 0x69, 0xa9, 0x43, 0x3e, 0x27, 0x49, 0x53, 0xbf,
  0xc7, 0x7f, 0x9a, 0xbe, 0x5b, 0xa6, 0xbc, 0xbe, 0xdb, 0x7f, 0xfa, 0x3e,
  0xd5, 0xb3, 0x8d, 0xbf, 0x4a, 0x91, 0x7f, 0xbf, 0x4d, 0xdd, 0xb9, 0x3d,
  0xc2, 0x86, 0x3d, 0x3e, 0x97, 0x90, 0x0e, 0x3f, 0xd7, 0xe5, 0x32, 0xbf,
  0x84, 0x7f, 0x9f, 0x3e, 0xb7, 0xc7, 0x67, 0xbf, 0xa3, 0x23, 0x9c, 0xbf,
  0x57, 0x6a, 0x68, 0x3f, 0x13, 0x9a, 0x91, 0x3d, 0xc3, 0x44, 0x28, 0x3f,
  0xfe, 0x6e, 0x7d, 0x3e, 0x10, 0x9f, 0x51, 0x3f, 0xde, 0x18, 0x49, 0xbe,
  0x21, 0xb4, 0x8f, 0xbf, 0x55, 0xd6, 0xad, 0x3d, 0x64, 0xde, 0x25, 0x3f,
  0x24, 0xb0, 0x99, 0xbf, 0x57, 0xbe, 0xf2, 0x3e, 0xb8, 0x89, 0xde, 0xbe,
  0x02, 0x56, 0xb0, 0xbe, 0x5a, 0xd4, 0xff, 0xff, 0x04, 0x00, 0x00, 0x00,
  0x00, 0x28, 0x00, 0x00, 0x0a, 0xeb, 0x2d, 0x3f, 0x83, 0xf3, 0x52, 0x3e,
  0x53, 0xf8, 0xe4, 0x3e, 0x5f, 0xc2, 0xd1, 0xbe, 0x34, 0x19, 0xb9, 0x3e,
  0x12, 0x0c, 0x85, 0xbe, 0xa7, 0x50, 0xbc, 0x3e, 0x9e, 0x08, 0x28, 0xbe,
  0xa4, 0xd1, 0x8f, 0x3e, 0x3e, 0x62, 0x99, 0xbe, 0x04, 0x8b, 0xf8, 0xbd,
  0xd5, 0x3c, 0xb9, 0xbe, 0x63, 0x29, 0xa4, 0xbd, 0x7c, 0xb5, 0x84, 0xbe,
  0xa9, 0xa1, 0xed, 0xbe, 0xfd, 0xe0, 0x0c, 0x3c, 0x34, 0xa3, 0x02, 0xbf,
  0x68, 0x62, 0xbb, 0xbd, 0x05, 0xd9, 0xf1, 0xbe, 0x25, 0xa5, 0xab, 0x3b,
  0xb6, 0x02, 0x47, 0xbf, 0x3a, 0x82, 0x22, 0x3c, 0xd9, 0x6b, 0x3a, 0xbf,
  0x06, 0x93, 0xe5, 0xbd, 0xa0, 0x73, 0xf2, 0xbe, 0x40, 0x2d, 0x6a, 0xbd,
  0x14, 0xf1, 0x0e, 0xbf, 0x98, 0x54, 0x67, 0xbd, 0x4a, 0xf0, 0x1c, 0xbf,
  0x30, 0x9e, 0x5f, 0x3d, 0xec, 0x1f, 0x89, 0xbe, 0x2e, 0x3c, 0x77, 0xbd,
  0xe5, 0x75, 0x42, 0xbe, 0x18, 0x50, 0x89, 0xbe, 0x28, 0x88, 0x39, 0xbe,
  0x85, 0x6c, 0x06, 0xbd, 0x12, 0xad, 0x88, 0xbe, 0x5c, 0x4d, 0xa2, 0x3c,
  0x7a, 0x76, 0xb5, 0xbc, 0x90, 0x39, 0x91, 0xbe, 0x58, 0xc2, 0x5e, 0x3d,
  0x37, 0xa2, 0x9e, 0xbe, 0x64, 0xad, 0x03, 0xbe, 0x86, 0x08, 0xba, 0xbe,
  0x19, 0xf3, 0x44, 0xbe, 0x9b, 0xf7, 0x98, 0xbe, 0x88, 0x9c, 0x7c, 0xbd,
  0x5e, 0x80, 0x93, 0xbd, 0x8e, 0x09, 0x8d, 0xbc, 0xc6, 0x47, 0xa1, 0xbd,
  0x95, 0xa7, 0x80, 0xbd, 0xc0, 0xdb, 0x53, 0xbd, 0x67, 0x5c, 0x52, 0x3d,
  0xf8, 0x52, 0x06, 0xbe, 0x12, 0x8d, 0xc8, 0xbd, 0xd1, 0xa1, 0x97, 0xbe,
  0x8e, 0x8a, 0xfc, 0x3d, 0xc0, 0x5f, 0xae, 0x3c, 0x28, 0xae, 0x74, 0xbd,
  0xd5, 0x9d, 0xa9, 0xbe, 0x5e, 0x7d, 0x7e, 0x3d, 0x37, 0xc7, 0x82, 0xbe,
  0xda, 0x35, 0xbc, 0xbc, 0xa1, 0x4c, 0x8b, 0x3c, 0x55, 0x06, 0x00, 0xbe,
  0x78, 0x92, 0x44, 0xbe, 0x6d, 0x1b, 0xd2, 0xbc, 0x85, 0x7e, 0xe5, 0x3b,
  0xc7, 0xba, 0xc8, 0xbd, 0x1b, 0xfa, 0x45, 0xbe, 0x68, 0xd7, 0xb9, 0xbd,
  0x15, 0xe9, 0x3a, 0xbe, 0x2c, 0xcf, 0x64, 0xbd, 0x5f, 0x00, 0x02, 0xbe,
  0x9d, 0xd7, 0x65, 0xbd, 0xc7, 0x63, 0x30, 0xbd, 0x8e, 0x10, 0xbf, 0xbd,
  0x63, 0x9f, 0xa4, 0xbc, 0x63, 0xc5, 0xda, 0x3d, 0x3b, 0xbb, 0x48, 0xbe,
  0x1f, 0x4a, 0xc0, 0xbd, 0x75, 0x6b, 0x24, 0xbe, 0x73, 0x8f, 0xfb, 0x3c,
  0x2f, 0x9a, 0x33, 0xbd, 0x25, 0xc8, 0x94, 0xbd, 0x62, 0xc2, 0x01, 0xbe,
  0x74, 0xd8, 0xb8, 0xbc, 0x51, 0x70, 0xf4, 0xbc, 0x4d, 0xeb, 0x12, 0xbe,
  0x1d, 0x4b, 0x5c, 0xbb, 0xb3, 0x59, 0xab, 0x3d, 0x35, 0xd9, 0x0a, 0xbe,
  0xb3, 0xe6, 0x88, 0x3d, 0x27, 0x06, 0xe8, 0xbd, 0xe7, 0x71, 0x78, 0xbd,
  0x45, 0x0e, 0x16, 0xbe, 0x43, 0x00, 0x34, 0xbd, 0xea, 0xcf, 0x10, 0x3e,
  0x20, 0x5e, 0x0e, 0xbe, 0xc6, 0x9a, 0xd3, 0xbd, 0x87, 0x98, 0x8e, 0x3d,
  0xb4, 0x52, 0x6a, 0xbc, 0x1c, 0x8a, 0xb0, 0x3d, 0x69, 0xb2, 0x1f, 0xbd,
  0x7a, 0xfb, 0x0d, 0xbe, 0xe8, 0x90, 0x7a, 0xbd, 0x83, 0xfa, 0xce, 0xbc,
  0x80, 0xc1, 0x47, 0xbd, 0x2d, 0x80, 0x1d, 0x3e, 0x3d, 0x54, 0xc9, 0xbc,
  0x25, 0xb7, 0xf8, 0x3c, 0xc5, 0xde, 0xe0, 0xbd, 0xa7, 0x67, 0x56, 0xbd,
  0x2e, 0x84, 0x04, 0x3d, 0xe0, 0xae, 0x33, 0xbd, 0x1a, 0x5d, 0x33, 0x3c,
  0x60, 0x72, 0xe8, 0xbd, 0x2c, 0xf8, 0xea, 0x3d, 0x7a, 0xe6, 0x20, 0xbd,
  0x0d, 0x0d, 0x03, 0xbe, 0xd0, 0x36, 0x92, 0xbd, 0xdc, 0x25, 0xfe, 0xbd,
  0xfe, 0x17, 0x0e, 0xbe, 0xc3, 0x6a, 0x0e, 0xbe, 0xbb, 0x52, 0x24, 0xbe,
  0x8a, 0x24, 0x5e, 0x3d, 0x23, 0xa3, 0x2c, 0xba, 0x3d, 0x70, 0x4a, 0xbd,
  0x21, 0x78, 0x49, 0xbd, 0x99, 0x52, 0xcf, 0x3d, 0x46, 0xe3, 0x57, 0x3d,
  0xac, 0xa8, 0x21, 0x3e, 0x76, 0x82, 0x35, 0x3d, 0xba, 0x95, 0x24, 0xbe,
  0x07, 0x8a, 0x58, 0x3d, 0xba, 0x14, 0xf1, 0xbd, 0xf1, 0x31, 0x4f, 0xbd,
  0xc6, 0xc2, 0xcb, 0xbc, 0xe3, 0x54, 0xf6, 0x3c, 0x33, 0x81, 0x9c, 0xbe,
  0x51, 0xb2, 0x3e, 0xbe, 0xfa, 0x54, 0x93, 0xbd, 0x24, 0xcf, 0x1a, 0x3d,
  0x6d, 0xc5, 0x43, 0x3e, 0x8c, 0xce, 0x2b, 0xbe, 0x22, 0x02, 0x3f, 0xbd,
  0x75, 0x59, 0xdf, 0xbc, 0xda, 0xe0, 0x42, 0xbe, 0xd7, 0x19, 0x2b, 0xbe,
  0x85, 0x18, 0xb8, 0xbc, 0x1b, 0x2c, 0x96, 0xbd, 0x59, 0xd0, 0x27, 0xbe,
  0x6a, 0xc8, 0xd3, 0x3d, 0xee, 0x33, 0xf2, 0x3d, 0x84, 0x87, 0xc1, 0x3d,
  0x8e, 0xfd, 0x00, 0xbe, 0xd7, 0x4d, 0xe9, 0xbc, 0x4b, 0x52, 0xb3, 0xbd,
  0x3b, 0x14, 0xd6, 0x3d, 0x9e, 0xcf, 0x99, 0xbc, 0x6a, 0x84, 0x93, 0xbe,
  0xc7, 0x48, 0x8f, 0xbe, 0x13, 0xfa, 0x22, 0xbe, 0x40, 0xe4, 0x9e, 0xbc,
  0x9a, 0x8c, 0x9e, 0x3d, 0x88, 0xa2, 0xd7, 0xbd, 0x1c, 0x0a, 0x8f, 0x3c,
  0x26, 0x93, 0x5c, 0x3e, 0x8e, 0x36, 0xc1, 0xbd, 0x5f, 0x67, 0x95, 0x3c,
  0x77, 0x99, 0x5c, 0xbe, 0xd5, 0xfd, 0xdc, 0xbb, 0xfc, 0x8e, 0x44, 0x3c,
  0xb9, 0xf1, 0x1d, 0x3e, 0xda, 0x3c, 0x77, 0xbe, 0x96, 0x1e, 0xec, 0xbd,
  0xa7, 0xe5, 0x5e, 0xbd, 0xeb, 0x99, 0x33, 0xbd, 0x53, 0x4e, 0x58, 0x3b,
  0xd4, 0xd8, 0x81, 0x3d, 0x2a, 0xe2, 0x0f, 0xbe, 0xd2, 0x23, 0xea, 0xbd,
  0xeb, 0xdf, 0x54, 0xbc, 0x7e, 0x97, 0x38, 0x3c, 0xc9, 0xf4, 0x18, 0xbe,
  0xe6, 0xd8, 0x54, 0xbc, 0xf1, 0x52, 0x2a, 0x3d, 0x06, 0xfe, 0x54, 0x3d,
  0x1a, 0xd1, 0xbd, 0x3d, 0x40, 0x1e, 0x8f, 0x3d, 0x47, 0x91, 0x96, 0xbd,
  0x49, 0x21, 0xe0, 0xbd, 0xa0, 0xda, 0x50, 0x3c, 0x91, 0xcd, 0x3b, 0x3e,
  0x9e, 0x6e, 0x27, 0x3d, 0x27, 0xef, 0x8a, 0x3e, 0x5d, 0xc7, 0x8b, 0x3d,
  0x0d, 0xef, 0x8f, 0x3e, 0x8e, 0xef, 0xf3, 0x3b, 0x2f, 0xc4, 0xc3, 0x39,
  0x06, 0x95, 0x99, 0x3e, 0xe3, 0x2b, 0x8d, 0xbd, 0x13, 0x9d, 0x9e, 0x3e,
  0x05, 0xd9, 0x54, 0x3e, 0x49, 0xde, 0x80, 0x3e, 0x44, 0xe6, 0x49, 0x3e,
  0xe3, 0x53, 0x3e, 0x3e, 0x78, 0xef, 0x2b, 0x3e, 0xea, 0x93, 0x30, 0x3e,
  0x43, 0x5e, 0x16, 0x3d, 0x39, 0xf2, 0x7c, 0x3e, 0x8b, 0x14, 0x04, 0xbd,
  0x75, 0x11, 0x8b, 0x3e, 0x36, 0x25, 0x8c, 0x3d, 0x8e, 0x32, 0x94, 0x3e,
  0xbc, 0xc9, 0x75, 0x3e, 0x61, 0x80, 0xd6, 0x3e, 0xef, 0x40, 0xf4, 0xbc,
  0x13, 0x91, 0xd3, 0x3e, 0x98, 0x82, 0xd0, 0x3d, 0x68, 0x3a, 0xd7, 0x3e,
  0xc2, 0xb3, 0x91, 0x3d, 0x9b, 0xcd, 0x95, 0x3e, 0xa5, 0x04, 0x15, 0x3d,
  0xbe, 0xa8, 0x8f, 0x3e, 0x74, 0x1b, 0xec, 0x3d, 0x88, 0x47, 0xaa, 0x3e,
  0x71, 0x08, 0xa6, 0x3d, 0x9d, 0x0e, 0xe1, 0x3e, 0xaf, 0xc1, 0x8b, 0xbc,
  0x8a, 0xf5, 0x8d, 0x3e, 0xca, 0x63, 0xcb, 0xbd, 0x2c, 0x5e, 0xc2, 0x3e,
  0xfe, 0x37, 0x1b, 0x3e, 0xd9, 0xe4, 0x7a, 0x3e, 0xea, 0xa3, 0xd0, 0x3d,
  0x3d, 0x89, 0xdb, 0x3e, 0xb8, 0xd6, 0xd0, 0x3c, 0xaf, 0xce, 0x39, 0x3e,
  0xb1, 0xcb, 0xcb, 0xbc, 0x48, 0x1c, 0x5c, 0x3e, 0xd5, 0x0a, 0x4e, 0xbd,
  0x7f, 0xdd, 0x94, 0x3e, 0xe4, 0xa1, 0x99, 0x3d, 0x4b, 0xa3, 0x51, 0x3e,
  0x78, 0x96, 0xa5, 0xbd, 0x5e, 0x68, 0x23, 0x3e, 0x96, 0x90, 0x27, 0xbd,
  0x61, 0x3c, 0x89, 0x3e, 0x0d, 0xed, 0x84, 0xbc, 0x80, 0xa2, 0x27, 0x3e,
  0x06, 0x62, 0x1e, 0xbe, 0x02, 0x65, 0x93, 0x3d, 0x13, 0x2b, 0x1f, 0x3d,
  0x3a, 0x55, 0x24, 0x3d, 0xc7, 0xdf, 0x3a, 0x3e, 0x53, 0x51, 0x14, 0x3e,
  0x94, 0x65, 0xd6, 0x3d, 0x79, 0x4e, 0x53, 0x3e, 0x8a, 0xc6, 0x1c, 0xbe,
  0x86, 0x9d, 0x84, 0xbd, 0x70, 0x81, 0x2e, 0xbd, 0x53, 0x60, 0x5a, 0xbc,
  0xeb, 0x8b, 0xbe, 0xba, 0x2f, 0x15, 0xcf, 0xbd, 0x14, 0x44, 0x5f, 0xbc,
  0x66, 0x60, 0x0a, 0xba, 0x07, 0xce, 0x4a, 0xbd, 0x27, 0x75, 0xb4, 0x3d,
  0xec, 0x52, 0xbe, 0x3d, 0x53, 0xcc, 0x2c, 0xbd, 0x51, 0xdd, 0x8f, 0xbd,
  0x54, 0xb3, 0x77, 0xbd, 0x69, 0xa5, 0xd1, 0x3d, 0x32, 0x5e, 0xcd, 0xbd,
  0xca, 0x0d, 0x16, 0x3e, 0xbf, 0xb2, 0x4f, 0xbd, 0x75, 0x6d, 0x24, 0x3e,
  0xcd, 0x16, 0x45, 0xbc, 0xe6, 0x69, 0x8e, 0x3d, 0x6e, 0xa3, 0x5f, 0xbe,
  0xb5, 0xd2, 0x60, 0x3c, 0x93, 0xad, 0xa0, 0xbd, 0x63, 0x7b, 0x33, 0xbe,
  0x9a, 0xa3, 0x56, 0xbe, 0x79, 0x39, 0x6f, 0x3d, 0x6d, 0xaa, 0x2d, 0xbe,
  0x81, 0x03, 0xf0, 0x3c, 0x53, 0x80, 0x8a, 0xbd, 0xdf, 0x33, 0xe4, 0xbb,
  0x9d, 0xcc, 0x48, 0xbd, 0x04, 0x6c, 0x89, 0x3d, 0x65, 0x16, 0x0f, 0xbe,
  0xfb, 0xb5, 0x1a, 0x3e, 0x21, 0xe6, 0xe6, 0x3b, 0x9e, 0x20, 0x15, 0xbd,
  0x3d, 0x1c, 0x54, 0xbd, 0x9b, 0x6d, 0x8a, 0x3c, 0xd2, 0x72, 0x5a, 0xbd,
  0xc7, 0x0a, 0xae, 0x3c, 0xe3, 0xd3, 0xa9, 0xbe, 0x4c, 0x5d, 0x9d, 0x3d,
  0x1b, 0x25, 0x12, 0xbe, 0xb6, 0xd5, 0xd2, 0xbd, 0x15, 0x6d, 0x17, 0xbe,
  0xf4, 0x66, 0x78, 0x3d, 0xb2, 0x1a, 0xb8, 0xbe, 0xba, 0xfa, 0xd6, 0x3d,
  0x03, 0x5b, 0xbf, 0xbe, 0xfe, 0x6a, 0x70, 0xbd, 0x46, 0x7f, 0xa9, 0xbe,
  0x74, 0xe9, 0x70, 0x3d, 0x58, 0xe8, 0xb6, 0xbe, 0x0f, 0xf9, 0xdd, 0x3d,
  0xb8, 0xde, 0x27, 0xbf, 0x30, 0x2a, 0xb0, 0x3d, 0x65, 0xc5, 0x4b, 0xbf,
  0xd0, 0x7b, 0x7c, 0x3e, 0x6f, 0xd2, 0x7c, 0xbf, 0x04, 0x57, 0xfd, 0x3d,
  0x15, 0x94, 0x98, 0x3e, 0xb4, 0x9e, 0x76, 0x3e, 0x1d, 0xe9, 0x10, 0x3f,
  0xc8, 0x62, 0x88, 0x3e, 0x95, 0x4d, 0x18, 0x3f, 0xe7, 0xf3, 0x46, 0xbc,
  0x02, 0xf0, 0xa9, 0x3e, 0x97, 0x19, 0xb7, 0x3d, 0x16, 0x5a, 0x09, 0x3f,
  0x50, 0xce, 0xab, 0x3e, 0xe8, 0x00, 0x11, 0x3f, 0x3b, 0xfc, 0xee, 0x3d,
  0x79, 0xa7, 0x14, 0x3f, 0x49, 0xd0, 0x19, 0x3e, 0xb1, 0xe0, 0x03, 0x3f,
  0x93, 0xc4, 0xa9, 0x3e, 0x87, 0xb6, 0x23, 0x3f, 0x1c, 0x45, 0x1b, 0x3e,
  0xbd, 0x30, 0x37, 0x3f, 0x3d, 0x22, 0x35, 0x3e, 0xa2, 0xdd, 0x14, 0x3f,
  0xb4, 0x98, 0x8a, 0x3d, 0x35, 0xde, 0x10, 0x3f, 0x97, 0x11, 0x84, 0x3d,
  0x81, 0x16, 0xe4, 0x3e, 0x9a, 0x97, 0x03, 0x3e, 0xb3, 0xe3, 0x8a, 0x3e,
  0x2d, 0x31, 0x24, 0xbe, 0x83, 0x1b, 0xa8, 0x3e, 0xeb, 0xb4, 0x63, 0xbc,
  0x80, 0x82, 0x93, 0x3e, 0x9f, 0xe0, 0x2f, 0xbe, 0x49, 0x1f, 0xc0, 0x3d,
  0x90, 0xf7, 0x88, 0xbe, 0x2a, 0x32, 0x06, 0xbe, 0xc2, 0xb1, 0x27, 0xbe,
  0x81, 0xca, 0xfb, 0xbd, 0xfc, 0x9b, 0x08, 0xbe, 0xfa, 0x24, 0x53, 0xbe,
  0x77, 0xe5, 0x60, 0xbd, 0xd8, 0xe4, 0xc1, 0xbd, 0xf9, 0x76, 0x03, 0xbe,
  0x65, 0xc6, 0xca, 0xbe, 0x11, 0x5b, 0x26, 0x3d, 0x20, 0x62, 0x65, 0xbe,
  0x33, 0xbe, 0x6a, 0xbd, 0x7d, 0x2e, 0xb8, 0xbe, 0x36, 0x24, 0xbe, 0x3d,
  0x8f, 0x6e, 0x9e, 0xbe, 0x12, 0x86, 0xa3, 0x3d, 0x71, 0x8e, 0x7e, 0xbe,
  0xae, 0x1c, 0xf1, 0xbd, 0x08, 0x4b, 0xa3, 0xbe, 0x37, 0xa6, 0x8e, 0xbd,
  0x24, 0x9c, 0xbe, 0xbe, 0xff, 0x7d, 0x84, 0xbd, 0x9e, 0xa4, 0x76, 0xbe,
  0xbb, 0xbf, 0xd9, 0xbd, 0x72, 0x15, 0x9e, 0xbe, 0x34, 0x37, 0xa6, 0xbb,
  0x25, 0x2e, 0xb2, 0xbe, 0x77, 0x3e, 0x8f, 0x3d, 0x54, 0x70, 0x56, 0xbe,
  0x3b, 0x2b, 0xe2, 0xbd, 0x23, 0x38, 0x6f, 0xbe, 0xd3, 0x6d, 0x78, 0xbd,
  0xbd, 0x17, 0xb8, 0xbe, 0xb0, 0x94, 0x45, 0x3e, 0xb4, 0x4d, 0x7d, 0xbe,
  0x5f, 0xcc, 0x97, 0x3d, 0xfd, 0x80, 0xb2, 0xbe, 0x97, 0xfa, 0x8e, 0xbd,
  0xe6, 0x73, 0x94, 0xbe, 0x78, 0x1d, 0x78, 0xbb, 0x2a, 0x99, 0x7a, 0xbe,
  0xf5, 0x9c, 0xb2, 0x3d, 0x0e, 0x48, 0x9d, 0xbe, 0x25, 0xf9, 0x6c, 0xbd,
  0x24, 0x50, 0x63, 0xbe, 0x0d, 0xd1, 0xe7, 0xbd, 0xcd, 0x79, 0x8d, 0xbe,
  0x18, 0x57, 0xdf, 0x3d, 0xad, 0x28, 0xb8, 0xbe, 0xe1, 0xca, 0xc5, 0x3d,
  0x21, 0xfa, 0x94, 0xbe, 0x49, 0x0f, 0x7d, 0x3c, 0x99, 0x27, 0x2f, 0xbe,
  0x26, 0x42, 0x28, 0x3e, 0x07, 0x8a, 0x8d, 0xbe, 0x70, 0x12, 0x7d, 0xbd,
  0x40, 0x3e, 0x6f, 0xbe, 0x4d, 0xb8, 0x05, 0x3e, 0x48, 0x74, 0xbb, 0xbd,
  0x88, 0x8a, 0x37, 0x3e, 0x14, 0x76, 0x21, 0xbc, 0x58, 0xe7, 0xc1, 0x3d,
  0xc3, 0x94, 0x21, 0xbd, 0x1d, 0x0e, 0x7d, 0x3d, 0x35, 0xdb, 0xa8, 0x3c,
  0x33, 0x08, 0x9b, 0xbd, 0x77, 0xe9, 0xcd, 0xbd, 0x58, 0x67, 0x79, 0x3d,
  0xe5, 0x2b, 0xa6, 0xbd, 0x0b, 0x1f, 0xd7, 0xbd, 0xd8, 0x54, 0xe2, 0xbd,
  0xcb, 0x4d, 0xed, 0xbd, 0xcc, 0x9d, 0xd5, 0xbd, 0xd8, 0x0c, 0x00, 0x3e,
  0x34, 0x65, 0x10, 0x3e, 0xbe, 0xd5, 0xd6, 0x3d, 0x07, 0x6c, 0xce, 0x3d,
  0x71, 0x1b, 0xed, 0xbc, 0x05, 0x24, 0x7c, 0x3d, 0xbd, 0xf3, 0xa1, 0x3d,
  0x6d, 0x36, 0xa8, 0x3d, 0xed, 0x84, 0x17, 0x3e, 0x58, 0x58, 0xae, 0x3d,
  0xce, 0x2a, 0xc4, 0xbc, 0xd5, 0x58, 0x35, 0x3d, 0x0d, 0x1a, 0xf1, 0x3d,
  0x0b, 0xe2, 0x6d, 0x3e, 0x6d, 0x9f, 0x81, 0x3d, 0x5c, 0xeb, 0x79, 0x3d,
  0x39, 0x0a, 0xf3, 0xba, 0x0b, 0x4d, 0x2b, 0x3e, 0x92, 0xd4, 0x8f, 0x3d,
  0xdd, 0x6d, 0x0a, 0xbd, 0xcf, 0x62, 0xe7, 0xbd, 0xf7, 0xf2, 0x80, 0x3d,
  0xa5, 0xe4, 0x57, 0x3e, 0xaa, 0x70, 0x2a, 0x3e, 0x9c, 0x3f, 0x13, 0x3d,
  0x3e, 0x6c, 0xc4, 0xbc, 0x5a, 0xc4, 0xe9, 0x3d, 0x45, 0x6f, 0x2e, 0x3e,
  0xbf, 0xd1, 0x70, 0x3e, 0x01, 0xa3, 0x00, 0xbc, 0xee, 0xf1, 0xec, 0xbc,
  0xd7, 0xe6, 0x52, 0x3e, 0x07, 0xa4, 0x2d, 0x3d, 0x81, 0x0a, 0x92, 0x3e,
  0x7f, 0x91, 0xf4, 0xbc, 0x9a, 0x24, 0x7b, 0x3e, 0x98, 0x73, 0x40, 0x3e,
  0xac, 0x45, 0x64, 0x3e, 0x27, 0x06, 0x62, 0x3b, 0x68, 0x77, 0x93, 0x3e,
  0xb5, 0x89, 0x10, 0xbd, 0xc5, 0xbc, 0xc6, 0x3e, 0x29, 0x09, 0x03, 0x3e,
  0x32, 0xe3, 0x19, 0x3f, 0x15, 0x6b, 0xeb, 0x3d, 0x62, 0x28, 0x11, 0x3f,
  0x5f, 0xf5, 0xbb, 0x3c, 0x47, 0x39, 0x57, 0x3f, 0x4c, 0x4a, 0xe4, 0xbd,
  0x5e, 0x62, 0x53, 0x3f, 0x3d, 0xcf, 0xaf, 0xbd, 0x4d, 0xc3, 0x8e, 0x3f,
  0xa6, 0x00, 0x6c, 0xbd, 0x31, 0x92, 0x59, 0x3d, 0x25, 0xdc, 0x93, 0xbe,
  0x04, 0x6f, 0xee, 0x3d, 0xbf, 0xde, 0x24, 0xbe, 0x75, 0x8f, 0xeb, 0x3b,
  0x5f, 0xf5, 0xe9, 0xbd, 0xf1, 0xd1, 0x0d, 0x3e, 0xe8, 0x8c, 0x27, 0xbd,
  0x84, 0xd5, 0x11, 0xbe, 0xa5, 0x4e, 0x88, 0x3d, 0x64, 0x3e, 0x9b, 0xbd,
  0x4c, 0xd2, 0x35, 0xbe, 0x82, 0x41, 0xc7, 0xbc, 0x71, 0xd6, 0xc8, 0x3d,
  0x25, 0xa2, 0x29, 0xbc, 0xcb, 0x30, 0x97, 0xbd, 0xda, 0xc5, 0x02, 0x3e,
  0xe8, 0x4e, 0x47, 0xbe, 0x61, 0xed, 0x5b, 0x3d, 0x43, 0x13, 0xad, 0x3c,
  0x43, 0x68, 0x36, 0x3c, 0x8a, 0x4a, 0xdb, 0xbc, 0x0e, 0x64, 0x85, 0x3d,
  0xe6, 0x80, 0xdc, 0x3d, 0xdc, 0x25, 0x8d, 0xbd, 0xc2, 0xd6, 0x69, 0xbd,
  0x94, 0x86, 0x9d, 0x3b, 0x82, 0x63, 0xad, 0xba, 0xa0, 0x04, 0xab, 0xbd,
  0xa7, 0x63, 0x00, 0x3e, 0xfe, 0x9b, 0x2c, 0x3d, 0x96, 0xd4, 0xb4, 0x3e,
  0xc7, 0x26, 0x53, 0xbe, 0xbd, 0x0d, 0xed, 0x3e, 0x8a, 0x9a, 0x90, 0xbd,
  0x2e, 0xcc, 0xb2, 0x3e, 0xea, 0x82, 0xc7, 0xbc, 0xef, 0xa0, 0x41, 0x3e,
  0xb1, 0xcf, 0xbd, 0x3c, 0xe4, 0x78, 0x42, 0x3e, 0x06, 0xc3, 0x43, 0xbe,
  0x67, 0x5d, 0xde, 0x3e, 0x8e, 0xbd, 0x9c, 0xbc, 0x52, 0xdd, 0xf0, 0x3e,
  0x83, 0xa0, 0x90, 0xbe, 0x48, 0xe6, 0xbb, 0x3e, 0x73, 0xff, 0x6d, 0xbe,
  0xa6, 0xfb, 0x9d, 0x3e, 0xaf, 0x04, 0x31, 0xbd, 0xf3, 0xd8, 0x8c, 0x3d,
  0x87, 0x35, 0x5e, 0xbe, 0x97, 0x53, 0x86, 0x3d, 0xbe, 0x1b, 0x01, 0x3c,
  0xa0, 0xf4, 0xfa, 0x3d, 0x10, 0x0a, 0x2a, 0xbc, 0x9b, 0xbb, 0x6b, 0xbc,
  0xbe, 0x3b, 0x91, 0xbd, 0x1d, 0x20, 0x50, 0xbe, 0x06, 0xc1, 0x58, 0xbe,
  0x95, 0x54, 0x81, 0xbd, 0x19, 0x29, 0xf4, 0xbd, 0x84, 0x29, 0x53, 0xbb,
  0xeb, 0x29, 0x43, 0x3d, 0xff, 0x56, 0xcb, 0xbd, 0xd3, 0xff, 0x9c, 0xbd,
  0x82, 0x9b, 0x40, 0xbd, 0xc3, 0x17, 0x26, 0xbe, 0x24, 0x50, 0xec, 0xbd,
  0xe8, 0x24, 0x02, 0xbe, 0x9b, 0xa5, 0x0f, 0xbc, 0x1d, 0x80, 0xa0, 0xbd,
  0xd2, 0xb2, 0xd4, 0xbd, 0xfe, 0xbc, 0xb2, 0x3d, 0xee, 0xe9, 0xbe, 0xbe,
  0xbd, 0x2f, 0xd6, 0x3d, 0x9c, 0xd2, 0x12, 0xbe, 0x53, 0xe2, 0x10, 0x3e,
  0xeb, 0x73, 0x89, 0xbe, 0xb2, 0xf4, 0x64, 0x3d, 0x6f, 0x88, 0xb0, 0xbe,
  0x8d, 0x78, 0xd9, 0x3c, 0x8a, 0xa8, 0x9e, 0xbe, 0xe9, 0x64, 0x23, 0xbd,
  0xe0, 0xef, 0x27, 0xbe, 0x88, 0x1f, 0x90, 0xbc, 0xd5, 0xec, 0xea, 0xbe,
  0x3e, 0xa1, 0x0e, 0x3e, 0xc8, 0x14, 0xbf, 0xbe, 0xbf, 0x43, 0xe3, 0x3c,
  0x2f, 0xb0, 0x03, 0xbf, 0x39, 0x20, 0xed, 0x3d, 0xc4, 0xe9, 0xee, 0xbe,
  0xa5, 0xf5, 0xff, 0x3d, 0x3f, 0x31, 0xb2, 0xbe, 0x8f, 0xac, 0xd8, 0x3d,
  0x4b, 0xcd, 0xa6, 0xbe, 0xed, 0x70, 0x44, 0x3e, 0xa1, 0xb0, 0x93, 0xbe,
  0x13, 0x2d, 0x7e, 0x3e, 0x64, 0xc5, 0x6a, 0xbe, 0xb3, 0xc3, 0x8a, 0x3e,
  0x18, 0xb4, 0x84, 0xbe, 0x60, 0x2c, 0x83, 0x3d, 0xac, 0x73, 0x65, 0xbe,
  0x2b, 0x42, 0x2b, 0x3e, 0xa6, 0x66, 0x54, 0xbd, 0x3a, 0x03, 0x90, 0x3d,
  0xbd, 0x84, 0x24, 0xbe, 0xed, 0x84, 0xc3, 0x3e, 0x7c, 0xf7, 0x4a, 0x3e,
  0x66, 0x69, 0xcd, 0x3d, 0x34, 0x93, 0x4f, 0x3e, 0x2b, 0x53, 0x24, 0x3e,
  0x92, 0xba, 0x58, 0x3e, 0x8e, 0x09, 0x91, 0x3e, 0xe7, 0xf0, 0x60, 0x3e,
  0x84, 0xe8, 0x43, 0x3e, 0x0b, 0xdc, 0xf4, 0x3e, 0x78, 0xbb, 0xed, 0x3d,
  0x67, 0xe3, 0x15, 0x3f, 0xb3, 0x34, 0xa8, 0xbc, 0xd9, 0x1c, 0xdf, 0x3e,
  0x14, 0x6a, 0x72, 0x3e, 0x46, 0x09, 0xdd, 0x3e, 0xbb, 0xb5, 0x26, 0xbd,
  0x5e, 0xd8, 0x1a, 0x3f, 0x35, 0x00, 0x08, 0x3d, 0x72, 0x6f, 0xff, 0x3e,
  0xc5, 0x54, 0x49, 0x3d, 0x80, 0x07, 0x0c, 0x3f, 0x76, 0xda, 0xef, 0xbd,
  0x57, 0xba, 0xe7, 0x3e, 0x74, 0x60, 0x4c, 0xbe, 0xdf, 0x75, 0xae, 0x3e,
  0xd6, 0x90, 0x45, 0xbd, 0x65, 0xa3, 0x71, 0x3e, 0x1e, 0x3e, 0x40, 0xbe,
  0x5a, 0xbc, 0xab, 0x3e, 0xd9, 0x60, 0xc6, 0xbd, 0x0f, 0x8b, 0x11, 0x3e,
  0xd2, 0x35, 0x8c, 0x3d, 0x46, 0xd7, 0xd3, 0x3d, 0x62, 0x57, 0x87, 0xbe,
  0x5d, 0x7b, 0x0a, 0x3e, 0x26, 0xc1, 0x10, 0xbe, 0xb3, 0x62, 0xcc, 0x3a,
  0x42, 0xfa, 0xd8, 0x3c, 0x78, 0x70, 0xf1, 0xbd, 0x0b, 0x91, 0xde, 0x3d,
  0xb3, 0xca, 0x3d, 0xbe, 0x38, 0x89, 0x2b, 0xbe, 0x1e, 0xd9, 0x82, 0xbd,
  0x59, 0x44, 0x04, 0xbe, 0xb7, 0xf3, 0x26, 0xbc, 0xab, 0x42, 0x0f, 0x3c,
  0x80, 0x82, 0x87, 0xbe, 0x42, 0x62, 0x21, 0x3e, 0x47, 0xe6, 0x69, 0xbe,
  0xe0, 0xfb, 0x27, 0x3e, 0xea, 0xf0, 0x03, 0xbe, 0xa7, 0xbc, 0x06, 0x3f,
  0xd4, 0xf0, 0xa9, 0x3e, 0xd4, 0xfa, 0x82, 0x3e, 0xd7, 0x4a, 0xcd, 0xbe,
  0xa0, 0xd5, 0xd6, 0x3e, 0xa0, 0xf5, 0x57, 0x3d, 0xe1, 0x07, 0x9c, 0xbb,
  0x93, 0x2a, 0x5d, 0xbe, 0x7a, 0xbd, 0x0d, 0x3e, 0x0b, 0x3f, 0xca, 0xbd,
  0xd5, 0xaf, 0xbc, 0x3d, 0xfb, 0xd5, 0x55, 0xbe, 0x7c, 0x9c, 0x6b, 0xbe,
  0xcd, 0x84, 0xb9, 0xbe, 0x01, 0x7c, 0x04, 0xbf, 0x79, 0xf1, 0x93, 0xbe,
  0x01, 0x67, 0xe9, 0xbe, 0x9d, 0x0a, 0xa8, 0xbb, 0x1f, 0xcb, 0x49, 0xbf,
  0xfc, 0xa9, 0x89, 0xbe, 0xac, 0x44, 0x71, 0xbf, 0xa9, 0x02, 0x23, 0x3d,
  0x02, 0x75, 0x5b, 0xbf, 0x67, 0xae, 0x2d, 0xbe, 0x37, 0x48, 0x41, 0xbf,
  0x44, 0xa5, 0x4a, 0xbd, 0x71, 0x39, 0x37, 0xbf, 0xcd, 0x6d, 0x76, 0xbd,
  0x08, 0xce, 0x0c, 0xbf, 0xcb, 0xfa, 0x0f, 0xbe, 0x3c, 0xbf, 0xde, 0xbe,
  0xe1, 0x06, 0x6c, 0xbc, 0x25, 0x77, 0x9b, 0xbe, 0x6b, 0x92, 0x81, 0xbe,
  0x24, 0xa2, 0x2c, 0xbe, 0x77, 0x10, 0x82, 0xbd, 0x61, 0x92, 0x49, 0xbe,
  0x70, 0x4b, 0xae, 0xbd, 0xbe, 0x14, 0x9f, 0xbe, 0xc4, 0x55, 0x1a, 0xbe,
  0xbc, 0xd8, 0xee, 0xbd, 0xf2, 0x92, 0xd5, 0xbe, 0x77, 0x7b, 0x17, 0x3d,
  0xa4, 0x9f, 0x06, 0xbe, 0xab, 0x95, 0x4d, 0xbe, 0xa4, 0x4b, 0x65, 0xbc,
  0x6d, 0x64, 0x83, 0xbd, 0x99, 0xec, 0x6b, 0xbd, 0xfc, 0xa9, 0x4b, 0xbd,
  0x67, 0x16, 0x88, 0x3c, 0x5f, 0xee, 0xdd, 0x3d, 0x6e, 0x36, 0x30, 0xbe,
  0x95, 0x8d, 0x83, 0xbd, 0xf4, 0x8d, 0xa2, 0xbe, 0xc8, 0xa4, 0x02, 0xbe,
  0xe8, 0xa9, 0x69, 0xbe, 0xaf, 0xcc, 0x9a, 0x3d, 0x7f, 0xd7, 0x5c, 0xbe,
  0x95, 0xb0, 0x1d, 0xbe, 0x87, 0x02, 0x9d, 0xbe, 0x1a, 0xbe, 0x45, 0xbe,
  0xc7, 0x7e, 0xcc, 0x3d, 0xf3, 0xbb, 0x1b, 0xbe, 0x71, 0x67, 0x7c, 0xbe,
  0x50, 0xbd, 0x1b, 0xbd, 0x18, 0x08, 0x2a, 0xbe, 0x01, 0xd1, 0x98, 0x3d,
  0xde, 0x17, 0x23, 0xbc, 0x82, 0x2a, 0xfe, 0xbd, 0x33, 0x9b, 0x0a, 0x3d,
  0x90, 0x11, 0x0e, 0xbe, 0x4b, 0xf7, 0xf1, 0xbd, 0x71, 0xfe, 0x01, 0x3e,
  0x80, 0x38, 0x3a, 0xbe, 0x5c, 0x9b, 0x9b, 0xbd, 0xb3, 0x07, 0x0b, 0xbe,
  0x92, 0xdd, 0x8e, 0xbc, 0xf6, 0x4d, 0xea, 0xbc, 0x27, 0x65, 0xe3, 0xbd,
  0xa0, 0x0b, 0x31, 0xbd, 0x53, 0xa7, 0x28, 0x3e, 0x55, 0x32, 0x61, 0xbe,
  0x80, 0x6d, 0xd5, 0xbd, 0xc3, 0x20, 0xf9, 0x3d, 0xa0, 0x64, 0xd3, 0x3d,
  0x0e, 0x64, 0xaa, 0x3d, 0xae, 0x4c, 0x0c, 0xbe, 0xee, 0x6e, 0x9c, 0xbd,
  0x9a, 0x20, 0xe2, 0xbd, 0xee, 0xcc, 0x85, 0xbd, 0x75, 0x1d, 0x35, 0xbe,
  0x94, 0x43, 0xd9, 0xbc, 0x2e, 0x3a, 0x64, 0xbd, 0xde, 0xd5, 0xe4, 0xbd,
  0x8d, 0xb5, 0x3c, 0x3d, 0xc8, 0x8f, 0xac, 0xbd, 0x4b, 0x08, 0x5c, 0xbc,
  0xae, 0xa7, 0x3f, 0xbe, 0x50, 0x8c, 0xd0, 0xbc, 0xa9, 0xb6, 0x8d, 0xbd,
  0x5a, 0xf2, 0xe8, 0xbd, 0x61, 0x6c, 0xc9, 0x3d, 0x49, 0xd9, 0x23, 0xbd,
  0xa7, 0xf3, 0xa7, 0x3d, 0x21, 0x5c, 0x79, 0xbd, 0x6f, 0xef, 0xe1, 0xbc,
  0xda, 0x8e, 0x58, 0x3c, 0x24, 0xe8, 0x30, 0xbe, 0x3f, 0xa6, 0x42, 0x3d,
  0x3d, 0xda, 0xc5, 0x3c, 0xd7, 0x2f, 0xfa, 0xbd, 0xf6, 0x10, 0x33, 0xbe,
  0xa3, 0xa3, 0x20, 0xbd, 0x19, 0x80, 0x09, 0xbe, 0x29, 0xa2, 0x11, 0xbe,
  0xaf, 0x67, 0x04, 0x3d, 0x1c, 0xa2, 0x02, 0x3e, 0x34, 0xe9, 0x13, 0xbe,
  0x5f, 0x9e, 0xee, 0xbc, 0xa2, 0xa8, 0x49, 0xbc, 0x39, 0x96, 0x02, 0xbe,
  0xbc, 0xe6, 0x27, 0xbd, 0x7e, 0xe8, 0xa7, 0x3d, 0xe6, 0xff, 0xac, 0xbc,
  0x8a, 0x6d, 0xa4, 0x3d, 0xc3, 0x76, 0xb1, 0xbe, 0x22, 0x37, 0x21, 0x3c,
  0x7b, 0xfa, 0x74, 0x3c, 0xda, 0x2f, 0xab, 0x3b, 0xe3, 0x83, 0x6d, 0xbe,
  0x1e, 0xb3, 0xf3, 0xbc, 0x72, 0xe1, 0x45, 0xbe, 0x32, 0x0e, 0x26, 0x3d,
  0xbe, 0x11, 0x4b, 0xbe, 0xe3, 0x18, 0x51, 0xbe, 0x1f, 0xc6, 0x93, 0xbe,
  0xe5, 0xdd, 0x42, 0x3d, 0xf4, 0x1f, 0x3f, 0x3d, 0x60, 0xf5, 0x76, 0xbe,
  0xee, 0x1d, 0x1c, 0xbe, 0xf1, 0x3f, 0x88, 0xbe, 0xb5, 0x8e, 0x59, 0xbd,
  0xad, 0xb5, 0xa1, 0xbd, 0xe3, 0x68, 0x09, 0xbe, 0xb6, 0xe9, 0x35, 0xbe,
  0x4c, 0x29, 0x6f, 0xbc, 0xf8, 0x53, 0x99, 0x3c, 0xd9, 0x6c, 0x31, 0xbe,
  0x4e, 0x6f, 0x25, 0xbe, 0xef, 0xed, 0x82, 0xbe, 0x75, 0x24, 0xb2, 0xbe,
  0xad, 0x1c, 0x49, 0xbe, 0x1f, 0x1e, 0x86, 0x3c, 0x12, 0xe9, 0x14, 0xbe,
  0xdc, 0x43, 0x23, 0x3d, 0x39, 0xee, 0x47, 0xbe, 0xab, 0xfa, 0xe1, 0x3c,
  0x0b, 0x6c, 0x88, 0x3d, 0x47, 0x5c, 0xd5, 0x3b, 0xfe, 0x02, 0xf0, 0x3a,
  0x74, 0x0c, 0x14, 0x3f, 0x53, 0x93, 0x3c, 0x3e, 0x5b, 0xe7, 0x85, 0x3e,
  0x3e, 0x18, 0x48, 0xbe, 0x1d, 0xe5, 0x16, 0x3e, 0x5d, 0xd4, 0x1f, 0x3d,
  0xd6, 0xef, 0xaa, 0x3d, 0xb8, 0x81, 0x5e, 0xbe, 0x7b, 0x81, 0xf9, 0xbd,
  0x9d, 0x7a, 0x96, 0xbe, 0xeb, 0x80, 0x73, 0xbe, 0x23, 0x9e, 0xc7, 0xbe,
  0x31, 0x02, 0x9b, 0xbe, 0x4e, 0x9d, 0xea, 0x3c, 0x19, 0x6c, 0xad, 0xbe,
  0xd4, 0x75, 0x21, 0xbe, 0xb8, 0x1e, 0x13, 0xbf, 0x87, 0xa0, 0x80, 0xbe,
  0xa5, 0xc2, 0x27, 0xbf, 0x69, 0x1e, 0xd1, 0xbd, 0xae, 0xdf, 0x09, 0xbf,
  0xcc, 0xbf, 0x20, 0xbd, 0xe4, 0x67, 0x20, 0xbf, 0x74, 0x27, 0x51, 0xbe,
  0xdf, 0x9c, 0xef, 0xbe, 0xd6, 0x64, 0x27, 0x3d, 0xd2, 0x0b, 0x0c, 0xbf,
  0xb6, 0x94, 0x23, 0xbc, 0x66, 0x2d, 0xba, 0xbe, 0x2f, 0xa3, 0xff, 0x3d,
  0x79, 0xa2, 0x9e, 0xbe, 0x92, 0x0a, 0xae, 0xbd, 0x89, 0x23, 0x85, 0xbe,
  0x0c, 0xc0, 0xce, 0xbc, 0xf0, 0x40, 0x3c, 0xbe, 0x88, 0xbd, 0xed, 0xbd,
  0xc5, 0xa5, 0x68, 0xbc, 0x25, 0x01, 0x0c, 0xbe, 0xd6, 0xac, 0x04, 0xbe,
  0x17, 0x48, 0x15, 0x3c, 0xcc, 0x96, 0xaa, 0xbd, 0x9b, 0x86, 0x2f, 0xbe,
  0xb6, 0x2b, 0x9e, 0xba, 0xe8, 0x7e, 0x06, 0x3d, 0x29, 0xab, 0x00, 0x3e,
  0x67, 0xfd, 0xa4, 0xbc, 0x6d, 0xc4, 0xe5, 0xbd, 0xaf, 0x04, 0x0c, 0xbe,
  0x4e, 0x76, 0x82, 0xbd, 0x82, 0xb3, 0xd6, 0x3a, 0x2f, 0xeb, 0xb8, 0x3d,
  0x69, 0xef, 0x04, 0x3e, 0x96, 0x99, 0x9f, 0x3d, 0x32, 0x45, 0x17, 0xbd,
  0xec, 0xf5, 0x30, 0xbd, 0xd7, 0x3d, 0xaa, 0x3c, 0x54, 0x2d, 0x30, 0x3d,
  0x78, 0x77, 0x32, 0x3d, 0xaf, 0xb0, 0xce, 0x3d, 0x87, 0x96, 0xe7, 0xbd,
  0x2f, 0x86, 0x48, 0x3d, 0xee, 0xc1, 0x47, 0xbd, 0x77, 0xa7, 0x30, 0xbd,
  0xf6, 0xab, 0x05, 0xbb, 0xc7, 0x1f, 0xa8, 0x3d, 0x8b, 0x4d, 0x66, 0xbd,
  0x43, 0x38, 0xda, 0x3d, 0xf1, 0xca, 0x72, 0xbd, 0x18, 0xe3, 0x3e, 0xbb,
  0xf9, 0xe6, 0xb3, 0xbd, 0x4e, 0xaf, 0x82, 0x3d, 0xe1, 0xe7, 0xf7, 0x3c,
  0xae, 0x9e, 0x0b, 0xbe, 0x7a, 0x8d, 0x20, 0xbe, 0x14, 0x03, 0x01, 0xbe,
  0x39, 0x8f, 0xae, 0xbb, 0xe5, 0xc5, 0xb7, 0x3b, 0x5a, 0x93, 0xa8, 0x3d,
  0xa0, 0xac, 0x2c, 0xbe, 0x4d, 0xdc, 0xbe, 0xbd, 0xf4, 0xbd, 0x85, 0xbd,
  0x13, 0xd2, 0x8d, 0xbc, 0x7a, 0xf6, 0x7e, 0xbd, 0x75, 0xe3, 0x80, 0x3b,
  0xc2, 0xbc, 0x64, 0x3d, 0x5d, 0xb7, 0xa8, 0x3d, 0x4a, 0xb4, 0xa0, 0x3d,
  0xb3, 0xf4, 0x8e, 0x3d, 0x15, 0x44, 0x8d, 0x3b, 0x40, 0x14, 0xa5, 0xbc,
  0x0d, 0x4b, 0xd4, 0x3d, 0x74, 0xb1, 0x12, 0xbd, 0x8f, 0x3b, 0x77, 0x3a,
  0xa8, 0xd8, 0x15, 0xbe, 0x21, 0xf9, 0xfb, 0x3c, 0xd7, 0x7e, 0x36, 0xbe,
  0x24, 0x0d, 0x47, 0xbc, 0x54, 0xea, 0x24, 0xbd, 0xb5, 0xc7, 0xb3, 0x3d,
  0x86, 0x44, 0x5b, 0xbd, 0xca, 0x4d, 0x4d, 0xbe, 0x84, 0x65, 0x8d, 0x3d,
  0xdc, 0x0b, 0xee, 0xbd, 0x27, 0xb5, 0x6a, 0x3d, 0x74, 0x48, 0x88, 0x3d,
  0x30, 0xb7, 0x91, 0xbc, 0xec, 0xf8, 0xb1, 0xbd, 0x65, 0xb5, 0x62, 0xbe,
  0x29, 0xf9, 0xc8, 0x3c, 0xa8, 0xf8, 0x3d, 0xbd, 0xb0, 0x9a, 0x96, 0x3c,
  0x1b, 0xc6, 0x35, 0xbe, 0x3e, 0x8b, 0x6b, 0xbd, 0x07, 0x42, 0x74, 0x3c,
  0xf8, 0xc1, 0x90, 0xbd, 0x24, 0x4a, 0x67, 0xbd, 0x1e, 0x77, 0x7b, 0xbd,
  0xab, 0xd6, 0x9a, 0xbd, 0xe2, 0xbe, 0xc9, 0xbc, 0xb7, 0x95, 0x74, 0xbe,
  0xcc, 0x1d, 0x49, 0xbd, 0x0f, 0x2d, 0x36, 0xbe, 0xb7, 0x65, 0x6f, 0xbe,
  0xdc, 0xdb, 0xcf, 0xbc, 0x48, 0xf1, 0x55, 0x3c, 0xb9, 0xb0, 0x92, 0xbb,
  0x55, 0x4e, 0x75, 0xbe, 0x54, 0xd2, 0x22, 0xbe, 0xa2, 0xbd, 0x9a, 0xbd,
  0x53, 0x00, 0x38, 0xbe, 0xe8, 0x76, 0x00, 0xbe, 0x2b, 0xf1, 0x47, 0xbe,
  0x45, 0x6f, 0xf7, 0xbd, 0xad, 0xe2, 0x70, 0xbe, 0x7f, 0xf2, 0x99, 0xbd,
  0x77, 0x78, 0xd8, 0x3b, 0x28, 0x2c, 0x8f, 0xbe, 0xa5, 0xfe, 0x31, 0xbe,
  0x0a, 0x2a, 0x35, 0xbe, 0x34, 0x8d, 0xd6, 0x3d, 0x7d, 0xa5, 0xe1, 0xbd,
  0x7a, 0x24, 0x16, 0x3e, 0x8c, 0xdf, 0x20, 0xbd, 0xc0, 0xbf, 0xe9, 0xbd,
  0xb1, 0x3e, 0x2c, 0x3d, 0xb8, 0x04, 0x57, 0xbd, 0x3f, 0x3c, 0xe0, 0xbd,
  0xcf, 0xbd, 0x40, 0xbe, 0x62, 0x1f, 0x12, 0xbd, 0x5d, 0x0a, 0x09, 0xbe,
  0x98, 0x4a, 0xe6, 0x3d, 0x27, 0xc0, 0xaa, 0x3b, 0x9b, 0xcf, 0x30, 0x3e,
  0x09, 0x5d, 0xdd, 0xbd, 0x0a, 0x8b, 0x03, 0x3e, 0xe2, 0x21, 0xf7, 0x3d,
  0x61, 0x8c, 0x87, 0x3e, 0x18, 0xb4, 0x07, 0x3e, 0x05, 0xad, 0xcc, 0x3e,
  0x76, 0x19, 0x57, 0x3d, 0x8d, 0xbd, 0xc0, 0xbe, 0x4d, 0xf3, 0x89, 0x3e,
  0xbc, 0xee, 0xbb, 0xbe, 0xe0, 0x76, 0x78, 0x3e, 0xac, 0xdf, 0xf4, 0xbe,
  0x38, 0x95, 0xbe, 0x3d, 0x82, 0xeb, 0xc1, 0xbe, 0xac, 0x50, 0xd3, 0xbc,
  0x2a, 0x5f, 0x7c, 0xbe, 0x2c, 0x78, 0xf6, 0xbd, 0x91, 0xf8, 0x1f, 0xbe,
  0xbc, 0xa6, 0x0b, 0xbd, 0x22, 0x9a, 0xf2, 0xbb, 0x68, 0xc7, 0x1b, 0xbe,
  0x66, 0xef, 0xa8, 0x3d, 0xa9, 0x91, 0xe2, 0xbe, 0xb4, 0xde, 0x29, 0x3d,
  0x92, 0xb1, 0xa5, 0xbe, 0x7b, 0xb4, 0xbd, 0x3d, 0x48, 0xf6, 0x15, 0xbf,
  0x41, 0xaa, 0x0c, 0x3f, 0xe0, 0x32, 0x0d, 0xbf, 0x23, 0x6c, 0x81, 0x3e,
  0xf0, 0xab, 0x1f, 0xbf, 0xef, 0x14, 0xd9, 0x3e, 0xd4, 0x2c, 0xaa, 0xbe,
  0xf3, 0xf0, 0x93, 0x3e, 0x70, 0x42, 0x90, 0xbe, 0x57, 0x3f, 0xbe, 0x3e,
  0x10, 0x15, 0x98, 0xbe, 0x22, 0xeb, 0xd1, 0x3e, 0xa8, 0xf7, 0x89, 0xbd,
  0xe9, 0xfc, 0xa4, 0x3e, 0x16, 0x31, 0x99, 0x3d, 0x34, 0x02, 0x3a, 0x3d,
  0xf3, 0x6f, 0x7d, 0x3e, 0xfe, 0xd9, 0x0c, 0x3e, 0x75, 0xda, 0xc0, 0x3e,
  0xab, 0x19, 0x70, 0x3e, 0x71, 0x0a, 0x02, 0x3f, 0x70, 0x36, 0xb0, 0xbb,
  0x4d, 0x0c, 0x32, 0x3f, 0x25, 0xa6, 0x6f, 0x3e, 0xd3, 0xa5, 0x16, 0x3f,
  0x3c, 0x0e, 0x13, 0xbd, 0x20, 0xe5, 0x37, 0x3f, 0x6c, 0x18, 0xa4, 0x3d,
  0x0f, 0x0d, 0x3a, 0x3f, 0x8f, 0x3f, 0x92, 0x3d, 0x79, 0xe6, 0x25, 0x3f,
  0xb3, 0xf0, 0x03, 0x3e, 0x49, 0xcb, 0x59, 0x3f, 0x22, 0x1d, 0x59, 0xbd,
  0x0e, 0x57, 0xfd, 0x3e, 0x77, 0xc6, 0xef, 0x3d, 0x29, 0xda, 0x2c, 0x3f,
  0x7f, 0x8b, 0xed, 0xbd, 0xf1, 0xa3, 0x22, 0x3f, 0x0b, 0x64, 0xdf, 0xbd,
  0xa6, 0x6a, 0xd8, 0x3e, 0xed, 0x01, 0xf7, 0xbd, 0xc8, 0x1c, 0xa9, 0x3e,
  0x80, 0xe4, 0x23, 0xbd, 0x06, 0xdc, 0x8b, 0x3e, 0xdf, 0xe0, 0x3f, 0x3d,
  0xed, 0xce, 0xd6, 0x3e, 0x9d, 0x2e, 0x2b, 0x3d, 0x95, 0x45, 0x98, 0x3e,
  0xc5, 0xb1, 0xb6, 0xbd, 0x9f, 0x88, 0x19, 0x3e, 0x76, 0x69, 0x64, 0xbe,
  0xc1, 0xd6, 0x24, 0x3e, 0x5d, 0xee, 0x31, 0xbe, 0x4a, 0xc9, 0x8c, 0x3d,
  0x77, 0x89, 0x29, 0xbe, 0x92, 0xa1, 0x38, 0x3c, 0xb1, 0x6d, 0xfa, 0xbd,
  0x68, 0x52, 0xe4, 0xbd, 0xc0, 0x80, 0xd5, 0xbd, 0x9a, 0xc8, 0x26, 0x3d,
  0x88, 0xfc, 0x90, 0xbc, 0x18, 0x8c, 0x0a, 0xbe, 0xc4, 0x58, 0xd2, 0xbd,
  0xd1, 0xcb, 0xf4, 0x3d, 0x22, 0x62, 0xd5, 0xbd, 0xe4, 0xcc, 0xd6, 0x3c,
  0xd3, 0xe1, 0xfd, 0xbd, 0x76, 0x71, 0xfb, 0xbd, 0x5f, 0x21, 0xb7, 0x3c,
  0xfb, 0x18, 0x20, 0xbd, 0x5d, 0x99, 0xf3, 0x3c, 0x3f, 0x33, 0x61, 0x3c,
  0x70, 0xda, 0x0a, 0xbd, 0xce, 0x89, 0xa1, 0xbb, 0x08, 0x7f, 0xb4, 0x3d,
  0x51, 0xae, 0xc2, 0x3b, 0x11, 0x7c, 0x93, 0x3d, 0x29, 0x40, 0xaf, 0xbd,
  0x60, 0x8d, 0x87, 0x3d, 0xd0, 0x3c, 0x74, 0xbe, 0xca, 0x36, 0x96, 0x3d,
  0x6d, 0x1d, 0x70, 0xbe, 0x21, 0xb5, 0x8d, 0xbd, 0x2a, 0x20, 0xff, 0x3c,
  0x1d, 0xad, 0x49, 0xbd, 0x00, 0xe7, 0x49, 0xbe, 0xf2, 0x44, 0x89, 0xbd,
  0xd9, 0x6f, 0x1c, 0x3d, 0x4d, 0x04, 0xb2, 0x3d, 0x02, 0x55, 0x05, 0xbe,
  0x8e, 0x1c, 0x0b, 0x3e, 0x6a, 0xdc, 0xc4, 0xbd, 0xd0, 0x80, 0x84, 0x3d,
  0x57, 0x07, 0x4a, 0xbe, 0xb2, 0xeb, 0xf8, 0x3d, 0xb0, 0x56, 0x1a, 0xbd,
  0x1a, 0xb6, 0x1a, 0x3d, 0xf1, 0x55, 0xe6, 0xbd, 0x9d, 0xa2, 0x70, 0x3c,
  0x55, 0x65, 0x80, 0xbe, 0xf2, 0x49, 0x53, 0x3e, 0xfe, 0x16, 0x1f, 0xba,
  0xab, 0x2f, 0xad, 0x3b, 0x39, 0x16, 0x1d, 0x3d, 0x30, 0xd4, 0x1c, 0x3d,
  0xa7, 0x35, 0x4a, 0xbd, 0xee, 0xd7, 0x30, 0x3d, 0x74, 0xaa, 0xe7, 0x3c,
  0x66, 0xa6, 0xf2, 0x3d, 0xd4, 0x5e, 0x26, 0xbe, 0x7b, 0x29, 0x8e, 0xbb,
  0x6d, 0x1d, 0x4f, 0xbb, 0x00, 0x24, 0x12, 0x3e, 0xb8, 0x3d, 0xa1, 0xbd,
  0x43, 0xb2, 0x30, 0x3e, 0x12, 0x4e, 0xf4, 0x3d, 0x38, 0x1f, 0x7d, 0x3d,
  0xa0, 0x6d, 0x87, 0x3d, 0x73, 0x40, 0x39, 0x3e, 0x81, 0xcd, 0xe7, 0x3d,
  0xc1, 0x7d, 0x39, 0x3d, 0x09, 0x21, 0x84, 0x3e, 0x38, 0xe7, 0x1f, 0x3e,
  0x51, 0x63, 0xfa, 0x3c, 0x07, 0xca, 0x6f, 0x3e, 0xad, 0xac, 0x06, 0x3e,
  0xcc, 0x17, 0xef, 0x3d, 0xde, 0xc9, 0xa8, 0x3e, 0xf0, 0x08, 0xd7, 0x3c,
  0x5f, 0x11, 0x51, 0x3e, 0x23, 0xd7, 0x8c, 0xbc, 0x7f, 0x99, 0x80, 0x3e,
  0x1d, 0x36, 0x6a, 0xbd, 0xfa, 0x3e, 0x63, 0x3e, 0x10, 0x55, 0x98, 0xbc,
  0xe8, 0x6e, 0x0c, 0x3e, 0x17, 0xb9, 0x02, 0xbe, 0xf9, 0x13, 0x3a, 0x3e,
  0xee, 0x93, 0x4e, 0xbe, 0x8f, 0xb9, 0x9f, 0x3e, 0x09, 0x9f, 0x81, 0x3e,
  0xab, 0x28, 0x1d, 0xbd, 0x43, 0x7b, 0x7d, 0x3e, 0x25, 0x7b, 0xdf, 0x3d,
  0x94, 0x68, 0xf3, 0xbc, 0x2e, 0x6a, 0x13, 0xbe, 0xee, 0x8b, 0x96, 0x3d,
  0x72, 0x85, 0x07, 0xbe, 0xbb, 0x49, 0x08, 0xbe, 0x7a, 0x15, 0xbf, 0xbc,
  0xfb, 0x25, 0xe5, 0x3c, 0xfa, 0x56, 0x95, 0xbe, 0x2f, 0x67, 0x85, 0x3d,
  0xd8, 0x18, 0x86, 0x39, 0xea, 0xa1, 0x99, 0xbe, 0xba, 0xbb, 0xa6, 0x3d,
  0xd0, 0x5d, 0x96, 0xbe, 0x00, 0x94, 0x3e, 0x3e, 0xc4, 0xa8, 0x5d, 0xbe,
  0x9f, 0xed, 0x07, 0x3e, 0x57, 0x5a, 0x17, 0xbe, 0x67, 0x1a, 0xa1, 0x3d,
  0x91, 0xd8, 0x0d, 0xbe, 0xd0, 0xb5, 0x22, 0x3e, 0x71, 0x77, 0xb5, 0xbe,
  0xea, 0x5b, 0xe2, 0xbd, 0x53, 0xea, 0x9a, 0xbe, 0xa9, 0xc5, 0x26, 0x3d,
  0x99, 0x61, 0x1f, 0xbe, 0x19, 0x5d, 0x81, 0x3d, 0xb3, 0xbe, 0x1d, 0xbd,
  0xda, 0x7f, 0x25, 0xbe, 0x5d, 0x41, 0x82, 0xbd, 0xc1, 0x54, 0x8d, 0xbd,
  0xbb, 0xe7, 0x63, 0xbe, 0xa2, 0x7e, 0x7e, 0xbe, 0x01, 0xa6, 0x74, 0xbe,
  0xf9, 0x85, 0x3c, 0xbe, 0x68, 0x97, 0x51, 0xbd, 0xcc, 0x9a, 0x50, 0xbe,
  0x8f, 0x7a, 0x42, 0x3d, 0x38, 0xc3, 0xa1, 0xbe, 0x2f, 0x04, 0x12, 0xbe,
  0x21, 0x19, 0x63, 0xbe, 0x96, 0xd5, 0xe1, 0xbd, 0xad, 0xa3, 0x94, 0x3c,
  0x7c, 0x43, 0x13, 0x3e, 0x39, 0x61, 0x21, 0xbe, 0xc2, 0xe3, 0xb2, 0x3c,
  0x2f, 0xa9, 0xba, 0xbd, 0x6d, 0x7a, 0x80, 0x3d, 0xe8, 0xc4, 0x2f, 0x3e,
  0x84, 0x83, 0xa6, 0x3d, 0x16, 0x9b, 0xc3, 0xbd, 0x01, 0x03, 0xda, 0xbc,
  0x7a, 0xc7, 0x56, 0x3e, 0x76, 0x62, 0xb0, 0xbc, 0x29, 0x51, 0xb9, 0x3e,
  0xa7, 0x6d, 0x22, 0x3d, 0x9d, 0xeb, 0x79, 0x3e, 0x7e, 0x62, 0x49, 0x3e,
  0x20, 0x82, 0xee, 0x3e, 0x93, 0x31, 0x4b, 0x3e, 0x0d, 0x62, 0x0b, 0x3f,
  0xd1, 0x9d, 0x27, 0x3e, 0x9e, 0x89, 0x01, 0x3f, 0xf4, 0x8d, 0x28, 0xbd,
  0x0e, 0xf1, 0x1e, 0x3f, 0xf5, 0x75, 0x24, 0x3e, 0x1a, 0x82, 0xef, 0x3e,
  0xe0, 0x6d, 0x86, 0xbc, 0xfb, 0x03, 0x19, 0x3e, 0xd8, 0xb1, 0x4e, 0xbd,
  0xf9, 0xea, 0x2b, 0x3e, 0x39, 0xd0, 0xbe, 0xbd, 0x7a, 0x6e, 0x59, 0x3e,
  0xa2, 0xf5, 0xb8, 0xbd, 0x10, 0x36, 0x5c, 0x3e, 0x6e, 0x6e, 0xb4, 0x3c,
  0x3b, 0x33, 0x95, 0x3e, 0xfd, 0xc0, 0x1b, 0xbd, 0x36, 0xcf, 0x61, 0x3e,
  0x16, 0xce, 0xbd, 0x3d, 0x4e, 0x44, 0x43, 0x3e, 0xbb, 0x97, 0xd3, 0xbd,
  0x39, 0x1d, 0x6f, 0x3e, 0xa2, 0xc4, 0x60, 0xbe, 0xe7, 0x28, 0xca, 0x3d,
  0x44, 0xc8, 0x83, 0xbc, 0x83, 0xd3, 0xb5, 0x3e, 0xcb, 0xc7, 0x2c, 0xbe,
  0xd8, 0xe4, 0x05, 0xbc, 0x82, 0x65, 0x21, 0xbe, 0xf5, 0xce, 0xae, 0x3d,
  0xa1, 0x67, 0x80, 0xbe, 0x4c, 0x1d, 0xb8, 0xbd, 0x76, 0x8d, 0x94, 0xbd,
  0xb9, 0x18, 0xa0, 0xbc, 0x42, 0x06, 0x73, 0xbe, 0x93, 0x5f, 0xad, 0x3c,
  0x47, 0xd1, 0x0f, 0xbe, 0x83, 0xec, 0x23, 0xbe, 0xb0, 0x35, 0x10, 0x3d,
  0x80, 0x5c, 0x6d, 0xbe, 0x88, 0x29, 0xb9, 0x3d, 0xf6, 0x88, 0x4d, 0xbe,
  0xb6, 0xa8, 0x1c, 0xbe, 0x1d, 0xf1, 0xd5, 0xbd, 0x39, 0x8b, 0x3c, 0x3b,
  0xac, 0x63, 0xc5, 0x3b, 0xb1, 0x23, 0x8e, 0x3d, 0x23, 0x65, 0x6a, 0xbd,
  0xdb, 0xe4, 0x65, 0x3d, 0xdf, 0xee, 0x89, 0xbd, 0xea, 0x25, 0xae, 0x3d,
  0x1a, 0xcd, 0x6c, 0x3d, 0xd7, 0xfe, 0x82, 0x3c, 0xcf, 0xe4, 0x92, 0xbd,
  0x24, 0x89, 0x1e, 0xbd, 0x5e, 0x21, 0x38, 0x3e, 0x5c, 0x4e, 0x02, 0x3e,
  0x24, 0x5e, 0x9a, 0x3d, 0x9c, 0x5f, 0x49, 0x3e, 0xe4, 0xfc, 0xf1, 0x3d,
  0xdc, 0x80, 0x42, 0x3d, 0xaf, 0xcb, 0xa9, 0x3d, 0x8a, 0x8a, 0x4c, 0x3e,
  0xc6, 0xa4, 0xab, 0x3c, 0xf5, 0x43, 0x73, 0xbd, 0xe3, 0xd1, 0x52, 0x3e,
  0xd5, 0x33, 0x71, 0x3d, 0x4c, 0x42, 0xc4, 0x3d, 0x9f, 0xb3, 0x96, 0x3d,
  0xd9, 0x0e, 0xb3, 0x3e, 0x6a, 0xed, 0xea, 0x3d, 0x12, 0x8b, 0x94, 0x3e,
  0x43, 0xdf, 0xf3, 0x3d, 0x15, 0xc5, 0xc6, 0x3d, 0xa8, 0x7e, 0x20, 0x3e,
  0x1c, 0xef, 0xd8, 0x3e, 0xa2, 0x77, 0x1e, 0x3e, 0x63, 0xfd, 0xa8, 0x3e,
  0xf7, 0x06, 0x25, 0x3e, 0x80, 0xba, 0x17, 0x3f, 0x46, 0x78, 0x87, 0x3c,
  0xc7, 0x2a, 0xed, 0x3e, 0x1e, 0x4e, 0x2e, 0xbd, 0xe3, 0xf9, 0xff, 0x3e,
  0x95, 0x66, 0x91, 0xbc, 0xbf, 0xe2, 0x45, 0x3e, 0xfa, 0x7e, 0xfa, 0x3d,
  0xfc, 0x6e, 0x9b, 0x3e, 0x22, 0x50, 0xc8, 0x39, 0x00, 0x12, 0x57, 0x3e,
  0xa2, 0x59, 0xc8, 0xbd, 0x7e, 0x28, 0xae, 0x3d, 0x5a, 0xf5, 0x99, 0xbd,
  0x8b, 0x9b, 0xe0, 0x3e, 0x4f, 0x8e, 0xd8, 0xbc, 0x04, 0x65, 0x61, 0x3e,
  0xc3, 0x75, 0x60, 0xbd, 0x55, 0xe6, 0x66, 0xbe, 0x5e, 0x85, 0xe5, 0xbd,
  0x27, 0xfa, 0xb0, 0x3c, 0xfc, 0xe2, 0xb7, 0xbd, 0x5d, 0x6a, 0x62, 0x3d,
  0x01, 0xb5, 0x26, 0xbd, 0x9a, 0xbd, 0xfb, 0x3c, 0xfb, 0x8f, 0x75, 0xbe,
  0x97, 0x87, 0x7f, 0x3e, 0x55, 0x38, 0xb0, 0xbe, 0x4a, 0xb1, 0x81, 0x3e,
  0x6a, 0x4e, 0x5a, 0xbe, 0x5e, 0x3b, 0xa2, 0x3e, 0x9f, 0x5c, 0xe1, 0xbd,
  0xf7, 0xd8, 0x49, 0x3d, 0xda, 0x4c, 0x82, 0xbe, 0x5e, 0x3e, 0x18, 0x3e,
  0xdc, 0xf5, 0x5e, 0xbc, 0xae, 0xae, 0xa4, 0x3c, 0x18, 0x7f, 0x69, 0xbd,
  0x42, 0xb8, 0x7f, 0x3e, 0xff, 0x64, 0x4c, 0xbc, 0xcd, 0x6c, 0x4b, 0x3d,
  0xd4, 0xbc, 0x90, 0x3b, 0x2e, 0x84, 0x8a, 0x3e, 0x9e, 0x71, 0x14, 0x3d,
  0xe8, 0x01, 0x81, 0xbb, 0xb0, 0xc9, 0x8e, 0xbe, 0xe5, 0x77, 0x7e, 0x3e,
  0x4d, 0x54, 0x1d, 0xbd, 0x0e, 0x2f, 0x14, 0x3e, 0x9a, 0x13, 0x87, 0xbe,
  0x08, 0xa9, 0xdd, 0x3c, 0x05, 0x69, 0xea, 0x3b, 0xe3, 0xa2, 0x17, 0x3e,
  0x10, 0xaa, 0x2e, 0xbd, 0x64, 0x47, 0x21, 0x3e, 0xc0, 0x5e, 0x57, 0xbd,
  0x56, 0x9a, 0x3c, 0x3d, 0x71, 0x35, 0xe4, 0x3c, 0x2e, 0x24, 0xb0, 0x3d,
  0xa0, 0x1d, 0x59, 0xbe, 0x7b, 0x20, 0x53, 0x3e, 0xb2, 0xb5, 0x82, 0x3d,
  0x46, 0xe6, 0x36, 0xbd, 0xc0, 0x9e, 0x62, 0x3c, 0x81, 0x24, 0x8d, 0xbb,
  0xaf, 0x4e, 0xc7, 0xbb, 0x2f, 0x3a, 0x44, 0xbd, 0x47, 0xc5, 0x79, 0xbd,
  0x6b, 0xfb, 0xa7, 0x3d, 0x43, 0x53, 0x12, 0xbe, 0x49, 0x33, 0x89, 0x3d,
  0x28, 0xea, 0x42, 0xbd, 0xd3, 0x99, 0x05, 0x3e, 0x1a, 0xca, 0x1d, 0x3d,
  0x81, 0x0e, 0x3c, 0x3e, 0x40, 0x5b, 0xb8, 0x3d, 0x56, 0x80, 0x01, 0xbd,
  0xe9, 0xe9, 0xe5, 0xbc, 0x69, 0x85, 0x23, 0x3c, 0x35, 0x82, 0x2e, 0x3e,
  0x1f, 0xeb, 0x28, 0x3e, 0x2f, 0x8d, 0xa1, 0x3d, 0x15, 0xf2, 0x8f, 0xbd,
  0xee, 0xc1, 0x99, 0xbb, 0xb1, 0xc9, 0x28, 0x3e, 0x8a, 0x64, 0x8e, 0x3d,
  0xba, 0xc0, 0x7f, 0x3c, 0xd5, 0x65, 0x69, 0x3e, 0x7e, 0x22, 0xaa, 0xbd,
  0x0e, 0xc1, 0x77, 0x3e, 0xce, 0x09, 0x83, 0xbd, 0x7a, 0xef, 0x47, 0x3e,
  0x51, 0x99, 0x85, 0xbc, 0xf2, 0x5e, 0xe7, 0xbc, 0x01, 0xfa, 0x5e, 0xbd,
  0x4b, 0xa2, 0x79, 0x3e, 0x83, 0x91, 0x3f, 0xbd, 0x94, 0xbf, 0x9b, 0x3e,
  0x3d, 0x70, 0xa6, 0xbe, 0x32, 0xae, 0xb1, 0x3e, 0xba, 0x07, 0x46, 0xbe,
  0x17, 0xc9, 0x8e, 0x3e, 0x8e, 0x74, 0x1f, 0xbe, 0xd4, 0x90, 0x03, 0x3e,
  0xc1, 0x88, 0xef, 0xbd, 0x22, 0x5c, 0x09, 0x3e, 0x68, 0xe6, 0xc1, 0xbe,
  0x57, 0x2b, 0xbe, 0x3e, 0x80, 0x30, 0x40, 0xbe, 0x43, 0x0a, 0x8a, 0x3e,
  0x7c, 0x88, 0xb3, 0xbe, 0xe2, 0xfb, 0x91, 0x3e, 0xa7, 0xae, 0xbe, 0xbe,
  0xf9, 0x5c, 0x40, 0x3e, 0xdb, 0xca, 0xcc, 0xbd, 0x68, 0x91, 0x3f, 0x3e,
  0x3e, 0xed, 0xdc, 0xbd, 0x06, 0xe9, 0x7a, 0x3e, 0x7b, 0x04, 0x3a, 0xbe,
  0xe2, 0x06, 0xb7, 0x3e, 0x85, 0x02, 0x70, 0xbe, 0x16, 0x75, 0xb8, 0x3e,
  0x80, 0xf1, 0xd4, 0xbd, 0xfe, 0x77, 0x03, 0x3e, 0x7b, 0x72, 0xf8, 0x3c,
  0x1b, 0xff, 0x9e, 0x3e, 0xeb, 0x18, 0x05, 0x3e, 0x4b, 0xdc, 0x76, 0x3e,
  0x78, 0x10, 0x82, 0x3e, 0x5c, 0x10, 0x3f, 0x3e, 0x1a, 0xf3, 0x9b, 0x3e,
  0x04, 0x5c, 0x8f, 0x3e, 0xe2, 0xad, 0x0d, 0x3e, 0x5b, 0x48, 0x2e, 0x3e,
  0x03, 0xfd, 0x5a, 0x3e, 0xde, 0xfe, 0x56, 0x3e, 0x54, 0x0f, 0x98, 0x3e,
  0xaf, 0xc9, 0x04, 0x3d, 0x78, 0x9a, 0xbb, 0x3e, 0x93, 0xc3, 0xff, 0x3c,
  0x04, 0x50, 0x9d, 0x3e, 0xbb, 0x15, 0xf2, 0xbc, 0x07, 0x5b, 0xd7, 0x3e,
  0x17, 0x09, 0x2e, 0x3e, 0x74, 0x5b, 0xd7, 0x3e, 0x7c, 0x47, 0x11, 0x3d,
  0xd2, 0x16, 0xe9, 0x3e, 0x16, 0x34, 0x17, 0x3e, 0xdd, 0x78, 0x5b, 0x3e,
  0xe3, 0x92, 0xb6, 0x3d, 0x48, 0xf7, 0x83, 0x3e, 0x8e, 0xb5, 0x5d, 0xbd,
  0xd5, 0x9f, 0x50, 0x3e, 0x94, 0x69, 0x10, 0x3e, 0xf8, 0xd3, 0x0d, 0x3e,
  0xc5, 0x0a, 0xc0, 0x3c, 0x12, 0xc9, 0xed, 0x3e, 0x69, 0xae, 0x96, 0x3d,
  0x7c, 0x3c, 0x13, 0x3f, 0x83, 0xfb, 0x69, 0x3e, 0x04, 0x94, 0x99, 0x3e,
  0xdb, 0x39, 0xa6, 0xbc, 0x3d, 0xf9, 0xd6, 0x3e, 0x24, 0xd6, 0x5e, 0x3e,
  0xa8, 0xb5, 0x06, 0x3f, 0x15, 0x26, 0xb3, 0x3d, 0xb3, 0xe5, 0x65, 0x3e,
  0xc5, 0xc9, 0x77, 0x3e, 0x50, 0x4c, 0xa9, 0x3e, 0xfa, 0xf1, 0x9d, 0x3d,
  0xeb, 0xc2, 0x9d, 0x3e, 0x6e, 0xa1, 0xa9, 0xbd, 0x9c, 0x57, 0xbf, 0x3e,
  0xb3, 0x2a, 0x83, 0xbd, 0x58, 0x17, 0x1b, 0x3d, 0x13, 0xfa, 0xf2, 0xbd,
  0x2f, 0x67, 0xce, 0x3e, 0xfd, 0xb4, 0x9b, 0x3c, 0x3b, 0x69, 0xd6, 0xbe,
  0x3d, 0x79, 0xbf, 0xbb, 0x5d, 0x63, 0x8e, 0xbe, 0xa3, 0x82, 0x23, 0x3e,
  0xd4, 0xbf, 0x1d, 0xbe, 0x79, 0xbf, 0x0c, 0x3e, 0x6a, 0xd4, 0x18, 0x3e,
  0xdc, 0x18, 0x1f, 0x3e, 0x5f, 0x32, 0xca, 0xbc, 0x7d, 0x9e, 0xdc, 0x3d,
  0x35, 0xe4, 0x98, 0x3d, 0xed, 0xdb, 0x58, 0x3d, 0xf9, 0x87, 0x73, 0xbd,
  0x60, 0x40, 0xd0, 0x3b, 0xa5, 0x97, 0x6d, 0xbe, 0x54, 0xb3, 0x08, 0xbe,
  0xda, 0x25, 0x86, 0x3b, 0x13, 0x78, 0x59, 0xbe, 0x3e, 0x89, 0x64, 0x3d,
  0xe8, 0xb9, 0x72, 0xbd, 0x75, 0xf2, 0xc0, 0xbc, 0xec, 0x69, 0x39, 0xbd,
  0x1f, 0x43, 0xd4, 0xbd, 0x28, 0x16, 0x8f, 0xbd, 0x0a, 0xea, 0xb0, 0xbc,
  0xf9, 0xd2, 0xba, 0xbd, 0xe6, 0xd8, 0x8e, 0x3d, 0xd9, 0x20, 0x7a, 0xbc,
  0x7f, 0x53, 0x03, 0xbe, 0x8e, 0xf8, 0xac, 0xbd, 0x4f, 0xe6, 0x27, 0x3e,
  0xcf, 0x5b, 0x08, 0x3c, 0x4f, 0xf8, 0x3f, 0x3e, 0x78, 0x72, 0x15, 0x3c,
  0xc0, 0x5c, 0x8e, 0x3e, 0x45, 0x8a, 0x84, 0xbd, 0xbc, 0xf7, 0xaf, 0x3d,
  0x2b, 0x25, 0xfd, 0x3d, 0x1d, 0x00, 0x27, 0x3e, 0x4f, 0x96, 0x09, 0xbd,
  0x37, 0x2b, 0x42, 0xbd, 0x3e, 0xd6, 0xd5, 0x3c, 0xaa, 0x17, 0x6c, 0x3d,
  0xbd, 0xa6, 0x2a, 0xbd, 0x16, 0x72, 0x84, 0x3e, 0x0f, 0x17, 0xa3, 0x3d,
  0xb2, 0x3c, 0xc7, 0x3e, 0x8f, 0x98, 0x46, 0x3d, 0xbd, 0x9b, 0x7c, 0x3a,
  0x50, 0x5a, 0xb5, 0x3d, 0x02, 0x0a, 0x66, 0x3e, 0x5f, 0x5d, 0x81, 0x3d,
  0x3a, 0xed, 0x29, 0x3d, 0xcb, 0x48, 0x15, 0x3e, 0x04, 0xef, 0x01, 0x3e,
  0xb9, 0xf9, 0x04, 0x3d, 0x37, 0xc3, 0x06, 0x3e, 0x4d, 0xca, 0xa3, 0x3d,
  0x8f, 0xd2, 0xd2, 0x3d, 0x0b, 0xe2, 0x71, 0x3d, 0x5a, 0x4e, 0xe7, 0x3d,
  0x8f, 0x2e, 0x2c, 0x3e, 0x55, 0xc4, 0x8a, 0x3e, 0x41, 0xcb, 0x59, 0x3e,
  0x99, 0xd9, 0x7c, 0x3e, 0x61, 0x47, 0xff, 0x3d, 0xc9, 0x03, 0x96, 0x3d,
  0x69, 0x5f, 0x06, 0x3e, 0xc1, 0xec, 0x44, 0x3e, 0x53, 0xe3, 0x40, 0x3e,
  0x06, 0x67, 0x05, 0x3e, 0xab, 0xbc, 0xe6, 0x3d, 0x1e, 0x5b, 0x05, 0x3c,
  0xf5, 0xcc, 0xb9, 0x3e, 0xeb, 0xe2, 0x74, 0x3e, 0x46, 0xa2, 0xa3, 0x3e,
  0xc7, 0xe2, 0x85, 0x3c, 0x86, 0x71, 0xa2, 0x3e, 0x87, 0x89, 0x6f, 0x3d,
  0xc8, 0xf0, 0xb4, 0x3e, 0x0e, 0xe5, 0x92, 0x3e, 0xab, 0x41, 0x9e, 0x3e,
  0x8f, 0x61, 0x7a, 0x3e, 0x99, 0xbe, 0xc5, 0x3e, 0x29, 0x7b, 0x2d, 0xbc,
  0x6a, 0x0f, 0x8b, 0x3e, 0x88, 0x06, 0xeb, 0x3d, 0xd8, 0xad, 0xc0, 0x3e,
  0x0b, 0x7d, 0xb4, 0x3b, 0x16, 0xb6, 0xed, 0x3e, 0x61, 0x10, 0x8c, 0xbd,
  0x9a, 0x3f, 0xb0, 0x3e, 0x41, 0x90, 0xd5, 0x3d, 0x40, 0x64, 0x5d, 0x3e,
  0x38, 0xab, 0x8e, 0x3e, 0x86, 0x12, 0x9e, 0x3e, 0x55, 0x45, 0xdf, 0x3b,
  0xeb, 0x58, 0xa7, 0x3e, 0x40, 0xcb, 0x31, 0xbd, 0x43, 0x32, 0x94, 0x3e,
  0xb4, 0x28, 0x05, 0x3e, 0xc4, 0xe0, 0x53, 0x3e, 0x8c, 0xb9, 0x37, 0x3e,
  0x1d, 0x8e, 0x8b, 0x3e, 0x7f, 0x62, 0x12, 0x3e, 0xfc, 0x99, 0x0f, 0x3e,
  0xa0, 0xac, 0x89, 0xbd, 0xc4, 0x70, 0x71, 0x3e, 0xdb, 0xaa, 0x88, 0x3d,
  0xb2, 0xd9, 0xa1, 0x3d, 0x09, 0xdf, 0x75, 0xbc, 0x9e, 0x94, 0x83, 0x3e,
  0x86, 0x87, 0x40, 0x3e, 0x61, 0xf2, 0x01, 0x3e, 0x5f, 0x72, 0xa8, 0xbd,
  0x16, 0x79, 0x13, 0x3e, 0x75, 0x8c, 0xed, 0xbd, 0x0d, 0x97, 0x06, 0x3d,
  0xf2, 0x53, 0x83, 0x3d, 0xfa, 0x5a, 0x5f, 0x3e, 0xb8, 0x39, 0x14, 0x3e,
  0xfa, 0xaf, 0xe0, 0x3d, 0x40, 0x05, 0x03, 0xbe, 0x49, 0x14, 0x92, 0x3d,
  0x84, 0xd0, 0x33, 0x3d, 0x4b, 0xb0, 0x0a, 0x3e, 0xb0, 0xb5, 0xff, 0x3d,
  0x2b, 0x92, 0x69, 0xbd, 0x3c, 0x1c, 0x20, 0x3b, 0x38, 0x79, 0xa4, 0x3d,
  0x8d, 0x2c, 0xe6, 0xbd, 0xf5, 0xe2, 0xaa, 0xbd, 0xe6, 0xe9, 0x08, 0xbe,
  0x4b, 0x55, 0x03, 0xbe, 0xb4, 0xb9, 0x22, 0xbd, 0xee, 0x54, 0xfd, 0x3c,
  0xfd, 0x01, 0x38, 0xbe, 0x9e, 0xb3, 0x88, 0xbd, 0x4a, 0x65, 0xf4, 0xbd,
  0xd3, 0x36, 0xe2, 0xbd, 0x16, 0x2a, 0xda, 0xbb, 0x2c, 0x59, 0x41, 0xbe,
  0xf8, 0xd1, 0x3d, 0xbe, 0xb6, 0x5a, 0x35, 0xbe, 0xb9, 0x74, 0xf6, 0x3c,
  0xd9, 0xcc, 0x37, 0xbe, 0x07, 0x3f, 0xbb, 0xbd, 0x6a, 0x93, 0xb1, 0xbe,
  0xc8, 0xe9, 0x8e, 0x3d, 0xd9, 0xdd, 0x15, 0xbf, 0x34, 0x80, 0xca, 0xbd,
  0x46, 0xb7, 0x39, 0xbf, 0xb5, 0x90, 0x76, 0x3e, 0x90, 0x75, 0x48, 0xbf,
  0x78, 0x19, 0xf3, 0x3d, 0xad, 0x55, 0x80, 0xbf, 0x04, 0x3f, 0x4f, 0x3e,
  0x99, 0x0a, 0x87, 0xbf, 0xc3, 0xde, 0x45, 0xbe, 0xa5, 0xaa, 0x11, 0xbf,
  0x10, 0xf4, 0x53, 0xbe, 0x5d, 0x08, 0x12, 0xbf, 0x50, 0xfb, 0x89, 0x3e,
  0xfc, 0x49, 0xc8, 0xbe, 0xdb, 0x44, 0x8f, 0x3d, 0x21, 0x14, 0x07, 0xbf,
  0x06, 0x33, 0x56, 0xbe, 0xe7, 0x07, 0x0b, 0xbf, 0x18, 0xab, 0x35, 0xbe,
  0xa3, 0xc2, 0x19, 0xbf, 0xad, 0x40, 0x02, 0xbe, 0x38, 0x67, 0x0c, 0xbf,
  0x40, 0x47, 0xca, 0xbe, 0x7d, 0xca, 0xa9, 0xbe, 0x50, 0xbf, 0x99, 0xbe,
  0x39, 0xb4, 0x0b, 0xbf, 0x84, 0xd3, 0x18, 0xbd, 0x34, 0xf4, 0xb1, 0xbe,
  0x02, 0x08, 0xc1, 0xbd, 0xbd, 0x26, 0xd9, 0xbe, 0x44, 0xdc, 0xc6, 0x3a,
  0x21, 0xbc, 0xac, 0xbe, 0x01, 0x59, 0x37, 0x3e, 0x02, 0x2c, 0xdf, 0xbd,
  0xb7, 0xc5, 0x0b, 0x3d, 0xd0, 0x54, 0x6e, 0xbe, 0x3d, 0xe9, 0xed, 0xbc,
  0x44, 0x05, 0xba, 0xbd, 0xd0, 0x8f, 0x8d, 0x3e, 0x15, 0xa9, 0x8a, 0xbe,
  0x5c, 0x0d, 0xbc, 0x3c, 0x95, 0xd0, 0x03, 0xbe, 0x1f, 0x97, 0x00, 0x3e,
  0x73, 0x89, 0xb0, 0xbd, 0x5b, 0x84, 0x27, 0xbe, 0x8d, 0x54, 0x10, 0x3d,
  0x77, 0xa7, 0x69, 0xbd, 0x44, 0xe6, 0x04, 0x3d, 0x87, 0xfd, 0xa7, 0xbd,
  0x9c, 0xc8, 0x4b, 0xbd, 0x3d, 0xdf, 0x87, 0xbe, 0x2e, 0xd4, 0xc2, 0x3d,
  0x98, 0x55, 0x91, 0xbe, 0x05, 0x21, 0x9f, 0x3d, 0x44, 0xea, 0x96, 0xbe,
  0xa9, 0x28, 0x50, 0x3b, 0x52, 0x4f, 0x6c, 0xbe, 0x50, 0xa5, 0xae, 0x3d,
  0x0b, 0x90, 0xf0, 0xbd, 0xc5, 0x21, 0xd1, 0xbd, 0x62, 0xe3, 0x9c, 0xbe,
  0x87, 0x73, 0x93, 0x3d, 0x3c, 0xf6, 0x8e, 0xbe, 0x35, 0xbe, 0x86, 0x3d,
  0x04, 0xef, 0x5e, 0xbe, 0xcf, 0x1b, 0x87, 0x3d, 0xd3, 0xc4, 0xbf, 0xbe,
  0xde, 0xe6, 0x0e, 0x3e, 0x06, 0xa3, 0x64, 0xbe, 0x68, 0x59, 0xff, 0x3c,
  0x84, 0x3f, 0x9a, 0xbe, 0x3e, 0xf9, 0x97, 0x3c, 0x67, 0xf5, 0x91, 0xbe,
  0xc9, 0x17, 0xfc, 0x3d, 0x74, 0x69, 0x64, 0xbe, 0xe4, 0xd0, 0x6e, 0x3d,
  0x39, 0x4c, 0x82, 0xbe, 0x45, 0xdc, 0xaf, 0x3d, 0x9e, 0xd2, 0x71, 0xbe,
  0x04, 0x8b, 0x7f, 0x3e, 0xe4, 0xc5, 0x65, 0xbe, 0xf9, 0x7c, 0x81, 0x3e,
  0xd1, 0xc0, 0x1f, 0xbe, 0x6d, 0x53, 0x1f, 0x3e, 0x39, 0x8d, 0xd7, 0xbd,
  0x94, 0x78, 0x73, 0x3e, 0x6d, 0x94, 0x90, 0x3b, 0x2b, 0xbc, 0x94, 0x3d,
  0x44, 0xf5, 0x65, 0x3d, 0xc9, 0xd1, 0xa1, 0x3d, 0x4f, 0x4a, 0x5f, 0x3e,
  0xa3, 0x92, 0xa6, 0x3d, 0x0c, 0x02, 0xb2, 0x3e, 0xcc, 0x9a, 0x62, 0x3d,
  0xff, 0xab, 0x7c, 0x3e, 0x29, 0x84, 0x1f, 0x3e, 0xe8, 0x2a, 0x94, 0x3e,
  0x26, 0xa8, 0xaf, 0x3c, 0x1a, 0xed, 0xd1, 0x3e, 0xd8, 0x21, 0x18, 0x3c,
  0x54, 0xf5, 0xb2, 0x3e, 0x92, 0xf1, 0xb3, 0xbd, 0x9c, 0xc0, 0xd4, 0x3d,
  0x07, 0x48, 0x85, 0x3c, 0x9f, 0x21, 0xcd, 0x3c, 0x50, 0x05, 0x29, 0xbe,
  0xa7, 0x4f, 0x3e, 0x3d, 0x44, 0xb2, 0xf9, 0xbc, 0x03, 0xf3, 0x53, 0x3e,
  0xe1, 0x36, 0x25, 0xbe, 0x2c, 0xcc, 0x6a, 0xbd, 0xb6, 0x7d, 0xce, 0x3c,
  0x1a, 0xbd, 0x17, 0xbd, 0x75, 0xbb, 0x69, 0xbe, 0x1d, 0x39, 0x06, 0x3d,
  0x8f, 0x1c, 0x9a, 0x3d, 0xa2, 0x9d, 0x83, 0xbe, 0x57, 0x2c, 0xa7, 0xbd,
  0x61, 0x14, 0x1d, 0xbd, 0xd2, 0x2a, 0x93, 0xbd, 0xec, 0x7f, 0x5a, 0xbe,
  0xbc, 0xe2, 0x4b, 0xbd, 0x8e, 0x4e, 0x1f, 0xbe, 0x06, 0x95, 0xbb, 0xbd,
  0x71, 0x08, 0xca, 0xbd, 0x76, 0x69, 0x42, 0xbd, 0x2d, 0x0f, 0xb2, 0xbe,
  0x0d, 0x8b, 0xc3, 0x3d, 0x3d, 0x12, 0x93, 0xbe, 0xd0, 0x7f, 0xe9, 0x3d,
  0x01, 0x60, 0x85, 0xbe, 0xe9, 0xcc, 0xe6, 0x3d, 0xe5, 0xc4, 0x72, 0xbe,
  0x23, 0x94, 0x1d, 0x3d, 0xaa, 0x95, 0x70, 0xbc, 0xc4, 0xde, 0x45, 0x3d,
  0x39, 0x16, 0x8d, 0xbc, 0x87, 0x8d, 0x20, 0x3e, 0x03, 0xf3, 0xd1, 0xbb,
  0x86, 0xd9, 0xe9, 0x3d, 0xb6, 0xdb, 0x04, 0x3d, 0x22, 0xc9, 0x12, 0x3e,
  0x4d, 0xf8, 0x1b, 0xbd, 0xf8, 0x44, 0x36, 0x3e, 0x53, 0x7c, 0x18, 0x3e,
  0xd3, 0x4d, 0xb9, 0x3c, 0xf8, 0x73, 0x33, 0x3e, 0x0a, 0xcf, 0xd7, 0x3d,
  0x6a, 0x5f, 0x8c, 0x3e, 0xed, 0xd5, 0xea, 0x3d, 0x76, 0xa6, 0x4a, 0x3e,
  0xc5, 0xdc, 0xb4, 0x3d, 0x2a, 0x02, 0xb4, 0x3e, 0x64, 0x8b, 0xca, 0x3c,
  0xc6, 0xce, 0xbf, 0x3e, 0xcd, 0x3c, 0x33, 0x3e, 0xe1, 0x25, 0xc3, 0x3e,
  0xac, 0x63, 0x8a, 0xbb, 0xf9, 0xfe, 0x9d, 0x3e, 0xad, 0x93, 0x41, 0x3e,
  0x06, 0x36, 0xcd, 0x3e, 0x3e, 0x77, 0xf9, 0x3d, 0x14, 0xab, 0x3b, 0x3e,
  0x2d, 0x13, 0x37, 0x3d, 0x30, 0xfb, 0xc4, 0x3e, 0x9c, 0x0b, 0x04, 0xbd,
  0x07, 0xfa, 0x1a, 0x3e, 0x50, 0x44, 0x80, 0xbd, 0x3d, 0xc0, 0xc7, 0x3e,
  0x45, 0xc0, 0x0a, 0xbe, 0x0f, 0x8a, 0x8d, 0x3d, 0x00, 0x26, 0xcd, 0xbe,
  0xaa, 0xdd, 0xae, 0x3e, 0x17, 0x13, 0xa2, 0xbe, 0xd9, 0xa8, 0xf0, 0x3d,
  0x6a, 0xd8, 0x87, 0xbe, 0xd9, 0x72, 0x35, 0x3e, 0x6a, 0x3f, 0xe3, 0xbe,
  0x3a, 0xad, 0xc2, 0x3d, 0xc8, 0x2e, 0x74, 0xbe, 0x49, 0xbe, 0x33, 0x3d,
  0x0c, 0x0c, 0xf8, 0xbe, 0x9f, 0x96, 0xcd, 0xbd, 0xc8, 0xf7, 0xb6, 0xbe,
  0xef, 0x2d, 0x37, 0xbe, 0x79, 0xec, 0x89, 0xbe, 0xae, 0xc5, 0x44, 0xbc,
  0x27, 0x09, 0xb9, 0xbe, 0xb3, 0x59, 0x06, 0xbe, 0x66, 0x85, 0x32, 0xbe,
  0x7c, 0x0b, 0xd5, 0xbd, 0x3f, 0x59, 0xca, 0xbe, 0x05, 0x0a, 0x9e, 0xbe,
  0x77, 0x22, 0x9b, 0xbe, 0x33, 0x62, 0xa1, 0xbe, 0xc6, 0xbd, 0x00, 0xbe,
  0x3a, 0x21, 0x8c, 0xbd, 0xc5, 0x6b, 0x82, 0xbc, 0x88, 0x94, 0x37, 0xbe,
  0x01, 0xf9, 0x7d, 0xbe, 0xb1, 0x7f, 0x1a, 0xbe, 0x42, 0x82, 0x19, 0xbe,
  0x50, 0x5f, 0xbe, 0xbd, 0xcd, 0xde, 0xcd, 0x3d, 0x8a, 0xb0, 0x13, 0xbe,
  0x73, 0xc4, 0xc0, 0xbd, 0xfd, 0x6f, 0x60, 0x3b, 0x26, 0x25, 0x2f, 0xbe,
  0xc4, 0x95, 0xdb, 0xbd, 0x3f, 0x86, 0x08, 0x3e, 0xb7, 0x00, 0x19, 0xbe,
  0x0f, 0xed, 0x02, 0xbe, 0x12, 0xdf, 0x66, 0xbd, 0xe1, 0x5c, 0x00, 0xbd,
  0x2e, 0x82, 0x91, 0xbd, 0x3e, 0x3e, 0x07, 0x3d, 0xcb, 0xd2, 0x67, 0x3c,
  0xdd, 0xe6, 0x6d, 0xbd, 0xf8, 0x83, 0x1a, 0x3a, 0x8c, 0x55, 0x45, 0x3e,
  0x05, 0x7d, 0xd0, 0x3c, 0x27, 0xe2, 0x5a, 0x3c, 0xc5, 0x4f, 0xcc, 0xbd,
  0xd8, 0xa9, 0x7c, 0xbd, 0xc2, 0x22, 0xf1, 0x3c, 0x3c, 0x15, 0x73, 0x3b,
  0x43, 0x12, 0xf2, 0xbd, 0x65, 0x22, 0x6b, 0xbc, 0x81, 0x20, 0x55, 0xbe,
  0xff, 0x70, 0xe9, 0x3d, 0x13, 0x10, 0x4d, 0xbe, 0x35, 0xdc, 0x5b, 0x3d,
  0x71, 0xe1, 0x10, 0xbe, 0x26, 0x60, 0x82, 0x3c, 0x3d, 0x85, 0x1e, 0xbe,
  0x3d, 0x2c, 0x2b, 0x3e, 0x01, 0xd2, 0x42, 0xbe, 0xf2, 0xdb, 0x4b, 0x3d,
  0xcd, 0x0b, 0x5f, 0xbe, 0x46, 0xb3, 0xd4, 0x3c, 0xff, 0xc7, 0xa0, 0xbe,
  0xd2, 0xc1, 0x8e, 0xbc, 0x79, 0xd3, 0x72, 0xbe, 0xf8, 0xdc, 0xe6, 0x3d,
  0x26, 0x84, 0x73, 0xbe, 0xf7, 0x38, 0x5b, 0x3e, 0x2f, 0x73, 0x75, 0xbe,
  0x03, 0xcb, 0x61, 0x3e, 0x05, 0xb4, 0x56, 0xbe, 0x52, 0xb6, 0x28, 0x3d,
  0x25, 0x48, 0xfd, 0xbd, 0xe8, 0xd4, 0xc7, 0x3d, 0xb2, 0xc8, 0xb0, 0xbd,
  0x58, 0x65, 0x4d, 0x3e, 0x8f, 0x69, 0x46, 0xbe, 0x08, 0x9c, 0xfe, 0x3d,
  0xf6, 0xbc, 0x5e, 0xbd, 0x56, 0xd2, 0xe7, 0x3d, 0xe4, 0xf6, 0x82, 0x3d,
  0xa1, 0x35, 0x50, 0x3e, 0x65, 0x70, 0x7a, 0xbd, 0x9d, 0xa1, 0x34, 0x3e,
  0x9d, 0x51, 0xed, 0x3d, 0x80, 0x34, 0xa0, 0x3d, 0xee, 0x02, 0x58, 0x3d,
  0x20, 0x44, 0x0c, 0x3e, 0xe2, 0x75, 0x85, 0x3e, 0x8b, 0xdd, 0x35, 0x3e,
  0xde, 0x7d, 0x10, 0x3e, 0xf0, 0x40, 0x04, 0x3d, 0xec, 0xda, 0xb9, 0x3e,
  0x33, 0xd4, 0x2e, 0x3d, 0x4a, 0x2a, 0xce, 0x3e, 0x11, 0xd2, 0x30, 0x3e,
  0x6b, 0xad, 0xaa, 0x3e, 0x7b, 0xdb, 0x17, 0x3d, 0x90, 0x1d, 0xde, 0x3e,
  0xb0, 0x2d, 0xe5, 0x3c, 0xa6, 0xcb, 0xb7, 0x3e, 0x3a, 0xa7, 0xb7, 0xbd,
  0xa7, 0x03, 0xb7, 0x3e, 0x34, 0x4f, 0xd2, 0x3b, 0xab, 0x65, 0x2a, 0x3e,
  0x78, 0xf8, 0x88, 0xbd, 0x96, 0x27, 0x6a, 0x3e, 0x54, 0x2b, 0x48, 0xbe,
  0xaa, 0x40, 0x8f, 0x3e, 0x6b, 0x4e, 0x7b, 0xbd, 0xbd, 0x13, 0x3c, 0x3e,
  0x91, 0x86, 0x5b, 0xbe, 0xd8, 0x3b, 0x30, 0x3e, 0x67, 0x2b, 0x2b, 0xbe,
  0xe6, 0x8f, 0xd4, 0x3d, 0x52, 0xe2, 0x9a, 0xbd, 0x40, 0x70, 0xf4, 0x3c,
  0x44, 0x3b, 0x44, 0xbe, 0xfc, 0x39, 0x8d, 0xbd, 0xb0, 0xd4, 0x44, 0xbd,
  0x54, 0x16, 0xa0, 0x3c, 0x5c, 0x6c, 0x26, 0xbe, 0x7a, 0x8e, 0x92, 0xbe,
  0x42, 0xf5, 0x21, 0xbe, 0xee, 0x7d, 0x3e, 0xbe, 0xca, 0x30, 0x17, 0xbe,
  0x65, 0xd1, 0xd6, 0xbd, 0xe3, 0x0d, 0x20, 0x3d, 0x94, 0x05, 0x48, 0xbe,
  0x82, 0x00, 0xb0, 0xbd, 0x6a, 0x83, 0xd7, 0xbd, 0xf1, 0x3f, 0x75, 0xbd,
  0xeb, 0x26, 0x2d, 0xbe, 0x97, 0xde, 0x86, 0x3d, 0x61, 0xde, 0x87, 0xbe,
  0xb1, 0x89, 0x39, 0x3d, 0x07, 0x0a, 0x57, 0xbe, 0x90, 0x4f, 0x9e, 0x3d,
  0xd1, 0x72, 0x59, 0xbe, 0x40, 0x45, 0x2a, 0x3e, 0x61, 0x7e, 0xf2, 0xbd,
  0xd4, 0x91, 0x3c, 0x3e, 0x77, 0xf9, 0x7b, 0xbe, 0xb9, 0x22, 0x67, 0x3e,
  0x0d, 0xcf, 0x46, 0xbd, 0x4d, 0xc3, 0xfe, 0x3d, 0xf4, 0xd3, 0x38, 0xbe,
  0xd4, 0x99, 0x20, 0x3e, 0xa4, 0x61, 0x23, 0xbd, 0x1e, 0x63, 0x4f, 0x3d,
  0x15, 0xa0, 0x0e, 0xbd, 0xdd, 0xce, 0xe5, 0xbe, 0xd3, 0x26, 0x17, 0x3d,
  0xa9, 0x9c, 0x33, 0xbe, 0x23, 0xb1, 0x37, 0x3e, 0x1a, 0x71, 0x8b, 0xbd,
  0x21, 0x99, 0x97, 0x3e, 0xb8, 0xe2, 0x84, 0x3d, 0x9a, 0x73, 0x98, 0x3e,
  0x36, 0x40, 0x44, 0x3d, 0xec, 0x2b, 0x5e, 0x3e, 0xb2, 0x87, 0xb1, 0x3d,
  0x82, 0x07, 0xc3, 0x3e, 0x16, 0x5e, 0x93, 0x3e, 0xf2, 0x22, 0x34, 0x3e,
  0x21, 0x17, 0xc2, 0x3e, 0x91, 0xb7, 0xc9, 0x3e, 0xd0, 0x4a, 0xf1, 0x3e,
  0xd6, 0xba, 0xcf, 0x3e, 0xe1, 0x32, 0xa8, 0x3e, 0x01, 0x07, 0xbf, 0x3e,
  0xc3, 0xce, 0x17, 0x3f, 0xd4, 0x16, 0x60, 0x3e, 0x41, 0x23, 0xcf, 0x3e,
  0xec, 0xcd, 0x56, 0x3e, 0xe0, 0x7f, 0x18, 0x3f, 0x2f, 0x77, 0x41, 0x3e,
  0x4f, 0xbb, 0x2c, 0x3f, 0x34, 0xcd, 0xcf, 0x3e, 0x2a, 0x6d, 0x11, 0x3f,
  0x7b, 0xbc, 0x71, 0x3e, 0x08, 0x0d, 0x59, 0x3f, 0x91, 0xcf, 0xc8, 0x3e,
  0xec, 0x46, 0x43, 0x3f, 0xcb, 0x05, 0x21, 0x3e, 0xbd, 0x51, 0x3a, 0x3f,
  0x00, 0xf6, 0xa6, 0x3e, 0x53, 0xad, 0x2c, 0x3f, 0x00, 0xe4, 0xa7, 0xbc,
  0x68, 0xcb, 0x13, 0x3f, 0x43, 0x76, 0x84, 0x3c, 0x32, 0x5e, 0x15, 0x3f,
  0x1b, 0xf4, 0xc8, 0xbd, 0x1a, 0x66, 0xf6, 0x3e, 0xfa, 0x7b, 0x6e, 0x3c,
  0x92, 0x05, 0xa0, 0x3e, 0xa4, 0xbe, 0xbb, 0xbd, 0x52, 0xd7, 0x00, 0x3f,
  0xe5, 0x75, 0xb1, 0xbe, 0x66, 0xc0, 0xb6, 0x3e, 0xba, 0x2d, 0x96, 0xbd,
  0x3d, 0x65, 0x8a, 0x3e, 0x9b, 0xc2, 0x23, 0x3d, 0x01, 0xb5, 0x43, 0x3e,
  0x9e, 0x08, 0x0f, 0xbe, 0x28, 0x5b, 0x2f, 0x3e, 0x30, 0x46, 0xf7, 0x3c,
  0x90, 0x39, 0x4c, 0xbd, 0xa6, 0xf1, 0xca, 0x3c, 0xaa, 0xdb, 0x74, 0xbb,
  0x22, 0x3d, 0xf2, 0xbd, 0x23, 0xba, 0x40, 0xbd, 0x96, 0x90, 0xd1, 0x3c,
  0xd8, 0x8a, 0xdf, 0x3c, 0x90, 0x27, 0x8c, 0xbd, 0xa1, 0x77, 0x98, 0xbd,
  0xa1, 0x7a, 0x15, 0xbd, 0x49, 0x8f, 0xbe, 0x3d, 0x6c, 0xfa, 0x03, 0xbe,
  0x72, 0x31, 0x98, 0xbc, 0x36, 0xe9, 0xe9, 0xbc, 0x6d, 0x21, 0x23, 0xbd,
  0xba, 0x00, 0xb0, 0xbd, 0x94, 0x96, 0x3f, 0xbd, 0x37, 0xe5, 0x23, 0xbe,
  0x36, 0x4f, 0xea, 0xbd, 0x73, 0xb7, 0x1b, 0x3d, 0xc6, 0x30, 0xd2, 0xbd,
  0xcb, 0x82, 0xda, 0x3c, 0x21, 0x06, 0x67, 0xbe, 0x5d, 0x4f, 0x05, 0xbe,
  0x94, 0xd1, 0x6f, 0xbe, 0x77, 0x2e, 0x1f, 0x3e, 0x7e, 0x60, 0x2c, 0xbe,
  0xd5, 0x68, 0xc4, 0xbd, 0xc4, 0xb3, 0xd8, 0x3a, 0xa9, 0x74, 0xaf, 0xbd,
  0xf7, 0x46, 0x2d, 0x3c, 0xb0, 0x7a, 0x0a, 0x3d, 0xa8, 0x6c, 0x15, 0xbe,
  0x4c, 0x79, 0xac, 0x3d, 0x82, 0x92, 0x15, 0xbe, 0xb3, 0x58, 0x3e, 0x3e,
  0xd1, 0x52, 0x6f, 0xbd, 0xc0, 0x90, 0xfd, 0xbd, 0x61, 0xdc, 0x85, 0xbe,
  0x7a, 0xd4, 0x3e, 0xbd, 0x92, 0x41, 0x9d, 0xbe, 0xce, 0x9e, 0x00, 0x3d,
  0x63, 0xfc, 0x16, 0xbe, 0x86, 0xbd, 0x45, 0x3c, 0xc6, 0xee, 0x39, 0xbe,
  0xe3, 0x3e, 0x6c, 0x3d, 0xc3, 0xc8, 0x6b, 0xbd, 0x2e, 0x7d, 0x85, 0xbd,
  0x37, 0x4b, 0xff, 0xbd, 0xf0, 0xb9, 0x34, 0x3e, 0x26, 0x6c, 0x06, 0xbe,
  0x9d, 0xd4, 0x25, 0xbe, 0x25, 0x70, 0xd4, 0xbd, 0x96, 0xa4, 0x88, 0xbd,
  0x4b, 0x10, 0x9f, 0xbd, 0xa8, 0xe7, 0x85, 0x3c, 0xd8, 0x56, 0x07, 0xbe,
  0x42, 0x91, 0x95, 0x3d, 0x25, 0xa9, 0x82, 0xbe, 0xda, 0x58, 0x9e, 0x3d,
  0x4e, 0x25, 0x82, 0xbe, 0x02, 0x92, 0xfb, 0x3c, 0xdf, 0xc5, 0x92, 0xbc,
  0x5e, 0xd7, 0x3d, 0xbd, 0x91, 0x2f, 0x1c, 0xbe, 0xf5, 0xa5, 0xea, 0x3d,
  0xa8, 0xd9, 0x83, 0x3d, 0x71, 0x96, 0x8e, 0xbd, 0x8b, 0xc6, 0x6e, 0x3d,
  0x57, 0xf4, 0x0e, 0x3e, 0x57, 0x73, 0x04, 0xbe, 0xea, 0xb3, 0x3a, 0x3e,
  0x04, 0x79, 0x0f, 0xbd, 0xa4, 0x4b, 0x96, 0x3d, 0x2d, 0x30, 0x0f, 0xbe,
  0xa1, 0x28, 0x7c, 0xbd, 0xed, 0x50, 0x81, 0xbd, 0x04, 0x9d, 0x19, 0x3d,
  0x6e, 0xd6, 0x4c, 0xbd, 0x0a, 0x99, 0xba, 0x3d, 0x2a, 0xdd, 0x12, 0xbe,
  0x9d, 0x6f, 0xc5, 0xbb, 0x44, 0x62, 0xbc, 0xbc, 0x98, 0x9c, 0xa9, 0x3d,
  0x6c, 0x16, 0x76, 0x3d, 0x0b, 0x01, 0x0b, 0xbe, 0x65, 0x07, 0x1d, 0xbe,
  0x96, 0x30, 0x96, 0xbc, 0x66, 0x94, 0xac, 0xbd, 0x71, 0xfe, 0x23, 0xbe,
  0x2c, 0xce, 0x44, 0x3d, 0xf1, 0x78, 0xef, 0x3d, 0xe9, 0xdb, 0x2a, 0x3d,
  0xb9, 0x99, 0x07, 0xbe, 0xfd, 0xe7, 0xe9, 0x3c, 0xd5, 0xbd, 0x60, 0xbc,
  0x99, 0xf7, 0x04, 0xbe, 0x4f, 0x09, 0x6e, 0xbb, 0xfd, 0xf3, 0x30, 0xbd,
  0x72, 0x2f, 0x11, 0x3e, 0xe3, 0x54, 0x0c, 0x3d, 0x25, 0xb6, 0x35, 0x3d,
  0xa7, 0xb3, 0x6b, 0xbe, 0x76, 0x12, 0x36, 0x3e, 0x96, 0x9d, 0x60, 0x3f,
  0x74, 0x39, 0xc0, 0x3d, 0x85, 0xa7, 0xf6, 0x3e, 0x3f, 0x5a, 0xc0, 0xbe,
  0x0e, 0x31, 0xf6, 0x3e, 0xb9, 0x5d, 0x2d, 0xbe, 0x99, 0xff, 0x0c, 0x3e,
  0x66, 0x82, 0x6e, 0xbe, 0x09, 0x79, 0xd4, 0x3c, 0x07, 0x98, 0x06, 0xbe,
  0x86, 0x04, 0x2f, 0x3d, 0xed, 0xa6, 0x07, 0xbe, 0x33, 0x29, 0x82, 0xbe,
  0xb6, 0x4a, 0x73, 0x3d, 0x91, 0x0b, 0xc1, 0xbe, 0x24, 0x83, 0x5d, 0xbe,
  0xd3, 0xd1, 0xa0, 0xbe, 0xc6, 0x59, 0x13, 0x3d, 0xf2, 0x40, 0x3c, 0xbf,
  0x51, 0xf4, 0x53, 0xbd, 0xbd, 0xc8, 0x2b, 0xbf, 0xa0, 0x11, 0x6e, 0xbd,
  0x46, 0x03, 0x54, 0xbf, 0xa5, 0xf1, 0x28, 0xbe, 0x87, 0x61, 0x0f, 0xbf,
  0x20, 0xa6, 0xba, 0xbd, 0x75, 0xb9, 0xe2, 0xbe, 0x34, 0xc5, 0x20, 0xbe,
  0xb3, 0x4a, 0x9d, 0xbe, 0xbf, 0xb2, 0x82, 0xbd, 0xd1, 0xea, 0x98, 0xbe,
  0x43, 0x82, 0x60, 0xbe, 0xda, 0x8f, 0x19, 0xbe, 0xd4, 0x92, 0x57, 0xbe,
  0x34, 0xee, 0x5d, 0xbe, 0x4d, 0x68, 0x95, 0xbd, 0xba, 0x78, 0x11, 0xbe,
  0xa5, 0x3c, 0x02, 0xbe, 0xf7, 0xf0, 0xcd, 0xbd, 0xe5, 0x1b, 0x4c, 0xbe,
  0x17, 0x84, 0x6e, 0xbb, 0x17, 0x62, 0x23, 0xbe, 0x7a, 0x58, 0xd2, 0xbd,
  0x40, 0xde, 0x89, 0xbe, 0x36, 0xb4, 0xa4, 0x3c, 0x10, 0x2f, 0x2d, 0xbe,
  0x16, 0x5b, 0x06, 0x3d, 0xd6, 0x1e, 0xae, 0xbd, 0x8e, 0x5d, 0x1f, 0x3d,
  0xb5, 0x79, 0x2f, 0xbe, 0x74, 0x5a, 0x85, 0xbd, 0x79, 0xe6, 0x03, 0xbe,
  0xe5, 0xa3, 0xda, 0xbd, 0x42, 0x81, 0x49, 0x3d, 0xf5, 0xb1, 0x06, 0x3e,
  0xdb, 0x63, 0x8c, 0xbe, 0x8e, 0x15, 0xc7, 0xbd, 0xf3, 0x6d, 0xf4, 0xbd,
  0xfd, 0x9e, 0xae, 0xbd, 0xcc, 0x62, 0x3a, 0x3c, 0x85, 0xed, 0xe1, 0xbc,
  0x00, 0x43, 0x67, 0x3d, 0x3b, 0x7d, 0x1e, 0xbe, 0x42, 0x95, 0x1e, 0xbe,
  0xec, 0xeb, 0x51, 0x3d, 0xdb, 0x9b, 0xdb, 0xbd, 0xf3, 0x2b, 0x10, 0xbc,
  0x54, 0x59, 0x3a, 0xbe, 0xf9, 0x9c, 0x87, 0x3c, 0x40, 0x9c, 0x06, 0xbd,
  0xbc, 0xdb, 0xd3, 0xbc, 0xd9, 0xe5, 0xd0, 0x3b, 0xdc, 0xbd, 0xd4, 0xbd,
  0xa2, 0x71, 0x61, 0xbe, 0x98, 0x19, 0x0b, 0x3d, 0x95, 0xab, 0x9a, 0xbd,
  0x97, 0x32, 0x1b, 0x3d, 0x49, 0x48, 0x85, 0xbe, 0xcd, 0x4a, 0xaf, 0xbd,
  0x10, 0xe0, 0x25, 0xbe, 0x80, 0xfb, 0x09, 0xbe, 0x2d, 0x27, 0x5f, 0xbe,
  0x01, 0x81, 0x7e, 0xbd, 0x68, 0xae, 0x5f, 0xbd, 0x5d, 0x1f, 0xa4, 0x3c,
  0x64, 0xe3, 0x15, 0xbe, 0xe2, 0xf8, 0x72, 0xbd, 0xa2, 0x9b, 0x48, 0xbe,
  0x1b, 0x18, 0xb3, 0xbc, 0x4f, 0x89, 0x2c, 0xbe, 0x95, 0xcf, 0x06, 0xbe,
  0x83, 0x78, 0x9a, 0x3c, 0x9d, 0x49, 0x0d, 0xbe, 0xee, 0x31, 0x73, 0xbd,
  0xc4, 0xda, 0xcb, 0xbd, 0xcd, 0x18, 0xda, 0xbd, 0x7d, 0x1c, 0xcc, 0xbd,
  0xfd, 0x8c, 0xb7, 0xbd, 0x27, 0x19, 0x95, 0xbd, 0x26, 0x9b, 0x10, 0x3c,
  0xa5, 0x84, 0xc2, 0x3d, 0x81, 0x52, 0x00, 0xbe, 0x0f, 0x3b, 0x5a, 0x3c,
  0x5b, 0x23, 0x02, 0xbe, 0x16, 0xdf, 0xa1, 0xbc, 0xa6, 0x8b, 0xc2, 0xbc,
  0x8c, 0xcb, 0x17, 0x3c, 0x57, 0x41, 0x48, 0xbc, 0xf2, 0xb1, 0xec, 0xbd,
  0x9c, 0xb2, 0x19, 0xbe, 0x67, 0xd4, 0x37, 0xbe, 0x0b, 0xe1, 0x9f, 0xbd,
  0xff, 0x00, 0x2f, 0xbe, 0xb6, 0x7c, 0x8b, 0xbd, 0xb3, 0x74, 0x7c, 0xbd,
  0xb6, 0x8b, 0xc1, 0x3c, 0x7b, 0xa8, 0x52, 0xbe, 0x4e, 0x1f, 0xc3, 0x3d,
  0x03, 0x6c, 0xce, 0xbd, 0xcf, 0xde, 0x7e, 0xbe, 0x44, 0xdf, 0x2b, 0xbd,
  0x15, 0x02, 0xdf, 0xbc, 0x20, 0xad, 0xbc, 0x3c, 0xc6, 0x93, 0xd0, 0xbd,
  0x17, 0x21, 0x2e, 0xbd, 0xde, 0x08, 0xd2, 0x3d, 0x24, 0xca, 0xf9, 0xbd,
  0x8b, 0xbc, 0x85, 0x3e, 0x9a, 0x77, 0x84, 0xbc, 0x3d, 0x2e, 0x1d, 0x3e,
  0x1d, 0xc9, 0x40, 0xbd, 0xfd, 0x7a, 0x80, 0x3e, 0xc8, 0x00, 0xb7, 0xbd,
  0x51, 0xef, 0x0d, 0x3e, 0x84, 0xff, 0x06, 0xbe, 0xa5, 0xfa, 0xec, 0x3d,
  0x57, 0x0f, 0xf4, 0x3d, 0x11, 0xc5, 0x09, 0x3e, 0x1a, 0x4b, 0xac, 0x3d,
  0x8c, 0x06, 0x9c, 0x3d, 0xd3, 0x40, 0x4c, 0x3d, 0xc1, 0x0b, 0x74, 0x3e,
  0x7b, 0x31, 0x02, 0xbd, 0xe3, 0x7f, 0xf9, 0x3c, 0x34, 0x04, 0x6b, 0x3c,
  0xdd, 0x6b, 0x82, 0x3e, 0x13, 0x25, 0x18, 0x3e, 0xc5, 0x69, 0x9f, 0x3d,
  0x1e, 0x2a, 0x4d, 0x3e, 0x9d, 0x54, 0xfa, 0x3d, 0x09, 0x42, 0x88, 0x3e,
  0x38, 0x9d, 0xb8, 0x3d, 0xc8, 0x0a, 0xc1, 0x3d, 0x9d, 0x97, 0xfc, 0xbb,
  0xa9, 0xa2, 0x89, 0x3e, 0x48, 0xd0, 0x41, 0x3c, 0xe5, 0x1d, 0xdf, 0x3e,
  0x00, 0x46, 0x04, 0xbe, 0xcc, 0x85, 0xc8, 0x3e, 0x52, 0x55, 0xd9, 0xbd,
  0x15, 0xc7, 0xe1, 0x3d, 0xc1, 0x5f, 0x35, 0x3e, 0x07, 0x4f, 0x8d, 0x3e,
  0x3f, 0xeb, 0x95, 0x3e, 0xc5, 0xec, 0x88, 0x3e, 0x9a, 0xf3, 0xbe, 0x3e,
  0x65, 0x73, 0xa2, 0x3e, 0xe5, 0x58, 0x58, 0x3e, 0xd1, 0x11, 0x78, 0x3e,
  0x56, 0x31, 0x00, 0x3e, 0x0a, 0xad, 0x4c, 0x3e, 0x9a, 0xc5, 0x0a, 0x3f,
  0xec, 0xf3, 0x85, 0x3e, 0x6b, 0x64, 0xc1, 0x3d, 0x2c, 0xa2, 0x7e, 0x3e,
  0x17, 0xf0, 0x13, 0x3e, 0x50, 0x09, 0x06, 0x3f, 0x12, 0xd6, 0x07, 0x3e,
  0xe6, 0x15, 0xd6, 0x3e, 0x2f, 0x0d, 0x7b, 0x3e, 0x7f, 0xe1, 0xe0, 0x3e,
  0x27, 0x42, 0xda, 0xba, 0xdc, 0xc8, 0x14, 0x3f, 0xdf, 0xae, 0x50, 0x3e,
  0x51, 0xbc, 0x1f, 0x3f, 0xb4, 0x7b, 0x81, 0x3e, 0xb2, 0x44, 0x0f, 0x3f,
  0x72, 0xec, 0x9f, 0x3d, 0x93, 0xe4, 0x10, 0x3f, 0xcc, 0x2a, 0xa2, 0x3d,
  0xe1, 0xa9, 0x14, 0x3f, 0x24, 0xfd, 0xeb, 0xbc, 0x56, 0xc5, 0xfb, 0x3e,
  0x8d, 0x44, 0xb5, 0x3d, 0xdd, 0x87, 0xae, 0x3e, 0x1a, 0xc1, 0xe3, 0xbc,
  0xfd, 0x23, 0xa9, 0x3e, 0xf2, 0x6e, 0xa5, 0x3d, 0xd2, 0x7b, 0xcd, 0x3e,
  0x53, 0x01, 0x01, 0xbe, 0x5c, 0x73, 0x0a, 0x3f, 0xbc, 0x6d, 0xc3, 0x3b,
  0x43, 0x94, 0xe7, 0x3e, 0x72, 0x42, 0x07, 0x3e, 0x0a, 0x60, 0xae, 0x3e,
  0xe1, 0x55, 0x1b, 0xbe, 0xcf, 0x05, 0xc6, 0x3e, 0x69, 0xe1, 0x87, 0x3d,
  0xc1, 0x62, 0xa7, 0x3e, 0xf6, 0x40, 0x2f, 0xbe, 0x96, 0x04, 0x0b, 0x3e,
  0xd4, 0xa8, 0x85, 0x3b, 0x52, 0x9a, 0x3f, 0x3e, 0xfe, 0xb2, 0x4b, 0xbd,
  0xd0, 0x8c, 0x19, 0x3e, 0x52, 0x04, 0xba, 0xbd, 0x99, 0xc1, 0xa3, 0x3e,
  0xf4, 0x7e, 0x16, 0x3d, 0x7b, 0x4e, 0x85, 0x3e, 0xe6, 0x6c, 0x94, 0x3d,
  0x25, 0xdb, 0xeb, 0x3d, 0x3f, 0xc8, 0xc1, 0xbd, 0xb9, 0xdf, 0x4f, 0x3e,
  0x6d, 0x2c, 0x77, 0xbd, 0xd2, 0xa3, 0x9a, 0x3d, 0xb3, 0xcd, 0x85, 0xbd,
  0x6b, 0x5f, 0x4a, 0xbd, 0xe1, 0x3e, 0x82, 0xbb, 0xcb, 0xa5, 0x00, 0x3e,
  0xc6, 0xf8, 0x59, 0xbd, 0xc1, 0x17, 0x02, 0xbd, 0x4e, 0xb3, 0xcb, 0xbd,
  0xcb, 0x10, 0xf5, 0xbd, 0x35, 0x37, 0x08, 0xbd, 0x5d, 0xa7, 0x14, 0xbe,
  0xdc, 0xfe, 0x76, 0xbd, 0x20, 0xd7, 0x58, 0x3d, 0x4e, 0xb5, 0xce, 0xbd,
  0x1f, 0x99, 0x0c, 0xbe, 0x49, 0x0c, 0x61, 0xbd, 0x90, 0x61, 0x58, 0xbe,
  0x50, 0x5f, 0x6a, 0x3d, 0x38, 0x59, 0xf7, 0xbd, 0xed, 0x49, 0x08, 0x3d,
  0x0a, 0xb1, 0xba, 0xbc, 0x49, 0x4f, 0x17, 0xbe, 0xbb, 0xdb, 0x65, 0xbe,
  0xa8, 0x15, 0xe8, 0xbc, 0x0c, 0xdb, 0x19, 0xbe, 0xef, 0xbc, 0xdf, 0xbc,
  0xca, 0xd6, 0xb8, 0xbd, 0xec, 0x2c, 0x28, 0xbc, 0xa8, 0x0b, 0x8a, 0xbe,
  0x55, 0xa5, 0xd0, 0x3d, 0x89, 0xb2, 0x91, 0xbe, 0x58, 0xb4, 0x18, 0x3d,
  0x93, 0x34, 0xd1, 0xbd, 0xf6, 0x6f, 0xb7, 0x3d, 0x5e, 0xe5, 0x82, 0xbe,
  0x8e, 0xa4, 0x7e, 0xbe, 0x34, 0x29, 0x44, 0xbe, 0x3f, 0xce, 0xbb, 0xbd,
  0x8c, 0x08, 0x8e, 0xbe, 0xe9, 0x27, 0xd7, 0xbb, 0xe1, 0xb7, 0x92, 0xbe,
  0x2b, 0x96, 0x8a, 0x3d, 0x88, 0xea, 0xde, 0xbe, 0x12, 0xbe, 0xee, 0xbd,
  0xaa, 0xfe, 0x45, 0xbe, 0x2c, 0xaa, 0x2f, 0x3e, 0xac, 0x63, 0x01, 0xbf,
  0xd0, 0x72, 0x36, 0x3d, 0x2e, 0xc7, 0xe5, 0xbe, 0x97, 0x95, 0xc2, 0xbb,
  0xc3, 0x25, 0x5e, 0xbe, 0xd2, 0x14, 0x0d, 0x3e, 0xf3, 0xa7, 0xe7, 0xbe,
  0x8d, 0x3c, 0xdf, 0x3d, 0x62, 0x2e, 0xea, 0xbe, 0xf0, 0xa7, 0x85, 0x3d,
  0x49, 0x38, 0xf5, 0xbe, 0x46, 0xae, 0x08, 0x3d, 0x9a, 0x9e, 0x80, 0xbe,
  0xba, 0x32, 0x43, 0xbc, 0xb2, 0x10, 0x5e, 0xbe, 0x9e, 0xc4, 0x8c, 0x3d,
  0xb3, 0x70, 0x3c, 0xbe, 0x96, 0x8f, 0x65, 0x3d, 0x9f, 0x8d, 0x7e, 0xbe,
  0x61, 0x64, 0xe8, 0x3d, 0x8f, 0xfb, 0x10, 0xbe, 0x77, 0x85, 0xfe, 0x3d,
  0x36, 0x4d, 0xc9, 0xbe, 0x80, 0x0c, 0x41, 0x3e, 0xb2, 0x54, 0xd5, 0xbe,
  0x53, 0xc5, 0x38, 0x3e, 0x16, 0x6d, 0x39, 0xbe, 0x1e, 0x95, 0xdf, 0xbd,
  0xe0, 0xa7, 0x86, 0xbe, 0x64, 0x5f, 0xd9, 0x3d, 0xed, 0x15, 0x9f, 0xbe,
  0x09, 0x8b, 0x61, 0x3e, 0xc1, 0x6c, 0x68, 0xbe, 0x3c, 0x88, 0xca, 0xbb,
  0x3b, 0x9c, 0x3b, 0x3d, 0x7d, 0xbf, 0x07, 0xbd, 0xb3, 0xc1, 0x7a, 0xbc,
  0x23, 0x21, 0x86, 0xbc, 0xc2, 0xc2, 0xf5, 0xbd, 0x26, 0x6c, 0x80, 0x3e,
  0xf7, 0x31, 0x3d, 0xbd, 0x14, 0xe0, 0x6b, 0x3e, 0xd8, 0xfe, 0x57, 0x3e,
  0x0e, 0xe6, 0x27, 0x3c, 0x8e, 0x0e, 0xf3, 0x3d, 0x22, 0x85, 0x23, 0x3d,
  0xef, 0x32, 0xb4, 0x3d, 0x2a, 0xed, 0x60, 0x3e, 0x5a, 0xc8, 0x72, 0x3e,
  0x62, 0xe2, 0x2f, 0xbd, 0x85, 0x8d, 0xab, 0xbe, 0xe8, 0x05, 0xdf, 0x3d,
  0x97, 0xef, 0xab, 0xbe, 0x43, 0x69, 0xd5, 0x3e, 0x03, 0xa4, 0x23, 0xbe,
  0x50, 0x0f, 0x50, 0x3e, 0xc4, 0x1a, 0xc8, 0xbe, 0x56, 0xdc, 0x30, 0x3e,
  0x2a, 0x75, 0xbd, 0xbe, 0x80, 0xab, 0xc0, 0x3e, 0x91, 0x16, 0x9b, 0xbe,
  0xe3, 0x32, 0xbf, 0x3e, 0x32, 0xbf, 0xc4, 0xbe, 0x20, 0xb9, 0x81, 0x3e,
  0xa7, 0x0d, 0xa3, 0xbe, 0x9d, 0xd6, 0x28, 0x3e, 0xdf, 0x34, 0x54, 0xbe,
  0xc7, 0xad, 0x47, 0x3e, 0x76, 0xa3, 0xaa, 0xbe, 0x77, 0xc3, 0xa9, 0x3d,
  0x3f, 0x0e, 0x0a, 0xbd, 0x3b, 0x8e, 0xa3, 0x3c, 0x90, 0x2c, 0x03, 0xbe,
  0x36, 0xe0, 0xaf, 0xbd, 0x26, 0xe8, 0x4c, 0xbe, 0x29, 0x3c, 0x8f, 0xbe,
  0xf6, 0x91, 0xa8, 0xbd, 0x66, 0x03, 0x44, 0xbe, 0x19, 0x82, 0x66, 0xbd,
  0x04, 0xb2, 0xf9, 0xbd, 0x6a, 0xe1, 0xa6, 0x3d, 0x93, 0xbd, 0xc8, 0xbe,
  0xfa, 0x03, 0x66, 0x3e, 0xa6, 0x29, 0x37, 0xbe, 0x91, 0x36, 0xcc, 0x3d,
  0x0c, 0xcc, 0x53, 0xbe, 0xa9, 0x81, 0x94, 0x3d, 0x3e, 0xe6, 0x07, 0xbf,
  0x07, 0x03, 0x3d, 0x3e, 0x9a, 0x3f, 0xe9, 0xbe, 0x69, 0xb6, 0x5c, 0x3e,
  0x7e, 0x39, 0xd1, 0xbe, 0xd9, 0x27, 0x38, 0x3e, 0x44, 0xde, 0x4b, 0xbe,
  0xbb, 0x78, 0x54, 0x3e, 0x85, 0x77, 0xa9, 0xbe, 0x71, 0x88, 0x4f, 0x3e,
  0x86, 0x43, 0xfc, 0xbe, 0x16, 0x6d, 0x8a, 0x3e, 0x87, 0xfb, 0x05, 0xbf,
  0x43, 0xdd, 0xda, 0x3e, 0x4e, 0xdb, 0xba, 0xbe, 0x6b, 0x99, 0xb9, 0x3e,
  0xa0, 0x7a, 0x46, 0xbe, 0xa1, 0xb2, 0xbf, 0x3e, 0x99, 0x1a, 0x27, 0xbe,
  0x6e, 0x90, 0xd5, 0x3e, 0x58, 0x5e, 0x3f, 0xbd, 0x58, 0x08, 0xb3, 0x3e,
  0xab, 0x45, 0x8e, 0x3c, 0x92, 0x23, 0x7f, 0x3e, 0x53, 0x6e, 0x90, 0x3e,
  0xee, 0xb5, 0x98, 0x3d, 0x52, 0x6e, 0x00, 0x3e, 0xb9, 0x7b, 0xce, 0x3d,
  0x55, 0xe0, 0xe9, 0x3d, 0xfb, 0xc6, 0x0a, 0x3e, 0x9d, 0x22, 0x2b, 0x3e,
  0xbf, 0xad, 0x20, 0x3d, 0xac, 0x56, 0xaf, 0x3e, 0x0c, 0xcd, 0x90, 0x3d,
  0x40, 0x8e, 0x98, 0x3e, 0x16, 0xfd, 0xef, 0x3d, 0xdf, 0xd9, 0xd3, 0x3e,
  0x99, 0xf5, 0xfb, 0x3d, 0xcf, 0xc4, 0x90, 0x3e, 0x77, 0xb9, 0xcc, 0xbc,
  0x2f, 0x13, 0x3d, 0x3e, 0x81, 0xc0, 0xcc, 0xbc, 0x2d, 0x61, 0x89, 0x3e,
  0xca, 0x63, 0xae, 0xbc, 0x7b, 0x23, 0xc2, 0x3e, 0x58, 0x44, 0x9e, 0x3c,
  0x7d, 0x84, 0xd2, 0x3e, 0xc5, 0x7c, 0x00, 0x3d, 0x5c, 0x36, 0x86, 0x3e,
  0xd0, 0x21, 0xa3, 0x3d, 0xd9, 0x0b, 0xfe, 0x3e, 0xd8, 0xff, 0x70, 0x3d,
  0x53, 0x4d, 0x94, 0x3e, 0x1b, 0x70, 0xb9, 0xbc, 0xc2, 0xc8, 0x9b, 0x3e,
  0x70, 0xbb, 0x6e, 0xbd, 0x2d, 0xb7, 0x6e, 0x3e, 0xc2, 0x18, 0x36, 0xbd,
  0x00, 0x0e, 0x52, 0x3e, 0x4f, 0x09, 0x65, 0xbd, 0xac, 0x8e, 0x02, 0x3e,
  0x7a, 0x91, 0xc3, 0xbc, 0xfa, 0x2e, 0x89, 0x3e, 0xea, 0xe3, 0x1b, 0xbd,
  0x48, 0xcb, 0xa4, 0x3e, 0x84, 0xe9, 0xa4, 0x3d, 0x31, 0xad, 0x42, 0x3d,
  0x7a, 0xd2, 0xab, 0x3c, 0x57, 0xd9, 0x02, 0x3e, 0x57, 0xfb, 0x1c, 0x3c,
  0x4a, 0xef, 0x1f, 0x3e, 0x90, 0x55, 0x9f, 0x3c, 0xc3, 0x86, 0x3b, 0x3e,
  0xa2, 0x9b, 0xc8, 0xbc, 0x15, 0x20, 0xf2, 0x3d, 0x2f, 0x33, 0xa5, 0x3c,
  0x09, 0x64, 0x6f, 0x3e, 0x17, 0x52, 0x22, 0xbd, 0x3e, 0x85, 0x8f, 0x3e,
  0x08, 0xa1, 0x6f, 0x3b, 0xf2, 0x43, 0x91, 0x3e, 0x8b, 0x5f, 0x18, 0xbd,
  0xd4, 0xa6, 0xf1, 0x3c, 0x20, 0x38, 0x2e, 0xbd, 0x07, 0x36, 0x1b, 0x3e,
  0xcf, 0x87, 0x38, 0x3d, 0x58, 0x03, 0x0d, 0x3d, 0x0f, 0xd9, 0xac, 0x3d,
  0xd9, 0x3b, 0x68, 0xbd, 0xd3, 0x6e, 0x8b, 0x3d, 0x74, 0xfc, 0x95, 0x3d,
  0x9a, 0x7e, 0xa4, 0x3d, 0xd5, 0x79, 0x29, 0x3e, 0xa0, 0x73, 0x23, 0xbd,
  0xd6, 0x03, 0x43, 0x3c, 0x87, 0x20, 0x26, 0x3d, 0xe1, 0xe1, 0x89, 0x3d,
  0x39, 0xdb, 0xdd, 0xbd, 0x87, 0x88, 0x71, 0x3e, 0x3c, 0x36, 0x3d, 0xbd,
  0x23, 0x0d, 0x00, 0x3e, 0x4d, 0x8c, 0x33, 0x3e, 0x0a, 0x4f, 0x23, 0x3e,
  0x4d, 0x0e, 0xa4, 0x3c, 0x8a, 0x6f, 0x6c, 0x3e, 0xdc, 0x48, 0x78, 0x3d,
  0x67, 0x95, 0x8c, 0x3d, 0x76, 0xfa, 0x18, 0x3e, 0x5a, 0xe8, 0x2d, 0x3e,
  0xca, 0x8c, 0x44, 0x3d, 0x5f, 0x1f, 0xf4, 0x3d, 0x71, 0x0f, 0x42, 0x3e,
  0x0a, 0xd1, 0x82, 0x3e, 0xd6, 0x9f, 0xdf, 0x3a, 0x4d, 0x88, 0x8e, 0x3c,
  0xfc, 0x02, 0x12, 0x3d, 0x59, 0x47, 0x60, 0x3e, 0xf4, 0xce, 0xfa, 0xba,
  0xa1, 0xac, 0xa4, 0x3d, 0xf8, 0x82, 0x27, 0xbe, 0x72, 0xaa, 0x96, 0x3e,
  0x1c, 0xaa, 0x43, 0xbe, 0xa7, 0xb5, 0xba, 0x3e, 0x66, 0xfc, 0xff, 0xff,
  0x04, 0x00, 0x00, 0x00, 0x10, 0x00, 0x00, 0x00, 0x8d, 0x77, 0x1c, 0xbf,
  0xd1, 0x43, 0xdb, 0x3d, 0xfd, 0xbf, 0x54, 0x3e, 0x2f, 0x88, 0x9d, 0xbd,
  0x82, 0xfc, 0xff, 0xff, 0x04, 0x00, 0x00, 0x00, 0x10, 0x00, 0x00, 0x00,
  0x80, 0x8a, 0x44, 0x3f, 0x4d, 0xb5, 0x2b, 0x3f, 0xed, 0x94, 0xae, 0xbe,
  0x0f, 0x79, 0x95, 0xbf, 0x9e, 0xfc, 0xff, 0xff, 0x04, 0x00, 0x00, 0x00,
  0x10, 0x00, 0x00, 0x00, 0x45, 0xe5, 0x15, 0x3f, 0xa6, 0xce, 0x7a, 0x3f,
  0x8b, 0xd2, 0x3f, 0xbf, 0xee, 0x95, 0x48, 0x3f, 0xba, 0xfc, 0xff, 0xff,
  0x04, 0x00, 0x00, 0x00, 0x10, 0x00, 0x00, 0x00, 0xb6, 0x82, 0x9f, 0x3e,
  0x88, 0xad, 0x02, 0xbe, 0x3f, 0x95, 0x54, 0x3f, 0x08, 0x64, 0xf6, 0xbf,
  0xd6, 0xfc, 0xff, 0xff, 0x04, 0x00, 0x00, 0x00, 0x08, 0x00, 0x00, 0x00,
  0x59, 0x2d, 0xeb, 0x3e, 0xe1, 0xd8, 0x1c, 0x3e, 0xea, 0xfc, 0xff, 0xff,
  0x04, 0x00, 0x00, 0x00, 0x08, 0x00, 0x00, 0x00, 0x71, 0x01, 0x96, 0x3f,
  0x6d, 0xae, 0x78, 0x3f, 0xfe, 0xfc, 0xff, 0xff, 0x04, 0x00, 0x00, 0x00,
  0x08, 0x00, 0x00, 0x00, 0x0c, 0x4e, 0x3c, 0xbd, 0x2e, 0x67, 0x4c, 0xbd,
  0x12, 0xfd, 0xff, 0xff, 0x04, 0x00, 0x00, 0x00, 0x08, 0x00, 0x00, 0x00,
  0x7a, 0xb1, 0x2f, 0x3f, 0x35, 0xca, 0x7c, 0x3e, 0x26, 0xfd, 0xff, 0xff,
  0x04, 0x00, 0x00, 0x00, 0x10, 0x00, 0x00, 0x00, 0xda, 0xd1, 0x02, 0x3f,
  0x5e, 0x14, 0x80, 0x3f, 0x57, 0x25, 0xe6, 0xbe, 0x2f, 0x2c, 0x4f, 0xbf,
  0x42, 0xfd, 0xff, 0xff, 0x04, 0x00, 0x00, 0x00, 0x10, 0x00, 0x00, 0x00,
  0x4b, 0xe8, 0x6b, 0xbd, 0x17, 0xeb, 0x6b, 0xbe, 0xf8, 0x5a, 0x9e, 0xbe,
  0xcf, 0x9d, 0x63, 0xbf, 0x5e, 0xfd, 0xff, 0xff, 0x04, 0x00, 0x00, 0x00,
  0x10, 0x00, 0x00, 0x00, 0x62, 0xb6, 0x0a, 0x3e, 0xda, 0x1c, 0x9e, 0xbd,
  0x82, 0x3c, 0x8d, 0xbe, 0xec, 0xa2, 0xd8, 0xbc, 0x7a, 0xfd, 0xff, 0xff,
  0x04, 0x00, 0x00, 0x00, 0x10, 0x00, 0x00, 0x00, 0xf0, 0x61, 0xc5, 0x3e,
  0x72, 0xaf, 0x4a, 0xbf, 0x28, 0xcf, 0x80, 0xbd, 0x85, 0xb9, 0x8c, 0xbf,
  0x96, 0xfd, 0xff, 0xff, 0x04, 0x00, 0x00, 0x00, 0x18, 0x00, 0x00, 0x00,
  0x02, 0x28, 0xae, 0x3e, 0x21, 0x52, 0x20, 0x3d, 0xa6, 0x5f, 0xdf, 0x3f,
  0x7f, 0xa7, 0xc2, 0xbf, 0x6f, 0x1e, 0xc4, 0xbf, 0x35, 0x88, 0x32, 0x3f,
  0xba, 0xfd, 0xff, 0xff, 0x04, 0x00, 0x00, 0x00, 0x18, 0x00, 0x00, 0x00,
  0xf9, 0x7d, 0x6a, 0xbf, 0xb6, 0x48, 0x7b, 0xbd, 0x7c, 0x2c, 0x0b, 0xc0,
  0x09, 0x71, 0x80, 0xbf, 0x57, 0xb1, 0x86, 0xbf, 0x66, 0x7f, 0xa3, 0xbd,
  0xde, 0xfd, 0xff, 0xff, 0x04, 0x00, 0x00, 0x00, 0x18, 0x00, 0x00, 0x00,
  0xe4, 0x2d, 0x02, 0xbf, 0x9f, 0x13, 0xc0, 0xbe, 0xb5, 0xf0, 0x8c, 0xbf,
  0xf4, 0x4a, 0x3d, 0x3f, 0xab, 0x23, 0x30, 0x3f, 0x30, 0xab, 0x74, 0x3f,
  0x02, 0xfe, 0xff, 0xff, 0x04, 0x00, 0x00, 0x00, 0x18, 0x00, 0x00, 0x00,
  0x9d, 0xa0, 0x9f, 0x3d, 0xe4, 0x75, 0x5f, 0xbf, 0x9d, 0x68, 0xbf, 0x3f,
  0xfe, 0x35, 0xb8, 0xbf, 0x42, 0x25, 0x7a, 0xbf, 0xc9, 0xc3, 0x60, 0xbf,
  0x26, 0xfe, 0xff, 0xff, 0x04, 0x00, 0x00, 0x00, 0x08, 0x00, 0x00, 0x00,
  0x08, 0xc3, 0x17, 0xbe, 0x9a, 0x06, 0xc0, 0xbe, 0x3a, 0xfe, 0xff, 0xff,
  0x04, 0x00, 0x00, 0x00, 0x08, 0x00, 0x00, 0x00, 0x16, 0x44, 0x5f, 0x3f,
  0x29, 0xfd, 0x88, 0x3f, 0x4e, 0xfe, 0xff, 0xff, 0x04, 0x00, 0x00, 0x00,
  0x08, 0x00, 0x00, 0x00, 0xc3, 0xf2, 0x80, 0x3d, 0xd2, 0xeb, 0x22, 0x3d,
  0x62, 0xfe, 0xff, 0xff, 0x04, 0x00, 0x00, 0x00, 0x08, 0x00, 0x00, 0x00,
  0x64, 0x5c, 0x6e, 0x3e, 0x82, 0x93, 0x38, 0x3e, 0x76, 0xfe, 0xff, 0xff,
  0x04, 0x00, 0x00, 0x00, 0x10, 0x00, 0x00, 0x00, 0x4c, 0xb5, 0x2a, 0x3f,
  0x4b, 0x82, 0x34, 0xbe, 0x60, 0x29, 0xa3, 0xbd, 0x8e, 0x6c, 0xb2, 0xbf,
  0x92, 0xfe, 0xff, 0xff, 0x04, 0x00, 0x00, 0x00, 0x10, 0x00, 0x00, 0x00,
  0x29, 0xee, 0xb1, 0xbe, 0x51, 0x59, 0x43, 0x3e, 0x81, 0xb0, 0xf7, 0x3e,
  0x68, 0x3c, 0x82, 0x3d, 0xae, 0xfe, 0xff, 0xff, 0x04, 0x00, 0x00, 0x00,
  0x10, 0x00, 0x00, 0x00, 0x12, 0x02, 0x9f, 0x3e, 0x2b, 0x90, 0x2e, 0x3d,
  0xdd, 0x98, 0x16, 0x3f, 0x7f, 0x43, 0x4c, 0x3e, 0xca, 0xfe, 0xff, 0xff,
  0x04, 0x00, 0x00, 0x00, 0x10, 0x00, 0x00, 0x00, 0x5a, 0x47, 0x36, 0xbe,
  0x2f, 0x4c, 0x18, 0x3f, 0x15, 0xc2, 0x2a, 0x3f, 0x97, 0x23, 0xc2, 0xbe,
  0xe6, 0xfe, 0xff, 0xff, 0x04, 0x00, 0x00, 0x00, 0x0c, 0x00, 0x00, 0x00,
  0xce, 0x76, 0xb2, 0xbd, 0x07, 0x2d, 0x99, 0x3e, 0x5e, 0xa8, 0x2b, 0xbe,
  0xfe, 0xfe, 0xff, 0xff, 0x04, 0x00, 0x00, 0x00, 0x40, 0x00, 0x00, 0x00,
  0x02, 0x62, 0x9f, 0x3e, 0xca, 0x93, 0xa5, 0xbd, 0xfb, 0x15, 0x0e, 0xbe,
  0x95, 0x43, 0x98, 0xbe, 0x63, 0x43, 0x36, 0x3e, 0xe3, 0x8b, 0x30, 0x3e,
  0x66, 0x9d, 0x0d, 0x3c, 0x9c, 0x20, 0x15, 0xbe, 0xd8, 0xbb, 0x86, 0xbe,
  0x40, 0x5b, 0x3f, 0xbd, 0xf3, 0x50, 0x87, 0xbe, 0x1c, 0xd4, 0x9c, 0xbe,
  0x08, 0x9d, 0x12, 0x3d, 0x01, 0x7a, 0xad, 0x3e, 0x59, 0xa5, 0xdb, 0xbd,
  0x6a, 0x54, 0xa1, 0xbe, 0x4a, 0xff, 0xff, 0xff, 0x04, 0x00, 0x00, 0x00,
  0x08, 0x00, 0x00, 0x00, 0xff, 0xff, 0xff, 0xff, 0xa0, 0x00, 0x00, 0x00,
  0x5e, 0xff, 0xff, 0xff, 0x04, 0x00, 0x00, 0x00, 0x08, 0x00, 0x00, 0x00,
  0x00, 0x00, 0x00, 0x00, 0x00, 0x00, 0x00, 0x00, 0xc0, 0xf1, 0xff, 0xff,
  0xc4, 0xf1, 0xff, 0xff, 0x0f, 0x00, 0x00, 0x00, 0x4d, 0x4c, 0x49, 0x52,
  0x20, 0x43, 0x6f, 0x6e, 0x76, 0x65, 0x72, 0x74, 0x65, 0x64, 0x2e, 0x00,
  0x01, 0x00, 0x00, 0x00, 0x14, 0x00, 0x00, 0x00, 0x00, 0x00, 0x0e, 0x00,
  0x18, 0x00, 0x14, 0x00, 0x10, 0x00, 0x0c, 0x00, 0x08, 0x00, 0x04, 0x00,
  0x0e, 0x00, 0x00, 0x00, 0x14, 0x00, 0x00, 0x00, 0x1c, 0x00, 0x00, 0x00,
  0x68, 0x02, 0x00, 0x00, 0x6c, 0x02, 0x00, 0x00, 0x70, 0x02, 0x00, 0x00,
  0x04, 0x00, 0x00, 0x00, 0x6d, 0x61, 0x69, 0x6e, 0x00, 0x00, 0x00, 0x00,
  0x06, 0x00, 0x00, 0x00, 0xb0, 0x01, 0x00, 0x00, 0x00, 0x01, 0x00, 0x00,
  0xd8, 0x00, 0x00, 0x00, 0x88, 0x00, 0x00, 0x00, 0x40, 0x00, 0x00, 0x00,
  0x04, 0x00, 0x00, 0x00, 0x92, 0xff, 0xff, 0xff, 0x1c, 0x00, 0x00, 0x00,
  0x00, 0x00, 0x00, 0x09, 0x1c, 0x00, 0x00, 0x00, 0x20, 0x00, 0x00, 0x00,
  0x03, 0x00, 0x00, 0x00, 0x00, 0x00, 0x06, 0x00, 0x08, 0x00, 0x04, 0x00,
  0x06, 0x00, 0x00, 0x00, 0x00, 0x00, 0x80, 0x3f, 0x01, 0x00, 0x00, 0x00,
  0x27, 0x00, 0x00, 0x00, 0x01, 0x00, 0x00, 0x00, 0x26, 0x00, 0x00, 0x00,
  0xca, 0xff, 0xff, 0xff, 0x14, 0x00, 0x00, 0x00, 0x00, 0x00, 0x00, 0x08,
  0x10, 0x00, 0x00, 0x00, 0x14, 0x00, 0x00, 0x00, 0x02, 0x00, 0x00, 0x00,
  0x84, 0xf2, 0xff, 0xff, 0x01, 0x00, 0x00, 0x00, 0x26, 0x00, 0x00, 0x00,
  0x03, 0x00, 0x00, 0x00, 0x25, 0x00, 0x00, 0x00, 0x1e, 0x00, 0x00, 0x00,
  0x04, 0x00, 0x00, 0x00, 0x00, 0x00, 0x0e, 0x00, 0x1a, 0x00, 0x14, 0x00,
  0x10, 0x00, 0x0c, 0x00, 0x0b, 0x00, 0x04, 0x00, 0x0e, 0x00, 0x00, 0x00,
  0x1c, 0x00, 0x00, 0x00, 0x00, 0x00, 0x00, 0x08, 0x1c, 0x00, 0x00, 0x00,
  0x20, 0x00, 0x00, 0x00, 0x02, 0x00, 0x00, 0x00, 0x00, 0x00, 0x06, 0x00,
  0x08, 0x00, 0x07, 0x00, 0x06, 0x00, 0x00, 0x00, 0x00, 0x00, 0x00, 0x01,
  0x01, 0x00, 0x00, 0x00, 0x25, 0x00, 0x00, 0x00, 0x03, 0x00, 0x00, 0x00,
  0x24, 0x00, 0x00, 0x00, 0x1d, 0x00, 0x00, 0x00, 0x03, 0x00, 0x00, 0x00,
  0x00, 0x00, 0x0a, 0x00, 0x10, 0x00, 0x0c, 0x00, 0x08, 0x00, 0x04, 0x00,
  0x0a, 0x00, 0x00, 0x00, 0x0c, 0x00, 0x00, 0x00, 0x10, 0x00, 0x00, 0x00,
  0x01, 0x00, 0x00, 0x00, 0x01, 0x00, 0x00, 0x00, 0x24, 0x00, 0x00, 0x00,
  0x02, 0x00, 0x00, 0x00, 0x23, 0x00, 0x00, 0x00, 0x02, 0x00, 0x00, 0x00,
  0x6a, 0xff, 0xff, 0xff, 0x14, 0x00, 0x00, 0x00, 0x14, 0x00, 0x00, 0x00,
  0x00, 0x00, 0x00, 0x47, 0x18, 0x00, 0x00, 0x00, 0x1c, 0x00, 0x00, 0x00,
  0x00, 0x00, 0x00, 0x00, 0x54, 0xff, 0xff, 0xff, 0x00, 0x00, 0x20, 0x41,
  0x00, 0x00, 0x00, 0x04, 0x01, 0x00, 0x00, 0x00, 0x23, 0x00, 0x00, 0x00,
  0x18, 0x00, 0x00, 0x00, 0x20, 0x00, 0x00, 0x00, 0x1c, 0x00, 0x00, 0x00,
  0x1b, 0x00, 0x00, 0x00, 0x1a, 0x00, 0x00, 0x00, 0x19, 0x00, 0x00, 0x00,
  0x14, 0x00, 0x00, 0x00, 0x13, 0x00, 0x00, 0x00, 0x12, 0x00, 0x00, 0x00,
  0x11, 0x00, 0x00, 0x00, 0xff, 0xff, 0xff, 0xff, 0xff, 0xff, 0xff, 0xff,
  0xff, 0xff, 0xff, 0xff, 0x18, 0x00, 0x00, 0x00, 0x17, 0x00, 0x00, 0x00,
  0x16, 0x00, 0x00, 0x00, 0x15, 0x00, 0x00, 0x00, 0xff, 0xff, 0xff, 0xff,
  0xff, 0xff, 0xff, 0xff, 0x21, 0x00, 0x00, 0x00, 0x22, 0x00, 0x00, 0x00,
  0xff, 0xff, 0xff, 0xff, 0xff, 0xff, 0xff, 0xff, 0xff, 0xff, 0xff, 0xff,
  0xff, 0xff, 0xff, 0xff, 0x00, 0x00, 0x16, 0x00, 0x18, 0x00, 0x00, 0x00,
  0x14, 0x00, 0x10, 0x00, 0x0f, 0x00, 0x08, 0x00, 0x00, 0x00, 0x00, 0x00,
  0x00, 0x00, 0x04, 0x00, 0x16, 0x00, 0x00, 0x00, 0x14, 0x00, 0x00, 0x00,
  0x1c, 0x00, 0x00, 0x00, 0x00, 0x00, 0x00, 0x47, 0x20, 0x00, 0x00, 0x00,
  0x24, 0x00, 0x00, 0x00, 0x00, 0x00, 0x00, 0x00, 0x08, 0x00, 0x0c, 0x00,
  0x0b, 0x00, 0x04, 0x00, 0x08, 0x00, 0x00, 0x00, 0x00, 0x00, 0x20, 0x41,
  0x00, 0x00, 0x00, 0x04, 0x01, 0x00, 0x00, 0x00, 0x20, 0x00, 0x00, 0x00,
  0x18, 0x00, 0x00, 0x00, 0x00, 0x00, 0x00, 0x00, 0x10, 0x00, 0x00, 0x00,
  0x0f, 0x00, 0x00, 0x00, 0x0e, 0x00, 0x00, 0x00, 0x0d, 0x00, 0x00, 0x00,
  0x08, 0x00, 0x00, 0x00, 0x07, 0x00, 0x00, 0x00, 0x06, 0x00, 0x00, 0x00,
  0x05, 0x00, 0x00, 0x00, 0xff, 0xff, 0xff, 0xff, 0xff, 0xff, 0xff, 0xff,
  0xff, 0xff, 0xff, 0xff, 0x0c, 0x00, 0x00, 0x00, 0x0b, 0x00, 0x00, 0x00,
  0x0a, 0x00, 0x00, 0x00, 0x09, 0x00, 0x00, 0x00, 0xff, 0xff, 0xff, 0xff,
  0xff, 0xff, 0xff, 0xff, 0x01, 0x00, 0x00, 0x00, 0x1f, 0x00, 0x00, 0x00,
  0xff, 0xff, 0xff, 0xff, 0xff, 0xff, 0xff, 0xff, 0xff, 0xff, 0xff, 0xff,
  0xff, 0xff, 0xff, 0xff, 0x01, 0x00, 0x00, 0x00, 0x27, 0x00, 0x00, 0x00,
  0x01, 0x00, 0x00, 0x00, 0x00, 0x00, 0x00, 0x00, 0x28, 0x00, 0x00, 0x00,
  0x6c, 0x0b, 0x00, 0x00, 0x0c, 0x0b, 0x00, 0x00, 0xa4, 0x0a, 0x00, 0x00,
  0x30, 0x0a, 0x00, 0x00, 0xd4, 0x09, 0x00, 0x00, 0x94, 0x09, 0x00, 0x00,
  0x54, 0x09, 0x00, 0x00, 0x14, 0x09, 0x00, 0x00, 0xd4, 0x08, 0x00, 0x00,
  0x98, 0x08, 0x00, 0x00, 0x5c, 0x08, 0x00, 0x00, 0x20, 0x08, 0x00, 0x00,
  0xe4, 0x07, 0x00, 0x00, 0xa4, 0x07, 0x00, 0x00, 0x64, 0x07, 0x00, 0x00,
  0x20, 0x07, 0x00, 0x00, 0xdc, 0x06, 0x00, 0x00, 0x98, 0x06, 0x00, 0x00,
  0x54, 0x06, 0x00, 0x00, 0x10, 0x06, 0x00, 0x00, 0xcc, 0x05, 0x00, 0x00,
  0x8c, 0x05, 0x00, 0x00, 0x4c, 0x05, 0x00, 0x00, 0x0c, 0x05, 0x00, 0x00,
  0xcc, 0x04, 0x00, 0x00, 0x88, 0x04, 0x00, 0x00, 0x44, 0x04, 0x00, 0x00,
  0x00, 0x04, 0x00, 0x00, 0xbc, 0x03, 0x00, 0x00, 0x6c, 0x03, 0x00, 0x00,
  0x1c, 0x03, 0x00, 0x00, 0xd4, 0x02, 0x00, 0x00, 0x7c, 0x02, 0x00, 0x00,
  0x34, 0x02, 0x00, 0x00, 0xec, 0x01, 0x00, 0x00, 0x94, 0x01, 0x00, 0x00,
  0x44, 0x01, 0x00, 0x00, 0xbc, 0x00, 0x00, 0x00, 0x50, 0x00, 0x00, 0x00,
  0x04, 0x00, 0x00, 0x00, 0x4a, 0xf5, 0xff, 0xff, 0x00, 0x00, 0x00, 0x01,
  0x10, 0x00, 0x00, 0x00, 0x10, 0x00, 0x00, 0x00, 0x28, 0x00, 0x00, 0x00,
  0x28, 0x00, 0x00, 0x00, 0x34, 0xf5, 0xff, 0xff, 0x19, 0x00, 0x00, 0x00,
  0x53, 0x74, 0x61, 0x74, 0x65, 0x66, 0x75, 0x6c, 0x50, 0x61, 0x72, 0x74,
  0x69, 0x74, 0x69, 0x6f, 0x6e, 0x65, 0x64, 0x43, 0x61, 0x6c, 0x6c, 0x3a,
  0x30, 0x00, 0x00, 0x00, 0x02, 0x00, 0x00, 0x00, 0x01, 0x00, 0x00, 0x00,
  0x03, 0x00, 0x00, 0x00, 0x92, 0xf5, 0xff, 0xff, 0x00, 0x00, 0x00, 0x01,
  0x10, 0x00, 0x00, 0x00, 0x10, 0x00, 0x00, 0x00, 0x27, 0x00, 0x00, 0x00,
  0x48, 0x00, 0x00, 0x00, 0x7c, 0xf5, 0xff, 0xff, 0x3a, 0x00, 0x00, 0x00,
  0x73, 0x65, 0x71, 0x75, 0x65, 0x6e, 0x74, 0x69, 0x61, 0x6c, 0x5f, 0x37,
  0x2f, 0x64, 0x65, 0x6e, 0x73, 0x65, 0x5f, 0x31, 0x35, 0x2f, 0x4d, 0x61,
  0x74, 0x4d, 0x75, 0x6c, 0x3b, 0x73, 0x65, 0x71, 0x75, 0x65, 0x6e, 0x74,
  0x69, 0x61, 0x6c, 0x5f, 0x37, 0x2f, 0x64, 0x65, 0x6e, 0x73, 0x65, 0x5f,
  0x31, 0x35, 0x2f, 0x42, 0x69, 0x61, 0x73, 0x41, 0x64, 0x64, 0x00, 0x00,
  0x02, 0x00, 0x00, 0x00, 0x01, 0x00, 0x00, 0x00, 0x03, 0x00, 0x00, 0x00,
  0xfa, 0xf5, 0xff, 0xff, 0x00, 0x00, 0x00, 0x01, 0x10, 0x00, 0x00, 0x00,
  0x10, 0x00, 0x00, 0x00, 0x26, 0x00, 0x00, 0x00, 0x64, 0x00, 0x00, 0x00,
  0xe4, 0xf5, 0xff, 0xff, 0x55, 0x00, 0x00, 0x00, 0x73, 0x65, 0x71, 0x75,
  0x65, 0x6e, 0x74, 0x69, 0x61, 0x6c, 0x5f, 0x37, 0x2f, 0x64, 0x65, 0x6e,
  0x73, 0x65, 0x5f, 0x31, 0x34, 0x2f, 0x4d, 0x61, 0x74, 0x4d, 0x75, 0x6c,
  0x3b, 0x73, 0x65, 0x71, 0x75, 0x65, 0x6e, 0x74, 0x69, 0x61, 0x6c, 0x5f,
  0x37, 0x2f, 0x64, 0x65, 0x6e, 0x73, 0x65, 0x5f, 0x31, 0x34, 0x2f, 0x52,
  0x65, 0x6c, 0x75, 0x3b, 0x73, 0x65, 0x71, 0x75, 0x65, 0x6e, 0x74, 0x69,
  0x61, 0x6c, 0x5f, 0x37, 0x2f, 0x64, 0x65, 0x6e, 0x73, 0x65, 0x5f, 0x31,
  0x34, 0x2f, 0x42, 0x69, 0x61, 0x73, 0x41, 0x64, 0x64, 0x00, 0x00, 0x00,
  0x02, 0x00, 0x00, 0x00, 0x01, 0x00, 0x00, 0x00, 0x10, 0x00, 0x00, 0x00,
  0x7e, 0xf6, 0xff, 0xff, 0x00, 0x00, 0x00, 0x01, 0x10, 0x00, 0x00, 0x00,
  0x10, 0x00, 0x00, 0x00, 0x25, 0x00, 0x00, 0x00, 0x2c, 0x00, 0x00, 0x00,
  0x68, 0xf6, 0xff, 0xff, 0x1e, 0x00, 0x00, 0x00, 0x73, 0x65, 0x71, 0x75,
  0x65, 0x6e, 0x74, 0x69, 0x61, 0x6c, 0x5f, 0x37, 0x2f, 0x66, 0x6c, 0x61,
  0x74, 0x74, 0x65, 0x6e, 0x5f, 0x37, 0x2f, 0x52, 0x65, 0x73, 0x68, 0x61,
  0x70, 0x65, 0x00, 0x00, 0x02, 0x00, 0x00, 0x00, 0x01, 0x00, 0x00, 0x00,
  0xa0, 0x00, 0x00, 0x00, 0xca, 0xf6, 0xff, 0xff, 0x00, 0x00, 0x00, 0x01,
  0x10, 0x00, 0x00, 0x00, 0x10, 0x00, 0x00, 0x00, 0x24, 0x00, 0x00, 0x00,
  0x30, 0x00, 0x00, 0x00, 0xb4, 0xf6, 0xff, 0xff, 0x21, 0x00, 0x00, 0x00,
  0x74, 0x66, 0x6c, 0x2e, 0x75, 0x6e, 0x69, 0x64, 0x69, 0x72, 0x65, 0x63,
  0x74, 0x69, 0x6f, 0x6e, 0x61, 0x6c, 0x5f, 0x73, 0x65, 0x71, 0x75, 0x65,
  0x6e, 0x63, 0x65, 0x5f, 0x6c, 0x73, 0x74, 0x6d, 0x31, 0x00, 0x00, 0x00,
  0x03, 0x00, 0x00, 0x00, 0x01, 0x00, 0x00, 0x00, 0x50, 0x00, 0x00, 0x00,
  0x02, 0x00, 0x00, 0x00, 0x7a, 0xf7, 0xff, 0xff, 0x00, 0x00, 0x01, 0x01,
  0x0c, 0x00, 0x00, 0x00, 0x0c, 0x00, 0x00, 0x00, 0x28, 0x00, 0x00, 0x00,
  0x04, 0xf7, 0xff, 0xff, 0x1a, 0x00, 0x00, 0x00, 0x73, 0x65, 0x71, 0x75,
  0x65, 0x6e, 0x74, 0x69, 0x61, 0x6c, 0x5f, 0x37, 0x2f, 0x6c, 0x73, 0x74,
  0x6d, 0x5f, 0x38, 0x2f, 0x7a, 0x65, 0x72, 0x6f, 0x73, 0x33, 0x00, 0x00,
  0x02, 0x00, 0x00, 0x00, 0x01, 0x00, 0x00, 0x00, 0x02, 0x00, 0x00, 0x00,
  0xbe, 0xf7, 0xff, 0xff, 0x00, 0x00, 0x01, 0x01, 0x0c, 0x00, 0x00, 0x00,
  0x0c, 0x00, 0x00, 0x00, 0x28, 0x00, 0x00, 0x00, 0x48, 0xf7, 0xff, 0xff,
  0x1a, 0x00, 0x00, 0x00, 0x73, 0x65, 0x71, 0x75, 0x65, 0x6e, 0x74, 0x69,
  0x61, 0x6c, 0x5f, 0x37, 0x2f, 0x6c, 0x73, 0x74, 0x6d, 0x5f, 0x38, 0x2f,
  0x7a, 0x65, 0x72, 0x6f, 0x73, 0x32, 0x00, 0x00, 0x02, 0x00, 0x00, 0x00,
  0x01, 0x00, 0x00, 0x00, 0x02, 0x00, 0x00, 0x00, 0xa6, 0xf7, 0xff, 0xff,
  0x00, 0x00, 0x00, 0x01, 0x10, 0x00, 0x00, 0x00, 0x10, 0x00, 0x00, 0x00,
  0x21, 0x00, 0x00, 0x00, 0x30, 0x00, 0x00, 0x00, 0x90, 0xf7, 0xff, 0xff,
  0x20, 0x00, 0x00, 0x00, 0x74, 0x66, 0x6c, 0x2e, 0x75, 0x6e, 0x69, 0x64,
  0x69, 0x72, 0x65, 0x63, 0x74, 0x69, 0x6f, 0x6e, 0x61, 0x6c, 0x5f, 0x73,
  0x65, 0x71, 0x75, 0x65, 0x6e, 0x63, 0x65, 0x5f, 0x6c, 0x73, 0x74, 0x6d,
  0x00, 0x00, 0x00, 0x00, 0x03, 0x00, 0x00, 0x00, 0x01, 0x00, 0x00, 0x00,
  0x50, 0x00, 0x00, 0x00, 0x02, 0x00, 0x00, 0x00, 0x56, 0xf8, 0xff, 0xff,
  0x00, 0x00, 0x01, 0x01, 0x0c, 0x00, 0x00, 0x00, 0x0c, 0x00, 0x00, 0x00,
  0x28, 0x00, 0x00, 0x00, 0xe0, 0xf7, 0xff, 0xff, 0x1a, 0x00, 0x00, 0x00,
  0x73, 0x65, 0x71, 0x75, 0x65, 0x6e, 0x74, 0x69, 0x61, 0x6c, 0x5f, 0x37,
  0x2f, 0x6c, 0x73, 0x74, 0x6d, 0x5f, 0x38, 0x2f, 0x7a, 0x65, 0x72, 0x6f,
  0x73, 0x31, 0x00, 0x00, 0x02, 0x00, 0x00, 0x00, 0x01, 0x00, 0x00, 0x00,
  0x02, 0x00, 0x00, 0x00, 0x3e, 0xf8, 0xff, 0xff, 0x00, 0x00, 0x00, 0x01,
  0x10, 0x00, 0x00, 0x00, 0x10, 0x00, 0x00, 0x00, 0x1f, 0x00, 0x00, 0x00,
  0x2c, 0x00, 0x00, 0x00, 0x28, 0xf8, 0xff, 0xff, 0x1c, 0x00, 0x00, 0x00,
  0x73, 0x65, 0x71, 0x75, 0x65, 0x6e, 0x74, 0x69, 0x61, 0x6c, 0x5f, 0x37,
  0x2f, 0x64, 0x65, 0x6e, 0x73, 0x65, 0x5f, 0x31, 0x35, 0x2f, 0x4d, 0x61,
  0x74, 0x4d, 0x75, 0x6c, 0x00, 0x00, 0x00, 0x00, 0x02, 0x00, 0x00, 0x00,
  0x03, 0x00, 0x00, 0x00, 0x10, 0x00, 0x00, 0x00, 0x8a, 0xf8, 0xff, 0xff,
  0x00, 0x00, 0x00, 0x01, 0x10, 0x00, 0x00, 0x00, 0x10, 0x00, 0x00, 0x00,
  0x1e, 0x00, 0x00, 0x00, 0x2c, 0x00, 0x00, 0x00, 0x74, 0xf8, 0xff, 0xff,
  0x1c, 0x00, 0x00, 0x00, 0x73, 0x65, 0x71, 0x75, 0x65, 0x6e, 0x74, 0x69,
  0x61, 0x6c, 0x5f, 0x37, 0x2f, 0x64, 0x65, 0x6e, 0x73, 0x65, 0x5f, 0x31,
  0x34, 0x2f, 0x4d, 0x61, 0x74, 0x4d, 0x75, 0x6c, 0x00, 0x00, 0x00, 0x00,
  0x02, 0x00, 0x00, 0x00, 0x10, 0x00, 0x00, 0x00, 0xa0, 0x00, 0x00, 0x00,
  0xd6, 0xf8, 0xff, 0xff, 0x00, 0x00, 0x00, 0x01, 0x10, 0x00, 0x00, 0x00,
  0x10, 0x00, 0x00, 0x00, 0x1d, 0x00, 0x00, 0x00, 0x20, 0x00, 0x00, 0x00,
  0xc0, 0xf8, 0xff, 0xff, 0x10, 0x00, 0x00, 0x00, 0x61, 0x72, 0x69, 0x74,
  0x68, 0x2e, 0x63, 0x6f, 0x6e, 0x73, 0x74, 0x61, 0x6e, 0x74, 0x32, 0x33,
  0x00, 0x00, 0x00, 0x00, 0x02, 0x00, 0x00, 0x00, 0x02, 0x00, 0x00, 0x00,
  0x02, 0x00, 0x00, 0x00, 0x16, 0xf9, 0xff, 0xff, 0x00, 0x00, 0x00, 0x01,
  0x10, 0x00, 0x00, 0x00, 0x10, 0x00, 0x00, 0x00, 0x1c, 0x00, 0x00, 0x00,
  0x20, 0x00, 0x00, 0x00, 0x00, 0xf9, 0xff, 0xff, 0x10, 0x00, 0x00, 0x00,
  0x61, 0x72, 0x69, 0x74, 0x68, 0x2e, 0x63, 0x6f, 0x6e, 0x73, 0x74, 0x61,
  0x6e, 0x74, 0x32, 0x32, 0x00, 0x00, 0x00, 0x00, 0x02, 0x00, 0x00, 0x00,
  0x02, 0x00, 0x00, 0x00, 0x02, 0x00, 0x00, 0x00, 0x56, 0xf9, 0xff, 0xff,
  0x00, 0x00, 0x00, 0x01, 0x10, 0x00, 0x00, 0x00, 0x10, 0x00, 0x00, 0x00,
  0x1b, 0x00, 0x00, 0x00, 0x20, 0x00, 0x00, 0x00, 0x40, 0xf9, 0xff, 0xff,
  0x10, 0x00, 0x00, 0x00, 0x61, 0x72, 0x69, 0x74, 0x68, 0x2e, 0x63, 0x6f,
  0x6e, 0x73, 0x74, 0x61, 0x6e, 0x74, 0x32, 0x31, 0x00, 0x00, 0x00, 0x00,
  0x02, 0x00, 0x00, 0x00, 0x02, 0x00, 0x00, 0x00, 0x02, 0x00, 0x00, 0x00,
  0x96, 0xf9, 0xff, 0xff, 0x00, 0x00, 0x00, 0x01, 0x10, 0x00, 0x00, 0x00,
  0x10, 0x00, 0x00, 0x00, 0x1a, 0x00, 0x00, 0x00, 0x20, 0x00, 0x00, 0x00,
  0x80, 0xf9, 0xff, 0xff, 0x10, 0x00, 0x00, 0x00, 0x61, 0x72, 0x69, 0x74,
  0x68, 0x2e, 0x63, 0x6f, 0x6e, 0x73, 0x74, 0x61, 0x6e, 0x74, 0x32, 0x30,
  0x00, 0x00, 0x00, 0x00, 0x02, 0x00, 0x00, 0x00, 0x02, 0x00, 0x00, 0x00,
  0x02, 0x00, 0x00, 0x00, 0xd6, 0xf9, 0xff, 0xff, 0x00, 0x00, 0x00, 0x01,
  0x10, 0x00, 0x00, 0x00, 0x10, 0x00, 0x00, 0x00, 0x19, 0x00, 0x00, 0x00,
  0x20, 0x00, 0x00, 0x00, 0xc0, 0xf9, 0xff, 0xff, 0x10, 0x00, 0x00, 0x00,
  0x61, 0x72, 0x69, 0x74, 0x68, 0x2e, 0x63, 0x6f, 0x6e, 0x73, 0x74, 0x61,
  0x6e, 0x74, 0x31, 0x39, 0x00, 0x00, 0x00, 0x00, 0x01, 0x00, 0x00, 0x00,
  0x02, 0x00, 0x00, 0x00, 0x12, 0xfa, 0xff, 0xff, 0x00, 0x00, 0x00, 0x01,
  0x10, 0x00, 0x00, 0x00, 0x10, 0x00, 0x00, 0x00, 0x18, 0x00, 0x00, 0x00,
  0x20, 0x00, 0x00, 0x00, 0xfc, 0xf9, 0xff, 0xff, 0x10, 0x00, 0x00, 0x00,
  0x61, 0x72, 0x69, 0x74, 0x68, 0x2e, 0x63, 0x6f, 0x6e, 0x73, 0x74, 0x61,
  0x6e, 0x74, 0x31, 0x38, 0x00, 0x00, 0x00, 0x00, 0x01, 0x00, 0x00, 0x00,
  0x02, 0x00, 0x00, 0x00, 0x4e, 0xfa, 0xff, 0xff, 0x00, 0x00, 0x00, 0x01,
  0x10, 0x00, 0x00, 0x00, 0x10, 0x00, 0x00, 0x00, 0x17, 0x00, 0x00, 0x00,
  0x20, 0x00, 0x00, 0x00, 0x38, 0xfa, 0xff, 0xff, 0x10, 0x00, 0x00, 0x00,
  0x61, 0x72, 0x69, 0x74, 0x68, 0x2e, 0x63, 0x6f, 0x6e, 0x73, 0x74, 0x61,
  0x6e, 0x74, 0x31, 0x37, 0x00, 0x00, 0x00, 0x00, 0x01, 0x00, 0x00, 0x00,
  0x02, 0x00, 0x00, 0x00, 0x8a, 0xfa, 0xff, 0xff, 0x00, 0x00, 0x00, 0x01,
  0x10, 0x00, 0x00, 0x00, 0x10, 0x00, 0x00, 0x00, 0x16, 0x00, 0x00, 0x00,
  0x20, 0x00, 0x00, 0x00, 0x74, 0xfa, 0xff, 0xff, 0x10, 0x00, 0x00, 0x00,
  0x61, 0x72, 0x69, 0x74, 0x68, 0x2e, 0x63, 0x6f, 0x6e, 0x73, 0x74, 0x61,
  0x6e, 0x74, 0x31, 0x36, 0x00, 0x00, 0x00, 0x00, 0x01, 0x00, 0x00, 0x00,
  0x02, 0x00, 0x00, 0x00, 0xc6, 0xfa, 0xff, 0xff, 0x00, 0x00, 0x00, 0x01,
  0x10, 0x00, 0x00, 0x00, 0x10, 0x00, 0x00, 0x00, 0x15, 0x00, 0x00, 0x00,
  0x20, 0x00, 0x00, 0x00, 0xb0, 0xfa, 0xff, 0xff, 0x10, 0x00, 0x00, 0x00,
  0x61, 0x72, 0x69, 0x74, 0x68, 0x2e, 0x63, 0x6f, 0x6e, 0x73, 0x74, 0x61,
  0x6e, 0x74, 0x31, 0x35, 0x00, 0x00, 0x00, 0x00, 0x02, 0x00, 0x00, 0x00,
  0x02, 0x00, 0x00, 0x00, 0x02, 0x00, 0x00, 0x00, 0x06, 0xfb, 0xff, 0xff,
  0x00, 0x00, 0x00, 0x01, 0x10, 0x00, 0x00, 0x00, 0x10, 0x00, 0x00, 0x00,
  0x14, 0x00, 0x00, 0x00, 0x20, 0x00, 0x00, 0x00, 0xf0, 0xfa, 0xff, 0xff,
  0x10, 0x00, 0x00, 0x00, 0x61, 0x72, 0x69, 0x74, 0x68, 0x2e, 0x63, 0x6f,
  0x6e, 0x73, 0x74, 0x61, 0x6e, 0x74, 0x31, 0x34, 0x00, 0x00, 0x00, 0x00,
  0x02, 0x00, 0x00, 0x00, 0x02, 0x00, 0x00, 0x00, 0x02, 0x00, 0x00, 0x00,
  0x46, 0xfb, 0xff, 0xff, 0x00, 0x00, 0x00, 0x01, 0x10, 0x00, 0x00, 0x00,
  0x10, 0x00, 0x00, 0x00, 0x13, 0x00, 0x00, 0x00, 0x20, 0x00, 0x00, 0x00,
  0x30, 0xfb, 0xff, 0xff, 0x10, 0x00, 0x00, 0x00, 0x61, 0x72, 0x69, 0x74,
  0x68, 0x2e, 0x63, 0x6f, 0x6e, 0x73, 0x74, 0x61, 0x6e, 0x74, 0x31, 0x33,
  0x00, 0x00, 0x00, 0x00, 0x02, 0x00, 0x00, 0x00, 0x02, 0x00, 0x00, 0x00,
  0x02, 0x00, 0x00, 0x00, 0x86, 0xfb, 0xff, 0xff, 0x00, 0x00, 0x00, 0x01,
  0x10, 0x00, 0x00, 0x00, 0x10, 0x00, 0x00, 0x00, 0x12, 0x00, 0x00, 0x00,
  0x20, 0x00, 0x00, 0x00, 0x70, 0xfb, 0xff, 0xff, 0x10, 0x00, 0x00, 0x00,
  0x61, 0x72, 0x69, 0x74, 0x68, 0x2e, 0x63, 0x6f, 0x6e, 0x73, 0x74, 0x61,
  0x6e, 0x74, 0x31, 0x32, 0x00, 0x00, 0x00, 0x00, 0x02, 0x00, 0x00, 0x00,
  0x02, 0x00, 0x00, 0x00, 0x02, 0x00, 0x00, 0x00, 0xc6, 0xfb, 0xff, 0xff,
  0x00, 0x00, 0x00, 0x01, 0x10, 0x00, 0x00, 0x00, 0x10, 0x00, 0x00, 0x00,
  0x11, 0x00, 0x00, 0x00, 0x20, 0x00, 0x00, 0x00, 0xb0, 0xfb, 0xff, 0xff,
  0x10, 0x00, 0x00, 0x00, 0x61, 0x72, 0x69, 0x74, 0x68, 0x2e, 0x63, 0x6f,
  0x6e, 0x73, 0x74, 0x61, 0x6e, 0x74, 0x31, 0x31, 0x00, 0x00, 0x00, 0x00,
  0x02, 0x00, 0x00, 0x00, 0x02, 0x00, 0x00, 0x00, 0x03, 0x00, 0x00, 0x00,
  0x06, 0xfc, 0xff, 0xff, 0x00, 0x00, 0x00, 0x01, 0x10, 0x00, 0x00, 0x00,
  0x10, 0x00, 0x00, 0x00, 0x10, 0x00, 0x00, 0x00, 0x20, 0x00, 0x00, 0x00,
  0xf0, 0xfb, 0xff, 0xff, 0x10, 0x00, 0x00, 0x00, 0x61, 0x72, 0x69, 0x74,
  0x68, 0x2e, 0x63, 0x6f, 0x6e, 0x73, 0x74, 0x61, 0x6e, 0x74, 0x31, 0x30,
  0x00, 0x00, 0x00, 0x00, 0x02, 0x00, 0x00, 0x00, 0x02, 0x00, 0x00, 0x00,
  0x03, 0x00, 0x00, 0x00, 0x46, 0xfc, 0xff, 0xff, 0x00, 0x00, 0x00, 0x01,
  0x10, 0x00, 0x00, 0x00, 0x10, 0x00, 0x00, 0x00, 0x0f, 0x00, 0x00, 0x00,
  0x1c, 0x00, 0x00, 0x00, 0x30, 0xfc, 0xff, 0xff, 0x0f, 0x00, 0x00, 0x00,
  0x61, 0x72, 0x69, 0x74, 0x68, 0x2e, 0x63, 0x6f, 0x6e, 0x73, 0x74, 0x61,
  0x6e, 0x74, 0x39, 0x00, 0x02, 0x00, 0x00, 0x00, 0x02, 0x00, 0x00, 0x00,
  0x03, 0x00, 0x00, 0x00, 0x82, 0xfc, 0xff, 0xff, 0x00, 0x00, 0x00, 0x01,
  0x10, 0x00, 0x00, 0x00, 0x10, 0x00, 0x00, 0x00, 0x0e, 0x00, 0x00, 0x00,
  0x1c, 0x00, 0x00, 0x00, 0x6c, 0xfc, 0xff, 0xff, 0x0f, 0x00, 0x00, 0x00,
  0x61, 0x72, 0x69, 0x74, 0x68, 0x2e, 0x63, 0x6f, 0x6e, 0x73, 0x74, 0x61,
  0x6e, 0x74, 0x38, 0x00, 0x02, 0x00, 0x00, 0x00, 0x02, 0x00, 0x00, 0x00,
  0x03, 0x00, 0x00, 0x00, 0xbe, 0xfc, 0xff, 0xff, 0x00, 0x00, 0x00, 0x01,
  0x10, 0x00, 0x00, 0x00, 0x10, 0x00, 0x00, 0x00, 0x0d, 0x00, 0x00, 0x00,
  0x1c, 0x00, 0x00, 0x00, 0xa8, 0xfc, 0xff, 0xff, 0x0f, 0x00, 0x00, 0x00,
  0x61, 0x72, 0x69, 0x74, 0x68, 0x2e, 0x63, 0x6f, 0x6e, 0x73, 0x74, 0x61,
  0x6e, 0x74, 0x37, 0x00, 0x01, 0x00, 0x00, 0x00, 0x02, 0x00, 0x00, 0x00,
  0xf6, 0xfc, 0xff, 0xff, 0x00, 0x00, 0x00, 0x01, 0x10, 0x00, 0x00, 0x00,
  0x10, 0x00, 0x00, 0x00, 0x0c, 0x00, 0x00, 0x00, 0x1c, 0x00, 0x00, 0x00,
  0xe0, 0xfc, 0xff, 0xff, 0x0f, 0x00, 0x00, 0x00, 0x61, 0x72, 0x69, 0x74,
  0x68, 0x2e, 0x63, 0x6f, 0x6e, 0x73, 0x74, 0x61, 0x6e, 0x74, 0x36, 0x00,
  0x01, 0x00, 0x00, 0x00, 0x02, 0x00, 0x00, 0x00, 0x2e, 0xfd, 0xff, 0xff,
  0x00, 0x00, 0x00, 0x01, 0x10, 0x00, 0x00, 0x00, 0x10, 0x00, 0x00, 0x00,
  0x0b, 0x00, 0x00, 0x00, 0x1c, 0x00, 0x00, 0x00, 0x18, 0xfd, 0xff, 0xff,
  0x0f, 0x00, 0x00, 0x00, 0x61, 0x72, 0x69, 0x74, 0x68, 0x2e, 0x63, 0x6f,
  0x6e, 0x73, 0x74, 0x61, 0x6e, 0x74, 0x35, 0x00, 0x01, 0x00, 0x00, 0x00,
  0x02, 0x00, 0x00, 0x00, 0x66, 0xfd, 0xff, 0xff, 0x00, 0x00, 0x00, 0x01,
  0x10, 0x00, 0x00, 0x00, 0x10, 0x00, 0x00, 0x00, 0x0a, 0x00, 0x00, 0x00,
  0x1c, 0x00, 0x00, 0x00, 0x50, 0xfd, 0xff, 0xff, 0x0f, 0x00, 0x00, 0x00,
  0x61, 0x72, 0x69, 0x74, 0x68, 0x2e, 0x63, 0x6f, 0x6e, 0x73, 0x74, 0x61,
  0x6e, 0x74, 0x34, 0x00, 0x01, 0x00, 0x00, 0x00, 0x02, 0x00, 0x00, 0x00,
  0x9e, 0xfd, 0xff, 0xff, 0x00, 0x00, 0x00, 0x01, 0x10, 0x00, 0x00, 0x00,
  0x10, 0x00, 0x00, 0x00, 0x09, 0x00, 0x00, 0x00, 0x1c, 0x00, 0x00, 0x00,
  0x88, 0xfd, 0xff, 0xff, 0x0f, 0x00, 0x00, 0x00, 0x61, 0x72, 0x69, 0x74,
  0x68, 0x2e, 0x63, 0x6f, 0x6e, 0x73, 0x74, 0x61, 0x6e, 0x74, 0x33, 0x00,
  0x02, 0x00, 0x00, 0x00, 0x02, 0x00, 0x00, 0x00, 0x02, 0x00, 0x00, 0x00,
  0xda, 0xfd, 0xff, 0xff, 0x00, 0x00, 0x00, 0x01, 0x10, 0x00, 0x00, 0x00,
  0x10, 0x00, 0x00, 0x00, 0x08, 0x00, 0x00, 0x00, 0x1c, 0x00, 0x00, 0x00,
  0xc4, 0xfd, 0xff, 0xff, 0x0f, 0x00, 0x00, 0x00, 0x61, 0x72, 0x69, 0x74,
  0x68, 0x2e, 0x63, 0x6f, 0x6e, 0x73, 0x74, 0x61, 0x6e, 0x74, 0x32, 0x00,
  0x02, 0x00, 0x00, 0x00, 0x02, 0x00, 0x00, 0x00, 0x02, 0x00, 0x00, 0x00,
  0x16, 0xfe, 0xff, 0xff, 0x00, 0x00, 0x00, 0x01, 0x10, 0x00, 0x00, 0x00,
  0x10, 0x00, 0x00, 0x00, 0x07, 0x00, 0x00, 0x00, 0x1c, 0x00, 0x00, 0x00,
  0x00, 0xfe, 0xff, 0xff, 0x0f, 0x00, 0x00, 0x00, 0x61, 0x72, 0x69, 0x74,
  0x68, 0x2e, 0x63, 0x6f, 0x6e, 0x73, 0x74, 0x61, 0x6e, 0x74, 0x31, 0x00,
  0x02, 0x00, 0x00, 0x00, 0x02, 0x00, 0x00, 0x00, 0x02, 0x00, 0x00, 0x00,
  0x52, 0xfe, 0xff, 0xff, 0x00, 0x00, 0x00, 0x01, 0x10, 0x00, 0x00, 0x00,
  0x10, 0x00, 0x00, 0x00, 0x06, 0x00, 0x00, 0x00, 0x1c, 0x00, 0x00, 0x00,
  0x3c, 0xfe, 0xff, 0xff, 0x0e, 0x00, 0x00, 0x00, 0x61, 0x72, 0x69, 0x74,
  0x68, 0x2e, 0x63, 0x6f, 0x6e, 0x73, 0x74, 0x61, 0x6e, 0x74, 0x00, 0x00,
  0x02, 0x00, 0x00, 0x00, 0x02, 0x00, 0x00, 0x00, 0x02, 0x00, 0x00, 0x00,
  0x8e, 0xfe, 0xff, 0xff, 0x00, 0x00, 0x00, 0x01, 0x10, 0x00, 0x00, 0x00,
  0x10, 0x00, 0x00, 0x00, 0x05, 0x00, 0x00, 0x00, 0x3c, 0x00, 0x00, 0x00,
  0x78, 0xfe, 0xff, 0xff, 0x2c, 0x00, 0x00, 0x00, 0x73, 0x65, 0x71, 0x75,
  0x65, 0x6e, 0x74, 0x69, 0x61, 0x6c, 0x5f, 0x37, 0x2f, 0x64, 0x65, 0x6e,
  0x73, 0x65, 0x5f, 0x31, 0x35, 0x2f, 0x42, 0x69, 0x61, 0x73, 0x41, 0x64,
  0x64, 0x2f, 0x52, 0x65, 0x61, 0x64, 0x56, 0x61, 0x72, 0x69, 0x61, 0x62,
  0x6c, 0x65, 0x4f, 0x70, 0x00, 0x00, 0x00, 0x00, 0x01, 0x00, 0x00, 0x00,
  0x03, 0x00, 0x00, 0x00, 0xe6, 0xfe, 0xff, 0xff, 0x00, 0x00, 0x00, 0x01,
  0x10, 0x00, 0x00, 0x00, 0x10, 0x00, 0x00, 0x00, 0x04, 0x00, 0x00, 0x00,
  0x3c, 0x00, 0x00, 0x00, 0xd0, 0xfe, 0xff, 0xff, 0x2c, 0x00, 0x00, 0x00,
  0x73, 0x65, 0x71, 0x75, 0x65, 0x6e, 0x74, 0x69, 0x61, 0x6c, 0x5f, 0x37,
  0x2f, 0x64, 0x65, 0x6e, 0x73, 0x65, 0x5f, 0x31, 0x34, 0x2f, 0x42, 0x69,
  0x61, 0x73, 0x41, 0x64, 0x64, 0x2f, 0x52, 0x65, 0x61, 0x64, 0x56, 0x61,
  0x72, 0x69, 0x61, 0x62, 0x6c, 0x65, 0x4f, 0x70, 0x00, 0x00, 0x00, 0x00,
  0x01, 0x00, 0x00, 0x00, 0x10, 0x00, 0x00, 0x00, 0x00, 0x00, 0x16, 0x00,
  0x1c, 0x00, 0x18, 0x00, 0x17, 0x00, 0x10, 0x00, 0x0c, 0x00, 0x08, 0x00,
  0x00, 0x00, 0x00, 0x00, 0x00, 0x00, 0x07, 0x00, 0x16, 0x00, 0x00, 0x00,
  0x00, 0x00, 0x00, 0x01, 0x14, 0x00, 0x00, 0x00, 0x14, 0x00, 0x00, 0x00,
  0x03, 0x00, 0x00, 0x00, 0x00, 0x00, 0x00, 0x02, 0x2c, 0x00, 0x00, 0x00,
  0x44, 0xff, 0xff, 0xff, 0x1c, 0x00, 0x00, 0x00, 0x73, 0x65, 0x71, 0x75,
  0x65, 0x6e, 0x74, 0x69, 0x61, 0x6c, 0x5f, 0x37, 0x2f, 0x66, 0x6c, 0x61,
  0x74, 0x74, 0x65, 0x6e, 0x5f, 0x37, 0x2f, 0x43, 0x6f, 0x6e, 0x73, 0x74,
  0x00, 0x00, 0x00, 0x00, 0x01, 0x00, 0x00, 0x00, 0x02, 0x00, 0x00, 0x00,
  0x00, 0x00, 0x16, 0x00, 0x14, 0x00, 0x10, 0x00, 0x00, 0x00, 0x00, 0x00,
  0x0c, 0x00, 0x08, 0x00, 0x07, 0x00, 0x00, 0x00, 0x00, 0x00, 0x06, 0x00,
  0x16, 0x00, 0x00, 0x00, 0x00, 0x00, 0x01, 0x01, 0x0c, 0x00, 0x00, 0x00,
  0x0c, 0x00, 0x00, 0x00, 0x28, 0x00, 0x00, 0x00, 0xa0, 0xff, 0xff, 0xff,
  0x19, 0x00, 0x00, 0x00, 0x73, 0x65, 0x71, 0x75, 0x65, 0x6e, 0x74, 0x69,
  0x61, 0x6c, 0x5f, 0x37, 0x2f, 0x6c, 0x73, 0x74, 0x6d, 0x5f, 0x38, 0x2f,
  0x7a, 0x65, 0x72, 0x6f, 0x73, 0x00, 0x00, 0x00, 0x02, 0x00, 0x00, 0x00,
  0x01, 0x00, 0x00, 0x00, 0x02, 0x00, 0x00, 0x00, 0x00, 0x00, 0x16, 0x00,
  0x18, 0x00, 0x14, 0x00, 0x00, 0x00, 0x10, 0x00, 0x0c, 0x00, 0x08, 0x00,
  0x00, 0x00, 0x00, 0x00, 0x00, 0x00, 0x07, 0x00, 0x16, 0x00, 0x00, 0x00,
  0x00, 0x00, 0x00, 0x01, 0x14, 0x00, 0x00, 0x00, 0x14, 0x00, 0x00, 0x00,
  0x01, 0x00, 0x00, 0x00, 0x24, 0x00, 0x00, 0x00, 0x04, 0x00, 0x04, 0x00,
  0x04, 0x00, 0x00, 0x00, 0x13, 0x00, 0x00, 0x00, 0x73, 0x65, 0x72, 0x76,
  0x69, 0x6e, 0x67, 0x5f, 0x64, 0x65, 0x66, 0x61, 0x75, 0x6c, 0x74, 0x5f,
  0x78, 0x3a, 0x30, 0x00, 0x03, 0x00, 0x00, 0x00, 0x01, 0x00, 0x00, 0x00,
  0x50, 0x00, 0x00, 0x00, 0x03, 0x00, 0x00, 0x00, 0x04, 0x00, 0x00, 0x00,
  0x40, 0x00, 0x00, 0x00, 0x24, 0x00, 0x00, 0x00, 0x14, 0x00, 0x00, 0x00,
  0x04, 0x00, 0x00, 0x00, 0xdc, 0xff, 0xff, 0xff, 0x19, 0x00, 0x00, 0x00,
  0x00, 0x00, 0x00, 0x19, 0xe8, 0xff, 0xff, 0xff, 0x09, 0x00, 0x00, 0x00,
  0x00, 0x00, 0x00, 0x09, 0xf4, 0xff, 0xff, 0xff, 0x16, 0x00, 0x00, 0x00,
  0x00, 0x00, 0x00, 0x16, 0x0c, 0x00, 0x0c, 0x00, 0x0b, 0x00, 0x00, 0x00,
  0x00, 0x00, 0x04, 0x00, 0x0c, 0x00, 0x00, 0x00, 0x2c, 0x00, 0x00, 0x00,
  0x00, 0x00, 0x00, 0x2c
};
