const unsigned char model[] __attribute__((aligned(4))) = {
  0x1c, 0x00, 0x00, 0x00, 0x54, 0x46, 0x4c, 0x33, 0x14, 0x00, 0x20, 0x00,
  0x1c, 0x00, 0x18, 0x00, 0x14, 0x00, 0x10, 0x00, 0x0c, 0x00, 0x00, 0x00,
  0x08, 0x00, 0x04, 0x00, 0x14, 0x00, 0x00, 0x00, 0x1c, 0x00, 0x00, 0x00,
  0x80, 0x00, 0x00, 0x00, 0xd8, 0x00, 0x00, 0x00, 0x30, 0x18, 0x00, 0x00,
  0x40, 0x18, 0x00, 0x00, 0xfc, 0x21, 0x00, 0x00, 0x03, 0x00, 0x00, 0x00,
  0x01, 0x00, 0x00, 0x00, 0x04, 0x00, 0x00, 0x00, 0xc2, 0xe6, 0xff, 0xff,
  0x0c, 0x00, 0x00, 0x00, 0x1c, 0x00, 0x00, 0x00, 0x3c, 0x00, 0x00, 0x00,
  0x0f, 0x00, 0x00, 0x00, 0x73, 0x65, 0x72, 0x76, 0x69, 0x6e, 0x67, 0x5f,
  0x64, 0x65, 0x66, 0x61, 0x75, 0x6c, 0x74, 0x00, 0x01, 0x00, 0x00, 0x00,
  0x04, 0x00, 0x00, 0x00, 0x9c, 0xff, 0xff, 0xff, 0x18, 0x00, 0x00, 0x00,
  0x04, 0x00, 0x00, 0x00, 0x08, 0x00, 0x00, 0x00, 0x6f, 0x75, 0x74, 0x70,
  0x75, 0x74, 0x5f, 0x30, 0x00, 0x00, 0x00, 0x00, 0x01, 0x00, 0x00, 0x00,
  0x04, 0x00, 0x00, 0x00, 0xb6, 0xe7, 0xff, 0xff, 0x04, 0x00, 0x00, 0x00,
  0x01, 0x00, 0x00, 0x00, 0x78, 0x00, 0x00, 0x00, 0x02, 0x00, 0x00, 0x00,
  0x34, 0x00, 0x00, 0x00, 0x04, 0x00, 0x00, 0x00, 0xdc, 0xff, 0xff, 0xff,
  0x1b, 0x00, 0x00, 0x00, 0x04, 0x00, 0x00, 0x00, 0x13, 0x00, 0x00, 0x00,
  0x43, 0x4f, 0x4e, 0x56, 0x45, 0x52, 0x53, 0x49, 0x4f, 0x4e, 0x5f, 0x4d,
  0x45, 0x54, 0x41, 0x44, 0x41, 0x54, 0x41, 0x00, 0x08, 0x00, 0x0c, 0x00,
  0x08, 0x00, 0x04, 0x00, 0x08, 0x00, 0x00, 0x00, 0x1a, 0x00, 0x00, 0x00,
  0x04, 0x00, 0x00, 0x00, 0x13, 0x00, 0x00, 0x00, 0x6d, 0x69, 0x6e, 0x5f,
  0x72, 0x75, 0x6e, 0x74, 0x69, 0x6d, 0x65, 0x5f, 0x76, 0x65, 0x72, 0x73,
  0x69, 0x6f, 0x6e, 0x00, 0x1c, 0x00, 0x00, 0x00, 0x54, 0x17, 0x00, 0x00,
  0x4c, 0x17, 0x00, 0x00, 0x38, 0x17, 0x00, 0x00, 0x20, 0x17, 0x00, 0x00,
  0xd0, 0x16, 0x00, 0x00, 0xb4, 0x16, 0x00, 0x00, 0xa0, 0x16, 0x00, 0x00,
  0x8c, 0x16, 0x00, 0x00, 0x78, 0x16, 0x00, 0x00, 0x64, 0x16, 0x00, 0x00,
  0x50, 0x16, 0x00, 0x00, 0x3c, 0x16, 0x00, 0x00, 0x28, 0x16, 0x00, 0x00,
  0x14, 0x16, 0x00, 0x00, 0xf8, 0x15, 0x00, 0x00, 0xdc, 0x15, 0x00, 0x00,
  0xc0, 0x15, 0x00, 0x00, 0xa4, 0x15, 0x00, 0x00, 0x94, 0x01, 0x00, 0x00,
  0xc4, 0x00, 0x00, 0x00, 0xb0, 0x00, 0x00, 0x00, 0xa8, 0x00, 0x00, 0x00,
  0xa0, 0x00, 0x00, 0x00, 0x98, 0x00, 0x00, 0x00, 0x90, 0x00, 0x00, 0x00,
  0x88, 0x00, 0x00, 0x00, 0x68, 0x00, 0x00, 0x00, 0x04, 0x00, 0x00, 0x00,
  0x96, 0xe8, 0xff, 0xff, 0x04, 0x00, 0x00, 0x00, 0x54, 0x00, 0x00, 0x00,
  0x0c, 0x00, 0x00, 0x00, 0x08, 0x00, 0x0e, 0x00, 0x08, 0x00, 0x04, 0x00,
  0x08, 0x00, 0x00, 0x00, 0x10, 0x00, 0x00, 0x00, 0x24, 0x00, 0x00, 0x00,
  0x00, 0x00, 0x06, 0x00, 0x08, 0x00, 0x04, 0x00, 0x06, 0x00, 0x00, 0x00,
  0x04, 0x00, 0x00, 0x00, 0x00, 0x00, 0x00, 0x00, 0x00, 0x00, 0x0a, 0x00,
  0x10, 0x00, 0x0c, 0x00, 0x08, 0x00, 0x04, 0x00, 0x0a, 0x00, 0x00, 0x00,
  0x01, 0x00, 0x00, 0x00, 0x02, 0x00, 0x00, 0x00, 0x04, 0x00, 0x00, 0x00,
  0x06, 0x00, 0x00, 0x00, 0x32, 0x2e, 0x31, 0x30, 0x2e, 0x30, 0x00, 0x00,
  0xf6, 0xe8, 0xff, 0xff, 0x04, 0x00, 0x00, 0x00, 0x10, 0x00, 0x00, 0x00,
  0x31, 0x2e, 0x31, 0x33, 0x2e, 0x31, 0x00, 0x00, 0x00, 0x00, 0x00, 0x00,
  0x00, 0x00, 0x00, 0x00, 0xf0, 0xdf, 0xff, 0xff, 0xf4, 0xdf, 0xff, 0xff,
  0xf8, 0xdf, 0xff, 0xff, 0xfc, 0xdf, 0xff, 0xff, 0x00, 0xe0, 0xff, 0xff,
  0x26, 0xe9, 0xff, 0xff, 0x04, 0x00, 0x00, 0x00, 0x04, 0x00, 0x00, 0x00,
  0x00, 0x00, 0x00, 0x00, 0x36, 0xe9, 0xff, 0xff, 0x04, 0x00, 0x00, 0x00,
  0xc0, 0x00, 0x00, 0x00, 0xb8, 0x69, 0x93, 0xbf, 0x71, 0xcf, 0x13, 0xbf,
  0xcc, 0x96, 0x8d, 0xbf, 0x74, 0xb7, 0x6b, 0xbe, 0x6a, 0x1c, 0xab, 0x3e,
  0xf4, 0x3c, 0x24, 0x3f, 0xd9, 0x70, 0x81, 0xbf, 0xe1, 0xa3, 0xef, 0x3e,
  0xbc, 0xf6, 0x91, 0xbf, 0x36, 0x88, 0x2a, 0x3f, 0x14, 0x2e, 0x09, 0xbf,
  0x1a, 0xcf, 0x1c, 0x3d, 0xc6, 0x5c, 0x59, 0xbf, 0x88, 0xb2, 0x87, 0xbf,
  0xa3, 0xb4, 0xe2, 0xbe, 0x8a, 0x7a, 0x38, 0x3d, 0x0e, 0xfe, 0xc9, 0x3e,
  0x08, 0x3a, 0x5b, 0x3e, 0xd6, 0x24, 0xd6, 0xbe, 0x31, 0x26, 0x52, 0x3d,
  0xd3, 0x4a, 0x9a, 0xbe, 0xaf, 0x3c, 0x0b, 0x3f, 0x2a, 0xce, 0x3d, 0x3f,
  0x14, 0x11, 0x39, 0x3e, 0xe5, 0xc5, 0xf0, 0xbe, 0x08, 0x45, 0x22, 0x3f,
  0x67, 0x7d, 0x79, 0xbf, 0x93, 0x7c, 0x78, 0xbf, 0xd6, 0x44, 0xb8, 0xbe,
  0xd1, 0x6e, 0x30, 0xbd, 0x3b, 0x3b, 0x92, 0xbe, 0x23, 0x2f, 0x66, 0x3e,
  0x1c, 0x3c, 0x36, 0x3f, 0xba, 0x97, 0x5e, 0x3f, 0x19, 0x01, 0x29, 0x3f,
  0xe6, 0x7f, 0x4f, 0x3f, 0x98, 0xd6, 0x83, 0xbf, 0x35, 0x32, 0x1e, 0xbf,
  0x7d, 0xfd, 0xd6, 0x3e, 0x2d, 0x14, 0x9e, 0xbf, 0x68, 0x15, 0x31, 0x3f,
  0xe2, 0x86, 0x59, 0xbf, 0xc6, 0xf4, 0x9b, 0x3e, 0xf3, 0x12, 0x4a, 0xbe,
  0x7c, 0xc0, 0x16, 0x3f, 0xe8, 0x2b, 0xb0, 0x3e, 0xac, 0x29, 0x42, 0x3f,
  0xab, 0x69, 0x39, 0x3f, 0x02, 0xea, 0xff, 0xff, 0x04, 0x00, 0x00, 0x00,
  0x00, 0x14, 0x00, 0x00, 0xca, 0xbc, 0xef, 0x3e, 0xe7, 0xd4, 0x3d, 0x3f,
  0x49, 0xdd, 0xce, 0x3e, 0x22, 0x84, 0x8b, 0x3e, 0x43, 0x1d, 0x31, 0xbe,
  0xab, 0xc7, 0x40, 0xbe, 0x64, 0x33, 0xf5, 0xbe, 0x0b, 0x43, 0x08, 0xbf,
  0x87, 0xf7, 0xc2, 0xbe, 0x10, 0xc0, 0x03, 0xbf, 0x93, 0x34, 0xc9, 0xbe,
  0xf6, 0x52, 0x03, 0xbf, 0x17, 0xe4, 0xa9, 0xbe, 0x05, 0x6e, 0xd1, 0xbd,
  0xad, 0x15, 0x34, 0xbe, 0x46, 0x6e, 0x92, 0xbc, 0x57, 0xe8, 0xde, 0xbd,
  0x98, 0x35, 0x2a, 0xbe, 0x1e, 0x57, 0xdb, 0x3d, 0xe9, 0xed, 0xb8, 0xbd,
  0xfe, 0x58, 0xeb, 0x3b, 0x3e, 0xf4, 0x1b, 0xbd, 0x5f, 0xcd, 0x33, 0x3e,
  0xe2, 0xd7, 0x1c, 0xbd, 0x48, 0x90, 0x60, 0x3d, 0x1b, 0x04, 0x47, 0xbc,
  0x79, 0xfd, 0x4a, 0xbc, 0xfb, 0x2b, 0xbe, 0x3d, 0x70, 0x63, 0x13, 0xbd,
  0xc4, 0xa1, 0x89, 0xbd, 0xd3, 0xde, 0x20, 0xbe, 0x1a, 0xc2, 0x93, 0xbd,
  0x93, 0x08, 0xc0, 0x3d, 0x7f, 0x1a, 0x31, 0xbc, 0x55, 0xab, 0x4e, 0xbd,
  0xb8, 0x5a, 0x14, 0xbd, 0x67, 0x4e, 0xae, 0xbd, 0x35, 0x53, 0xec, 0xbd,
  0x26, 0x2d, 0xc7, 0xbc, 0xbf, 0x31, 0x84, 0x3d, 0xa7, 0xe5, 0x05, 0x3d,
  0x12, 0x99, 0xdc, 0x3d, 0xc9, 0x0a, 0x2b, 0x3e, 0x2a, 0x3d, 0x99, 0x3c,
  0xd8, 0x7a, 0x2b, 0x3d, 0x96, 0xb2, 0x1d, 0xbc, 0x9d, 0x50, 0xdd, 0xbd,
  0x81, 0xb0, 0x62, 0xbd, 0xe4, 0xe6, 0x13, 0xbc, 0x71, 0x12, 0x0f, 0xbe,
  0x80, 0x9c, 0xb2, 0xbd, 0xc5, 0x47, 0x46, 0xbd, 0x3c, 0x7a, 0x18, 0xbd,
  0xb5, 0x7c, 0x8f, 0x3d, 0x96, 0x8f, 0x88, 0x3c, 0x9f, 0x74, 0x8a, 0x3b,
  0x63, 0x28, 0x2e, 0xbd, 0x0f, 0x9e, 0x88, 0xbd, 0x55, 0x1c, 0x45, 0xbe,
  0x72, 0x2f, 0xa6, 0xbd, 0xe0, 0x2c, 0xa0, 0x3d, 0x14, 0x72, 0x45, 0x3e,
  0xbe, 0xe8, 0x11, 0x3e, 0x2f, 0x25, 0x2a, 0x3e, 0xdb, 0x68, 0x02, 0x3e,
  0x2b, 0x21, 0xb9, 0x3d, 0xd7, 0xde, 0xc0, 0x3c, 0x1a, 0x1a, 0xc4, 0xbd,
  0xb5, 0x80, 0xa9, 0x3d, 0x47, 0xf5, 0xa6, 0x3c, 0x94, 0xee, 0x99, 0xbd,
  0x75, 0x3c, 0x81, 0xbd, 0xbf, 0x2d, 0x0f, 0xbe, 0x49, 0x40, 0x46, 0xbe,
  0xc6, 0x32, 0xf3, 0xbd, 0x3a, 0x04, 0x0f, 0xbe, 0x1f, 0xb2, 0x45, 0xbd,
  0xd2, 0x11, 0x91, 0xbb, 0xbf, 0x9d, 0x53, 0x3d, 0xe3, 0x81, 0x4d, 0xbc,
  0xb2, 0x46, 0x14, 0x3f, 0x90, 0x45, 0xf3, 0x3c, 0x51, 0x7c, 0xa5, 0x3e,
  0xcf, 0xfc, 0x13, 0xbe, 0xa5, 0x79, 0x80, 0x3e, 0xc6, 0x71, 0x79, 0xbe,
  0xf4, 0x75, 0x4f, 0xbe, 0xd9, 0xff, 0x45, 0xbe, 0xfb, 0xd0, 0xa2, 0xbe,
  0x0a, 0x66, 0xa8, 0xbe, 0x05, 0xc2, 0xfc, 0xbe, 0xf1, 0x93, 0xe8, 0xbe,
  0xf0, 0x68, 0x0b, 0xbe, 0x48, 0x95, 0x0a, 0x3d, 0xbf, 0x70, 0x48, 0xbe,
  0xd8, 0xce, 0x43, 0xbd, 0x7a, 0x83, 0x87, 0xbd, 0x96, 0x45, 0x57, 0x3d,
  0xd8, 0xdf, 0xd4, 0xbc, 0xdd, 0xaa, 0x1b, 0xbe, 0xb6, 0x15, 0x2a, 0xbe,
  0xdb, 0x38, 0x57, 0xbd, 0x2f, 0xfc, 0x17, 0xbe, 0x43, 0xbd, 0xce, 0x3d,
  0x06, 0xf5, 0xd9, 0x3c, 0x89, 0xef, 0x1f, 0x3e, 0xa9, 0x4f, 0xe2, 0x3d,
  0xf8, 0x60, 0x08, 0x3e, 0xd3, 0xc0, 0x87, 0x3d, 0xd2, 0x36, 0xec, 0x3d,
  0x8c, 0x12, 0xfe, 0x3d, 0xf7, 0x8b, 0x02, 0x3d, 0x2f, 0xb3, 0xb1, 0xbd,
  0x8d, 0x98, 0xd0, 0xbd, 0xff, 0x00, 0x8a, 0xbe, 0x06, 0xa7, 0x92, 0xbd,
  0x25, 0xbc, 0x8c, 0xbe, 0xca, 0x72, 0xb7, 0xbe, 0x03, 0xf5, 0x2f, 0xbe,
  0xb3, 0xee, 0x8e, 0xbe, 0x4f, 0x64, 0x2a, 0xbe, 0x93, 0x79, 0xc0, 0x3d,
  0x5e, 0x71, 0x21, 0x3e, 0xc4, 0xc6, 0x96, 0x3e, 0x5b, 0x1e, 0x92, 0x3e,
  0x04, 0x37, 0xcb, 0x3e, 0xfa, 0xb0, 0xcc, 0x3e, 0xfa, 0x1e, 0xaf, 0x3e,
  0x28, 0x49, 0xa8, 0x3e, 0xa9, 0xfe, 0x4e, 0x3e, 0xf7, 0x72, 0xab, 0xbd,
  0x28, 0xee, 0x19, 0x3e, 0x1e, 0xcf, 0x0c, 0xbd, 0x2c, 0x19, 0x8f, 0xbd,
  0x06, 0x5d, 0x0b, 0xbe, 0x5e, 0x7d, 0x3e, 0x3d, 0x14, 0x06, 0x4e, 0xbe,
  0xb1, 0x59, 0x92, 0xbc, 0xdd, 0xf9, 0x4c, 0x3d, 0xa1, 0xc9, 0xa9, 0xbc,
  0x64, 0x8f, 0xae, 0xbd, 0x12, 0xd8, 0x0f, 0xbd, 0x7e, 0x9a, 0x3b, 0xbe,
  0x0a, 0x9b, 0xaa, 0xbe, 0xb5, 0xc6, 0x17, 0xbe, 0x0f, 0x8d, 0x23, 0xbe,
  0x13, 0x6d, 0x69, 0xbe, 0xcd, 0x13, 0xbb, 0xbe, 0x20, 0xa0, 0x61, 0xbe,
  0x5a, 0x2a, 0xe4, 0xbe, 0xc7, 0x3e, 0x91, 0xbe, 0x43, 0xe7, 0x46, 0xbe,
  0xbe, 0x84, 0xd9, 0xbc, 0x11, 0x87, 0xaa, 0x3c, 0xdb, 0xde, 0xbb, 0xba,
  0x6f, 0xb2, 0x2f, 0x3e, 0xe4, 0x94, 0x83, 0x3e, 0x36, 0x86, 0xc9, 0x3e,
  0x1e, 0xb5, 0x5a, 0x3e, 0x78, 0xd0, 0x9f, 0x3e, 0x00, 0x38, 0x82, 0x3e,
  0x51, 0xf9, 0xfb, 0xbe, 0x07, 0xf5, 0x0d, 0xbf, 0xd4, 0x3c, 0x28, 0xbf,
  0x4d, 0x20, 0x0f, 0xbf, 0xe6, 0x7c, 0x14, 0xbf, 0xa1, 0x0a, 0x1f, 0xbe,
  0x44, 0x20, 0xe7, 0xbe, 0xff, 0xc8, 0xfd, 0xbe, 0xf8, 0x01, 0xa9, 0xbe,
  0x5a, 0xdc, 0x1b, 0xbe, 0xd4, 0xc0, 0x8e, 0xbe, 0x41, 0x5f, 0x0e, 0xbe,
  0x52, 0x1b, 0x0e, 0xbe, 0x64, 0x93, 0xe8, 0x3d, 0x9f, 0x01, 0x3d, 0xbe,
  0x35, 0xe4, 0x03, 0xbc, 0xdd, 0x66, 0xba, 0xbd, 0x12, 0x50, 0x95, 0x3d,
  0x77, 0x61, 0x71, 0xbd, 0xd3, 0x97, 0xf9, 0xbd, 0xa4, 0xed, 0xd9, 0xbd,
  0x2d, 0x62, 0x18, 0x3d, 0xd8, 0x54, 0xc2, 0xbd, 0x0f, 0x2f, 0xa5, 0x3d,
  0x0c, 0x58, 0x06, 0x3e, 0x56, 0x53, 0xe8, 0x3d, 0x87, 0x57, 0x72, 0x3e,
  0xa9, 0x72, 0x93, 0x3e, 0x4f, 0x70, 0xac, 0x3e, 0xfa, 0x37, 0xd0, 0x3e,
  0x6d, 0x08, 0x51, 0x3e, 0xf3, 0xfb, 0x82, 0x3e, 0x0c, 0x51, 0x30, 0x3e,
  0x34, 0x96, 0x1c, 0x3d, 0x14, 0xa0, 0x8d, 0x3d, 0x03, 0x52, 0xb0, 0xbd,
  0xd4, 0x06, 0x55, 0xbc, 0xe5, 0x7a, 0xbf, 0xbd, 0x73, 0x1d, 0xd3, 0x3c,
  0x04, 0x14, 0x9e, 0x3c, 0x11, 0x51, 0xd1, 0x3c, 0xa9, 0x38, 0xb3, 0xbd,
  0xf3, 0x21, 0xec, 0xbd, 0x14, 0x9a, 0x5c, 0x3d, 0xfc, 0xa4, 0xa1, 0xbd,
  0x98, 0xaa, 0x27, 0x3e, 0x68, 0xc7, 0x0d, 0x3d, 0x55, 0x19, 0x18, 0x3e,
  0xba, 0xe4, 0x38, 0xbc, 0xcb, 0xe4, 0x6d, 0x3d, 0x0d, 0x54, 0x20, 0x3b,
  0xf2, 0x20, 0xb5, 0xbc, 0x0c, 0x30, 0x5f, 0x3c, 0xd7, 0x2f, 0x46, 0xbe,
  0xe9, 0xd7, 0x22, 0xbe, 0x8f, 0xe9, 0x9c, 0xbe, 0xff, 0x94, 0x46, 0xbe,
  0xe8, 0x04, 0xd4, 0xbe, 0xaa, 0xef, 0xb2, 0xbe, 0x16, 0x82, 0xbb, 0xbe,
  0x6d, 0x36, 0x92, 0xbe, 0x02, 0xd5, 0xa1, 0xbe, 0xc2, 0xdd, 0x84, 0xbe,
  0x84, 0xb9, 0x7c, 0xbe, 0x6c, 0x29, 0x8e, 0xbd, 0xc1, 0x4f, 0x99, 0x3d,
  0xae, 0xa7, 0x56, 0x3e, 0xcc, 0x28, 0x17, 0x3e, 0xfb, 0x1f, 0xe3, 0x3e,
  0x39, 0x09, 0xb2, 0x3e, 0xdd, 0xe2, 0xea, 0x3e, 0x2a, 0x20, 0x91, 0x3e,
  0xad, 0x04, 0x06, 0x3f, 0xb9, 0x6a, 0xa5, 0x3e, 0x69, 0x29, 0xfe, 0x3e,
  0xcb, 0x19, 0xdc, 0x3e, 0xf0, 0xa7, 0x93, 0x3e, 0x26, 0x04, 0x68, 0x3e,
  0xcf, 0x05, 0x6a, 0x3e, 0x2f, 0x50, 0x6e, 0x3e, 0x5a, 0xee, 0x44, 0xbe,
  0x3c, 0x8a, 0x62, 0xbe, 0xc0, 0x95, 0xbb, 0xbe, 0x07, 0xd1, 0x32, 0xbe,
  0xdb, 0x19, 0x88, 0xbe, 0x8b, 0xcf, 0x0c, 0xbf, 0x64, 0xc5, 0x8b, 0xbe,
  0x41, 0xe2, 0x2f, 0xbf, 0xa0, 0xa2, 0xff, 0xbe, 0x1e, 0xba, 0x18, 0xbf,
  0xb9, 0x1f, 0xca, 0xbe, 0x4b, 0x6c, 0x47, 0x3d, 0x03, 0x0e, 0x51, 0xbe,
  0x31, 0x41, 0x41, 0xbd, 0x85, 0x35, 0x9c, 0x3d, 0x3d, 0x10, 0x7b, 0x3d,
  0xbc, 0xf8, 0xfc, 0xbd, 0x7a, 0x70, 0x92, 0xbd, 0x4f, 0xa7, 0x2f, 0xbd,
  0xc4, 0x7f, 0x4d, 0x3d, 0xa4, 0x2a, 0xac, 0xbc, 0x70, 0xa1, 0x9f, 0xbd,
  0xb3, 0x38, 0xdd, 0x3d, 0x47, 0x4d, 0x2e, 0x3e, 0x1f, 0x24, 0xa0, 0x3e,
  0x92, 0x18, 0x4a, 0x3e, 0x47, 0x2b, 0x37, 0x3e, 0xcb, 0xb7, 0xff, 0x3d,
  0xfa, 0x22, 0x29, 0x3e, 0xfc, 0xd5, 0x5c, 0x3e, 0x81, 0xaf, 0x86, 0x3e,
  0x89, 0xbd, 0xdd, 0x3d, 0x99, 0x3e, 0x95, 0x3d, 0x77, 0x3e, 0xb9, 0xbd,
  0x9d, 0x5b, 0x24, 0x3d, 0xf0, 0x5b, 0x9e, 0xbd, 0x9c, 0xb4, 0x72, 0xbd,
  0xf3, 0xa8, 0x88, 0xbd, 0x76, 0xe7, 0x27, 0xbe, 0xb4, 0x9d, 0x2a, 0xbe,
  0x50, 0x88, 0x5f, 0xbe, 0xb3, 0xeb, 0xa6, 0xbe, 0x49, 0x1f, 0xcd, 0xbd,
  0x25, 0x23, 0xa8, 0xbe, 0x5f, 0x19, 0x7f, 0xbe, 0x69, 0xbe, 0x8f, 0xbe,
  0xd6, 0xbe, 0xaf, 0xbe, 0x87, 0xde, 0xca, 0xbe, 0x5e, 0xce, 0x4c, 0xbe,
  0x4e, 0x6d, 0x3e, 0xbe, 0xeb, 0x3f, 0x8c, 0xbe, 0xa4, 0x9d, 0xea, 0xbd,
  0xb2, 0x86, 0x67, 0x3e, 0x86, 0xcc, 0x3d, 0x3e, 0x00, 0x6f, 0xf4, 0x3e,
  0x1a, 0x41, 0xd7, 0x3e, 0x3c, 0x7c, 0x36, 0x3f, 0x1d, 0xad, 0x32, 0x3f,
  0xb7, 0xb4, 0x2e, 0x3f, 0xd2, 0xe1, 0xe6, 0x3e, 0xd3, 0xec, 0xb1, 0x3e,
  0x2f, 0xce, 0xc4, 0x3e, 0xd7, 0xa2, 0xa1, 0x3e, 0xb8, 0x6d, 0x16, 0x3e,
  0x58, 0xf5, 0x03, 0x3e, 0x2a, 0x17, 0x07, 0x3e, 0x4d, 0xdd, 0x00, 0x3d,
  0xe2, 0xc4, 0x11, 0xbd, 0x8b, 0xf7, 0x11, 0xbe, 0xcf, 0xad, 0x50, 0xbe,
  0x40, 0x40, 0x54, 0xbc, 0x13, 0x16, 0x96, 0xbe, 0x02, 0x2c, 0x9a, 0xbc,
  0x99, 0x88, 0x18, 0xbe, 0x70, 0x5a, 0xae, 0xbd, 0xd0, 0xd0, 0x0a, 0xbe,
  0x18, 0xcd, 0x00, 0xbe, 0x3e, 0x76, 0xd2, 0xbd, 0x1d, 0xdb, 0x15, 0xbe,
  0xe8, 0x54, 0x1f, 0xbf, 0x2b, 0x7e, 0x58, 0xbe, 0xac, 0x0e, 0x42, 0xbd,
  0x67, 0x7f, 0x31, 0xbe, 0xf6, 0xc8, 0xd3, 0xbe, 0xca, 0x55, 0x42, 0xbe,
  0xee, 0xd6, 0x99, 0x3a, 0xf0, 0xd5, 0x31, 0xbe, 0x70, 0xb6, 0x0e, 0x3e,
  0xb1, 0x24, 0x84, 0x3e, 0xeb, 0x48, 0x01, 0xbe, 0x7d, 0x60, 0xa0, 0xbc,
  0xed, 0xca, 0xb1, 0x3e, 0x99, 0x96, 0x0e, 0x3f, 0x70, 0x74, 0x10, 0x3f,
  0x8f, 0xb6, 0x05, 0x3f, 0xa5, 0x25, 0xec, 0x3e, 0xa3, 0x42, 0xb3, 0x3e,
  0xd8, 0x73, 0x1b, 0x3f, 0x5e, 0xbb, 0xf1, 0x3e, 0xeb, 0xfe, 0xdc, 0x3e,
  0x47, 0x92, 0x0a, 0x3f, 0x18, 0x9b, 0x11, 0x3f, 0x1c, 0xc5, 0xc2, 0x3e,
  0x41, 0x44, 0x14, 0x3f, 0x74, 0xf6, 0x01, 0x3f, 0xe3, 0x33, 0x83, 0x3e,
  0x23, 0xb0, 0xca, 0x3e, 0x8a, 0x54, 0x59, 0x3e, 0x57, 0x3b, 0x12, 0x3e,
  0xb3, 0x61, 0x0f, 0x3d, 0xb4, 0x53, 0x06, 0x3e, 0x2d, 0xe2, 0x21, 0x3e,
  0xe9, 0x3d, 0x34, 0x3e, 0x45, 0xe9, 0xa6, 0xbc, 0xb0, 0x7c, 0x5e, 0xbe,
  0xad, 0xe8, 0x87, 0x3d, 0xaa, 0x72, 0x08, 0x3c, 0x55, 0x2a, 0x53, 0xbe,
  0x70, 0x04, 0x1e, 0x3d, 0x6e, 0x76, 0x2f, 0xbd, 0xaa, 0xa1, 0x9a, 0x3b,
  0x68, 0xaf, 0x47, 0xbd, 0x44, 0xe9, 0x65, 0x3e, 0x5c, 0x8c, 0x47, 0xbd,
  0xf7, 0x24, 0x75, 0xbe, 0x8b, 0x63, 0x18, 0xbe, 0x92, 0x4b, 0x13, 0x3e,
  0xc3, 0xf7, 0x3c, 0xbd, 0x24, 0x58, 0x1e, 0x3e, 0x84, 0x25, 0x85, 0x3d,
  0x03, 0x53, 0x0b, 0x3d, 0x93, 0x65, 0x19, 0x3e, 0xcb, 0x9f, 0xdb, 0xbd,
  0x25, 0xcd, 0x08, 0xbe, 0x0b, 0x9e, 0xf7, 0x3d, 0x4e, 0x25, 0x98, 0xbd,
  0xd8, 0x84, 0x9d, 0x3c, 0x0b, 0xf1, 0x47, 0x3c, 0x79, 0xc2, 0x56, 0xbe,
  0x15, 0xd6, 0x09, 0xbb, 0xd6, 0xb6, 0x2c, 0x3e, 0x85, 0x4f, 0x3c, 0x3e,
  0xa0, 0xcf, 0x41, 0xbc, 0x1e, 0x3f, 0xd7, 0x3d, 0xa8, 0xd1, 0xae, 0x3d,
  0x00, 0x85, 0xf3, 0x3d, 0x24, 0xf0, 0x0e, 0xbd, 0xf6, 0x75, 0xb1, 0xbc,
  0x81, 0x89, 0x7c, 0x3e, 0xdd, 0x61, 0xed, 0x3d, 0xca, 0xe9, 0x68, 0xbd,
  0x5a, 0xd9, 0x7c, 0xbb, 0xf0, 0x0c, 0xbb, 0x3c, 0x6a, 0xea, 0x05, 0x3d,
  0x7d, 0x44, 0x3d, 0xbe, 0x0a, 0x75, 0x15, 0x3e, 0x5a, 0x20, 0xfb, 0xbd,
  0xc5, 0x80, 0x09, 0xbe, 0x77, 0x7d, 0x27, 0xbc, 0xd3, 0x31, 0x32, 0xbe,
  0x6b, 0x43, 0x57, 0x3e, 0x04, 0xec, 0xff, 0x3d, 0xf2, 0x22, 0x72, 0x3e,
  0x2e, 0x7c, 0xeb, 0x3d, 0xe1, 0x41, 0x85, 0x3e, 0x2d, 0x1a, 0x25, 0xbd,
  0xa4, 0x06, 0x30, 0x3e, 0x44, 0xd0, 0x6e, 0x3e, 0x93, 0x27, 0x16, 0x3e,
  0xbf, 0x81, 0xdb, 0x3d, 0x89, 0x95, 0x82, 0x3e, 0x71, 0x0e, 0xaf, 0x3e,
  0x4e, 0xb2, 0x07, 0x3f, 0x39, 0xe0, 0x16, 0x3f, 0x3c, 0xc3, 0xc5, 0x3e,
  0x1f, 0x39, 0x06, 0x3f, 0x7d, 0x52, 0xec, 0x3e, 0xd4, 0x77, 0x2d, 0x3f,
  0xb4, 0x73, 0xe4, 0x3e, 0xc4, 0x0e, 0xec, 0x3e, 0xa8, 0x6e, 0x25, 0x3f,
  0x70, 0x67, 0xfb, 0x3e, 0x15, 0x27, 0xe4, 0x3e, 0xbc, 0x73, 0xd4, 0x3e,
  0x6b, 0x62, 0x9d, 0x3e, 0xf2, 0x1f, 0x9f, 0x3d, 0xf9, 0xf6, 0xec, 0x3d,
  0x83, 0x69, 0x51, 0x3e, 0x6d, 0xde, 0xc4, 0x3e, 0x6e, 0xd7, 0x20, 0x3e,
  0x41, 0xf4, 0x03, 0x3e, 0x71, 0x9a, 0xa3, 0x3d, 0xde, 0x2e, 0x4f, 0x3e,
  0x0f, 0xe4, 0xcc, 0xbc, 0x8a, 0x0e, 0x79, 0xbe, 0x03, 0x52, 0x8d, 0xbd,
  0x70, 0x8a, 0xcb, 0x3e, 0x1b, 0x0c, 0xc3, 0x3e, 0x79, 0xb9, 0x06, 0xbe,
  0x8f, 0x16, 0x97, 0xbd, 0x36, 0xfa, 0x8e, 0xbe, 0x1a, 0x5b, 0xe0, 0xbd,
  0x7e, 0x10, 0xe8, 0x3d, 0xa9, 0x4b, 0xb2, 0x3b, 0x35, 0x28, 0x64, 0x3e,
  0x2f, 0x0a, 0xc3, 0xbd, 0xd2, 0xe3, 0x0c, 0xbe, 0x39, 0xbc, 0xe2, 0x3d,
  0xd5, 0xa6, 0xed, 0xbd, 0x67, 0x69, 0x8a, 0xbe, 0x87, 0x21, 0x33, 0xbd,
  0x31, 0x38, 0x0b, 0x3c, 0x73, 0x63, 0x91, 0xbd, 0x42, 0xcc, 0x22, 0xbe,
  0x8c, 0x4b, 0x60, 0xbe, 0xf1, 0x4f, 0x21, 0xbe, 0x47, 0xb4, 0xb6, 0x3d,
  0x14, 0x42, 0xbf, 0xbd, 0x10, 0xfb, 0x8f, 0xbe, 0x84, 0x48, 0x8c, 0xbe,
  0x83, 0xfc, 0xdf, 0xbd, 0x25, 0x8f, 0x00, 0xbe, 0xf3, 0x59, 0x30, 0xbe,
  0x6c, 0x2b, 0x9d, 0xbe, 0xce, 0x29, 0x16, 0xbd, 0xd2, 0x97, 0x22, 0x3d,
  0x08, 0x3f, 0x90, 0xbe, 0x50, 0x23, 0xad, 0xbe, 0xf2, 0x4d, 0x2e, 0xbe,
  0xa4, 0x17, 0x91, 0xbe, 0x9c, 0xa6, 0x98, 0xbe, 0x4c, 0x18, 0xbe, 0x3c,
  0x8b, 0xa5, 0xd0, 0xbd, 0xa2, 0x42, 0x33, 0xbe, 0x37, 0x6b, 0xf0, 0xbd,
  0x24, 0x6a, 0xca, 0xbe, 0xb8, 0x82, 0x99, 0xbe, 0xab, 0x87, 0xed, 0xbd,
  0xcf, 0x9d, 0x9c, 0xbe, 0x01, 0x3e, 0x1d, 0x3f, 0xbe, 0xbf, 0xe5, 0xbb,
  0xf1, 0x5c, 0x1f, 0xbd, 0x86, 0xb6, 0xe1, 0xbd, 0x44, 0xf7, 0x24, 0xbe,
  0x44, 0xb2, 0x86, 0xbe, 0xb8, 0xb9, 0x8b, 0xbe, 0x0a, 0x78, 0x0b, 0xbf,
  0x86, 0x16, 0x0c, 0xbf, 0x03, 0x32, 0xb6, 0xbe, 0x3b, 0x30, 0x2b, 0xbf,
  0x8e, 0x44, 0x90, 0xbe, 0x7e, 0xab, 0x55, 0xbe, 0x68, 0x86, 0x2b, 0xbe,
  0xc6, 0x7c, 0x91, 0xbd, 0xd0, 0xdb, 0x09, 0xbd, 0x5b, 0x6e, 0xe3, 0xbd,
  0xb7, 0x10, 0xe3, 0x3c, 0x2c, 0x5f, 0x1b, 0x3d, 0x0f, 0xb0, 0x18, 0xbe,
  0xa9, 0x0e, 0xad, 0x3d, 0xe4, 0x03, 0x2c, 0x3d, 0xd9, 0x31, 0xa7, 0xbd,
  0x81, 0x42, 0x54, 0xbe, 0xa0, 0x89, 0xcc, 0xbb, 0x47, 0x9b, 0x8d, 0xbd,
  0x44, 0x08, 0x64, 0xbc, 0xc9, 0xb6, 0xb8, 0xbd, 0xba, 0xd3, 0x8e, 0x3d,
  0x19, 0x85, 0x1a, 0xbe, 0x4f, 0xd7, 0xe0, 0xbc, 0x8d, 0xec, 0x5c, 0xbd,
  0x3f, 0x02, 0x69, 0xbd, 0xce, 0xc4, 0x54, 0xbe, 0xdc, 0x77, 0x31, 0x3b,
  0xa8, 0xfc, 0x95, 0xbd, 0xc1, 0xda, 0xf0, 0x3c, 0xa6, 0x26, 0x5b, 0x3d,
  0xe5, 0xd8, 0xb6, 0xbd, 0x10, 0x3a, 0x58, 0xbe, 0x87, 0xf8, 0xe3, 0x3a,
  0x2e, 0x76, 0x00, 0x3d, 0xce, 0x79, 0x1f, 0xbd, 0x10, 0x18, 0x4d, 0xbd,
  0x42, 0x73, 0x48, 0xbe, 0xf8, 0x93, 0xa2, 0xbd, 0xa4, 0x3e, 0x0b, 0xbe,
  0x72, 0x53, 0x4f, 0xbe, 0xf3, 0xff, 0x75, 0xbe, 0x30, 0x39, 0xbd, 0xbd,
  0x34, 0x92, 0xe9, 0xbd, 0x90, 0xb6, 0x05, 0x3e, 0x1f, 0x25, 0x12, 0xbe,
  0x99, 0x27, 0x7a, 0xbe, 0x82, 0x43, 0xcf, 0xbd, 0x9d, 0xfc, 0x28, 0xbe,
  0x79, 0xbb, 0x37, 0xbb, 0xa6, 0x2a, 0xec, 0x3d, 0x5e, 0xa8, 0x80, 0xbd,
  0x19, 0xd5, 0x39, 0xbe, 0x93, 0x05, 0xf1, 0xbd, 0xb9, 0x59, 0x03, 0x3e,
  0xc0, 0x71, 0x75, 0xbd, 0x42, 0x3d, 0x95, 0x3e, 0x8b, 0xf0, 0x73, 0x3e,
  0x9d, 0xba, 0x5f, 0x3d, 0x04, 0xb7, 0x49, 0xbd, 0x0b, 0xfd, 0x95, 0xbd,
  0x45, 0x7c, 0xce, 0x3c, 0xe2, 0x14, 0x01, 0xbc, 0x73, 0x1f, 0x42, 0x3d,
  0x86, 0x82, 0x6b, 0x3d, 0x86, 0xba, 0xd2, 0xbc, 0x7e, 0x1e, 0xd1, 0x3d,
  0xf4, 0x46, 0x99, 0x3e, 0xa6, 0xa4, 0xa2, 0x3e, 0x76, 0x73, 0x15, 0x3f,
  0x4a, 0x67, 0x1e, 0x3f, 0xaf, 0xe4, 0x3a, 0x3f, 0x8b, 0x7a, 0x0e, 0x3f,
  0xf8, 0x7f, 0xab, 0xbd, 0xf5, 0x72, 0x74, 0x3f, 0xae, 0x7c, 0x12, 0x3f,
  0x44, 0x70, 0x0d, 0x3f, 0x6d, 0x1a, 0xbf, 0x3e, 0x08, 0x0a, 0x38, 0x3f,
  0x4f, 0xba, 0x5d, 0x3f, 0x6d, 0xaa, 0x25, 0x3f, 0x32, 0x0b, 0x5d, 0x3f,
  0x6e, 0xe8, 0x73, 0x3f, 0x4f, 0xeb, 0x65, 0x3f, 0xf3, 0x50, 0x74, 0x3f,
  0xfe, 0x6d, 0x5a, 0x3f, 0x04, 0xa8, 0x54, 0x3f, 0xee, 0xb7, 0x18, 0x3f,
  0x5a, 0x95, 0x04, 0x3f, 0xd2, 0x5b, 0x6f, 0x3e, 0x02, 0xcb, 0x04, 0x3e,
  0xe2, 0x24, 0x73, 0x3e, 0xfe, 0x47, 0x07, 0x3e, 0xea, 0x58, 0x18, 0xbe,
  0xbe, 0xc2, 0xd1, 0xbd, 0xa8, 0xc1, 0x9b, 0xbc, 0x80, 0x54, 0x0d, 0xbe,
  0x9f, 0x69, 0x08, 0x3e, 0xa0, 0xff, 0x89, 0x3d, 0x9d, 0xf5, 0x22, 0x3e,
  0x5d, 0x03, 0x61, 0xbe, 0xc4, 0x43, 0x34, 0xbe, 0x62, 0x9c, 0x2b, 0xbe,
  0x38, 0x95, 0xec, 0x3c, 0x30, 0x68, 0x0a, 0xbd, 0x9b, 0x4a, 0x58, 0xbd,
  0xca, 0x8a, 0xa4, 0xbd, 0xd7, 0x65, 0x36, 0xbe, 0x82, 0x6f, 0x01, 0xbd,
  0x79, 0x02, 0x11, 0xbd, 0x2e, 0xec, 0x6d, 0xbe, 0xad, 0xb1, 0x33, 0xbe,
  0xde, 0x7f, 0x68, 0xbd, 0xe1, 0xff, 0x28, 0x3e, 0xee, 0x82, 0x33, 0xbd,
  0x13, 0x23, 0xa7, 0x3d, 0xc8, 0x5e, 0x60, 0xbe, 0x2c, 0x17, 0x0a, 0xbd,
  0xa2, 0x01, 0x11, 0xbe, 0xdd, 0x57, 0x2a, 0xbb, 0x47, 0x96, 0x9b, 0x3d,
  0x6f, 0x40, 0xca, 0xbd, 0xfe, 0xec, 0x1a, 0xbe, 0xa9, 0x9d, 0x7e, 0xbd,
  0xc4, 0x64, 0x64, 0xbe, 0x98, 0xfd, 0x2c, 0xbd, 0x39, 0xcc, 0x3e, 0xbe,
  0x85, 0xc5, 0x16, 0x3d, 0x95, 0xaa, 0xf2, 0x3d, 0xee, 0xf6, 0x09, 0xbd,
  0xce, 0x8d, 0x0a, 0xbe, 0xe3, 0x2a, 0x9d, 0xbe, 0xd6, 0xf6, 0xa1, 0xbc,
  0x6f, 0x53, 0x31, 0x3e, 0xbf, 0xfe, 0xe8, 0xbd, 0x82, 0x93, 0x44, 0xbe,
  0x04, 0x54, 0x41, 0xbd, 0x96, 0x43, 0x7c, 0x3e, 0xf6, 0xfc, 0x8c, 0x3e,
  0x49, 0x20, 0x48, 0xbe, 0x07, 0x3a, 0x1a, 0xbe, 0xd4, 0x91, 0x92, 0x3d,
  0x9b, 0xb5, 0xa3, 0x3d, 0x2c, 0x45, 0x6d, 0xbc, 0xe9, 0xe4, 0x04, 0xbc,
  0x49, 0x22, 0xdb, 0xbd, 0x49, 0x02, 0x10, 0x3c, 0x06, 0x50, 0x47, 0x3e,
  0xc6, 0x43, 0xe5, 0x3d, 0x63, 0x86, 0xb4, 0x3d, 0x99, 0xe7, 0x4e, 0x3e,
  0x47, 0x2b, 0x0e, 0x3d, 0x56, 0xcf, 0x0b, 0x3e, 0x4a, 0x1b, 0x30, 0xbe,
  0x8f, 0x65, 0xc6, 0x3c, 0xe4, 0x9d, 0x7b, 0x3e, 0x7e, 0x40, 0xb5, 0x3e,
  0xbb, 0xc5, 0x50, 0x3e, 0x2b, 0xbe, 0xd3, 0xbd, 0x8d, 0xce, 0xd3, 0x3d,
  0x6f, 0x3f, 0xe4, 0xbe, 0x7a, 0xea, 0xcb, 0xbe, 0x5a, 0xa9, 0x4c, 0xbe,
  0x03, 0x94, 0x72, 0xbe, 0x51, 0xdd, 0x8b, 0x3d, 0x0a, 0xd4, 0x49, 0xbe,
  0x15, 0xc2, 0x62, 0x3d, 0x03, 0x0d, 0x0d, 0xbd, 0x0b, 0x63, 0x31, 0x3e,
  0x1e, 0xfe, 0xb1, 0xbc, 0x76, 0x49, 0xc7, 0x3c, 0xed, 0xa6, 0x80, 0x3d,
  0xe2, 0x78, 0x17, 0xbd, 0x23, 0xdc, 0x0b, 0xbe, 0xc1, 0x4d, 0xd5, 0xbd,
  0xa8, 0x1b, 0x68, 0xbe, 0x6f, 0x75, 0xa5, 0xbe, 0x16, 0x34, 0x60, 0xbe,
  0xee, 0x49, 0xa5, 0xbe, 0xf0, 0x86, 0xa6, 0xbe, 0x0f, 0x52, 0x85, 0xbe,
  0x2b, 0xa7, 0x6a, 0xbe, 0x93, 0x20, 0x66, 0xbe, 0xfe, 0x40, 0xbd, 0x3c,
  0xfb, 0xb8, 0xae, 0x3d, 0x5a, 0xa6, 0xb0, 0x3d, 0xd6, 0x2e, 0xab, 0x3e,
  0xea, 0x96, 0x8d, 0x3e, 0x5c, 0xec, 0x06, 0x3f, 0xe2, 0xe8, 0x83, 0x3e,
  0x84, 0xca, 0xdf, 0x3e, 0xcc, 0x0f, 0xd5, 0x3e, 0xa2, 0xac, 0x86, 0x3e,
  0x3e, 0xcf, 0x28, 0x3e, 0x86, 0x89, 0x9f, 0xbc, 0xcf, 0x35, 0x95, 0xbc,
  0xe5, 0x07, 0x29, 0xbd, 0x15, 0x05, 0x49, 0xbe, 0x12, 0x38, 0x1b, 0xbe,
  0x93, 0xd6, 0x80, 0xbe, 0xc0, 0xe7, 0x53, 0xbe, 0xc9, 0x56, 0x69, 0xbe,
  0x29, 0x72, 0x03, 0xbe, 0x69, 0x16, 0x0b, 0xbe, 0x80, 0x96, 0x07, 0xbe,
  0xb1, 0xab, 0x5b, 0x3d, 0x78, 0xbf, 0xdb, 0x3d, 0x42, 0x60, 0x84, 0x3d,
  0x8b, 0x29, 0x2d, 0x3e, 0x87, 0x04, 0xe3, 0x3d, 0x5b, 0xd0, 0x01, 0x3e,
  0xf7, 0xe7, 0x16, 0x3e, 0x27, 0x19, 0x7a, 0xbd, 0xb8, 0x36, 0x03, 0xbd,
  0x24, 0x95, 0x39, 0xbe, 0x50, 0xc8, 0xa7, 0xbe, 0x1f, 0x06, 0xb9, 0xbe,
  0xb2, 0xe5, 0xc1, 0xbe, 0xa7, 0xe7, 0x8c, 0xbe, 0x45, 0x90, 0xb0, 0xbe,
  0x39, 0x89, 0x40, 0xbe, 0x52, 0xa2, 0x2d, 0xbe, 0x1a, 0xf9, 0xbb, 0x3c,
  0x1d, 0x48, 0x93, 0xbd, 0xa8, 0x68, 0x51, 0x3e, 0x96, 0x98, 0xd9, 0x3d,
  0xe2, 0x9f, 0x0e, 0x3c, 0x34, 0x0c, 0xf4, 0x3d, 0x4e, 0x23, 0x06, 0x3d,
  0x40, 0xff, 0x2f, 0x3d, 0x12, 0x0b, 0x01, 0xbe, 0x14, 0xaa, 0xe9, 0xbd,
  0x52, 0xcf, 0x26, 0xbd, 0xef, 0x4a, 0x5a, 0xbe, 0xd6, 0x22, 0xc8, 0x3d,
  0xa8, 0x85, 0xfc, 0xbd, 0x72, 0xe9, 0x46, 0xbe, 0xaa, 0x7f, 0x00, 0xbd,
  0xc4, 0xd3, 0x9e, 0xbd, 0x13, 0xbb, 0x0a, 0xbf, 0x31, 0x3f, 0x80, 0xbe,
  0xb4, 0xdc, 0x92, 0xbe, 0xd7, 0xeb, 0x56, 0xbe, 0xa7, 0xe8, 0x84, 0xbe,
  0x79, 0xdd, 0x8d, 0xbe, 0xe4, 0x20, 0x7b, 0x3d, 0xb4, 0x0a, 0x94, 0x3d,
  0x8f, 0x67, 0x26, 0xbe, 0x05, 0x4d, 0x8e, 0x3e, 0x01, 0x4d, 0xfb, 0x3d,
  0x52, 0x36, 0xb4, 0x3e, 0x4e, 0x9c, 0xb5, 0x3e, 0x62, 0xb4, 0x09, 0x3c,
  0x2e, 0x86, 0xf4, 0x3d, 0xe9, 0x1d, 0xe6, 0x3e, 0xf0, 0x55, 0xb5, 0x3e,
  0x6e, 0x1c, 0x00, 0x3f, 0x17, 0xe5, 0x24, 0x3e, 0x3a, 0x2e, 0xae, 0x3d,
  0xe5, 0x6a, 0xb9, 0x3e, 0x05, 0x88, 0x0f, 0x3f, 0x6f, 0x76, 0x7d, 0x3e,
  0xc2, 0x0f, 0xda, 0x3e, 0xfe, 0xf8, 0x18, 0x3f, 0x9d, 0x08, 0x8f, 0x3e,
  0x4f, 0x1f, 0xe2, 0x3e, 0x72, 0x14, 0xea, 0x3e, 0x6a, 0x51, 0x29, 0x3f,
  0x54, 0x12, 0xad, 0x3e, 0x7b, 0xcc, 0x4c, 0x3e, 0xd6, 0xfd, 0x29, 0x3e,
  0x14, 0x3b, 0x40, 0x3e, 0x6d, 0xc0, 0x7d, 0x3e, 0x87, 0x5d, 0x93, 0x3e,
  0x0e, 0x57, 0xaa, 0x3e, 0xec, 0x45, 0x1c, 0x3e, 0xc0, 0x1e, 0x33, 0xbe,
  0x06, 0x02, 0xf0, 0x3c, 0xa3, 0xea, 0xc1, 0x3e, 0x0a, 0x30, 0x47, 0x3e,
  0x3a, 0x15, 0xb3, 0x3d, 0xea, 0xff, 0x07, 0xbc, 0xd4, 0xe4, 0x4a, 0xbd,
  0xa5, 0xe7, 0x3e, 0xbc, 0x91, 0x4b, 0x11, 0x3d, 0xce, 0x7c, 0x41, 0xbd,
  0x84, 0xa3, 0xee, 0x3c, 0x7e, 0x81, 0xe2, 0xbd, 0x90, 0x55, 0x88, 0xbc,
  0x1c, 0x12, 0x2d, 0x3e, 0x82, 0xad, 0x01, 0xbe, 0x2a, 0x47, 0xde, 0xbd,
  0xd5, 0x95, 0x4c, 0xbd, 0x58, 0x81, 0xe4, 0xbd, 0x50, 0x07, 0x66, 0xbe,
  0x9b, 0x9f, 0x97, 0x3d, 0x20, 0x8d, 0x10, 0xbe, 0x9e, 0xf8, 0xae, 0xbe,
  0x00, 0x15, 0x66, 0xbe, 0x22, 0x83, 0xe1, 0xbd, 0x22, 0x1d, 0x89, 0xbd,
  0x8b, 0x17, 0x92, 0xbe, 0x38, 0x24, 0xd0, 0xbe, 0xd0, 0xce, 0xda, 0xbd,
  0xe5, 0x3a, 0x84, 0x3c, 0x87, 0x2b, 0x3b, 0xbe, 0x56, 0xc7, 0x93, 0xbe,
  0xef, 0x15, 0xbb, 0xbe, 0xd3, 0xd0, 0xdf, 0xbe, 0x3a, 0xda, 0x32, 0xbe,
  0x68, 0xb0, 0x6a, 0xbe, 0xff, 0x5c, 0x01, 0xbf, 0x54, 0xf1, 0x04, 0xbf,
  0x58, 0xf1, 0x79, 0xbf, 0xec, 0xc3, 0x8f, 0xbd, 0x23, 0x07, 0x0b, 0xbf,
  0xe4, 0xf8, 0xc6, 0xbe, 0x32, 0xc3, 0x8b, 0xbd, 0xd2, 0xcd, 0x62, 0xbe,
  0x1a, 0x51, 0x81, 0xbe, 0xd8, 0xe2, 0x4b, 0xbd, 0xf1, 0x20, 0xf9, 0x3d,
  0x1c, 0x14, 0xb3, 0x3c, 0xb0, 0x99, 0xe8, 0x3d, 0x78, 0xbd, 0x35, 0xbd,
  0x37, 0x31, 0x12, 0xbe, 0x26, 0x16, 0xc6, 0xbd, 0xbb, 0xc9, 0x72, 0xbe,
  0x9f, 0xe7, 0xa0, 0xbd, 0x0d, 0x51, 0x31, 0xbe, 0xa7, 0x6e, 0xf3, 0xbd,
  0x28, 0x31, 0x23, 0xbd, 0x80, 0x07, 0x3f, 0xbe, 0x86, 0x15, 0xfd, 0xbd,
  0x4d, 0x98, 0x4e, 0x3c, 0x04, 0x4f, 0x96, 0xbc, 0xb2, 0x9b, 0x99, 0x3c,
  0xa2, 0x74, 0x05, 0x3e, 0xb5, 0x78, 0xe5, 0xbd, 0x9b, 0x8c, 0x35, 0x3d,
  0x8e, 0x82, 0xfb, 0xbd, 0x41, 0xfc, 0xdb, 0xbd, 0x90, 0x29, 0x19, 0xbe,
  0xea, 0x8d, 0x64, 0x3d, 0x3e, 0xfa, 0x0d, 0xbe, 0x0b, 0x91, 0x16, 0xbe,
  0x2b, 0xb7, 0xfe, 0xbd, 0xb8, 0x3e, 0xe0, 0xbd, 0xf0, 0xbf, 0x13, 0xbe,
  0x53, 0xa5, 0x84, 0xbc, 0x68, 0xac, 0xd5, 0xbd, 0x1d, 0xa7, 0x8f, 0xbc,
  0x38, 0x73, 0xb3, 0xbc, 0xbc, 0x22, 0x76, 0x3b, 0x5e, 0x78, 0x69, 0x3d,
  0xf7, 0x06, 0xdd, 0xbd, 0x33, 0x32, 0xa6, 0xbd, 0xa1, 0x58, 0x28, 0x3d,
  0x9a, 0xb7, 0xd4, 0x3c, 0x3a, 0x81, 0xef, 0xbd, 0x22, 0xd1, 0xdb, 0xbd,
  0x5e, 0xe6, 0x5b, 0xbe, 0xe4, 0x21, 0x63, 0xbd, 0x6b, 0x9e, 0xb3, 0xbe,
  0x11, 0x03, 0x71, 0xbe, 0x44, 0xb0, 0x56, 0xbe, 0x98, 0xc7, 0x98, 0xbe,
  0x3a, 0xa1, 0x52, 0xbe, 0x31, 0x72, 0x95, 0xbe, 0xc2, 0x33, 0x9f, 0xbe,
  0xc2, 0xfb, 0xa4, 0xbd, 0x46, 0x61, 0x10, 0xbe, 0x6a, 0x5e, 0x2c, 0xbe,
  0xdd, 0x8e, 0xec, 0x3d, 0x4d, 0x0e, 0x1b, 0x3e, 0x24, 0xcd, 0x2b, 0x3e,
  0xdf, 0xae, 0xa1, 0x3e, 0x50, 0xe7, 0x50, 0x3e, 0x8b, 0x7d, 0x81, 0x3e,
  0xb4, 0x1d, 0x92, 0x3e, 0xaf, 0x09, 0xd6, 0x3c, 0x88, 0xd6, 0x73, 0x3e,
  0x5c, 0xb1, 0x2c, 0xbd, 0x98, 0xad, 0xed, 0xbd, 0x4a, 0x34, 0x2d, 0xbe,
  0x50, 0x17, 0xf6, 0xbd, 0xc0, 0xa6, 0xa0, 0xbe, 0x8e, 0xe3, 0x17, 0xbe,
  0xa9, 0x01, 0x9e, 0xbe, 0xa6, 0x46, 0x5a, 0xbe, 0x84, 0x58, 0x36, 0xbe,
  0x45, 0xd9, 0x1e, 0xbe, 0x00, 0x46, 0x09, 0xbe, 0x35, 0xb2, 0xe9, 0xbe,
  0xf3, 0x04, 0x43, 0xbf, 0x0d, 0x31, 0x36, 0xbf, 0x97, 0xca, 0x2a, 0xbf,
  0x44, 0x51, 0x39, 0xbf, 0x70, 0x9c, 0x79, 0xbe, 0x18, 0xd3, 0x2e, 0xbf,
  0xf2, 0x35, 0x03, 0xbf, 0xdf, 0x26, 0x08, 0xbf, 0xa6, 0x7f, 0xe8, 0xbe,
  0x0c, 0x74, 0x0c, 0xbe, 0x02, 0x19, 0xa6, 0x3a, 0x6e, 0xe3, 0x54, 0xbe,
  0xa3, 0xd5, 0x1f, 0xbe, 0x99, 0x57, 0x11, 0x3e, 0x6c, 0xaf, 0x93, 0x3e,
  0x35, 0x2b, 0x2d, 0x3e, 0xa2, 0x32, 0xb6, 0x3e, 0x6c, 0xea, 0x50, 0x3e,
  0xd9, 0x85, 0x62, 0x3d, 0xc4, 0x45, 0xc8, 0x3d, 0x22, 0xcb, 0xa9, 0x3e,
  0xb3, 0x6d, 0x60, 0x3d, 0x7b, 0x7a, 0xd4, 0x3e, 0x37, 0xb5, 0xf6, 0x3d,
  0x41, 0x97, 0xaf, 0x3e, 0x84, 0xe1, 0x82, 0x3e, 0xe6, 0x4f, 0x11, 0x3f,
  0xb8, 0xa3, 0xe8, 0x3e, 0xe7, 0xe8, 0xf6, 0x3e, 0xa3, 0x81, 0x13, 0x3f,
  0x5e, 0x6c, 0x01, 0x3e, 0x65, 0x02, 0x99, 0x3e, 0xdb, 0x70, 0x1e, 0x3e,
  0x6e, 0xe8, 0xb4, 0x3e, 0x05, 0x4e, 0x15, 0x3e, 0x9a, 0x72, 0x8a, 0x3e,
  0x0d, 0x81, 0xa4, 0x3d, 0xc7, 0x9f, 0xca, 0x3d, 0xe2, 0xe6, 0xba, 0x3d,
  0xe8, 0x0a, 0x14, 0x3e, 0xd6, 0xaa, 0x41, 0x3e, 0x6f, 0xfd, 0x2b, 0x3e,
  0x66, 0x5a, 0xed, 0x3e, 0x7f, 0xb1, 0xb9, 0x3e, 0xa9, 0x31, 0x02, 0xbd,
  0x45, 0xe1, 0x98, 0x3d, 0x49, 0x7f, 0xb9, 0x3d, 0x39, 0x55, 0xe3, 0x3d,
  0xa1, 0xa3, 0xb8, 0x3e, 0x9d, 0x36, 0x9d, 0x3d, 0x3b, 0xfc, 0x40, 0x3e,
  0x0b, 0xc9, 0x9c, 0xbd, 0x50, 0x8d, 0x64, 0x3e, 0x8a, 0xaa, 0x8a, 0x3c,
  0x6b, 0xf9, 0x94, 0x3e, 0xb8, 0xfa, 0x3c, 0xbe, 0x2a, 0xdf, 0x88, 0x3e,
  0x6a, 0x41, 0x49, 0xbe, 0x2f, 0x83, 0xed, 0xbd, 0x27, 0xfa, 0x49, 0x3e,
  0xe2, 0xde, 0x42, 0x3e, 0x81, 0x9f, 0x8d, 0x3c, 0xd4, 0x51, 0xf9, 0x3d,
  0xe1, 0x6e, 0xf2, 0xbc, 0xdf, 0x6c, 0x6c, 0x3d, 0xc6, 0x17, 0x30, 0x3e,
  0x4c, 0x0c, 0x08, 0x3e, 0x5c, 0x0a, 0x46, 0x3e, 0x8f, 0x12, 0x43, 0x3e,
  0x9a, 0xf3, 0xc6, 0x3d, 0xfa, 0x4d, 0xcf, 0x3e, 0x12, 0x1d, 0x36, 0x3e,
  0x9d, 0xae, 0xef, 0x3e, 0x91, 0xbb, 0xe0, 0x3d, 0x03, 0x4d, 0xf9, 0x3e,
  0x19, 0x64, 0x70, 0x3e, 0x77, 0xf3, 0xc4, 0x3e, 0x79, 0x93, 0xcb, 0xbc,
  0x1d, 0x00, 0x21, 0x3e, 0x00, 0x2a, 0xad, 0x3d, 0x86, 0x34, 0xd8, 0x3d,
  0x7f, 0x23, 0xd1, 0xba, 0x3f, 0xd6, 0x69, 0xbe, 0x7e, 0xc3, 0x8c, 0xbe,
  0x58, 0xaf, 0x36, 0xbe, 0x00, 0xbd, 0x18, 0xbe, 0x1a, 0x79, 0xc5, 0xbe,
  0xb4, 0x15, 0xb8, 0xbd, 0xf1, 0x26, 0xc7, 0xbd, 0x39, 0xf2, 0xa6, 0xbd,
  0x4c, 0xe3, 0x43, 0xbe, 0x32, 0x73, 0xdb, 0xbd, 0xd5, 0xc8, 0x18, 0xbe,
  0xda, 0xba, 0x95, 0xbd, 0xce, 0x44, 0xea, 0xbd, 0xc5, 0x6a, 0xab, 0xbd,
  0x50, 0x63, 0xfa, 0x3c, 0x4e, 0xff, 0x89, 0xbd, 0xaf, 0xa4, 0x01, 0x3e,
  0x3d, 0x17, 0x93, 0x3c, 0x7f, 0xc2, 0xd1, 0x3d, 0xfc, 0x8a, 0x56, 0xbc,
  0x36, 0xee, 0x5f, 0xbd, 0xdd, 0xf6, 0xbd, 0x3d, 0x1d, 0xb3, 0x9c, 0x3d,
  0xba, 0xbd, 0xe9, 0xbd, 0xd2, 0xe5, 0x40, 0xbd, 0x15, 0x5e, 0x1a, 0xbe,
  0xd8, 0xbe, 0xcf, 0xbd, 0x31, 0x0b, 0x0a, 0x3d, 0x07, 0xda, 0x1e, 0xbe,
  0xfd, 0x5b, 0x8e, 0xbe, 0x2d, 0x5c, 0x2f, 0xbe, 0xe5, 0xcf, 0xbb, 0xbe,
  0x90, 0xa9, 0x42, 0xbe, 0x32, 0xba, 0x9c, 0xbe, 0x30, 0xd7, 0x8c, 0xbe,
  0x7a, 0xef, 0x59, 0xbe, 0xf9, 0x23, 0x8d, 0xbe, 0x00, 0xac, 0x90, 0xbe,
  0x24, 0x98, 0xa1, 0xbe, 0xc8, 0xa3, 0xe5, 0xbe, 0x68, 0x17, 0x92, 0xbe,
  0xb0, 0x69, 0x64, 0xbe, 0xe6, 0x2a, 0x2a, 0xbe, 0xba, 0x4f, 0x41, 0x3d,
  0x23, 0x51, 0x84, 0xbd, 0xbf, 0x70, 0xdb, 0x3e, 0xbe, 0xdb, 0xa8, 0x3e,
  0xda, 0x12, 0x0b, 0x3f, 0x71, 0xab, 0x11, 0x3f, 0xe6, 0x98, 0x2d, 0x3f,
  0xc6, 0x8a, 0xed, 0x3e, 0x0d, 0x08, 0x31, 0x3f, 0x92, 0x38, 0xde, 0x3e,
  0xcd, 0x70, 0xd7, 0x3e, 0x7e, 0xa5, 0x84, 0x3e, 0x09, 0xa9, 0xee, 0x3d,
  0x44, 0xca, 0xde, 0xbd, 0x5f, 0xb7, 0xf5, 0xbd, 0x83, 0x05, 0x9a, 0xbe,
  0xc4, 0x65, 0x38, 0xbe, 0x3d, 0xd5, 0x2f, 0xbd, 0xd3, 0x74, 0xa4, 0xbe,
  0xa0, 0xae, 0x88, 0xbd, 0x93, 0x8d, 0x62, 0xbe, 0xc9, 0x1a, 0xa2, 0xbe,
  0x36, 0x34, 0x50, 0xbe, 0x21, 0xac, 0xb2, 0xbe, 0x0e, 0x14, 0xdd, 0x3c,
  0xdb, 0xb8, 0x43, 0xbe, 0x35, 0xb7, 0x02, 0xbe, 0xb5, 0x50, 0x01, 0xbe,
  0x42, 0xdb, 0x99, 0xbd, 0x95, 0x27, 0x69, 0xbe, 0x6a, 0x06, 0x29, 0xbe,
  0xb3, 0xf5, 0x07, 0xbd, 0x3d, 0xf9, 0xdb, 0xbd, 0x49, 0x74, 0xbd, 0x3d,
  0xb0, 0xe2, 0xe3, 0x3e, 0xd5, 0x73, 0x04, 0xbe, 0x62, 0x07, 0x38, 0x3e,
  0xe2, 0xab, 0x55, 0xbe, 0xce, 0xed, 0x0a, 0xbe, 0xf6, 0xf7, 0x8c, 0x3c,
  0xbf, 0xe8, 0x14, 0xbd, 0x09, 0x3a, 0xb0, 0xbd, 0x73, 0xfb, 0x89, 0xbe,
  0xa6, 0x3a, 0x38, 0xbf, 0x56, 0xe3, 0x05, 0xbf, 0x54, 0x1a, 0xd3, 0xbe,
  0xf7, 0xac, 0xd9, 0xbe, 0x08, 0xb5, 0x59, 0xbe, 0xb1, 0xfe, 0x48, 0x3c,
  0xde, 0x65, 0x87, 0xbe, 0xb2, 0x8f, 0x43, 0xbe, 0x10, 0x2a, 0x48, 0xbe,
  0xa0, 0x2a, 0x18, 0x3d, 0x3f, 0x1d, 0x15, 0xbe, 0xda, 0x00, 0x41, 0xbe,
  0x08, 0xb1, 0x2c, 0xbe, 0x20, 0xc1, 0x04, 0x3d, 0x82, 0x08, 0xf1, 0x3b,
  0x97, 0xd9, 0x2e, 0xbd, 0x4e, 0xd8, 0x72, 0x3d, 0x4a, 0x69, 0x8f, 0x3a,
  0xce, 0xbf, 0xd1, 0xbd, 0xcd, 0xff, 0x91, 0xbd, 0xf0, 0x08, 0x32, 0x3e,
  0x46, 0x80, 0x0b, 0x3e, 0x74, 0x59, 0x09, 0x3e, 0x0c, 0x91, 0x8c, 0x3d,
  0xa6, 0xcc, 0x24, 0x3e, 0xb8, 0x4c, 0x18, 0x3e, 0x69, 0x14, 0x12, 0xbe,
  0x3f, 0x7c, 0xdd, 0xbd, 0x11, 0x9c, 0x20, 0x3e, 0xdc, 0xb0, 0x1e, 0x3d,
  0x2a, 0xa3, 0x1f, 0xbe, 0x4a, 0xe4, 0xc2, 0xbd, 0x73, 0xc1, 0x80, 0xbe,
  0x35, 0x13, 0x1a, 0xbe, 0x87, 0x5e, 0x80, 0xbe, 0x4b, 0x0c, 0x47, 0xbe,
  0xb9, 0xb0, 0x8c, 0xbe, 0x82, 0x63, 0xbf, 0xbd, 0x8d, 0x16, 0x37, 0x3e,
  0x43, 0x8f, 0xaa, 0x3e, 0xfb, 0x4d, 0x40, 0x3e, 0xce, 0xfa, 0xed, 0x3d,
  0xa9, 0x7c, 0x38, 0xbd, 0xb1, 0x46, 0x42, 0xbe, 0x43, 0xde, 0x94, 0xbe,
  0x92, 0xce, 0x0b, 0xbe, 0x77, 0x6b, 0x15, 0xbe, 0x45, 0xa1, 0xe4, 0xbc,
  0x67, 0x7a, 0x28, 0xbd, 0x49, 0x1b, 0xa2, 0xbe, 0xe6, 0x86, 0x64, 0xbe,
  0xf0, 0xfe, 0x14, 0xbe, 0x0c, 0x54, 0x6d, 0xbe, 0x36, 0x76, 0x4d, 0xbd,
  0x98, 0x13, 0x79, 0x3c, 0x2a, 0x68, 0x71, 0x3d, 0xdb, 0xb7, 0xdd, 0x3d,
  0x59, 0x42, 0x67, 0xbc, 0x9e, 0xf9, 0x92, 0x3d, 0xe7, 0x22, 0xf9, 0x3d,
  0x8c, 0x71, 0x9f, 0x3d, 0x46, 0x9a, 0xdb, 0x3c, 0x28, 0x56, 0x94, 0x3d,
  0xb3, 0x01, 0x55, 0x3d, 0xa1, 0x0b, 0xf0, 0xbd, 0x6d, 0x21, 0x5b, 0xbe,
  0x8d, 0x78, 0x35, 0xbe, 0x39, 0x48, 0x5f, 0xbe, 0xd5, 0xf1, 0xf0, 0xbe,
  0xc2, 0xbb, 0xc9, 0xbe, 0x7a, 0xb2, 0xa5, 0xbd, 0x8d, 0x33, 0x84, 0x3e,
  0x3d, 0x0b, 0x30, 0xbe, 0x3a, 0x10, 0x8d, 0xbe, 0x65, 0xe8, 0x1e, 0xbf,
  0xf8, 0xc0, 0x11, 0xbf, 0xa0, 0x7f, 0x0f, 0xbf, 0x31, 0xb4, 0xce, 0xbe,
  0x9a, 0x47, 0x57, 0xbe, 0xd7, 0x8b, 0xc9, 0xbe, 0xc3, 0x0f, 0xd6, 0xbe,
  0x0c, 0x1f, 0x41, 0xbe, 0x6b, 0x62, 0x53, 0xbe, 0x28, 0x6b, 0x19, 0xbd,
  0x94, 0x2b, 0xa7, 0x3d, 0xf6, 0x59, 0xdb, 0x3d, 0xa4, 0x78, 0x26, 0x3e,
  0x19, 0x2c, 0xe8, 0x3d, 0x49, 0xef, 0xac, 0x3d, 0xcc, 0x0f, 0xa9, 0x3d,
  0x33, 0x8a, 0x1f, 0x3e, 0x37, 0x5c, 0x85, 0x3d, 0x1e, 0x64, 0x1d, 0x3e,
  0x0b, 0x7d, 0x31, 0x3e, 0x3c, 0x22, 0xbb, 0x3d, 0x00, 0x7d, 0x01, 0x3e,
  0x18, 0x04, 0x6c, 0xba, 0x2b, 0x16, 0xb1, 0xbd, 0x5a, 0x2a, 0x20, 0xbe,
  0xf3, 0xe2, 0xb4, 0xbe, 0x02, 0x38, 0x81, 0xbe, 0x85, 0x88, 0x9d, 0xbe,
  0x03, 0x6d, 0x8e, 0xbe, 0xdb, 0xa3, 0x93, 0xbe, 0xb5, 0xb1, 0x87, 0xbe,
  0xc9, 0xc2, 0x1e, 0xbe, 0x04, 0xa4, 0x50, 0xbe, 0x0d, 0xc9, 0x2f, 0x3e,
  0xfd, 0x32, 0xc7, 0x3d, 0xb4, 0xc2, 0xbc, 0x3e, 0x37, 0x39, 0xa6, 0x3e,
  0x36, 0x75, 0x0f, 0x3f, 0x78, 0x29, 0xf3, 0x3e, 0x46, 0x6c, 0xd3, 0x3e,
  0x54, 0x44, 0x12, 0x3f, 0x9e, 0xd9, 0x0e, 0x3f, 0x3a, 0x78, 0xaa, 0x3e,
  0x9e, 0x71, 0x9f, 0x3e, 0xe9, 0x89, 0x02, 0x3e, 0x8a, 0xc1, 0xb0, 0xbc,
  0xcb, 0xb6, 0xcf, 0x3c, 0x14, 0xe9, 0x4d, 0xbe, 0x92, 0x4f, 0xdb, 0xbd,
  0xe0, 0x49, 0x65, 0xbe, 0xda, 0x4c, 0x6c, 0xbe, 0x97, 0x9a, 0x69, 0xbe,
  0x83, 0x79, 0xb0, 0xbe, 0x0b, 0x6f, 0x07, 0xbe, 0x1b, 0xb6, 0x8f, 0xbe,
  0xb4, 0x0e, 0x19, 0xbd, 0xda, 0xbd, 0x59, 0xbd, 0x22, 0xf8, 0x03, 0xbe,
  0x97, 0x97, 0x28, 0x3e, 0x21, 0xc8, 0x8c, 0xbd, 0x72, 0xa3, 0x63, 0x3d,
  0x0c, 0xa6, 0x63, 0xbd, 0x7c, 0x0c, 0x27, 0x3d, 0x80, 0xee, 0x06, 0xbe,
  0x4f, 0x29, 0xd9, 0x3d, 0x99, 0x4c, 0x8a, 0xbc, 0x60, 0x22, 0xf0, 0x3d,
  0x05, 0x8e, 0xa9, 0x3d, 0xd1, 0xc7, 0xc4, 0x3d, 0xef, 0x09, 0xc5, 0x3d,
  0x2d, 0xa0, 0x61, 0x3d, 0x0f, 0x63, 0x82, 0x3e, 0x32, 0xc3, 0xa5, 0x3e,
  0xf1, 0xcc, 0xe0, 0x3d, 0x74, 0xe7, 0xbb, 0x3e, 0xeb, 0x75, 0x3e, 0x3e,
  0x57, 0x76, 0xac, 0x3e, 0x6a, 0xd0, 0x74, 0xbe, 0x1d, 0xf8, 0x92, 0xbe,
  0xc5, 0x8b, 0xc6, 0xbe, 0xd6, 0xb2, 0xbe, 0xbe, 0x8c, 0xe4, 0x92, 0xbe,
  0xdf, 0x87, 0x06, 0xbe, 0xf3, 0x6f, 0x22, 0xbe, 0x83, 0x5d, 0xaf, 0xbe,
  0xd8, 0xb6, 0xd8, 0xbe, 0x4e, 0x9c, 0xee, 0xbe, 0xdf, 0x1d, 0x5e, 0xbe,
  0xf0, 0x8b, 0xbc, 0xbe, 0x59, 0xf5, 0x22, 0xbe, 0x0c, 0x6e, 0xcf, 0xbd,
  0x49, 0x9e, 0xa1, 0xbe, 0x8a, 0x76, 0x9d, 0xbe, 0x7f, 0x78, 0xec, 0xbc,
  0xb1, 0xa0, 0x90, 0xbe, 0x61, 0xe1, 0x4f, 0xbe, 0x0e, 0x69, 0x12, 0x3d,
  0x51, 0x46, 0x86, 0xbe, 0xd1, 0x6a, 0x95, 0xbe, 0xaa, 0x4f, 0x2e, 0x3e,
  0xeb, 0xa9, 0x60, 0xbe, 0x29, 0x7a, 0x08, 0x3e, 0xbc, 0x5b, 0x69, 0x3c,
  0x2f, 0x9f, 0x93, 0x3d, 0x14, 0xb2, 0x4e, 0xbe, 0x30, 0x86, 0x18, 0xbe,
  0x14, 0x45, 0x74, 0xbe, 0xcd, 0x5f, 0x15, 0xbe, 0x9b, 0xf2, 0x74, 0xbe,
  0x08, 0x29, 0x50, 0xbe, 0x9f, 0x04, 0x22, 0xbd, 0xb6, 0x3a, 0x36, 0xbd,
  0xde, 0x6d, 0xd7, 0xbd, 0x1d, 0x59, 0x29, 0xbe, 0xf8, 0x28, 0xd8, 0x3d,
  0x1f, 0x3d, 0xf7, 0xbc, 0x73, 0x15, 0x30, 0x3d, 0xa3, 0x2f, 0x83, 0xbd,
  0x1b, 0xb9, 0x01, 0x3e, 0x56, 0x76, 0xaf, 0xbb, 0xfb, 0x04, 0x4d, 0xbd,
  0x5a, 0x3a, 0x62, 0xbe, 0x22, 0xf3, 0x6a, 0xbd, 0xe0, 0xc0, 0x3b, 0xbe,
  0x33, 0xd1, 0x36, 0xbe, 0x6b, 0x6e, 0x39, 0xbe, 0x3c, 0x09, 0x03, 0x3c,
  0x92, 0x0e, 0x1b, 0xbe, 0xd7, 0x5e, 0xae, 0xbd, 0xc1, 0xc2, 0xa1, 0xbe,
  0x38, 0xc5, 0x46, 0xbc, 0xd5, 0x86, 0xe0, 0xbd, 0xd2, 0x77, 0x54, 0xbe,
  0x2f, 0x99, 0x62, 0xbe, 0x4f, 0xef, 0x44, 0xbe, 0x36, 0x27, 0x30, 0xbe,
  0x5d, 0x93, 0x48, 0xbe, 0x38, 0x23, 0x29, 0xbe, 0xae, 0xe7, 0x70, 0x3e,
  0xff, 0xf2, 0x92, 0xbd, 0x96, 0x1a, 0x41, 0x3e, 0x60, 0x1e, 0x69, 0x3e,
  0xaa, 0x9c, 0xf8, 0xbd, 0xfd, 0x91, 0xdc, 0x3d, 0x30, 0x9f, 0xa3, 0xbd,
  0xe8, 0x57, 0x49, 0xbd, 0x91, 0x4c, 0x81, 0xbe, 0xd9, 0x67, 0x20, 0xbe,
  0x04, 0x2b, 0x85, 0xbe, 0x6f, 0x6c, 0x95, 0xbd, 0xc8, 0x06, 0xb4, 0xbe,
  0xef, 0x4b, 0x0f, 0xbe, 0xce, 0x38, 0x6c, 0xbd, 0xdc, 0x55, 0x22, 0xbd,
  0xd0, 0xd6, 0x25, 0xbe, 0x07, 0x4c, 0x3a, 0xbe, 0x39, 0x5f, 0xb8, 0xbe,
  0x0e, 0xfe, 0xff, 0xff, 0x04, 0x00, 0x00, 0x00, 0x0c, 0x00, 0x00, 0x00,
  0x25, 0x4d, 0x22, 0xc0, 0x86, 0x0e, 0x26, 0xc0, 0x50, 0xd2, 0xbe, 0xbf,
  0x26, 0xfe, 0xff, 0xff, 0x04, 0x00, 0x00, 0x00, 0x0c, 0x00, 0x00, 0x00,
  0x82, 0x65, 0x02, 0xc0, 0x95, 0x03, 0x1d, 0xc0, 0x08, 0xd4, 0x3b, 0xc0,
  0x3e, 0xfe, 0xff, 0xff, 0x04, 0x00, 0x00, 0x00, 0x0c, 0x00, 0x00, 0x00,
  0x77, 0x44, 0x95, 0x3f, 0xc2, 0x51, 0x91, 0x3f, 0xe0, 0xc8, 0x54, 0x3f,
  0x56, 0xfe, 0xff, 0xff, 0x04, 0x00, 0x00, 0x00, 0x0c, 0x00, 0x00, 0x00,
  0x7e, 0x94, 0x14, 0xc0, 0x49, 0x74, 0x59, 0xbf, 0xc4, 0x42, 0x5d, 0xbf,
  0x6e, 0xfe, 0xff, 0xff, 0x04, 0x00, 0x00, 0x00, 0x04, 0x00, 0x00, 0x00,
  0xe8, 0x56, 0x74, 0xbf, 0x7e, 0xfe, 0xff, 0xff, 0x04, 0x00, 0x00, 0x00,
  0x04, 0x00, 0x00, 0x00, 0xad, 0xde, 0x95, 0x3f, 0x8e, 0xfe, 0xff, 0xff,
  0x04, 0x00, 0x00, 0x00, 0x04, 0x00, 0x00, 0x00, 0x4c, 0x78, 0x47, 0x3e,
  0x9e, 0xfe, 0xff, 0xff, 0x04, 0x00, 0x00, 0x00, 0x04, 0x00, 0x00, 0x00,
  0x28, 0x00, 0x28, 0x3f, 0xae, 0xfe, 0xff, 0xff, 0x04, 0x00, 0x00, 0x00,
  0x04, 0x00, 0x00, 0x00, 0xec, 0xf8, 0x86, 0xbe, 0xbe, 0xfe, 0xff, 0xff,
  0x04, 0x00, 0x00, 0x00, 0x04, 0x00, 0x00, 0x00, 0xcd, 0x8b, 0xe1, 0x3e,
  0xce, 0xfe, 0xff, 0xff, 0x04, 0x00, 0x00, 0x00, 0x04, 0x00, 0x00, 0x00,
  0xf4, 0x82, 0x03, 0x3f, 0xde, 0xfe, 0xff, 0xff, 0x04, 0x00, 0x00, 0x00,
  0x04, 0x00, 0x00, 0x00, 0x91, 0x3a, 0x5d, 0xbf, 0xee, 0xfe, 0xff, 0xff,
  0x04, 0x00, 0x00, 0x00, 0x0c, 0x00, 0x00, 0x00, 0x61, 0xf6, 0xfc, 0x3d,
  0x63, 0x5e, 0x8d, 0x3e, 0x0d, 0xb4, 0xa8, 0xbe, 0x06, 0xff, 0xff, 0xff,
  0x04, 0x00, 0x00, 0x00, 0x40, 0x00, 0x00, 0x00, 0x0e, 0x2c, 0x0b, 0x3f,
  0x06, 0xeb, 0x6f, 0x3e, 0x7c, 0x70, 0xba, 0x3e, 0x88, 0xb7, 0xea, 0x3e,
  0x30, 0x71, 0x10, 0xbf, 0xed, 0xe5, 0x9d, 0xbe, 0xeb, 0x6e, 0x06, 0x3f,
  0x97, 0x9e, 0xf5, 0xbe, 0x48, 0xdd, 0x76, 0xbe, 0xe1, 0xaa, 0x8d, 0xbe,
  0x31, 0x4d, 0x18, 0xbf, 0x6e, 0x36, 0x9a, 0xbe, 0xd9, 0xd1, 0xa2, 0xbe,
  0x77, 0x64, 0x82, 0x3e, 0xea, 0xcb, 0x5f, 0x3e, 0x51, 0xa4, 0x5b, 0xbe,
  0x52, 0xff, 0xff, 0xff, 0x04, 0x00, 0x00, 0x00, 0x08, 0x00, 0x00, 0x00,
  0xff, 0xff, 0xff, 0xff, 0x50, 0x00, 0x00, 0x00, 0x66, 0xff, 0xff, 0xff,
  0x04, 0x00, 0x00, 0x00, 0x04, 0x00, 0x00, 0x00, 0x00, 0x00, 0x00, 0x00,
  0x54, 0xf6, 0xff, 0xff, 0x58, 0xf6, 0xff, 0xff, 0x0f, 0x00, 0x00, 0x00,
  0x4d, 0x4c, 0x49, 0x52, 0x20, 0x43, 0x6f, 0x6e, 0x76, 0x65, 0x72, 0x74,
  0x65, 0x64, 0x2e, 0x00, 0x01, 0x00, 0x00, 0x00, 0x14, 0x00, 0x00, 0x00,
  0x00, 0x00, 0x0e, 0x00, 0x18, 0x00, 0x14, 0x00, 0x10, 0x00, 0x0c, 0x00,
  0x08, 0x00, 0x04, 0x00, 0x0e, 0x00, 0x00, 0x00, 0x14, 0x00, 0x00, 0x00,
  0x1c, 0x00, 0x00, 0x00, 0xd0, 0x01, 0x00, 0x00, 0xd4, 0x01, 0x00, 0x00,
  0xd8, 0x01, 0x00, 0x00, 0x04, 0x00, 0x00, 0x00, 0x6d, 0x61, 0x69, 0x6e,
  0x00, 0x00, 0x00, 0x00, 0x05, 0x00, 0x00, 0x00, 0x18, 0x01, 0x00, 0x00,
  0xd8, 0x00, 0x00, 0x00, 0x88, 0x00, 0x00, 0x00, 0x40, 0x00, 0x00, 0x00,
  0x04, 0x00, 0x00, 0x00, 0x92, 0xff, 0xff, 0xff, 0x1c, 0x00, 0x00, 0x00,
  0x00, 0x00, 0x00, 0x09, 0x1c, 0x00, 0x00, 0x00, 0x20, 0x00, 0x00, 0x00,
  0x03, 0x00, 0x00, 0x00, 0x00, 0x00, 0x06, 0x00, 0x08, 0x00, 0x04, 0x00,
  0x06, 0x00, 0x00, 0x00, 0x00, 0x00, 0x80, 0x3f, 0x01, 0x00, 0x00, 0x00,
  0x18, 0x00, 0x00, 0x00, 0x01, 0x00, 0x00, 0x00, 0x17, 0x00, 0x00, 0x00,
  0xca, 0xff, 0xff, 0xff, 0x14, 0x00, 0x00, 0x00, 0x00, 0x00, 0x00, 0x08,
  0x10, 0x00, 0x00, 0x00, 0x14, 0x00, 0x00, 0x00, 0x02, 0x00, 0x00, 0x00,
  0x14, 0xf7, 0xff, 0xff, 0x01, 0x00, 0x00, 0x00, 0x17, 0x00, 0x00, 0x00,
  0x03, 0x00, 0x00, 0x00, 0x16, 0x00, 0x00, 0x00, 0x12, 0x00, 0x00, 0x00,
  0x04, 0x00, 0x00, 0x00, 0x00, 0x00, 0x0e, 0x00, 0x1a, 0x00, 0x14, 0x00,
  0x10, 0x00, 0x0c, 0x00, 0x0b, 0x00, 0x04, 0x00, 0x0e, 0x00, 0x00, 0x00,
  0x1c, 0x00, 0x00, 0x00, 0x00, 0x00, 0x00, 0x08, 0x1c, 0x00, 0x00, 0x00,
  0x20, 0x00, 0x00, 0x00, 0x02, 0x00, 0x00, 0x00, 0x00, 0x00, 0x06, 0x00,
  0x08, 0x00, 0x07, 0x00, 0x06, 0x00, 0x00, 0x00, 0x00, 0x00, 0x00, 0x01,
  0x01, 0x00, 0x00, 0x00, 0x16, 0x00, 0x00, 0x00, 0x03, 0x00, 0x00, 0x00,
  0x15, 0x00, 0x00, 0x00, 0x11, 0x00, 0x00, 0x00, 0x03, 0x00, 0x00, 0x00,
  0x00, 0x00, 0x0a, 0x00, 0x10, 0x00, 0x0c, 0x00, 0x08, 0x00, 0x04, 0x00,
  0x0a, 0x00, 0x00, 0x00, 0x0c, 0x00, 0x00, 0x00, 0x10, 0x00, 0x00, 0x00,
  0x01, 0x00, 0x00, 0x00, 0x01, 0x00, 0x00, 0x00, 0x15, 0x00, 0x00, 0x00,
  0x02, 0x00, 0x00, 0x00, 0x14, 0x00, 0x00, 0x00, 0x02, 0x00, 0x00, 0x00,
  0x00, 0x00, 0x16, 0x00, 0x18, 0x00, 0x00, 0x00, 0x14, 0x00, 0x10, 0x00,
  0x0f, 0x00, 0x08, 0x00, 0x00, 0x00, 0x00, 0x00, 0x00, 0x00, 0x04, 0x00,
  0x16, 0x00, 0x00, 0x00, 0x14, 0x00, 0x00, 0x00, 0x1c, 0x00, 0x00, 0x00,
  0x00, 0x00, 0x00, 0x47, 0x20, 0x00, 0x00, 0x00, 0x24, 0x00, 0x00, 0x00,
  0x00, 0x00, 0x00, 0x00, 0x08, 0x00, 0x0c, 0x00, 0x0b, 0x00, 0x04, 0x00,
  0x08, 0x00, 0x00, 0x00, 0x00, 0x00, 0x20, 0x41, 0x00, 0x00, 0x00, 0x04,
  0x01, 0x00, 0x00, 0x00, 0x14, 0x00, 0x00, 0x00, 0x18, 0x00, 0x00, 0x00,
  0x00, 0x00, 0x00, 0x00, 0x10, 0x00, 0x00, 0x00, 0x0f, 0x00, 0x00, 0x00,
  0x0e, 0x00, 0x00, 0x00, 0x0d, 0x00, 0x00, 0x00, 0x08, 0x00, 0x00, 0x00,
  0x07, 0x00, 0x00, 0x00, 0x06, 0x00, 0x00, 0x00, 0x05, 0x00, 0x00, 0x00,
  0xff, 0xff, 0xff, 0xff, 0xff, 0xff, 0xff, 0xff, 0xff, 0xff, 0xff, 0xff,
  0x0c, 0x00, 0x00, 0x00, 0x0b, 0x00, 0x00, 0x00, 0x0a, 0x00, 0x00, 0x00,
  0x09, 0x00, 0x00, 0x00, 0xff, 0xff, 0xff, 0xff, 0xff, 0xff, 0xff, 0xff,
  0x01, 0x00, 0x00, 0x00, 0x13, 0x00, 0x00, 0x00, 0xff, 0xff, 0xff, 0xff,
  0xff, 0xff, 0xff, 0xff, 0xff, 0xff, 0xff, 0xff, 0xff, 0xff, 0xff, 0xff,
  0x01, 0x00, 0x00, 0x00, 0x18, 0x00, 0x00, 0x00, 0x01, 0x00, 0x00, 0x00,
  0x00, 0x00, 0x00, 0x00, 0x19, 0x00, 0x00, 0x00, 0x70, 0x07, 0x00, 0x00,
  0x10, 0x07, 0x00, 0x00, 0xa8, 0x06, 0x00, 0x00, 0x34, 0x06, 0x00, 0x00,
  0xd8, 0x05, 0x00, 0x00, 0x98, 0x05, 0x00, 0x00, 0x58, 0x05, 0x00, 0x00,
  0x18, 0x05, 0x00, 0x00, 0xd8, 0x04, 0x00, 0x00, 0x9c, 0x04, 0x00, 0x00,
  0x60, 0x04, 0x00, 0x00, 0x24, 0x04, 0x00, 0x00, 0xe8, 0x03, 0x00, 0x00,
  0xa8, 0x03, 0x00, 0x00, 0x68, 0x03, 0x00, 0x00, 0x24, 0x03, 0x00, 0x00,
  0xe0, 0x02, 0x00, 0x00, 0x90, 0x02, 0x00, 0x00, 0x40, 0x02, 0x00, 0x00,
  0xf8, 0x01, 0x00, 0x00, 0xa0, 0x01, 0x00, 0x00, 0x4c, 0x01, 0x00, 0x00,
  0xc0, 0x00, 0x00, 0x00, 0x50, 0x00, 0x00, 0x00, 0x04, 0x00, 0x00, 0x00,
  0x0a, 0xf9, 0xff, 0xff, 0x00, 0x00, 0x00, 0x01, 0x10, 0x00, 0x00, 0x00,
  0x10, 0x00, 0x00, 0x00, 0x19, 0x00, 0x00, 0x00, 0x28, 0x00, 0x00, 0x00,
  0xf4, 0xf8, 0xff, 0xff, 0x19, 0x00, 0x00, 0x00, 0x53, 0x74, 0x61, 0x74,
  0x65, 0x66, 0x75, 0x6c, 0x50, 0x61, 0x72, 0x74, 0x69, 0x74, 0x69, 0x6f,
  0x6e, 0x65, 0x64, 0x43, 0x61, 0x6c, 0x6c, 0x3a, 0x30, 0x00, 0x00, 0x00,
  0x02, 0x00, 0x00, 0x00, 0x01, 0x00, 0x00, 0x00, 0x03, 0x00, 0x00, 0x00,
  0x52, 0xf9, 0xff, 0xff, 0x00, 0x00, 0x00, 0x01, 0x10, 0x00, 0x00, 0x00,
  0x10, 0x00, 0x00, 0x00, 0x18, 0x00, 0x00, 0x00, 0x4c, 0x00, 0x00, 0x00,
  0x3c, 0xf9, 0xff, 0xff, 0x3c, 0x00, 0x00, 0x00, 0x73, 0x65, 0x71, 0x75,
  0x65, 0x6e, 0x74, 0x69, 0x61, 0x6c, 0x5f, 0x33, 0x30, 0x2f, 0x64, 0x65,
  0x6e, 0x73, 0x65, 0x5f, 0x37, 0x34, 0x2f, 0x4d, 0x61, 0x74, 0x4d, 0x75,
  0x6c, 0x3b, 0x73, 0x65, 0x71, 0x75, 0x65, 0x6e, 0x74, 0x69, 0x61, 0x6c,
  0x5f, 0x33, 0x30, 0x2f, 0x64, 0x65, 0x6e, 0x73, 0x65, 0x5f, 0x37, 0x34,
  0x2f, 0x42, 0x69, 0x61, 0x73, 0x41, 0x64, 0x64, 0x00, 0x00, 0x00, 0x00,
  0x02, 0x00, 0x00, 0x00, 0x01, 0x00, 0x00, 0x00, 0x03, 0x00, 0x00, 0x00,
  0xbe, 0xf9, 0xff, 0xff, 0x00, 0x00, 0x00, 0x01, 0x10, 0x00, 0x00, 0x00,
  0x10, 0x00, 0x00, 0x00, 0x17, 0x00, 0x00, 0x00, 0x68, 0x00, 0x00, 0x00,
  0xa8, 0xf9, 0xff, 0xff, 0x58, 0x00, 0x00, 0x00, 0x73, 0x65, 0x71, 0x75,
  0x65, 0x6e, 0x74, 0x69, 0x61, 0x6c, 0x5f, 0x33, 0x30, 0x2f, 0x64, 0x65,
  0x6e, 0x73, 0x65, 0x5f, 0x37, 0x33, 0x2f, 0x4d, 0x61, 0x74, 0x4d, 0x75,
  0x6c, 0x3b, 0x73, 0x65, 0x71, 0x75, 0x65, 0x6e, 0x74, 0x69, 0x61, 0x6c,
  0x5f, 0x33, 0x30, 0x2f, 0x64, 0x65, 0x6e, 0x73, 0x65, 0x5f, 0x37, 0x33,
  0x2f, 0x52, 0x65, 0x6c, 0x75, 0x3b, 0x73, 0x65, 0x71, 0x75, 0x65, 0x6e,
  0x74, 0x69, 0x61, 0x6c, 0x5f, 0x33, 0x30, 0x2f, 0x64, 0x65, 0x6e, 0x73,
  0x65, 0x5f, 0x37, 0x33, 0x2f, 0x42, 0x69, 0x61, 0x73, 0x41, 0x64, 0x64,
  0x00, 0x00, 0x00, 0x00, 0x02, 0x00, 0x00, 0x00, 0x01, 0x00, 0x00, 0x00,
  0x10, 0x00, 0x00, 0x00, 0x46, 0xfa, 0xff, 0xff, 0x00, 0x00, 0x00, 0x01,
  0x10, 0x00, 0x00, 0x00, 0x10, 0x00, 0x00, 0x00, 0x16, 0x00, 0x00, 0x00,
  0x30, 0x00, 0x00, 0x00, 0x30, 0xfa, 0xff, 0xff, 0x20, 0x00, 0x00, 0x00,
  0x73, 0x65, 0x71, 0x75, 0x65, 0x6e, 0x74, 0x69, 0x61, 0x6c, 0x5f, 0x33,
  0x30, 0x2f, 0x66, 0x6c, 0x61, 0x74, 0x74, 0x65, 0x6e, 0x5f, 0x33, 0x30,
  0x2f, 0x52, 0x65, 0x73, 0x68, 0x61, 0x70, 0x65, 0x00, 0x00, 0x00, 0x00,
  0x02, 0x00, 0x00, 0x00, 0x01, 0x00, 0x00, 0x00, 0x50, 0x00, 0x00, 0x00,
  0x96, 0xfa, 0xff, 0xff, 0x00, 0x00, 0x00, 0x01, 0x10, 0x00, 0x00, 0x00,
  0x10, 0x00, 0x00, 0x00, 0x15, 0x00, 0x00, 0x00, 0x30, 0x00, 0x00, 0x00,
  0x80, 0xfa, 0xff, 0xff, 0x20, 0x00, 0x00, 0x00, 0x74, 0x66, 0x6c, 0x2e,
  0x75, 0x6e, 0x69, 0x64, 0x69, 0x72, 0x65, 0x63, 0x74, 0x69, 0x6f, 0x6e,
  0x61, 0x6c, 0x5f, 0x73, 0x65, 0x71, 0x75, 0x65, 0x6e, 0x63, 0x65, 0x5f,
  0x6c, 0x73, 0x74, 0x6d, 0x00, 0x00, 0x00, 0x00, 0x03, 0x00, 0x00, 0x00,
  0x01, 0x00, 0x00, 0x00, 0x50, 0x00, 0x00, 0x00, 0x01, 0x00, 0x00, 0x00,
  0x46, 0xfb, 0xff, 0xff, 0x00, 0x00, 0x01, 0x01, 0x0c, 0x00, 0x00, 0x00,
  0x0c, 0x00, 0x00, 0x00, 0x28, 0x00, 0x00, 0x00, 0xd0, 0xfa, 0xff, 0xff,
  0x19, 0x00, 0x00, 0x00, 0x73, 0x65, 0x71, 0x75, 0x65, 0x6e, 0x74, 0x69,
  0x61, 0x6c, 0x5f, 0x33, 0x30, 0x2f, 0x6c, 0x73, 0x74, 0x6d, 0x2f, 0x7a,
  0x65, 0x72, 0x6f, 0x73, 0x31, 0x00, 0x00, 0x00, 0x02, 0x00, 0x00, 0x00,
  0x01, 0x00, 0x00, 0x00, 0x01, 0x00, 0x00, 0x00, 0x2e, 0xfb, 0xff, 0xff,
  0x00, 0x00, 0x00, 0x01, 0x10, 0x00, 0x00, 0x00, 0x10, 0x00, 0x00, 0x00,
  0x13, 0x00, 0x00, 0x00, 0x2c, 0x00, 0x00, 0x00, 0x18, 0xfb, 0xff, 0xff,
  0x1d, 0x00, 0x00, 0x00, 0x73, 0x65, 0x71, 0x75, 0x65, 0x6e, 0x74, 0x69,
  0x61, 0x6c, 0x5f, 0x33, 0x30, 0x2f, 0x64, 0x65, 0x6e, 0x73, 0x65, 0x5f,
  0x37, 0x34, 0x2f, 0x4d, 0x61, 0x74, 0x4d, 0x75, 0x6c, 0x00, 0x00, 0x00,
  0x02, 0x00, 0x00, 0x00, 0x03, 0x00, 0x00, 0x00, 0x10, 0x00, 0x00, 0x00,
  0x7a, 0xfb, 0xff, 0xff, 0x00, 0x00, 0x00, 0x01, 0x10, 0x00, 0x00, 0x00,
  0x10, 0x00, 0x00, 0x00, 0x12, 0x00, 0x00, 0x00, 0x2c, 0x00, 0x00, 0x00,
  0x64, 0xfb, 0xff, 0xff, 0x1d, 0x00, 0x00, 0x00, 0x73, 0x65, 0x71, 0x75,
  0x65, 0x6e, 0x74, 0x69, 0x61, 0x6c, 0x5f, 0x33, 0x30, 0x2f, 0x64, 0x65,
  0x6e, 0x73, 0x65, 0x5f, 0x37, 0x33, 0x2f, 0x4d, 0x61, 0x74, 0x4d, 0x75,
  0x6c, 0x00, 0x00, 0x00, 0x02, 0x00, 0x00, 0x00, 0x10, 0x00, 0x00, 0x00,
  0x50, 0x00, 0x00, 0x00, 0xc6, 0xfb, 0xff, 0xff, 0x00, 0x00, 0x00, 0x01,
  0x10, 0x00, 0x00, 0x00, 0x10, 0x00, 0x00, 0x00, 0x11, 0x00, 0x00, 0x00,
  0x20, 0x00, 0x00, 0x00, 0xb0, 0xfb, 0xff, 0xff, 0x10, 0x00, 0x00, 0x00,
  0x61, 0x72, 0x69, 0x74, 0x68, 0x2e, 0x63, 0x6f, 0x6e, 0x73, 0x74, 0x61,
  0x6e, 0x74, 0x31, 0x31, 0x00, 0x00, 0x00, 0x00, 0x02, 0x00, 0x00, 0x00,
  0x01, 0x00, 0x00, 0x00, 0x03, 0x00, 0x00, 0x00, 0x06, 0xfc, 0xff, 0xff,
  0x00, 0x00, 0x00, 0x01, 0x10, 0x00, 0x00, 0x00, 0x10, 0x00, 0x00, 0x00,
  0x10, 0x00, 0x00, 0x00, 0x20, 0x00, 0x00, 0x00, 0xf0, 0xfb, 0xff, 0xff,
  0x10, 0x00, 0x00, 0x00, 0x61, 0x72, 0x69, 0x74, 0x68, 0x2e, 0x63, 0x6f,
  0x6e, 0x73, 0x74, 0x61, 0x6e, 0x74, 0x31, 0x30, 0x00, 0x00, 0x00, 0x00,
  0x02, 0x00, 0x00, 0x00, 0x01, 0x00, 0x00, 0x00, 0x03, 0x00, 0x00, 0x00,
  0x46, 0xfc, 0xff, 0xff, 0x00, 0x00, 0x00, 0x01, 0x10, 0x00, 0x00, 0x00,
  0x10, 0x00, 0x00, 0x00, 0x0f, 0x00, 0x00, 0x00, 0x1c, 0x00, 0x00, 0x00,
  0x30, 0xfc, 0xff, 0xff, 0x0f, 0x00, 0x00, 0x00, 0x61, 0x72, 0x69, 0x74,
  0x68, 0x2e, 0x63, 0x6f, 0x6e, 0x73, 0x74, 0x61, 0x6e, 0x74, 0x39, 0x00,
  0x02, 0x00, 0x00, 0x00, 0x01, 0x00, 0x00, 0x00, 0x03, 0x00, 0x00, 0x00,
  0x82, 0xfc, 0xff, 0xff, 0x00, 0x00, 0x00, 0x01, 0x10, 0x00, 0x00, 0x00,
  0x10, 0x00, 0x00, 0x00, 0x0e, 0x00, 0x00, 0x00, 0x1c, 0x00, 0x00, 0x00,
  0x6c, 0xfc, 0xff, 0xff, 0x0f, 0x00, 0x00, 0x00, 0x61, 0x72, 0x69, 0x74,
  0x68, 0x2e, 0x63, 0x6f, 0x6e, 0x73, 0x74, 0x61, 0x6e, 0x74, 0x38, 0x00,
  0x02, 0x00, 0x00, 0x00, 0x01, 0x00, 0x00, 0x00, 0x03, 0x00, 0x00, 0x00,
  0xbe, 0xfc, 0xff, 0xff, 0x00, 0x00, 0x00, 0x01, 0x10, 0x00, 0x00, 0x00,
  0x10, 0x00, 0x00, 0x00, 0x0d, 0x00, 0x00, 0x00, 0x1c, 0x00, 0x00, 0x00,
  0xa8, 0xfc, 0xff, 0xff, 0x0f, 0x00, 0x00, 0x00, 0x61, 0x72, 0x69, 0x74,
  0x68, 0x2e, 0x63, 0x6f, 0x6e, 0x73, 0x74, 0x61, 0x6e, 0x74, 0x37, 0x00,
  0x01, 0x00, 0x00, 0x00, 0x01, 0x00, 0x00, 0x00, 0xf6, 0xfc, 0xff, 0xff,
  0x00, 0x00, 0x00, 0x01, 0x10, 0x00, 0x00, 0x00, 0x10, 0x00, 0x00, 0x00,
  0x0c, 0x00, 0x00, 0x00, 0x1c, 0x00, 0x00, 0x00, 0xe0, 0xfc, 0xff, 0xff,
  0x0f, 0x00, 0x00, 0x00, 0x61, 0x72, 0x69, 0x74, 0x68, 0x2e, 0x63, 0x6f,
  0x6e, 0x73, 0x74, 0x61, 0x6e, 0x74, 0x36, 0x00, 0x01, 0x00, 0x00, 0x00,
  0x01, 0x00, 0x00, 0x00, 0x2e, 0xfd, 0xff, 0xff, 0x00, 0x00, 0x00, 0x01,
  0x10, 0x00, 0x00, 0x00, 0x10, 0x00, 0x00, 0x00, 0x0b, 0x00, 0x00, 0x00,
  0x1c, 0x00, 0x00, 0x00, 0x18, 0xfd, 0xff, 0xff, 0x0f, 0x00, 0x00, 0x00,
  0x61, 0x72, 0x69, 0x74, 0x68, 0x2e, 0x63, 0x6f, 0x6e, 0x73, 0x74, 0x61,
  0x6e, 0x74, 0x35, 0x00, 0x01, 0x00, 0x00, 0x00, 0x01, 0x00, 0x00, 0x00,
  0x66, 0xfd, 0xff, 0xff, 0x00, 0x00, 0x00, 0x01, 0x10, 0x00, 0x00, 0x00,
  0x10, 0x00, 0x00, 0x00, 0x0a, 0x00, 0x00, 0x00, 0x1c, 0x00, 0x00, 0x00,
  0x50, 0xfd, 0xff, 0xff, 0x0f, 0x00, 0x00, 0x00, 0x61, 0x72, 0x69, 0x74,
  0x68, 0x2e, 0x63, 0x6f, 0x6e, 0x73, 0x74, 0x61, 0x6e, 0x74, 0x34, 0x00,
  0x01, 0x00, 0x00, 0x00, 0x01, 0x00, 0x00, 0x00, 0x9e, 0xfd, 0xff, 0xff,
  0x00, 0x00, 0x00, 0x01, 0x10, 0x00, 0x00, 0x00, 0x10, 0x00, 0x00, 0x00,
  0x09, 0x00, 0x00, 0x00, 0x1c, 0x00, 0x00, 0x00, 0x88, 0xfd, 0xff, 0xff,
  0x0f, 0x00, 0x00, 0x00, 0x61, 0x72, 0x69, 0x74, 0x68, 0x2e, 0x63, 0x6f,
  0x6e, 0x73, 0x74, 0x61, 0x6e, 0x74, 0x33, 0x00, 0x02, 0x00, 0x00, 0x00,
  0x01, 0x00, 0x00, 0x00, 0x01, 0x00, 0x00, 0x00, 0xda, 0xfd, 0xff, 0xff,
  0x00, 0x00, 0x00, 0x01, 0x10, 0x00, 0x00, 0x00, 0x10, 0x00, 0x00, 0x00,
  0x08, 0x00, 0x00, 0x00, 0x1c, 0x00, 0x00, 0x00, 0xc4, 0xfd, 0xff, 0xff,
  0x0f, 0x00, 0x00, 0x00, 0x61, 0x72, 0x69, 0x74, 0x68, 0x2e, 0x63, 0x6f,
  0x6e, 0x73, 0x74, 0x61, 0x6e, 0x74, 0x32, 0x00, 0x02, 0x00, 0x00, 0x00,
  0x01, 0x00, 0x00, 0x00, 0x01, 0x00, 0x00, 0x00, 0x16, 0xfe, 0xff, 0xff,
  0x00, 0x00, 0x00, 0x01, 0x10, 0x00, 0x00, 0x00, 0x10, 0x00, 0x00, 0x00,
  0x07, 0x00, 0x00, 0x00, 0x1c, 0x00, 0x00, 0x00, 0x00, 0xfe, 0xff, 0xff,
  0x0f, 0x00, 0x00, 0x00, 0x61, 0x72, 0x69, 0x74, 0x68, 0x2e, 0x63, 0x6f,
  0x6e, 0x73, 0x74, 0x61, 0x6e, 0x74, 0x31, 0x00, 0x02, 0x00, 0x00, 0x00,
  0x01, 0x00, 0x00, 0x00, 0x01, 0x00, 0x00, 0x00, 0x52, 0xfe, 0xff, 0xff,
  0x00, 0x00, 0x00, 0x01, 0x10, 0x00, 0x00, 0x00, 0x10, 0x00, 0x00, 0x00,
  0x06, 0x00, 0x00, 0x00, 0x1c, 0x00, 0x00, 0x00, 0x3c, 0xfe, 0xff, 0xff,
  0x0e, 0x00, 0x00, 0x00, 0x61, 0x72, 0x69, 0x74, 0x68, 0x2e, 0x63, 0x6f,
  0x6e, 0x73, 0x74, 0x61, 0x6e, 0x74, 0x00, 0x00, 0x02, 0x00, 0x00, 0x00,
  0x01, 0x00, 0x00, 0x00, 0x01, 0x00, 0x00, 0x00, 0x8e, 0xfe, 0xff, 0xff,
  0x00, 0x00, 0x00, 0x01, 0x10, 0x00, 0x00, 0x00, 0x10, 0x00, 0x00, 0x00,
  0x05, 0x00, 0x00, 0x00, 0x3c, 0x00, 0x00, 0x00, 0x78, 0xfe, 0xff, 0xff,
  0x2d, 0x00, 0x00, 0x00, 0x73, 0x65, 0x71, 0x75, 0x65, 0x6e, 0x74, 0x69,
  0x61, 0x6c, 0x5f, 0x33, 0x30, 0x2f, 0x64, 0x65, 0x6e, 0x73, 0x65, 0x5f,
  0x37, 0x34, 0x2f, 0x42, 0x69, 0x61, 0x73, 0x41, 0x64, 0x64, 0x2f, 0x52,
  0x65, 0x61, 0x64, 0x56, 0x61, 0x72, 0x69, 0x61, 0x62, 0x6c, 0x65, 0x4f,
  0x70, 0x00, 0x00, 0x00, 0x01, 0x00, 0x00, 0x00, 0x03, 0x00, 0x00, 0x00,
  0xe6, 0xfe, 0xff, 0xff, 0x00, 0x00, 0x00, 0x01, 0x10, 0x00, 0x00, 0x00,
  0x10, 0x00, 0x00, 0x00, 0x04, 0x00, 0x00, 0x00, 0x3c, 0x00, 0x00, 0x00,
  0xd0, 0xfe, 0xff, 0xff, 0x2d, 0x00, 0x00, 0x00, 0x73, 0x65, 0x71, 0x75,
  0x65, 0x6e, 0x74, 0x69, 0x61, 0x6c, 0x5f, 0x33, 0x30, 0x2f, 0x64, 0x65,
  0x6e, 0x73, 0x65, 0x5f, 0x37, 0x33, 0x2f, 0x42, 0x69, 0x61, 0x73, 0x41,
  0x64, 0x64, 0x2f, 0x52, 0x65, 0x61, 0x64, 0x56, 0x61, 0x72, 0x69, 0x61,
  0x62, 0x6c, 0x65, 0x4f, 0x70, 0x00, 0x00, 0x00, 0x01, 0x00, 0x00, 0x00,
  0x10, 0x00, 0x00, 0x00, 0x00, 0x00, 0x16, 0x00, 0x1c, 0x00, 0x18, 0x00,
  0x17, 0x00, 0x10, 0x00, 0x0c, 0x00, 0x08, 0x00, 0x00, 0x00, 0x00, 0x00,
  0x00, 0x00, 0x07, 0x00, 0x16, 0x00, 0x00, 0x00, 0x00, 0x00, 0x00, 0x01,
  0x14, 0x00, 0x00, 0x00, 0x14, 0x00, 0x00, 0x00, 0x03, 0x00, 0x00, 0x00,
  0x00, 0x00, 0x00, 0x02, 0x2c, 0x00, 0x00, 0x00, 0x44, 0xff, 0xff, 0xff,
  0x1e, 0x00, 0x00, 0x00, 0x73, 0x65, 0x71, 0x75, 0x65, 0x6e, 0x74, 0x69,
  0x61, 0x6c, 0x5f, 0x33, 0x30, 0x2f, 0x66, 0x6c, 0x61, 0x74, 0x74, 0x65,
  0x6e, 0x5f, 0x33, 0x30, 0x2f, 0x43, 0x6f, 0x6e, 0x73, 0x74, 0x00, 0x00,
  0x01, 0x00, 0x00, 0x00, 0x02, 0x00, 0x00, 0x00, 0x00, 0x00, 0x16, 0x00,
  0x14, 0x00, 0x10, 0x00, 0x00, 0x00, 0x00, 0x00, 0x0c, 0x00, 0x08, 0x00,
  0x07, 0x00, 0x00, 0x00, 0x00, 0x00, 0x06, 0x00, 0x16, 0x00, 0x00, 0x00,
  0x00, 0x00, 0x01, 0x01, 0x0c, 0x00, 0x00, 0x00, 0x0c, 0x00, 0x00, 0x00,
  0x28, 0x00, 0x00, 0x00, 0xa0, 0xff, 0xff, 0xff, 0x18, 0x00, 0x00, 0x00,
  0x73, 0x65, 0x71, 0x75, 0x65, 0x6e, 0x74, 0x69, 0x61, 0x6c, 0x5f, 0x33,
  0x30, 0x2f, 0x6c, 0x73, 0x74, 0x6d, 0x2f, 0x7a, 0x65, 0x72, 0x6f, 0x73,
  0x00, 0x00, 0x00, 0x00, 0x02, 0x00, 0x00, 0x00, 0x01, 0x00, 0x00, 0x00,
  0x01, 0x00, 0x00, 0x00, 0x00, 0x00, 0x16, 0x00, 0x18, 0x00, 0x14, 0x00,
  0x00, 0x00, 0x10, 0x00, 0x0c, 0x00, 0x08, 0x00, 0x00, 0x00, 0x00, 0x00,
  0x00, 0x00, 0x07, 0x00, 0x16, 0x00, 0x00, 0x00, 0x00, 0x00, 0x00, 0x01,
  0x14, 0x00, 0x00, 0x00, 0x14, 0x00, 0x00, 0x00, 0x01, 0x00, 0x00, 0x00,
  0x24, 0x00, 0x00, 0x00, 0x04, 0x00, 0x04, 0x00, 0x04, 0x00, 0x00, 0x00,
  0x13, 0x00, 0x00, 0x00, 0x73, 0x65, 0x72, 0x76, 0x69, 0x6e, 0x67, 0x5f,
  0x64, 0x65, 0x66, 0x61, 0x75, 0x6c, 0x74, 0x5f, 0x78, 0x3a, 0x30, 0x00,
  0x03, 0x00, 0x00, 0x00, 0x01, 0x00, 0x00, 0x00, 0x50, 0x00, 0x00, 0x00,
  0x03, 0x00, 0x00, 0x00, 0x04, 0x00, 0x00, 0x00, 0x40, 0x00, 0x00, 0x00,
  0x24, 0x00, 0x00, 0x00, 0x14, 0x00, 0x00, 0x00, 0x04, 0x00, 0x00, 0x00,
  0xdc, 0xff, 0xff, 0xff, 0x19, 0x00, 0x00, 0x00, 0x00, 0x00, 0x00, 0x19,
  0xe8, 0xff, 0xff, 0xff, 0x09, 0x00, 0x00, 0x00, 0x00, 0x00, 0x00, 0x09,
  0xf4, 0xff, 0xff, 0xff, 0x16, 0x00, 0x00, 0x00, 0x00, 0x00, 0x00, 0x16,
  0x0c, 0x00, 0x0c, 0x00, 0x0b, 0x00, 0x00, 0x00, 0x00, 0x00, 0x04, 0x00,
  0x0c, 0x00, 0x00, 0x00, 0x2c, 0x00, 0x00, 0x00, 0x00, 0x00, 0x00, 0x2c
};
