const unsigned char model[] __attribute__((aligned(4))) = {
  0x1c, 0x00, 0x00, 0x00, 0x54, 0x46, 0x4c, 0x33, 0x14, 0x00, 0x20, 0x00,
  0x1c, 0x00, 0x18, 0x00, 0x14, 0x00, 0x10, 0x00, 0x0c, 0x00, 0x00, 0x00,
  0x08, 0x00, 0x04, 0x00, 0x14, 0x00, 0x00, 0x00, 0x1c, 0x00, 0x00, 0x00,
  0x80, 0x00, 0x00, 0x00, 0xd8, 0x00, 0x00, 0x00, 0xa8, 0x2c, 0x00, 0x00,
  0xb8, 0x2c, 0x00, 0x00, 0x54, 0x36, 0x00, 0x00, 0x03, 0x00, 0x00, 0x00,
  0x01, 0x00, 0x00, 0x00, 0x04, 0x00, 0x00, 0x00, 0x4a, 0xd2, 0xff, 0xff,
  0x0c, 0x00, 0x00, 0x00, 0x1c, 0x00, 0x00, 0x00, 0x3c, 0x00, 0x00, 0x00,
  0x0f, 0x00, 0x00, 0x00, 0x73, 0x65, 0x72, 0x76, 0x69, 0x6e, 0x67, 0x5f,
  0x64, 0x65, 0x66, 0x61, 0x75, 0x6c, 0x74, 0x00, 0x01, 0x00, 0x00, 0x00,
  0x04, 0x00, 0x00, 0x00, 0x9c, 0xff, 0xff, 0xff, 0x18, 0x00, 0x00, 0x00,
  0x04, 0x00, 0x00, 0x00, 0x08, 0x00, 0x00, 0x00, 0x6f, 0x75, 0x74, 0x70,
  0x75, 0x74, 0x5f, 0x30, 0x00, 0x00, 0x00, 0x00, 0x01, 0x00, 0x00, 0x00,
  0x04, 0x00, 0x00, 0x00, 0x3e, 0xd3, 0xff, 0xff, 0x04, 0x00, 0x00, 0x00,
  0x01, 0x00, 0x00, 0x00, 0x78, 0x00, 0x00, 0x00, 0x02, 0x00, 0x00, 0x00,
  0x34, 0x00, 0x00, 0x00, 0x04, 0x00, 0x00, 0x00, 0xdc, 0xff, 0xff, 0xff,
  0x1b, 0x00, 0x00, 0x00, 0x04, 0x00, 0x00, 0x00, 0x13, 0x00, 0x00, 0x00,
  0x43, 0x4f, 0x4e, 0x56, 0x45, 0x52, 0x53, 0x49, 0x4f, 0x4e, 0x5f, 0x4d,
  0x45, 0x54, 0x41, 0x44, 0x41, 0x54, 0x41, 0x00, 0x08, 0x00, 0x0c, 0x00,
  0x08, 0x00, 0x04, 0x00, 0x08, 0x00, 0x00, 0x00, 0x1a, 0x00, 0x00, 0x00,
  0x04, 0x00, 0x00, 0x00, 0x13, 0x00, 0x00, 0x00, 0x6d, 0x69, 0x6e, 0x5f,
  0x72, 0x75, 0x6e, 0x74, 0x69, 0x6d, 0x65, 0x5f, 0x76, 0x65, 0x72, 0x73,
  0x69, 0x6f, 0x6e, 0x00, 0x1c, 0x00, 0x00, 0x00, 0xcc, 0x2b, 0x00, 0x00,
  0xc4, 0x2b, 0x00, 0x00, 0xac, 0x2b, 0x00, 0x00, 0x94, 0x2b, 0x00, 0x00,
  0x44, 0x2b, 0x00, 0x00, 0x28, 0x2b, 0x00, 0x00, 0x08, 0x2b, 0x00, 0x00,
  0xe8, 0x2a, 0x00, 0x00, 0xc8, 0x2a, 0x00, 0x00, 0xa8, 0x2a, 0x00, 0x00,
  0x90, 0x2a, 0x00, 0x00, 0x78, 0x2a, 0x00, 0x00, 0x60, 0x2a, 0x00, 0x00,
  0x48, 0x2a, 0x00, 0x00, 0x20, 0x2a, 0x00, 0x00, 0xf8, 0x29, 0x00, 0x00,
  0xd0, 0x29, 0x00, 0x00, 0xa8, 0x29, 0x00, 0x00, 0x98, 0x01, 0x00, 0x00,
  0xc8, 0x00, 0x00, 0x00, 0xb0, 0x00, 0x00, 0x00, 0xa8, 0x00, 0x00, 0x00,
  0xa0, 0x00, 0x00, 0x00, 0x98, 0x00, 0x00, 0x00, 0x90, 0x00, 0x00, 0x00,
  0x88, 0x00, 0x00, 0x00, 0x68, 0x00, 0x00, 0x00, 0x04, 0x00, 0x00, 0x00,
  0x1e, 0xd4, 0xff, 0xff, 0x04, 0x00, 0x00, 0x00, 0x54, 0x00, 0x00, 0x00,
  0x0c, 0x00, 0x00, 0x00, 0x08, 0x00, 0x0e, 0x00, 0x08, 0x00, 0x04, 0x00,
  0x08, 0x00, 0x00, 0x00, 0x10, 0x00, 0x00, 0x00, 0x24, 0x00, 0x00, 0x00,
  0x00, 0x00, 0x06, 0x00, 0x08, 0x00, 0x04, 0x00, 0x06, 0x00, 0x00, 0x00,
  0x04, 0x00, 0x00, 0x00, 0x00, 0x00, 0x00, 0x00, 0x00, 0x00, 0x0a, 0x00,
  0x10, 0x00, 0x0c, 0x00, 0x08, 0x00, 0x04, 0x00, 0x0a, 0x00, 0x00, 0x00,
  0x01, 0x00, 0x00, 0x00, 0x02, 0x00, 0x00, 0x00, 0x04, 0x00, 0x00, 0x00,
  0x06, 0x00, 0x00, 0x00, 0x32, 0x2e, 0x31, 0x30, 0x2e, 0x30, 0x00, 0x00,
  0x7e, 0xd4, 0xff, 0xff, 0x04, 0x00, 0x00, 0x00, 0x10, 0x00, 0x00, 0x00,
  0x31, 0x2e, 0x31, 0x33, 0x2e, 0x31, 0x00, 0x00, 0x00, 0x00, 0x00, 0x00,
  0x00, 0x00, 0x00, 0x00, 0x98, 0xcb, 0xff, 0xff, 0x9c, 0xcb, 0xff, 0xff,
  0xa0, 0xcb, 0xff, 0xff, 0xa4, 0xcb, 0xff, 0xff, 0xa8, 0xcb, 0xff, 0xff,
  0xae, 0xd4, 0xff, 0xff, 0x04, 0x00, 0x00, 0x00, 0x08, 0x00, 0x00, 0x00,
  0x00, 0x00, 0x00, 0x00, 0x00, 0x00, 0x00, 0x00, 0xc2, 0xd4, 0xff, 0xff,
  0x04, 0x00, 0x00, 0x00, 0xc0, 0x00, 0x00, 0x00, 0x03, 0x1e, 0xe6, 0x3e,
  0x06, 0xb8, 0x5f, 0x3f, 0x79, 0xef, 0x8d, 0xbf, 0x22, 0x12, 0x62, 0xbf,
  0x22, 0x37, 0x09, 0xbf, 0x5a, 0xb9, 0x85, 0xbf, 0x63, 0xb3, 0x35, 0x3e,
  0xd7, 0x4b, 0xc8, 0xbe, 0xb0, 0x58, 0xca, 0xbe, 0xb5, 0x5c, 0xc9, 0x3e,
  0x7b, 0xdc, 0xec, 0x3d, 0xe4, 0xf4, 0xf7, 0x3e, 0x90, 0x49, 0x5c, 0xbf,
  0x95, 0x86, 0x37, 0xbf, 0x45, 0x3d, 0xd7, 0x3e, 0x6b, 0xe5, 0xbc, 0x3d,
  0x42, 0xe8, 0x42, 0xbf, 0xd1, 0xcd, 0x59, 0xbe, 0xf8, 0x77, 0xa0, 0xbc,
  0xf6, 0x5c, 0x98, 0xbe, 0x62, 0x2d, 0x90, 0x3e, 0xa8, 0x27, 0x42, 0xbf,
  0x33, 0xda, 0x37, 0x3e, 0x7a, 0x8a, 0xdc, 0xbd, 0x44, 0x5a, 0xdf, 0xbe,
  0xb9, 0x95, 0x57, 0x3e, 0xe0, 0xa5, 0xad, 0x3d, 0xf8, 0x6d, 0xc6, 0x3e,
  0x7f, 0x5b, 0x99, 0xbe, 0x78, 0x3b, 0x8c, 0xbe, 0xbd, 0xff, 0xac, 0xbf,
  0xc1, 0xbe, 0xf2, 0x3e, 0x9d, 0x50, 0xc6, 0xbe, 0x86, 0x53, 0x8f, 0xbd,
  0x69, 0xde, 0xcb, 0x3e, 0x7c, 0xf9, 0x0a, 0x3f, 0x87, 0x32, 0x32, 0x3f,
  0x85, 0x2d, 0x62, 0x3f, 0x80, 0x4b, 0x72, 0xbf, 0x73, 0xd3, 0x87, 0x3f,
  0x6d, 0xc2, 0x73, 0x3f, 0x4d, 0xc7, 0x54, 0xbf, 0x3e, 0x24, 0x70, 0xbf,
  0xaa, 0xde, 0x6e, 0xbf, 0xb2, 0x66, 0xb9, 0x3e, 0x63, 0xa3, 0x7f, 0x3f,
  0x0c, 0x5e, 0xea, 0x3e, 0x56, 0x20, 0x86, 0xbf, 0x8e, 0xd5, 0xff, 0xff,
  0x04, 0x00, 0x00, 0x00, 0x00, 0x28, 0x00, 0x00, 0xf9, 0x07, 0x92, 0xbe,
  0x32, 0x7d, 0xb3, 0xbe, 0xb9, 0x69, 0x00, 0xbf, 0x63, 0x4c, 0x3a, 0xbf,
  0x30, 0xc3, 0xcc, 0xbe, 0x1d, 0xfb, 0xe1, 0xbe, 0xa6, 0x7c, 0x31, 0xbd,
  0xca, 0x46, 0x5f, 0xbe, 0x4b, 0x48, 0xff, 0x3d, 0xb0, 0xf9, 0x84, 0xbe,
  0xb2, 0xb0, 0xcc, 0x3d, 0xb7, 0xbb, 0xa5, 0xbd, 0x47, 0x09, 0x76, 0xbd,
  0xc8, 0xb5, 0xd9, 0xbd, 0x1d, 0x1b, 0x2b, 0x3e, 0x45, 0x4b, 0x0d, 0xbe,
  0xfb, 0xbd, 0x8a, 0x3d, 0x88, 0xc2, 0xcc, 0xbd, 0x97, 0xbb, 0xa6, 0x3e,
  0x6e, 0xfc, 0x4f, 0xbc, 0x13, 0x5e, 0x98, 0x3e, 0x74, 0x9a, 0x00, 0x3d,
  0xc0, 0x23, 0xad, 0x3e, 0xf6, 0x3a, 0x40, 0x3e, 0x27, 0x29, 0x8b, 0x3e,
  0x11, 0x75, 0x33, 0xbc, 0x38, 0xb7, 0x05, 0x3f, 0xf3, 0x74, 0xcd, 0x3d,
  0xc6, 0x2a, 0xad, 0x3e, 0xa3, 0x26, 0xc7, 0xbc, 0x01, 0x50, 0xba, 0x3e,
  0xb3, 0x4f, 0x18, 0x3d, 0x40, 0xc9, 0x12, 0x3f, 0x6a, 0x8e, 0x0a, 0x3d,
  0x6e, 0x67, 0xff, 0x3e, 0x79, 0x19, 0xe4, 0x3d, 0x2a, 0xa3, 0xd7, 0x3e,
  0x67, 0x34, 0x2c, 0x3e, 0xa6, 0xe3, 0x28, 0x3f, 0xe5, 0xb8, 0x58, 0x3d,
  0x83, 0xcc, 0x1f, 0x3f, 0xfe, 0x21, 0x1c, 0x3e, 0xdb, 0xc1, 0x34, 0x3f,
  0x4e, 0x9b, 0x01, 0x3e, 0xb4, 0xc8, 0xeb, 0x3e, 0xba, 0x3d, 0x99, 0x3e,
  0xa5, 0x4e, 0x11, 0x3f, 0x7c, 0x2c, 0x69, 0x3e, 0x19, 0xad, 0xff, 0x3e,
  0xf8, 0xf5, 0xbb, 0x3e, 0x78, 0xe6, 0xa1, 0x3e, 0x7d, 0xfc, 0x24, 0x3e,
  0x90, 0x3c, 0xeb, 0x3e, 0x6c, 0x74, 0x86, 0x3d, 0xc9, 0xbc, 0x31, 0x3e,
  0x0b, 0x90, 0xe5, 0x3d, 0x6f, 0xf7, 0x91, 0x3e, 0x5d, 0x37, 0x9d, 0x3e,
  0xc8, 0xe7, 0x98, 0x3e, 0x9b, 0xb1, 0x92, 0x3e, 0x30, 0xcd, 0xe2, 0x3c,
  0x7a, 0xa2, 0x85, 0x3e, 0xae, 0xda, 0x05, 0x3e, 0x6a, 0x0e, 0xc5, 0x3d,
  0x60, 0x66, 0x09, 0xbd, 0x92, 0xe7, 0x6c, 0x3d, 0xf0, 0x08, 0x17, 0xbe,
  0x3c, 0x9e, 0xf1, 0x3d, 0x55, 0xfa, 0xb4, 0x3d, 0xa7, 0xa6, 0x1a, 0xbc,
  0xd8, 0xaf, 0xa9, 0xbd, 0x85, 0x0e, 0xab, 0x3d, 0x57, 0xc8, 0x9b, 0xbe,
  0xbb, 0x09, 0x9d, 0x3c, 0xbb, 0x82, 0x50, 0xbe, 0xc4, 0x6f, 0x94, 0x3e,
  0xae, 0xfd, 0xc9, 0xbc, 0x93, 0xdc, 0x25, 0x3d, 0x56, 0xbd, 0x4a, 0x3d,
  0xdd, 0xed, 0x89, 0x3e, 0xf5, 0xd3, 0x15, 0xbe, 0xb6, 0x6e, 0x8f, 0xbc,
  0x40, 0xd9, 0x15, 0xbe, 0xd7, 0xd8, 0x89, 0xbc, 0xab, 0xf5, 0x46, 0xbe,
  0x18, 0xa6, 0xd2, 0x3d, 0x6f, 0x7a, 0x1f, 0xbe, 0xe7, 0x06, 0x83, 0x3d,
  0xa3, 0x8c, 0x26, 0xbc, 0x69, 0x0a, 0xa0, 0xbd, 0xbe, 0x3c, 0xc6, 0xbe,
  0x1f, 0x77, 0x9e, 0x3b, 0x6b, 0x5d, 0x61, 0xbe, 0x08, 0x24, 0x81, 0x3c,
  0x14, 0x94, 0x47, 0xbe, 0x4c, 0xab, 0x95, 0xbd, 0x89, 0x96, 0xd6, 0xbe,
  0x80, 0x76, 0x87, 0x3d, 0x06, 0xa6, 0xa2, 0xbe, 0xe3, 0xcb, 0xbf, 0x3d,
  0x95, 0xa6, 0x24, 0xbe, 0x16, 0x5b, 0xb4, 0xbc, 0xda, 0x37, 0xef, 0xbe,
  0x29, 0xab, 0xa4, 0x3d, 0x81, 0x12, 0x3e, 0xbe, 0x56, 0x46, 0xfb, 0x3c,
  0xad, 0x2b, 0x2b, 0xbe, 0xc0, 0x06, 0x24, 0xbe, 0xd8, 0x3e, 0x9b, 0xbe,
  0x85, 0x11, 0xcd, 0x3d, 0x30, 0x2c, 0x1a, 0xbe, 0x28, 0x7e, 0x99, 0xbb,
  0x47, 0xcf, 0x36, 0xbd, 0xdf, 0x18, 0x60, 0x3c, 0x79, 0x89, 0x01, 0xbe,
  0x67, 0xd5, 0x03, 0xbd, 0xd5, 0x04, 0x37, 0xbc, 0x9b, 0x38, 0xf1, 0xbd,
  0x5c, 0x22, 0x8b, 0xbe, 0x36, 0x6f, 0xf6, 0x3c, 0x62, 0xf5, 0xb4, 0xbd,
  0x64, 0x5d, 0xdd, 0xbd, 0x84, 0x19, 0x13, 0xbe, 0x7f, 0x0e, 0xa2, 0xbc,
  0x19, 0x3e, 0x03, 0xbe, 0x73, 0x88, 0xaa, 0xbb, 0x22, 0x5d, 0x58, 0xbd,
  0x33, 0x61, 0x03, 0x3c, 0xb8, 0x85, 0x16, 0xbe, 0x34, 0xf8, 0x2f, 0xbd,
  0xec, 0x24, 0x36, 0xbe, 0x4b, 0x5d, 0x00, 0x3e, 0x57, 0x06, 0x92, 0xbe,
  0xc8, 0x41, 0xc1, 0x3d, 0x0d, 0xe9, 0x90, 0xbd, 0x01, 0xc5, 0x5c, 0xbc,
  0x86, 0xe2, 0xa8, 0xbe, 0xd2, 0xc2, 0xa8, 0x3d, 0xf0, 0x85, 0x6b, 0xbe,
  0xaa, 0x25, 0xad, 0x3d, 0x30, 0x5e, 0xa8, 0xbe, 0xd1, 0x9d, 0xe4, 0x3c,
  0xa0, 0x43, 0xaf, 0xbd, 0xf7, 0x04, 0x1c, 0x3d, 0xf5, 0x06, 0x5f, 0xbe,
  0xbf, 0x09, 0x5a, 0x3d, 0xc2, 0xea, 0x56, 0xbe, 0x34, 0x27, 0xd9, 0x3d,
  0x3c, 0x88, 0xc2, 0xbe, 0x84, 0x4d, 0xdd, 0x3d, 0x80, 0xd5, 0x8b, 0xbe,
  0x4d, 0xcb, 0x1c, 0x3e, 0x96, 0x55, 0x8e, 0xbe, 0x94, 0x74, 0xbe, 0x3c,
  0x02, 0xca, 0x97, 0xbe, 0xc2, 0x55, 0x83, 0x3d, 0xe7, 0x9f, 0x6e, 0xbe,
  0x53, 0x12, 0xf4, 0x3c, 0x99, 0x56, 0xa9, 0xbe, 0x63, 0x6b, 0xfc, 0xbd,
  0x87, 0x2d, 0x7d, 0xbc, 0x42, 0x07, 0xa4, 0xbe, 0xd6, 0xa0, 0xa7, 0xbe,
  0x6f, 0x7f, 0x08, 0xbf, 0x66, 0xd5, 0x5d, 0xbe, 0x97, 0x51, 0x7c, 0xbe,
  0x74, 0xa6, 0xd9, 0x3d, 0xbc, 0x8e, 0x17, 0x3e, 0x00, 0x81, 0x02, 0x3e,
  0x07, 0xd3, 0x22, 0x3e, 0xaa, 0xc9, 0xd7, 0x3e, 0x4c, 0xfc, 0x21, 0x3e,
  0x06, 0xfd, 0xac, 0x3d, 0xca, 0xc8, 0xab, 0x3e, 0xe1, 0xed, 0x42, 0x3d,
  0x39, 0x21, 0xec, 0x3e, 0xe6, 0x22, 0x84, 0x3e, 0xae, 0x98, 0xe7, 0x3e,
  0xd3, 0xff, 0xc4, 0x3e, 0x17, 0x09, 0x17, 0x3f, 0xb5, 0x32, 0x8e, 0x3e,
  0x22, 0x4c, 0x11, 0x3f, 0x24, 0x4f, 0xdc, 0x3e, 0x5a, 0x65, 0x07, 0x3f,
  0x1f, 0x63, 0xaf, 0x3e, 0x51, 0x4f, 0x30, 0x3f, 0x2e, 0x91, 0x75, 0x3e,
  0xef, 0xa0, 0xdc, 0x3e, 0x73, 0x3f, 0xe6, 0xbc, 0x6a, 0x1d, 0x09, 0x3f,
  0x9f, 0x61, 0x91, 0xbd, 0x9d, 0xe2, 0x1a, 0x3f, 0xe2, 0xe2, 0x25, 0x3e,
  0x43, 0x98, 0xf8, 0x3e, 0x7c, 0xdb, 0x16, 0x3e, 0x88, 0xae, 0xc9, 0x3e,
  0xf1, 0x0a, 0x60, 0xbe, 0x72, 0xb9, 0x28, 0x3e, 0x04, 0x0c, 0xb5, 0xbd,
  0xbf, 0xe5, 0x76, 0x3e, 0xf0, 0xf2, 0x08, 0xbf, 0x57, 0x70, 0x5d, 0x3e,
  0x4b, 0x0f, 0x0b, 0xbe, 0x3a, 0x41, 0xae, 0x3d, 0xcb, 0xfa, 0x80, 0xbe,
  0xc9, 0x25, 0xb3, 0xbc, 0x19, 0xe5, 0x8d, 0xbe, 0x05, 0xec, 0x8b, 0x3d,
  0x2f, 0xec, 0xed, 0xbe, 0x4c, 0x18, 0xa3, 0xbd, 0x32, 0xb8, 0x53, 0xbe,
  0x55, 0xeb, 0xb8, 0xbc, 0xbb, 0xa7, 0x61, 0xbe, 0xc4, 0xba, 0x9d, 0x3d,
  0x1b, 0x2a, 0x5c, 0xbe, 0x93, 0x9f, 0xbb, 0x3d, 0x20, 0x37, 0x9d, 0xbe,
  0xb6, 0x3f, 0x69, 0xbe, 0x1d, 0xa9, 0x99, 0xbe, 0x3f, 0x7a, 0xfd, 0xbc,
  0x36, 0xc9, 0x4c, 0xbe, 0x93, 0x24, 0x8e, 0xbd, 0xf0, 0x3f, 0xa9, 0xbe,
  0xc6, 0x6a, 0xed, 0xbd, 0x2d, 0x59, 0xfc, 0xbe, 0xf7, 0x96, 0xe0, 0x3c,
  0xb0, 0xc9, 0xba, 0xbe, 0xa7, 0xc5, 0x56, 0xbd, 0x9f, 0x27, 0x7e, 0xbe,
  0x58, 0xd7, 0x49, 0xbd, 0x6b, 0xfc, 0x9c, 0xbe, 0xc9, 0x01, 0x5e, 0xbc,
  0x89, 0xe0, 0xee, 0xbe, 0xe2, 0xa0, 0x64, 0xbc, 0x2c, 0x91, 0x38, 0xbe,
  0xff, 0x4c, 0x4f, 0xbd, 0xd1, 0xa0, 0xb1, 0xbe, 0x87, 0x87, 0x8b, 0xbd,
  0x65, 0xb0, 0x40, 0xbe, 0xb6, 0x27, 0x6a, 0xbe, 0x38, 0x14, 0x5d, 0xbe,
  0x5d, 0xdb, 0x27, 0xbd, 0x3b, 0xb8, 0x9b, 0xbd, 0xf1, 0x0e, 0xcf, 0xbd,
  0x35, 0xa3, 0x9c, 0xbe, 0x0a, 0xba, 0x0d, 0x3d, 0x8d, 0xd0, 0xb2, 0xbd,
  0xc6, 0x9b, 0x7e, 0xbd, 0x1a, 0x69, 0x24, 0xbe, 0x9c, 0x89, 0x87, 0xbd,
  0xaa, 0x57, 0x78, 0xbe, 0xf2, 0x24, 0x02, 0x3c, 0x9a, 0x6a, 0x2a, 0xbe,
  0xe2, 0xd5, 0xf4, 0x3d, 0x48, 0xc5, 0x15, 0xbe, 0xd8, 0x33, 0x7a, 0xbd,
  0x19, 0xab, 0x08, 0xbe, 0xc2, 0x96, 0x83, 0xbc, 0xe3, 0xb8, 0x45, 0xbe,
  0x6f, 0xc0, 0x90, 0xbd, 0x1b, 0xe3, 0xf4, 0xbc, 0x5d, 0xd9, 0xa5, 0xbd,
  0xbb, 0x8a, 0x61, 0xbe, 0xa0, 0xef, 0x40, 0x3c, 0x81, 0xb2, 0x18, 0xbe,
  0xba, 0xa9, 0x8b, 0x3b, 0xf2, 0x6f, 0x8c, 0xbe, 0xa6, 0x49, 0x8f, 0xbd,
  0xad, 0x83, 0x8a, 0xbe, 0x7e, 0x1a, 0x9d, 0x3d, 0x96, 0x65, 0x8e, 0xbd,
  0x4a, 0xe0, 0x1c, 0xbc, 0x50, 0xe9, 0x8f, 0xbe, 0x4e, 0x8a, 0x13, 0x3e,
  0x9c, 0x6b, 0x77, 0xbe, 0x45, 0x1d, 0xb1, 0xbc, 0x6a, 0xab, 0x1b, 0xbd,
  0x70, 0x72, 0x33, 0xbd, 0x0f, 0xda, 0x4a, 0xbe, 0xc9, 0xf1, 0x83, 0x3d,
  0xe0, 0xc2, 0xf7, 0xbd, 0x1d, 0xcf, 0x76, 0x3d, 0x44, 0xbc, 0x5d, 0xbe,
  0xfc, 0x36, 0xfd, 0x3d, 0xda, 0x25, 0x50, 0xbe, 0xbb, 0x94, 0x75, 0xbb,
  0x63, 0x6d, 0xe6, 0xbb, 0xf7, 0x25, 0x70, 0xbd, 0xab, 0xcc, 0x72, 0xbe,
  0xee, 0xc4, 0x12, 0x3e, 0x26, 0xdc, 0x82, 0xbe, 0x39, 0x3e, 0x1c, 0xbd,
  0x1f, 0x9b, 0xd9, 0xbd, 0x82, 0x69, 0xfe, 0x3d, 0xdc, 0xc2, 0xa9, 0xbe,
  0xb5, 0x6a, 0xcb, 0x3d, 0x2a, 0x28, 0x76, 0xbe, 0x47, 0xb5, 0x16, 0xbc,
  0x48, 0x18, 0x8a, 0xbe, 0x37, 0x0c, 0x2b, 0xbd, 0xf1, 0x33, 0x4f, 0xbe,
  0x1e, 0x01, 0x48, 0x3e, 0x52, 0x4e, 0x9d, 0xbe, 0xfb, 0x92, 0xf7, 0x3d,
  0x5d, 0x8e, 0x4f, 0xbe, 0xe0, 0x32, 0xaf, 0x3d, 0x57, 0x23, 0x94, 0xbe,
  0x1a, 0x24, 0xe3, 0x3d, 0x77, 0xf5, 0xf3, 0xbe, 0x41, 0x35, 0x4f, 0x3e,
  0x1b, 0x98, 0x75, 0xbe, 0x88, 0xf7, 0x96, 0x3d, 0x8b, 0x89, 0x49, 0xbe,
  0x2f, 0x89, 0x6f, 0xbb, 0x2e, 0xa4, 0xb3, 0xbe, 0x4d, 0xf3, 0xd6, 0xbd,
  0x64, 0xa3, 0x14, 0xbe, 0x62, 0xbc, 0xd6, 0xbd, 0x59, 0x21, 0x21, 0xbf,
  0xb3, 0x11, 0x1c, 0xbd, 0x85, 0x9f, 0x0a, 0xbe, 0x89, 0x45, 0x84, 0x3e,
  0x71, 0x61, 0xe0, 0x3e, 0xff, 0xd0, 0x15, 0x3e, 0x71, 0x1a, 0x62, 0x3e,
  0x04, 0xc3, 0x12, 0xbe, 0x3f, 0x6b, 0x91, 0x3e, 0x5c, 0xe5, 0x17, 0xbd,
  0x84, 0x25, 0xbe, 0xbd, 0x14, 0xa6, 0x19, 0xbd, 0xcb, 0x57, 0xa7, 0x3e,
  0xcd, 0xc5, 0xad, 0xbe, 0x1b, 0xce, 0xa0, 0x3e, 0x86, 0x57, 0xcb, 0xbe,
  0x74, 0x9f, 0xb3, 0x3e, 0xad, 0x39, 0xde, 0xbe, 0xf2, 0x24, 0x49, 0xbe,
  0x75, 0xa7, 0xd2, 0xbe, 0x29, 0x11, 0x19, 0xbd, 0xdb, 0x84, 0xa0, 0xbe,
  0xc8, 0x4f, 0x32, 0xbe, 0xb6, 0xc7, 0xd6, 0xbe, 0x9d, 0x6d, 0x40, 0x3e,
  0xee, 0x46, 0xc0, 0xbe, 0xe1, 0x4b, 0x49, 0x3c, 0xc7, 0x79, 0xb3, 0xbe,
  0x58, 0x59, 0xc3, 0x3d, 0x32, 0xb0, 0xb7, 0xbe, 0x83, 0x4f, 0x2c, 0x3e,
  0x8d, 0xf1, 0xf4, 0xbd, 0xbd, 0xf9, 0xca, 0x3e, 0xab, 0x71, 0x6e, 0xbe,
  0x66, 0x7d, 0x89, 0x3e, 0x2f, 0x1c, 0xda, 0xbd, 0xea, 0xad, 0x59, 0x3e,
  0x6f, 0x04, 0x22, 0xbd, 0xd9, 0x86, 0xad, 0x3e, 0x2f, 0xd1, 0x09, 0xbe,
  0x78, 0xc7, 0x74, 0x3e, 0x5c, 0x98, 0x2e, 0xbd, 0x33, 0x62, 0xfb, 0x3d,
  0x1c, 0x28, 0x05, 0xbe, 0xe2, 0x68, 0xa8, 0x3d, 0x5f, 0x47, 0xb9, 0xbd,
  0x32, 0x00, 0x1e, 0x3d, 0xd4, 0x87, 0xd1, 0x3d, 0xd1, 0x6c, 0xa0, 0xbc,
  0xb6, 0xab, 0xbd, 0x3d, 0x7a, 0x78, 0xb7, 0xbd, 0x17, 0x12, 0x18, 0x3e,
  0xf4, 0xe9, 0x6d, 0xbe, 0xd9, 0x3b, 0xf1, 0x3d, 0x18, 0xbb, 0x0b, 0xbe,
  0x4f, 0x9d, 0x11, 0xbd, 0x46, 0x90, 0x4e, 0xbe, 0x2d, 0xc0, 0x20, 0x3e,
  0x86, 0xfe, 0xa3, 0xbd, 0x75, 0xc0, 0x06, 0x3e, 0xab, 0xc5, 0xa9, 0xbc,
  0x30, 0xdc, 0xd0, 0x3c, 0x32, 0x93, 0x3f, 0x3d, 0xe6, 0x15, 0xd1, 0x3d,
  0x22, 0x1f, 0x66, 0x3e, 0xc9, 0x68, 0x21, 0x3c, 0xa5, 0xa0, 0x44, 0x3e,
  0xd1, 0x8d, 0xd9, 0x3d, 0xa7, 0x70, 0xdb, 0x3e, 0x1c, 0x2e, 0x3f, 0x3d,
  0xcb, 0x61, 0x78, 0x3e, 0x29, 0x9e, 0x2f, 0xbd, 0x5a, 0x96, 0xe7, 0x3e,
  0x02, 0xf1, 0x98, 0xbc, 0xb0, 0x08, 0x97, 0x3e, 0xed, 0x4f, 0xc3, 0xbc,
  0x6a, 0x78, 0xee, 0x3e, 0x8b, 0x37, 0x9c, 0xbd, 0x73, 0x13, 0xa4, 0x3e,
  0x84, 0x3c, 0xfb, 0xbd, 0xac, 0xef, 0xb2, 0x3e, 0x1e, 0x13, 0x68, 0xbd,
  0xf4, 0xa8, 0x5d, 0x3e, 0x4a, 0xcf, 0x81, 0xbd, 0xb9, 0x83, 0x6d, 0x3e,
  0xfb, 0x5f, 0xc1, 0xbd, 0x21, 0x05, 0xbf, 0x3e, 0xbc, 0x6b, 0xbf, 0xbd,
  0x3e, 0xdc, 0x9e, 0x3e, 0x04, 0x88, 0xaa, 0xbc, 0x2b, 0xa1, 0x9a, 0x3e,
  0x29, 0x6d, 0xb3, 0xbd, 0x0b, 0x11, 0x5c, 0x3e, 0x97, 0x74, 0x78, 0xbd,
  0x99, 0x61, 0xa2, 0x3e, 0xaf, 0x42, 0xe2, 0xbd, 0xd6, 0x6d, 0x14, 0x3e,
  0x1b, 0xa1, 0x28, 0xbe, 0xc6, 0x1c, 0x62, 0x3e, 0x37, 0x84, 0x22, 0xbe,
  0x7c, 0x2d, 0x8f, 0x3e, 0x49, 0x14, 0x4e, 0xbe, 0x33, 0x65, 0x1f, 0x3e,
  0x9e, 0x74, 0x8a, 0xbd, 0x67, 0x5c, 0x17, 0x3e, 0xf0, 0x8e, 0x14, 0xbd,
  0x82, 0x09, 0xbd, 0x3d, 0x63, 0x03, 0x88, 0x3d, 0x8b, 0xb5, 0xd8, 0x3c,
  0x9b, 0x8d, 0xac, 0xbe, 0x74, 0xd0, 0x33, 0x3d, 0x69, 0x86, 0x28, 0xbe,
  0x5f, 0xf3, 0x19, 0x3d, 0xf9, 0x2c, 0x47, 0xbc, 0xf6, 0x7a, 0x19, 0xbe,
  0x31, 0x30, 0x48, 0xbe, 0x4a, 0x53, 0x40, 0xbc, 0xfe, 0x56, 0xa0, 0xbc,
  0x4c, 0x6f, 0x02, 0xbe, 0x02, 0x79, 0x15, 0xbd, 0xa8, 0xcf, 0x41, 0xbe,
  0x8b, 0x51, 0xd8, 0x3d, 0x40, 0x8a, 0x8c, 0xbe, 0xcb, 0x0d, 0x20, 0x3d,
  0xec, 0x7d, 0x01, 0xbe, 0xe4, 0x4e, 0x27, 0xbc, 0x61, 0x32, 0x0a, 0xbe,
  0x68, 0xf2, 0xbc, 0xbc, 0x7c, 0x8f, 0x37, 0xbe, 0x40, 0x10, 0xbb, 0xbc,
  0xa8, 0xfe, 0x5b, 0xbc, 0x5f, 0xab, 0xc6, 0x3d, 0x43, 0x85, 0xe0, 0x3d,
  0x8c, 0xb5, 0x89, 0xbc, 0x7f, 0x95, 0x06, 0x3d, 0x4a, 0x07, 0x96, 0xbd,
  0x5b, 0x34, 0x8a, 0x3e, 0x4b, 0x32, 0xe3, 0x3d, 0xb8, 0x70, 0xff, 0x3c,
  0x90, 0xd9, 0x38, 0xbe, 0xfe, 0xb4, 0x92, 0x3e, 0x2e, 0x7f, 0xeb, 0x3c,
  0xcb, 0x08, 0x9b, 0x3d, 0x11, 0x47, 0xe9, 0xbd, 0x88, 0xf3, 0xca, 0x3d,
  0x3b, 0x80, 0x04, 0x3e, 0x03, 0x8e, 0xc5, 0xbb, 0x7c, 0x99, 0x22, 0x3e,
  0xaf, 0xe4, 0x10, 0xbe, 0x92, 0xcd, 0x26, 0x3e, 0xee, 0xcd, 0xd0, 0xbd,
  0x4a, 0x5b, 0x1b, 0x3e, 0x9a, 0xbb, 0xbd, 0xbd, 0x9a, 0x89, 0x41, 0x3d,
  0x2e, 0xfc, 0x41, 0xbe, 0x08, 0xf6, 0x43, 0x3e, 0xaf, 0x45, 0xf3, 0xbb,
  0xfb, 0x0a, 0xa9, 0x3e, 0x11, 0x91, 0x80, 0x3d, 0x8a, 0x71, 0x7c, 0x3e,
  0xaf, 0x11, 0x84, 0xbd, 0x59, 0x54, 0xe7, 0x3e, 0x7e, 0x60, 0xb7, 0xbb,
  0x34, 0xc3, 0x19, 0xbe, 0xbe, 0x64, 0x1b, 0x3e, 0x7c, 0xef, 0xac, 0xbe,
  0x8e, 0xd8, 0xbb, 0x3e, 0xb5, 0x6c, 0x97, 0xbe, 0x73, 0xc7, 0xf4, 0x3e,
  0x20, 0x70, 0xab, 0xbe, 0x35, 0x11, 0xb3, 0x3e, 0x23, 0x06, 0xb5, 0xbe,
  0x28, 0xc6, 0xca, 0x3e, 0x8a, 0x80, 0xc0, 0xbe, 0x6b, 0xa1, 0x6a, 0x3e,
  0x9e, 0x73, 0xc4, 0xbe, 0xdc, 0x16, 0x3d, 0xbb, 0xda, 0x78, 0xcc, 0xbe,
  0x00, 0x1c, 0xb5, 0x3d, 0x68, 0x39, 0xe6, 0xbe, 0x8c, 0xb6, 0x90, 0x3d,
  0xcd, 0x46, 0x39, 0xbe, 0x38, 0x05, 0x52, 0xbb, 0x8c, 0xc6, 0x38, 0xbe,
  0x7e, 0xce, 0x85, 0xbe, 0x3e, 0x62, 0x9b, 0xbe, 0xb3, 0xba, 0xd5, 0xbe,
  0x15, 0xd4, 0x44, 0xbd, 0x61, 0x5e, 0xc5, 0xbd, 0x79, 0x07, 0x10, 0xbd,
  0x23, 0xad, 0x92, 0xbe, 0xf0, 0x91, 0xcd, 0xbd, 0xc3, 0xe1, 0x92, 0xbe,
  0xd5, 0xf4, 0x82, 0x3d, 0x2a, 0xa3, 0x25, 0xbd, 0xf0, 0xad, 0xbc, 0x3d,
  0x92, 0xfa, 0xef, 0x3c, 0x3b, 0xa0, 0x73, 0x3c, 0xfb, 0x21, 0xb7, 0xba,
  0x7c, 0xf7, 0x42, 0x3e, 0x63, 0x8a, 0x85, 0x3d, 0x6b, 0xb1, 0x91, 0x3d,
  0xa7, 0x2b, 0xc0, 0x3e, 0x49, 0x65, 0xe4, 0x3d, 0xc1, 0x1f, 0x83, 0x3e,
  0xa0, 0x18, 0xf4, 0xbc, 0xfa, 0x0c, 0xaa, 0x3e, 0x17, 0x26, 0xe2, 0x3c,
  0x64, 0x20, 0xc1, 0x3e, 0xeb, 0x30, 0xf5, 0xbd, 0xb9, 0x0d, 0xad, 0x3e,
  0x48, 0x24, 0x1a, 0xbe, 0x67, 0xce, 0x0a, 0x3f, 0x06, 0xad, 0x59, 0xbe,
  0x8f, 0x25, 0xc5, 0x3e, 0xb4, 0x88, 0x6d, 0x3d, 0x69, 0x72, 0x72, 0x3e,
  0x13, 0x99, 0xf1, 0xbd, 0x5c, 0xbe, 0x33, 0x3e, 0xbf, 0xaa, 0x1c, 0xbe,
  0x29, 0xc5, 0x86, 0x3e, 0xde, 0xed, 0x70, 0x3c, 0xc8, 0x17, 0xb5, 0x3d,
  0x89, 0xd2, 0x66, 0xbe, 0x53, 0x79, 0xee, 0x3d, 0xe6, 0xcc, 0xca, 0xbd,
  0x1d, 0x03, 0xea, 0xbd, 0x5a, 0x1a, 0x34, 0xbd, 0x6e, 0x61, 0xa9, 0xbc,
  0xfe, 0x4b, 0xad, 0x3c, 0x7f, 0xd9, 0x4b, 0xbe, 0x83, 0x64, 0x2c, 0xbe,
  0xd6, 0x80, 0x9a, 0xbe, 0x60, 0xe8, 0x9d, 0xbd, 0xb6, 0x1b, 0xb0, 0xbd,
  0x91, 0x02, 0xee, 0xbc, 0x5f, 0x9f, 0xe5, 0xbe, 0xd6, 0xb0, 0x3a, 0x3d,
  0x69, 0x2e, 0xb5, 0xbe, 0x3b, 0xa7, 0x10, 0x3e, 0x79, 0xff, 0x86, 0xbe,
  0xa8, 0x18, 0x4a, 0x3e, 0x92, 0x71, 0xbb, 0xbe, 0xc1, 0x25, 0xcf, 0xba,
  0xd0, 0x7c, 0xc0, 0xbe, 0xe8, 0xd3, 0xd4, 0x3d, 0x2f, 0x3c, 0x42, 0xbe,
  0xad, 0x07, 0x6a, 0x3e, 0xd6, 0xbe, 0x7e, 0xbe, 0x9d, 0xf6, 0x53, 0x3e,
  0xd6, 0x22, 0x59, 0x3c, 0xe9, 0x1e, 0x95, 0x3d, 0x68, 0x3c, 0xd6, 0xbc,
  0x56, 0x92, 0x5e, 0x3e, 0x19, 0x7e, 0x29, 0x3e, 0x95, 0xef, 0x68, 0x3e,
  0x25, 0x17, 0xcb, 0x3d, 0x00, 0x2c, 0xd8, 0x3d, 0x2a, 0x91, 0x88, 0x3c,
  0x10, 0xe8, 0xe1, 0x3c, 0x05, 0x5b, 0x3c, 0x3e, 0xbe, 0xfb, 0xf2, 0xbd,
  0x6c, 0x67, 0x14, 0x3e, 0xd9, 0xbc, 0x8b, 0xbc, 0xef, 0x82, 0x61, 0x3e,
  0xf6, 0x85, 0x3f, 0x3c, 0x34, 0x59, 0x60, 0x3e, 0xdc, 0x19, 0x59, 0xbd,
  0x23, 0x27, 0xc7, 0x3e, 0x26, 0x3c, 0xef, 0xbd, 0x11, 0xe0, 0x4a, 0x3e,
  0x4b, 0x92, 0xf8, 0xba, 0x93, 0xaf, 0xa8, 0x3e, 0x63, 0x00, 0x14, 0xbe,
  0x23, 0xeb, 0x5d, 0x3e, 0xbb, 0x61, 0x4c, 0xbd, 0x03, 0xfc, 0xe9, 0x3d,
  0xe5, 0x7a, 0xa4, 0xbc, 0x29, 0x42, 0xa5, 0x3e, 0xd4, 0xde, 0x43, 0xbe,
  0x25, 0x6a, 0x76, 0x3e, 0xc2, 0x67, 0x6d, 0xbe, 0xa4, 0xa9, 0x8c, 0x3e,
  0x43, 0x5e, 0x8e, 0xbe, 0x10, 0x85, 0x2b, 0x3e, 0xc5, 0x54, 0x64, 0xbe,
  0xfd, 0x35, 0x74, 0x3e, 0x0f, 0x02, 0x27, 0xbe, 0xfe, 0xda, 0xdd, 0x3c,
  0x55, 0x7b, 0x31, 0xbe, 0xd5, 0x69, 0x9e, 0x3d, 0x11, 0xcc, 0x26, 0xbe,
  0xb8, 0x13, 0xcf, 0xbd, 0xf3, 0x42, 0x08, 0xbe, 0x2d, 0xee, 0xa6, 0xbd,
  0x46, 0x58, 0x3e, 0xbc, 0x6a, 0x2b, 0x64, 0xbe, 0x59, 0xe8, 0x63, 0x3d,
  0x79, 0xf4, 0xe8, 0xbd, 0xf2, 0x6c, 0x6c, 0x3e, 0xb7, 0xb1, 0x0f, 0xbe,
  0xbf, 0x61, 0xcf, 0x3d, 0x79, 0xd5, 0xa5, 0xbe, 0x40, 0xec, 0x8c, 0x3e,
  0x83, 0xdf, 0x62, 0xbb, 0x2f, 0x4f, 0x04, 0x3e, 0x68, 0xfc, 0x12, 0x3b,
  0xeb, 0xeb, 0x3e, 0x3e, 0xbc, 0xb3, 0x0e, 0x3d, 0x9d, 0x15, 0xc3, 0x3c,
  0xc2, 0x89, 0xdf, 0x3d, 0x05, 0x58, 0x60, 0x3e, 0x2c, 0x05, 0x52, 0x3e,
  0xbe, 0xd8, 0x4f, 0x3e, 0x5b, 0x05, 0xc0, 0x3d, 0xbd, 0x2f, 0x5c, 0x3d,
  0xd5, 0x4b, 0x05, 0x3e, 0xf6, 0x42, 0xae, 0x3e, 0x63, 0x92, 0x61, 0x3e,
  0xf6, 0x06, 0xb2, 0xbd, 0x77, 0xe7, 0x85, 0x3e, 0x79, 0x52, 0xd6, 0x3d,
  0x3d, 0xdf, 0x93, 0x3e, 0xf0, 0x9b, 0x03, 0x3f, 0x05, 0xf4, 0x9e, 0x3e,
  0xd7, 0x38, 0x22, 0x3e, 0x12, 0xd6, 0x81, 0xbd, 0xbf, 0xd2, 0xa2, 0x3d,
  0x29, 0x59, 0xe3, 0x3d, 0x0a, 0x35, 0x3b, 0x3d, 0x16, 0x12, 0x43, 0x3e,
  0xfb, 0x84, 0x90, 0xbe, 0xd9, 0x2d, 0xce, 0xbd, 0xe9, 0xf2, 0x4f, 0xbe,
  0x18, 0xde, 0x41, 0xbc, 0xd4, 0x6b, 0xbe, 0xbe, 0x88, 0x64, 0x1a, 0x3c,
  0x53, 0xf7, 0xe5, 0xbe, 0x79, 0x70, 0xe8, 0x3d, 0x0c, 0x9d, 0xaa, 0xbe,
  0xcd, 0x51, 0xd7, 0xbd, 0xf5, 0x0c, 0xaf, 0xbe, 0x8f, 0x9e, 0x33, 0x3e,
  0x14, 0x79, 0xcf, 0xbe, 0x1f, 0x1e, 0x9a, 0x3c, 0xf3, 0xf4, 0xab, 0xbe,
  0xa3, 0x14, 0x58, 0x3d, 0xff, 0x9e, 0xcf, 0xbe, 0x14, 0x75, 0x03, 0x3e,
  0x5d, 0x1a, 0xbe, 0xbe, 0x35, 0x67, 0x15, 0x3e, 0x93, 0xdf, 0x70, 0xbe,
  0x66, 0xbe, 0x6f, 0x3e, 0xfc, 0xbb, 0xc9, 0xbd, 0xcd, 0xe0, 0x40, 0x3e,
  0x68, 0x2c, 0x8d, 0xbe, 0xce, 0x87, 0xc9, 0xba, 0x51, 0x05, 0xdf, 0xbd,
  0xb0, 0x5a, 0x2b, 0x3e, 0xf8, 0x84, 0x67, 0xbe, 0xd2, 0xfe, 0x8c, 0xbc,
  0xd2, 0xbe, 0x9a, 0xbd, 0x18, 0xd6, 0x98, 0x3e, 0xd8, 0xef, 0x51, 0xbc,
  0xbd, 0x66, 0x1c, 0x3e, 0xd5, 0x2e, 0xb3, 0xbd, 0x6b, 0x0d, 0x69, 0x3e,
  0x6c, 0x6e, 0x01, 0xbe, 0xb5, 0xe0, 0x7f, 0x3e, 0x63, 0x2b, 0xb9, 0xbc,
  0x9f, 0x90, 0xf3, 0x3d, 0x31, 0xf9, 0x0e, 0xbe, 0x0f, 0xf3, 0xe5, 0x3d,
  0xb5, 0x7b, 0x04, 0xbc, 0xde, 0xba, 0x40, 0x3e, 0x00, 0x21, 0x92, 0xbd,
  0x99, 0x84, 0xbc, 0x3d, 0x4a, 0xbc, 0x02, 0xba, 0x4f, 0x19, 0x8e, 0xbd,
  0x81, 0x5e, 0x20, 0xbd, 0x29, 0xc9, 0x13, 0xbe, 0x64, 0x25, 0x39, 0x3d,
  0x9d, 0xea, 0x8d, 0xbe, 0x82, 0xb8, 0xf0, 0xbc, 0x74, 0xd6, 0xa5, 0xbd,
  0x8c, 0x05, 0x6e, 0x3c, 0x8e, 0x8f, 0x7b, 0xbe, 0x90, 0xb2, 0x75, 0xbd,
  0xdf, 0x61, 0x28, 0x3e, 0x70, 0x9c, 0x0a, 0x3e, 0x43, 0xc8, 0x86, 0xbe,
  0xdd, 0x76, 0x94, 0x3e, 0xc9, 0x0f, 0x2e, 0xbe, 0xe0, 0xe7, 0x28, 0x3d,
  0x0c, 0xcf, 0x4f, 0xbd, 0xd4, 0x61, 0x1e, 0x3e, 0x80, 0x31, 0x3a, 0xbb,
  0xa5, 0x8e, 0x52, 0xbb, 0x42, 0xed, 0x1f, 0x3c, 0xe4, 0x50, 0x7b, 0x3d,
  0xe9, 0xf1, 0x0a, 0x3e, 0x92, 0x7e, 0x51, 0x3e, 0x6a, 0x32, 0x98, 0x3e,
  0x17, 0x8c, 0x0c, 0xbd, 0x67, 0x3f, 0xa0, 0x3e, 0x7e, 0x8d, 0xfa, 0xbd,
  0x53, 0x1c, 0x86, 0x3e, 0x0a, 0x53, 0x48, 0xbe, 0x13, 0xd5, 0xc6, 0x3e,
  0xbe, 0x16, 0xe5, 0x3d, 0xaa, 0x42, 0x97, 0x3e, 0xa7, 0xca, 0x0c, 0xbd,
  0xbe, 0x58, 0x22, 0x3e, 0xd8, 0x2a, 0x37, 0xbc, 0xc4, 0xba, 0x84, 0x3e,
  0x1d, 0xcf, 0xd9, 0x3d, 0xa3, 0xd0, 0x98, 0x3e, 0x39, 0x44, 0xaf, 0xbc,
  0x8e, 0x5e, 0xa7, 0x3e, 0x2f, 0xbd, 0xda, 0xbd, 0xb8, 0xe1, 0xcf, 0x3d,
  0xbc, 0x9e, 0x49, 0x3d, 0xf4, 0x8b, 0x96, 0x3e, 0x86, 0x09, 0xd7, 0xbb,
  0x06, 0x60, 0x9e, 0x3e, 0xab, 0x4b, 0x08, 0x3d, 0xdf, 0xa1, 0x86, 0x3e,
  0x72, 0x7b, 0xa6, 0xbd, 0x5f, 0x85, 0x9d, 0x3e, 0xf5, 0xa4, 0x12, 0x3d,
  0x48, 0xb1, 0xb5, 0x3e, 0x17, 0x9e, 0x4b, 0xbd, 0x7e, 0x57, 0x96, 0x3e,
  0xb1, 0x9b, 0x59, 0xbe, 0x53, 0x55, 0x8d, 0x3e, 0xe3, 0x4e, 0x2f, 0xbe,
  0x4f, 0x65, 0x71, 0x3e, 0x30, 0x0f, 0x75, 0xbe, 0xb1, 0x0d, 0xfd, 0x3d,
  0xfd, 0x73, 0xa5, 0x3c, 0xc1, 0x1b, 0x84, 0x3e, 0x5e, 0x73, 0x95, 0xbd,
  0x20, 0x83, 0xd0, 0x3d, 0x05, 0x81, 0x91, 0xbe, 0x9d, 0x99, 0x89, 0x3c,
  0x05, 0x56, 0x15, 0xbe, 0x3d, 0xc4, 0x2e, 0x3e, 0x47, 0x54, 0x97, 0xbd,
  0xf8, 0x36, 0xe1, 0xbd, 0xf0, 0xb1, 0x99, 0xbd, 0x4f, 0xd2, 0xb5, 0x3c,
  0x64, 0x13, 0x40, 0xbd, 0x5d, 0x89, 0x96, 0xbe, 0x31, 0xb4, 0x22, 0xbe,
  0x6f, 0x55, 0xa4, 0xbe, 0x73, 0x0a, 0x15, 0x3e, 0x34, 0x33, 0xb1, 0xbe,
  0xa4, 0x6c, 0x6c, 0xbe, 0xd1, 0xea, 0xcc, 0xbd, 0x8e, 0x62, 0x67, 0xbe,
  0x3c, 0xce, 0x09, 0xbe, 0x47, 0x80, 0xb9, 0xbd, 0x19, 0x90, 0xc1, 0xbd,
  0x62, 0x70, 0x4f, 0xbe, 0x66, 0xa7, 0xb5, 0xbc, 0x96, 0x6d, 0x63, 0xbb,
  0x48, 0xc1, 0x8e, 0xbd, 0x24, 0x98, 0x02, 0xbe, 0xb3, 0x74, 0x3a, 0x3d,
  0x03, 0x72, 0xef, 0x3c, 0x3d, 0xf8, 0x1c, 0xbc, 0x11, 0x6c, 0x50, 0xbd,
  0x7a, 0x03, 0x28, 0xbc, 0xa5, 0xe4, 0x7a, 0xbe, 0xfb, 0x55, 0xb5, 0x3d,
  0xcd, 0xf1, 0xb1, 0xbe, 0x7d, 0x19, 0x19, 0x3e, 0x00, 0x5f, 0x8f, 0xbe,
  0x2c, 0x03, 0x0c, 0x3e, 0xfb, 0xf7, 0x21, 0xbe, 0xfe, 0xcf, 0x8e, 0x3d,
  0x1e, 0xee, 0x6d, 0xbe, 0x4a, 0x93, 0x09, 0xbd, 0xbf, 0xe4, 0x81, 0xbd,
  0x3c, 0xcd, 0x01, 0x3f, 0x57, 0xe1, 0xae, 0xbd, 0x70, 0xaf, 0xc0, 0x3d,
  0x15, 0x23, 0x2b, 0xbe, 0xb9, 0xe5, 0xa4, 0x3e, 0xd0, 0x94, 0xa4, 0xbe,
  0x05, 0x3f, 0x80, 0xbd, 0x49, 0xca, 0xa0, 0xbe, 0x43, 0xca, 0xc9, 0xbe,
  0x5c, 0x29, 0x92, 0xbe, 0x96, 0xe9, 0x84, 0xbd, 0x46, 0x36, 0x85, 0xbd,
  0x80, 0xf1, 0x23, 0xbe, 0xc7, 0xd0, 0x05, 0xbe, 0xed, 0xa3, 0xba, 0xbe,
  0x91, 0x51, 0x61, 0xbe, 0x1a, 0x78, 0xb7, 0xbe, 0x2e, 0xba, 0x6f, 0xbe,
  0xb0, 0xe2, 0xa6, 0xbe, 0x94, 0x55, 0xcc, 0xbc, 0x0b, 0x3e, 0xd7, 0xbd,
  0x2a, 0x04, 0x1f, 0xbd, 0xa6, 0xe8, 0x0b, 0xbe, 0x13, 0x92, 0xfd, 0xbc,
  0x3d, 0xe2, 0xab, 0xbe, 0x84, 0xd2, 0xa1, 0x3d, 0x14, 0x5c, 0x2b, 0xbe,
  0x0b, 0x74, 0x92, 0xbd, 0x70, 0xd5, 0x4a, 0xbe, 0x01, 0xc9, 0xa2, 0x3d,
  0xe8, 0x7c, 0xac, 0xbd, 0x87, 0x64, 0x20, 0x3e, 0x03, 0xbf, 0x0a, 0xbe,
  0x15, 0xe7, 0xcb, 0x3c, 0xc2, 0xab, 0x00, 0x3e, 0xd2, 0x84, 0xa7, 0x3a,
  0x78, 0x69, 0x25, 0x3d, 0x5e, 0x01, 0x92, 0xbd, 0xf4, 0x71, 0x10, 0x3d,
  0x06, 0x1a, 0xc5, 0xbd, 0x68, 0xf0, 0xaf, 0x3c, 0x1f, 0xa4, 0x9b, 0x3c,
  0xa4, 0xd9, 0x05, 0x3e, 0xc1, 0x02, 0x01, 0xbe, 0x6e, 0x68, 0xd4, 0x3d,
  0xf0, 0xe6, 0x62, 0xbc, 0x14, 0x89, 0x66, 0xbc, 0x97, 0x03, 0x37, 0xbd,
  0xa7, 0x7d, 0x74, 0xbd, 0xb3, 0x95, 0xf8, 0xbc, 0x10, 0xf7, 0x1b, 0xbe,
  0x0c, 0x74, 0x73, 0x3d, 0x9e, 0x7b, 0x2a, 0xbe, 0x08, 0x8d, 0xfb, 0x3c,
  0x6c, 0x2e, 0x5d, 0x3d, 0x2e, 0x4a, 0xd4, 0xbb, 0x9a, 0xb7, 0xd9, 0xbc,
  0x30, 0x01, 0x41, 0x3d, 0x86, 0x7d, 0x77, 0x3d, 0x30, 0x7f, 0xd6, 0x3d,
  0x9d, 0xeb, 0x03, 0xbd, 0x56, 0xc9, 0xff, 0x3d, 0xb3, 0xe2, 0x67, 0x3e,
  0x93, 0x16, 0xc5, 0x3c, 0x31, 0x7b, 0x23, 0x3e, 0xa8, 0x16, 0xdc, 0x3d,
  0x6b, 0x32, 0x9f, 0x3d, 0x16, 0x73, 0x42, 0x3e, 0xce, 0x30, 0xac, 0x3d,
  0x57, 0x7a, 0x24, 0x3d, 0x99, 0x2c, 0x24, 0x3d, 0xd8, 0xd3, 0xfc, 0x3c,
  0x77, 0x5e, 0xc8, 0x3d, 0xa1, 0xf9, 0x97, 0xbc, 0x6e, 0xb7, 0x16, 0x3e,
  0x4d, 0xcc, 0x63, 0xbd, 0x85, 0xb2, 0xa7, 0x3d, 0x34, 0x8e, 0x0b, 0xbe,
  0x30, 0x91, 0x27, 0xbc, 0xe7, 0xfb, 0x6a, 0xbd, 0x01, 0xbd, 0xe9, 0x3d,
  0x41, 0x23, 0x80, 0xbe, 0x4c, 0x1f, 0xc0, 0x3d, 0x01, 0xce, 0x5f, 0xbe,
  0xf7, 0x35, 0x6d, 0xbd, 0xbc, 0x50, 0x24, 0xbe, 0xe2, 0xce, 0xc9, 0xbd,
  0x45, 0x7b, 0x0d, 0xbd, 0x43, 0x8e, 0x20, 0xbe, 0xa1, 0x3d, 0xc8, 0xbd,
  0xc5, 0x0b, 0x20, 0xbe, 0x6f, 0x4e, 0x7d, 0x3d, 0x45, 0x6c, 0xc2, 0xbe,
  0x87, 0x94, 0x06, 0x3c, 0x55, 0xc2, 0xf9, 0xbe, 0xe0, 0x9f, 0x1e, 0x3d,
  0xa8, 0xe1, 0xbf, 0xbe, 0x2c, 0xad, 0x12, 0x3c, 0x21, 0xa3, 0x31, 0xbf,
  0xca, 0x49, 0x00, 0x3e, 0xfa, 0x35, 0x13, 0xbf, 0xf3, 0xd8, 0x05, 0x3e,
  0x09, 0x61, 0x2a, 0xbf, 0x24, 0x9b, 0x94, 0x3e, 0x73, 0xb0, 0x18, 0xbf,
  0xd4, 0xb9, 0x9a, 0x3d, 0x83, 0x5c, 0x02, 0xbf, 0xec, 0xf8, 0x78, 0x3e,
  0x48, 0x81, 0x05, 0xbf, 0xb6, 0x86, 0x87, 0xbc, 0xc0, 0xe9, 0xb3, 0xbe,
  0x76, 0x1d, 0x56, 0x3e, 0x5b, 0x46, 0x9d, 0xbe, 0x8f, 0x1e, 0x29, 0x3e,
  0x8d, 0xe3, 0x17, 0xbe, 0xe7, 0xe0, 0x20, 0x3d, 0x2c, 0xab, 0x2e, 0xbe,
  0x82, 0x41, 0x9b, 0x3d, 0x12, 0x64, 0x47, 0x3d, 0x22, 0x1b, 0xd9, 0xbc,
  0x88, 0x06, 0x02, 0x3e, 0x8d, 0x85, 0x1e, 0xbe, 0x53, 0x39, 0xb2, 0x3e,
  0x58, 0xd0, 0x3c, 0xbe, 0x51, 0xae, 0x66, 0x3e, 0x77, 0x9b, 0x24, 0xbe,
  0x3e, 0x56, 0xba, 0x3e, 0x04, 0xa4, 0xc9, 0xbd, 0xb6, 0x59, 0xa7, 0x3e,
  0x6f, 0x51, 0xac, 0xba, 0xa7, 0x38, 0x8a, 0x3e, 0xd2, 0x51, 0xfc, 0xbd,
  0x05, 0xb9, 0xb6, 0x3e, 0xae, 0x4e, 0x2f, 0x3d, 0xd6, 0x76, 0x97, 0x3e,
  0x07, 0x47, 0x35, 0xbe, 0x3e, 0xa4, 0xf5, 0x3d, 0xc6, 0x69, 0xb8, 0x3d,
  0x8a, 0x63, 0x0f, 0xbb, 0xd0, 0x2b, 0x01, 0xbe, 0x89, 0x77, 0x1e, 0x3e,
  0xa8, 0x32, 0x31, 0x3e, 0x01, 0x7b, 0xe8, 0x3d, 0x9d, 0xf4, 0x77, 0x3d,
  0x94, 0x65, 0x51, 0xbe, 0x22, 0x0c, 0x3a, 0x3e, 0x83, 0xb8, 0xd1, 0xbd,
  0xb9, 0xf8, 0x8e, 0x3e, 0xca, 0x59, 0x46, 0xbe, 0xbb, 0xd1, 0x0a, 0x3e,
  0xd8, 0xb8, 0x3a, 0xbe, 0x48, 0x6e, 0x14, 0x3e, 0x53, 0x33, 0x85, 0xbe,
  0x46, 0x27, 0x1d, 0x3e, 0x1e, 0x0b, 0x84, 0xbd, 0x2a, 0x60, 0xfb, 0x3d,
  0x75, 0x79, 0xb7, 0xbe, 0xbf, 0xcd, 0x4c, 0x3e, 0xaa, 0x30, 0x44, 0xbe,
  0x5f, 0xdf, 0x7e, 0x3e, 0xe5, 0xb9, 0x99, 0xbc, 0x94, 0x6e, 0x25, 0x3e,
  0xf3, 0xcc, 0xfe, 0xbc, 0x59, 0x99, 0x84, 0xbd, 0xe3, 0xb7, 0x62, 0xbd,
  0xc1, 0x52, 0xed, 0xbd, 0xb5, 0x02, 0x87, 0xbe, 0xca, 0x0f, 0xc0, 0xbd,
  0xfc, 0xb6, 0x28, 0xbd, 0xad, 0xde, 0xbd, 0xbe, 0xeb, 0x26, 0x23, 0xbe,
  0xf3, 0x0e, 0x79, 0xbe, 0x03, 0xd5, 0x48, 0x3d, 0x0d, 0xd8, 0x40, 0xbe,
  0x96, 0x66, 0xf1, 0xbd, 0xe0, 0xcd, 0xcd, 0xbe, 0x9f, 0x03, 0xd0, 0xbd,
  0xf9, 0xd3, 0xad, 0xbe, 0xf6, 0xc8, 0x4e, 0x3d, 0x44, 0x69, 0x86, 0xbe,
  0x95, 0xaf, 0xf1, 0xbd, 0xd9, 0x4a, 0x7c, 0xbe, 0xeb, 0xda, 0x0c, 0x3d,
  0x9f, 0x58, 0x17, 0xbe, 0x58, 0x51, 0x0c, 0xbe, 0x86, 0x8e, 0xe0, 0xbd,
  0xf9, 0xe7, 0x9b, 0xbd, 0x2a, 0x88, 0x59, 0xbe, 0x7f, 0x25, 0xc3, 0xbc,
  0x13, 0xad, 0x94, 0x3c, 0x81, 0xf3, 0x2d, 0xbc, 0x04, 0x66, 0x57, 0xbd,
  0x75, 0xdd, 0x31, 0xbe, 0x63, 0x84, 0x31, 0x3d, 0x12, 0x84, 0xce, 0xbc,
  0xe6, 0x82, 0x68, 0xbc, 0xf1, 0x58, 0x28, 0x3d, 0x8d, 0x27, 0xf8, 0x3c,
  0x42, 0xb8, 0xff, 0xbc, 0xfb, 0x86, 0xb2, 0x3d, 0xf1, 0x8a, 0x85, 0xbe,
  0x67, 0x75, 0x5c, 0x3d, 0x60, 0x4d, 0x70, 0x3d, 0xd6, 0x0a, 0x97, 0x3c,
  0x44, 0x56, 0x8a, 0x3d, 0x06, 0x66, 0x89, 0x3b, 0x14, 0x90, 0x21, 0xbe,
  0x4e, 0xb1, 0xaa, 0x3d, 0xe1, 0x30, 0x63, 0x3d, 0x9d, 0xf3, 0x96, 0x3e,
  0xa9, 0xbe, 0x6a, 0xbd, 0x9d, 0x78, 0x1d, 0x3e, 0x5d, 0x39, 0x83, 0xbd,
  0xef, 0xb2, 0xe1, 0x3d, 0xba, 0xe0, 0x06, 0xbe, 0xa2, 0x3a, 0xe2, 0x3c,
  0xb2, 0x73, 0x06, 0xbe, 0x9d, 0x05, 0x75, 0x3e, 0x9c, 0xba, 0x23, 0xbe,
  0x2b, 0xe1, 0x85, 0x3e, 0x79, 0x3e, 0xf4, 0xbd, 0xca, 0x13, 0x61, 0x3e,
  0x64, 0xef, 0xb2, 0x3e, 0x89, 0x91, 0x7c, 0x3c, 0x03, 0xaf, 0x4a, 0x3e,
  0xed, 0x2e, 0x82, 0x3e, 0x51, 0xb4, 0x05, 0xbd, 0x80, 0x90, 0x7d, 0x3e,
  0x8c, 0x24, 0xb1, 0xbe, 0x0a, 0xd9, 0xa3, 0x3e, 0xe0, 0xed, 0xbf, 0xbd,
  0xa3, 0x92, 0xb1, 0x3e, 0xf1, 0x25, 0xb7, 0x3e, 0x02, 0x5c, 0x98, 0x3e,
  0xbf, 0x2a, 0x26, 0x3e, 0x6a, 0x93, 0x91, 0x3e, 0xf9, 0xec, 0xf5, 0xbd,
  0x39, 0xec, 0x4b, 0x3e, 0x6f, 0x78, 0xbc, 0xbe, 0x5f, 0x79, 0x23, 0x3e,
  0x59, 0x2d, 0xd3, 0xbd, 0x2f, 0x1d, 0xcb, 0x3e, 0xa7, 0x92, 0x03, 0xbd,
  0xcb, 0xeb, 0xb0, 0x3e, 0xe9, 0xb4, 0x48, 0x3e, 0x18, 0x29, 0x4f, 0x3e,
  0x33, 0x88, 0xb3, 0x3c, 0xf7, 0x4b, 0x90, 0x3e, 0x93, 0x3c, 0xe7, 0xbe,
  0x57, 0x25, 0xc1, 0x3e, 0xd4, 0x43, 0xa5, 0x3d, 0x7e, 0xa7, 0x9b, 0x3e,
  0xcf, 0x5a, 0x8b, 0x3e, 0x26, 0x54, 0x8b, 0x3d, 0x5a, 0xfa, 0xac, 0x3d,
  0xa0, 0xc7, 0x9c, 0x3e, 0x00, 0xb6, 0xbc, 0xbb, 0xab, 0xed, 0x85, 0x3e,
  0x34, 0x22, 0x73, 0xbe, 0xdd, 0x5b, 0xcc, 0x3d, 0x2b, 0x3a, 0x60, 0xbe,
  0x8e, 0x58, 0xe1, 0x3d, 0x11, 0x0c, 0xc9, 0xbd, 0x95, 0xe9, 0xa1, 0x3e,
  0x7d, 0x51, 0x94, 0xbc, 0xf4, 0x6f, 0x3d, 0x3e, 0x67, 0xf0, 0xda, 0x3d,
  0x48, 0x7e, 0x10, 0x3e, 0xdf, 0x2c, 0x2a, 0x3c, 0x35, 0xdc, 0xbb, 0xba,
  0xcb, 0x11, 0x99, 0xbd, 0x13, 0xb2, 0x9e, 0xbc, 0x8d, 0xa1, 0x91, 0x3b,
  0x57, 0x85, 0x50, 0x3e, 0x50, 0x2e, 0x01, 0x3d, 0x4f, 0x1f, 0x13, 0x3b,
  0x87, 0xf0, 0xe7, 0xbb, 0x78, 0x6d, 0x7a, 0x3d, 0x4a, 0xfc, 0x84, 0xbd,
  0xe9, 0xd6, 0x07, 0x3d, 0x7e, 0xe9, 0x05, 0xbe, 0xb2, 0x42, 0x3b, 0x3d,
  0xb0, 0xc1, 0x84, 0x3d, 0x39, 0xc2, 0x71, 0xbd, 0x64, 0x48, 0xed, 0xbd,
  0x8f, 0x39, 0x17, 0xbe, 0x1c, 0x5e, 0x76, 0x3d, 0xe6, 0xa1, 0xb6, 0x3d,
  0x3f, 0x89, 0x56, 0x3e, 0xb2, 0x51, 0x08, 0xbe, 0xc7, 0xba, 0x48, 0x3c,
  0xf0, 0xa6, 0x34, 0xbe, 0xf3, 0xde, 0x11, 0xbe, 0x88, 0x2a, 0xc6, 0xbd,
  0x86, 0x0d, 0x2d, 0xbd, 0xfd, 0x82, 0x0f, 0xbe, 0x8d, 0xa0, 0x5f, 0x3d,
  0x72, 0xd5, 0xa7, 0xbd, 0xfb, 0x7e, 0x1b, 0xbc, 0x5c, 0x8d, 0x80, 0xbe,
  0xdf, 0x97, 0x01, 0xbe, 0xde, 0x9a, 0xf6, 0xbd, 0x47, 0x09, 0xc6, 0xbd,
  0x58, 0xb7, 0x9e, 0xbe, 0x8f, 0x68, 0x67, 0xbe, 0x41, 0xb1, 0x3c, 0xbe,
  0xdc, 0x02, 0x0c, 0xbd, 0xe2, 0xff, 0x98, 0xbe, 0x2f, 0x03, 0x04, 0x3e,
  0x19, 0xda, 0x88, 0xbe, 0x02, 0x6f, 0xa4, 0xbd, 0x1c, 0xac, 0xf2, 0xbe,
  0x79, 0x34, 0xd7, 0xbd, 0x1b, 0x6d, 0xc5, 0xbe, 0x6f, 0xc0, 0x8d, 0x3d,
  0x29, 0xa8, 0xf2, 0xbe, 0x66, 0xf9, 0x67, 0x3d, 0x16, 0x9e, 0x0c, 0xbf,
  0xc4, 0x96, 0xaf, 0xbd, 0x1b, 0xef, 0x95, 0x3e, 0x51, 0x20, 0x0d, 0xbf,
  0x37, 0x69, 0x9e, 0x3e, 0x48, 0xa3, 0x01, 0xbf, 0x11, 0x8f, 0xfe, 0x3d,
  0xe5, 0xf8, 0x48, 0xbf, 0xfd, 0x3d, 0x73, 0x3e, 0x38, 0xd2, 0xee, 0xbe,
  0x79, 0x48, 0x85, 0x3e, 0xf7, 0xcd, 0x69, 0xbf, 0x30, 0xde, 0x55, 0x3e,
  0xfd, 0x27, 0xcc, 0xbe, 0xef, 0x13, 0xa9, 0xbd, 0x7e, 0xc5, 0x30, 0xbf,
  0xf3, 0x69, 0xc1, 0xbd, 0x47, 0x88, 0xd9, 0xbd, 0x62, 0xbb, 0x82, 0xbe,
  0xb3, 0xe5, 0x34, 0xbe, 0xa5, 0x4c, 0xa3, 0xbe, 0xb4, 0x5a, 0x0e, 0xbe,
  0xb9, 0xa6, 0x7f, 0xbe, 0xb1, 0x6e, 0x21, 0x3e, 0xd8, 0x7b, 0x75, 0xbd,
  0x4a, 0xbe, 0x75, 0xbc, 0x55, 0x8c, 0x7b, 0xbe, 0x29, 0xd0, 0x52, 0x3e,
  0xa8, 0x27, 0x01, 0xbe, 0x75, 0x00, 0x52, 0x3e, 0x04, 0x93, 0x94, 0xbb,
  0xf6, 0xea, 0x46, 0x3e, 0x21, 0x58, 0xc9, 0xbd, 0x05, 0x06, 0x83, 0x3e,
  0x53, 0x33, 0x99, 0xbd, 0x0c, 0xd3, 0xa4, 0xbc, 0x84, 0xd6, 0xb5, 0xbb,
  0xc1, 0x29, 0x73, 0x3c, 0x01, 0xaa, 0xab, 0xbc, 0x16, 0x71, 0xb3, 0xbe,
  0x68, 0x87, 0x04, 0x3e, 0x0b, 0xe5, 0x90, 0xbe, 0x07, 0x2b, 0xa8, 0xbd,
  0xc4, 0x05, 0xcb, 0xbe, 0x22, 0x9d, 0xbb, 0x3d, 0xe2, 0xc9, 0x95, 0xbe,
  0x10, 0x10, 0x81, 0x3c, 0xa6, 0x0f, 0x6c, 0xbe, 0xda, 0x51, 0xd6, 0x3d,
  0x28, 0xf3, 0x49, 0xbe, 0x5f, 0xfa, 0x39, 0xbd, 0xc2, 0xd5, 0xcf, 0xbb,
  0xb1, 0x60, 0xce, 0x3d, 0xa7, 0x83, 0x26, 0xbe, 0x02, 0x2c, 0x0e, 0x3b,
  0x15, 0xf3, 0x0c, 0xbe, 0x38, 0x8b, 0x36, 0xbd, 0xf8, 0x86, 0x53, 0xbe,
  0x9c, 0x95, 0x31, 0xbd, 0x62, 0xc7, 0x83, 0xbe, 0x32, 0xd8, 0x43, 0xbd,
  0x2a, 0x87, 0x0e, 0xbe, 0x22, 0x4c, 0x08, 0x3e, 0x1b, 0x0b, 0x4c, 0xbe,
  0x04, 0x01, 0xbd, 0xbd, 0x79, 0x84, 0x7e, 0xbd, 0x12, 0x14, 0x8c, 0xbd,
  0x1b, 0xf3, 0xb1, 0xbb, 0x5e, 0xe1, 0xcf, 0x3d, 0x41, 0xbc, 0xf7, 0xbc,
  0xd3, 0x67, 0x00, 0xbd, 0xdc, 0xb7, 0x6c, 0xbb, 0x7f, 0x2f, 0xf3, 0x3a,
  0xdf, 0xda, 0x75, 0x3d, 0xb4, 0xc4, 0xf7, 0x3d, 0x28, 0x15, 0x99, 0x3d,
  0x03, 0x7f, 0x98, 0xbc, 0x8c, 0x3e, 0x4a, 0x3d, 0x37, 0x41, 0xe1, 0xbc,
  0x9b, 0xfa, 0x31, 0x3e, 0x9a, 0x7a, 0x6b, 0x3d, 0xc5, 0x3f, 0x9f, 0x3e,
  0x88, 0xab, 0xf3, 0xbc, 0x53, 0xb9, 0x75, 0x3e, 0x22, 0xb2, 0xfd, 0xbd,
  0x62, 0x5b, 0xcf, 0x3e, 0x48, 0x24, 0x66, 0xbc, 0x7a, 0x23, 0xc5, 0x3d,
  0x30, 0x85, 0x14, 0xbe, 0xd1, 0xf9, 0xcb, 0x3e, 0xfc, 0xb5, 0xfc, 0xbd,
  0x45, 0xa8, 0xd3, 0x3e, 0xeb, 0xfb, 0x2b, 0xbd, 0x65, 0xc0, 0x4c, 0x3e,
  0xe4, 0x34, 0x2d, 0xbe, 0xe9, 0x62, 0x9e, 0x3e, 0xc4, 0xe1, 0x9e, 0xbe,
  0xd5, 0x16, 0xea, 0x3d, 0xbc, 0xc9, 0x2b, 0xbe, 0x26, 0xf7, 0x24, 0x3e,
  0x90, 0x50, 0x64, 0xbe, 0xc5, 0x89, 0xd2, 0x3d, 0xd7, 0x9d, 0x63, 0xbd,
  0x48, 0x4d, 0x8f, 0xbd, 0x6f, 0x2d, 0xff, 0xbd, 0xfa, 0xf2, 0xb9, 0xbd,
  0x83, 0xd8, 0x2f, 0xbd, 0x21, 0x17, 0xed, 0xbd, 0x9a, 0x1e, 0x60, 0xbe,
  0xd6, 0x31, 0xb7, 0xbe, 0xba, 0x93, 0xd0, 0xbd, 0x91, 0xc9, 0x1f, 0xbf,
  0x53, 0xb1, 0x16, 0xbe, 0x58, 0x09, 0x21, 0xbf, 0x86, 0x5a, 0x54, 0x3e,
  0x9a, 0xb1, 0xf4, 0xbe, 0x3f, 0x41, 0x32, 0x3d, 0x3f, 0xb5, 0x54, 0xbf,
  0x2e, 0xcc, 0x5b, 0x3e, 0xf4, 0x2e, 0x06, 0xbf, 0x3f, 0x64, 0x13, 0x3e,
  0x70, 0x02, 0x55, 0xbf, 0xf0, 0xdc, 0x46, 0x3e, 0x59, 0x13, 0x73, 0xbf,
  0x07, 0xc8, 0x80, 0x3e, 0x9a, 0xa0, 0x31, 0xbf, 0x89, 0x67, 0x7d, 0x3e,
  0x98, 0xef, 0x5f, 0xbf, 0x80, 0x83, 0x12, 0x3e, 0xdb, 0xb9, 0x79, 0xbf,
  0xbe, 0xc1, 0x31, 0x3e, 0x32, 0xce, 0x40, 0xbf, 0x7f, 0xef, 0x96, 0x3d,
  0x63, 0x9d, 0x24, 0xbf, 0xb5, 0x32, 0xec, 0x3d, 0x47, 0xc0, 0xd0, 0xbe,
  0x39, 0x29, 0x14, 0xbe, 0x3e, 0x8e, 0xb8, 0xbe, 0xbe, 0x47, 0xc2, 0xbd,
  0xb1, 0xc5, 0x13, 0xbe, 0x02, 0xeb, 0x15, 0x3e, 0xaf, 0xa6, 0x84, 0xbe,
  0x7b, 0x85, 0x23, 0x3e, 0x9c, 0x56, 0x74, 0x3d, 0x9c, 0xcf, 0x10, 0x3e,
  0xa2, 0xe3, 0xc5, 0xbb, 0x5e, 0x8a, 0x17, 0x3d, 0xa7, 0xbf, 0x57, 0xbc,
  0xe1, 0x54, 0x4c, 0x3e, 0x9b, 0xa0, 0xb3, 0x3d, 0x62, 0xf0, 0x61, 0xbd,
  0x77, 0xa6, 0x86, 0x3e, 0x1b, 0x18, 0x9e, 0x3d, 0x5a, 0x46, 0x36, 0x3d,
  0x44, 0x42, 0x11, 0xbd, 0xe2, 0xc2, 0x4d, 0x3e, 0x87, 0x83, 0xc6, 0xbd,
  0xd0, 0xb0, 0xf7, 0x3d, 0x2d, 0xea, 0x07, 0xbe, 0xeb, 0x42, 0x5f, 0x3e,
  0x22, 0x05, 0xee, 0xbc, 0x6a, 0x5c, 0x8b, 0x3e, 0xd7, 0x8f, 0x5f, 0x3e,
  0x1a, 0xa4, 0x6e, 0x3d, 0x56, 0x90, 0x72, 0xbe, 0x1b, 0xd4, 0xa7, 0x3e,
  0x5c, 0x96, 0xac, 0xbe, 0x00, 0x1c, 0x17, 0xbe, 0xb9, 0xbd, 0xd0, 0xbe,
  0xdd, 0xe2, 0x9b, 0x3e, 0x60, 0xf3, 0xc3, 0xbd, 0x1f, 0xed, 0xcc, 0x3e,
  0x8c, 0x2a, 0xbe, 0x3c, 0x25, 0x12, 0x2a, 0x3e, 0x53, 0x8e, 0x10, 0xbe,
  0x7f, 0x55, 0x9b, 0x3d, 0x81, 0x76, 0x37, 0xbd, 0x88, 0x95, 0xed, 0x3e,
  0x2a, 0x00, 0x6e, 0x3d, 0x11, 0x12, 0x62, 0x3e, 0x21, 0xdc, 0xd3, 0x3a,
  0x44, 0x22, 0xe9, 0x3e, 0x17, 0x62, 0xd8, 0xbe, 0x58, 0xf2, 0x96, 0x3e,
  0xc7, 0x89, 0x85, 0xbe, 0xf8, 0x16, 0xc4, 0x3e, 0x9f, 0xe8, 0x28, 0xbe,
  0x83, 0x11, 0x2c, 0x3e, 0xe8, 0xf3, 0x5a, 0xbe, 0x32, 0x08, 0xfe, 0x3c,
  0xe5, 0x16, 0x1f, 0xbe, 0xa7, 0xa4, 0x53, 0x3e, 0xde, 0xe9, 0x68, 0xbb,
  0x98, 0x77, 0x85, 0xbd, 0xc0, 0xdf, 0xec, 0x3a, 0xee, 0x8d, 0xf5, 0xbc,
  0x0f, 0xbf, 0x98, 0xbd, 0x5b, 0x2c, 0x03, 0xba, 0xc1, 0x48, 0x91, 0xbd,
  0x40, 0xc2, 0x96, 0xbd, 0xd4, 0x2d, 0xe8, 0x3d, 0x56, 0x08, 0xb0, 0xbd,
  0x84, 0x06, 0x7f, 0xbd, 0xc6, 0x65, 0xab, 0x3c, 0xf6, 0x13, 0xbd, 0x3d,
  0x6f, 0xfe, 0x96, 0xbc, 0x97, 0xe0, 0x82, 0xbc, 0xbc, 0x8e, 0x83, 0x3c,
  0x84, 0xcd, 0x3b, 0x3c, 0xe2, 0x63, 0x09, 0xbb, 0xd7, 0xe1, 0x5b, 0x3d,
  0x8c, 0x2c, 0x97, 0x3d, 0x62, 0xeb, 0x20, 0x3e, 0x19, 0x09, 0x63, 0x3e,
  0xae, 0xf6, 0x97, 0x3c, 0x6f, 0xec, 0x74, 0x3d, 0xca, 0x34, 0x3a, 0x3d,
  0xc4, 0xb2, 0xb2, 0x3e, 0xaf, 0xf5, 0x65, 0x3d, 0x16, 0x37, 0x9e, 0x3e,
  0xe5, 0x07, 0x68, 0x3d, 0x7f, 0xd6, 0x29, 0x3e, 0xf4, 0xaa, 0x81, 0x3d,
  0xa9, 0x28, 0xc3, 0x3e, 0xc1, 0x2a, 0x78, 0xbd, 0x7e, 0xf7, 0x8b, 0x3e,
  0xc4, 0xa0, 0x88, 0xbd, 0x86, 0x62, 0x92, 0x3e, 0x21, 0x17, 0x6a, 0xbe,
  0xcd, 0x74, 0xbb, 0x3e, 0xa4, 0x53, 0xba, 0xbd, 0xe0, 0x70, 0xeb, 0x3e,
  0xd1, 0xf9, 0x58, 0xbe, 0x5f, 0x3a, 0xac, 0x3e, 0xbb, 0xcb, 0x4a, 0xbe,
  0xe8, 0x1b, 0xc8, 0x3e, 0x43, 0xb0, 0x6c, 0xbe, 0x5f, 0xde, 0x0b, 0x3e,
  0xb6, 0xcc, 0xa3, 0xbe, 0xd0, 0xd6, 0xca, 0x3e, 0x5c, 0x75, 0x69, 0xbe,
  0xae, 0x95, 0xb1, 0x3d, 0x7b, 0x70, 0x7c, 0xbe, 0xff, 0x85, 0x4b, 0x3e,
  0x24, 0xbe, 0x04, 0xbe, 0x21, 0xf0, 0x7b, 0xbe, 0x23, 0x78, 0x0a, 0x3d,
  0x51, 0x9b, 0x60, 0xbe, 0x03, 0xfe, 0x8d, 0x3e, 0xb6, 0x26, 0xca, 0xbe,
  0x97, 0x56, 0x5f, 0x3e, 0x14, 0x5d, 0x03, 0xbf, 0x5d, 0x23, 0x3c, 0x3d,
  0x43, 0xb7, 0xfa, 0xbe, 0xd9, 0xad, 0x42, 0x3e, 0x45, 0xbc, 0x41, 0xbf,
  0x83, 0x11, 0xec, 0xbc, 0x81, 0xa9, 0xd3, 0xbe, 0xbf, 0x6a, 0x3c, 0x3e,
  0x93, 0x88, 0x35, 0xbf, 0x65, 0xde, 0x16, 0x3e, 0x2f, 0xb5, 0xd3, 0xbe,
  0x80, 0x30, 0x65, 0x3e, 0x69, 0xe7, 0x20, 0xbf, 0xbb, 0xca, 0xf9, 0x3d,
  0x60, 0x0f, 0xc6, 0xbe, 0x15, 0xc2, 0x8b, 0x3e, 0x97, 0x0a, 0x47, 0xbe,
  0x9e, 0x94, 0xeb, 0xbc, 0x8c, 0x8e, 0xb4, 0xbd, 0x2f, 0x7a, 0x0a, 0x3d,
  0x05, 0x80, 0x17, 0xbe, 0x58, 0x8b, 0x0b, 0x3e, 0xb5, 0x76, 0x6e, 0x3e,
  0x94, 0xe1, 0x54, 0xbd, 0x56, 0xe2, 0x31, 0x3e, 0x20, 0xf8, 0x3c, 0xbe,
  0x7f, 0x70, 0xb2, 0x3e, 0x9c, 0x1a, 0x16, 0x3d, 0x46, 0x7b, 0x1b, 0x3e,
  0xb8, 0x63, 0x29, 0xbe, 0x8a, 0xd6, 0x57, 0x3e, 0x5a, 0x24, 0x2e, 0x3d,
  0xb0, 0xea, 0x34, 0x3e, 0x9f, 0x3f, 0x05, 0xbe, 0xe9, 0xc7, 0xf0, 0x3d,
  0xf7, 0x4c, 0xa0, 0x3d, 0xcb, 0xdc, 0x2c, 0x3e, 0x45, 0x14, 0x41, 0xbd,
  0x71, 0x81, 0xca, 0x3d, 0xa0, 0x28, 0xf7, 0x3c, 0xeb, 0x90, 0x95, 0x3e,
  0x1c, 0x10, 0x2c, 0x3e, 0x61, 0xb1, 0x3f, 0x3d, 0xa7, 0x5b, 0x24, 0xbe,
  0xc9, 0xba, 0x61, 0x3e, 0x82, 0x96, 0x96, 0x3d, 0x58, 0xb4, 0x5b, 0x3d,
  0x34, 0x1d, 0x2c, 0xbd, 0xac, 0xfe, 0x98, 0x3d, 0x04, 0x8c, 0xa0, 0xbd,
  0x1c, 0x0a, 0x77, 0x3e, 0x14, 0x27, 0x0b, 0x3d, 0x5f, 0xf7, 0x4f, 0x3e,
  0xe3, 0xdc, 0xbf, 0xbd, 0x78, 0x95, 0x48, 0x3e, 0x91, 0xf1, 0xe0, 0x3d,
  0x83, 0xf3, 0xe9, 0x3d, 0x9c, 0x5f, 0x10, 0xbe, 0xb7, 0xb0, 0x25, 0x3e,
  0x57, 0xe6, 0x7e, 0x3d, 0xe5, 0xc6, 0x32, 0x3e, 0x72, 0x21, 0xb0, 0xbc,
  0x7d, 0x0e, 0x12, 0x3e, 0xd4, 0x4b, 0xba, 0xbd, 0x70, 0xfe, 0x92, 0x3e,
  0x17, 0xbf, 0x82, 0xbd, 0x3d, 0x50, 0x7e, 0x3e, 0x1f, 0x86, 0xa2, 0x3d,
  0x1d, 0x5c, 0x6f, 0x3e, 0x66, 0x65, 0x08, 0xbd, 0x0e, 0x8f, 0x02, 0x3c,
  0xf2, 0xb7, 0x0e, 0xbe, 0x57, 0x9b, 0x9c, 0xbd, 0xa3, 0x86, 0x5f, 0x3e,
  0xa6, 0x6b, 0xb9, 0x3d, 0xa8, 0xd4, 0x45, 0x3e, 0xfa, 0xe4, 0x16, 0x3e,
  0xf9, 0xe9, 0xc4, 0x3e, 0x1f, 0xe2, 0x24, 0x3c, 0x3b, 0xa5, 0x0e, 0x3f,
  0xac, 0x7f, 0x18, 0x3e, 0x87, 0x78, 0xfb, 0x3e, 0x2c, 0xde, 0xaa, 0x3c,
  0x98, 0x87, 0x1b, 0x3f, 0xc2, 0x4a, 0xc8, 0xbc, 0xa9, 0xba, 0x06, 0x3f,
  0x71, 0x7a, 0xb5, 0x3d, 0x4b, 0xbf, 0x14, 0x3f, 0x26, 0x73, 0xd1, 0x3d,
  0x04, 0x3e, 0x3b, 0x3f, 0x17, 0xa8, 0x4a, 0xbc, 0xaa, 0xd3, 0xf7, 0x3e,
  0x87, 0xf2, 0x30, 0x3e, 0x43, 0xf2, 0x30, 0x3f, 0xd1, 0x59, 0x81, 0xbc,
  0x02, 0xae, 0x0a, 0x3f, 0x6b, 0x3a, 0xb3, 0xbd, 0xcb, 0x5d, 0x05, 0x3f,
  0x95, 0x7e, 0x73, 0x3d, 0x45, 0x32, 0x2e, 0x3f, 0xe0, 0x8d, 0x4e, 0x3e,
  0x9a, 0x1d, 0x3b, 0x3f, 0x07, 0x63, 0x17, 0xbd, 0x6a, 0xbd, 0x2c, 0x3f,
  0xf4, 0x73, 0x7f, 0xbc, 0x4c, 0xba, 0x2a, 0x3f, 0xe2, 0x64, 0x4e, 0xbd,
  0xfd, 0x3f, 0x08, 0x3f, 0xf3, 0x8b, 0xa4, 0xbd, 0x74, 0x37, 0xe0, 0x3e,
  0xfb, 0xfb, 0x7f, 0xbd, 0x1c, 0x89, 0x8c, 0x3e, 0xd3, 0xb8, 0x20, 0xbd,
  0x4e, 0x66, 0x5d, 0x3e, 0xa9, 0x28, 0x86, 0x3d, 0x23, 0xbf, 0x59, 0xbb,
  0xf0, 0xf8, 0xc6, 0xbd, 0x1f, 0xc9, 0x25, 0x3e, 0x62, 0x56, 0x18, 0x3e,
  0x3d, 0x50, 0x49, 0x3e, 0x8a, 0x4c, 0xfb, 0x3d, 0xde, 0xff, 0x2e, 0x3e,
  0x93, 0x39, 0x19, 0xbe, 0x76, 0x35, 0xfc, 0x3d, 0xb7, 0x74, 0x4f, 0xbe,
  0x95, 0x6e, 0x78, 0xbd, 0x25, 0x9b, 0x22, 0xbd, 0x52, 0x0e, 0xb6, 0x3d,
  0x90, 0x22, 0xed, 0xbd, 0xdc, 0x42, 0x6a, 0xba, 0x04, 0xf6, 0x8c, 0xbd,
  0x4e, 0x9d, 0x07, 0xbe, 0x42, 0x39, 0x8a, 0x3d, 0x10, 0x27, 0x86, 0xbd,
  0xd0, 0x4f, 0x09, 0x3e, 0xbc, 0xd7, 0x02, 0x3d, 0x4d, 0x3e, 0x29, 0x3d,
  0xda, 0xa6, 0xca, 0x3d, 0x37, 0x61, 0xb3, 0xbc, 0x06, 0x00, 0x80, 0xbc,
  0xe5, 0xd0, 0xb2, 0x3d, 0xa1, 0x7e, 0x32, 0x3d, 0x8d, 0x64, 0x25, 0xbe,
  0x24, 0xf8, 0x57, 0xbe, 0x16, 0x7e, 0x5e, 0x3b, 0x42, 0xac, 0x0a, 0xbe,
  0xab, 0x77, 0x2c, 0x3d, 0x3e, 0x44, 0x71, 0x3c, 0xf6, 0x65, 0x3c, 0xbe,
  0x4f, 0x61, 0x22, 0xbe, 0x81, 0x06, 0x20, 0xbe, 0xda, 0x3c, 0x87, 0xbe,
  0x57, 0xbc, 0x31, 0x3c, 0x07, 0x8c, 0xd6, 0xbd, 0x83, 0x1c, 0xe5, 0x3d,
  0xdf, 0xbb, 0xb8, 0xbd, 0x86, 0x67, 0x1d, 0x3d, 0x7a, 0x4a, 0x89, 0x3d,
  0x91, 0xd4, 0x91, 0xbd, 0xc4, 0x99, 0x19, 0xbe, 0x6c, 0x63, 0x0d, 0xbe,
  0x0f, 0x32, 0xcf, 0xbd, 0x4d, 0xae, 0x34, 0xbd, 0x02, 0x29, 0x19, 0xbe,
  0x06, 0x85, 0xe3, 0x3d, 0xf7, 0x99, 0x0a, 0xbe, 0xb9, 0x49, 0xaf, 0xbd,
  0x1d, 0x0f, 0x8f, 0xbd, 0x36, 0x16, 0xce, 0xbd, 0x4e, 0x48, 0x19, 0xbe,
  0xa8, 0xb6, 0xd7, 0xbd, 0x0a, 0x7f, 0x6d, 0xbd, 0xb2, 0x61, 0x47, 0xbb,
  0x08, 0xad, 0x38, 0xbe, 0x4b, 0x78, 0xbf, 0xbd, 0xb2, 0xb8, 0x53, 0xbe,
  0xff, 0x99, 0xc0, 0xbd, 0x52, 0x27, 0x97, 0xbe, 0xad, 0x21, 0xfe, 0xbd,
  0x5b, 0x89, 0xae, 0xbd, 0x15, 0x62, 0xb5, 0xbc, 0xb9, 0x23, 0x94, 0xbe,
  0x17, 0x86, 0xd6, 0xbc, 0x30, 0x0b, 0x0a, 0xbe, 0x39, 0x62, 0xe7, 0xbd,
  0xe2, 0xcb, 0xea, 0xbd, 0x5f, 0xa8, 0xda, 0x3d, 0x79, 0x20, 0x0a, 0xbe,
  0xbf, 0xf9, 0x48, 0xbd, 0x31, 0xce, 0x41, 0xbe, 0x24, 0xed, 0x90, 0x3c,
  0xf8, 0xa4, 0xe1, 0xbd, 0x28, 0x72, 0xe7, 0xbd, 0x7e, 0xd5, 0x95, 0x3b,
  0x28, 0x66, 0x5c, 0xbe, 0xf0, 0x3a, 0x39, 0xbe, 0x4f, 0xa1, 0xf8, 0xbd,
  0x6d, 0x43, 0xfc, 0xbc, 0x5c, 0x93, 0xbe, 0xbd, 0xa3, 0x6e, 0x8f, 0xbd,
  0x6f, 0xf9, 0x52, 0x3b, 0x74, 0x8e, 0x27, 0xbe, 0x8c, 0x95, 0x3a, 0xbe,
  0xd9, 0xea, 0xb2, 0xbd, 0xd5, 0xe4, 0x9f, 0xbc, 0x68, 0x53, 0x1d, 0xbd,
  0x01, 0x15, 0x4f, 0x3c, 0x89, 0x7a, 0xe1, 0x3d, 0x12, 0xc3, 0xee, 0x3d,
  0x02, 0xa9, 0x2e, 0xbe, 0x68, 0x61, 0x27, 0xbc, 0xb5, 0x35, 0x3c, 0x3c,
  0x4a, 0x0c, 0xaf, 0x3d, 0xdf, 0x5f, 0xfb, 0x3d, 0xf8, 0x38, 0xa1, 0xbe,
  0xec, 0xd1, 0xcf, 0x3d, 0xcb, 0xc3, 0x98, 0xbe, 0xa0, 0x59, 0x66, 0xbe,
  0x31, 0x2e, 0x47, 0xbd, 0xe7, 0x44, 0x79, 0xbd, 0x42, 0x2a, 0x12, 0x3d,
  0x0d, 0xeb, 0x18, 0x3e, 0x3e, 0xeb, 0x18, 0x3e, 0xc6, 0xe1, 0x47, 0xbd,
  0x83, 0x20, 0x16, 0xbd, 0x49, 0x61, 0xf4, 0x3d, 0xde, 0x85, 0xae, 0xbd,
  0x50, 0x72, 0x55, 0x3d, 0x11, 0xda, 0x6c, 0xbe, 0xa3, 0x2c, 0x42, 0xbe,
  0x90, 0xea, 0xf5, 0x3d, 0xd9, 0x00, 0xc4, 0xbd, 0x07, 0xfc, 0xf3, 0xbd,
  0x80, 0x64, 0x80, 0x3e, 0xc2, 0xf3, 0x10, 0x3e, 0x78, 0x25, 0xf3, 0x3d,
  0x44, 0x2c, 0x14, 0x3b, 0x96, 0xee, 0x41, 0x3e, 0x9a, 0x0c, 0x1b, 0xbe,
  0x98, 0x83, 0x51, 0x3e, 0x7c, 0xb7, 0x3f, 0xbd, 0x41, 0x7a, 0xef, 0x3d,
  0xb6, 0x62, 0xce, 0x3d, 0x42, 0xc8, 0x40, 0x3e, 0x7f, 0x03, 0xb0, 0xbc,
  0x40, 0x6b, 0x2a, 0x3e, 0xc3, 0xa9, 0x5a, 0xbc, 0x31, 0x98, 0xa5, 0x3d,
  0xa5, 0x90, 0xcf, 0xbd, 0x7d, 0x01, 0xa1, 0x3e, 0xe5, 0x87, 0x1f, 0x3e,
  0x42, 0x23, 0x45, 0x3e, 0xce, 0x97, 0x50, 0xbd, 0x5c, 0x2f, 0x64, 0x3e,
  0x17, 0x32, 0x73, 0xbd, 0x4f, 0x6e, 0x84, 0x3e, 0xdf, 0x7c, 0xb3, 0x3c,
  0xc1, 0x15, 0xd6, 0x3e, 0x91, 0x89, 0x98, 0x3d, 0xf4, 0xc6, 0xb9, 0x3e,
  0xf2, 0x64, 0x6b, 0x3d, 0x6b, 0x1b, 0x96, 0x3e, 0x37, 0x4b, 0xc7, 0xbd,
  0x6b, 0xa7, 0xe9, 0x3e, 0x01, 0x1d, 0xde, 0x3b, 0x4d, 0x91, 0x03, 0x3f,
  0x4b, 0x61, 0x88, 0x3c, 0x14, 0x62, 0x9b, 0x3e, 0x18, 0x37, 0x0b, 0x3d,
  0xc1, 0xef, 0xdc, 0x3e, 0x10, 0x2c, 0x9a, 0x3d, 0xf3, 0x87, 0x9b, 0x3e,
  0xc9, 0xcc, 0x04, 0xbe, 0x41, 0x76, 0xf3, 0x3e, 0xfc, 0xbd, 0x0a, 0x3e,
  0x36, 0x85, 0xb3, 0x3e, 0x9f, 0x2d, 0x06, 0x3e, 0x2e, 0xe7, 0xc1, 0x3e,
  0x1f, 0xdf, 0x16, 0xbc, 0xf7, 0xca, 0xde, 0x3e, 0x4a, 0xa3, 0xb3, 0xbd,
  0xc6, 0x99, 0x3e, 0x3e, 0xc1, 0xa4, 0x03, 0xbd, 0x0d, 0xd5, 0x00, 0x3e,
  0x72, 0x54, 0x0f, 0x3e, 0xda, 0x15, 0xb8, 0x3e, 0x37, 0x2a, 0x92, 0xbd,
  0x53, 0x28, 0x99, 0x3e, 0x83, 0x0e, 0xbe, 0x3c, 0xfa, 0x31, 0x5a, 0x3e,
  0x6b, 0xef, 0x42, 0x3d, 0x8d, 0x6c, 0x79, 0x3e, 0x7d, 0xd4, 0x3c, 0xbc,
  0x07, 0x61, 0xa2, 0x3d, 0x50, 0xb7, 0xdd, 0xbc, 0xa5, 0xa5, 0xa8, 0x3d,
  0x60, 0x73, 0x1b, 0x3d, 0x5a, 0x7e, 0xfb, 0x3c, 0x4f, 0x66, 0xe3, 0x3d,
  0x39, 0xcc, 0x5c, 0x3e, 0xc1, 0x31, 0xb1, 0xbd, 0x13, 0xd9, 0x19, 0x3d,
  0x6b, 0xf6, 0x3f, 0x3c, 0x44, 0xbe, 0xbf, 0xbd, 0x01, 0xba, 0x3b, 0x3e,
  0xc4, 0x5d, 0xe0, 0x3c, 0xb1, 0x74, 0x05, 0xbe, 0xa6, 0x36, 0xda, 0x3c,
  0xf9, 0x3c, 0xf0, 0xbb, 0x42, 0xf9, 0xb9, 0x3d, 0xa2, 0x3a, 0xaf, 0x3d,
  0x9c, 0x2c, 0xda, 0xbd, 0x0d, 0xf9, 0xd8, 0x3d, 0x1f, 0x9e, 0xe7, 0xbd,
  0xd9, 0x38, 0x7d, 0xbe, 0xa5, 0xd6, 0x82, 0x3d, 0xba, 0x14, 0x08, 0xbe,
  0x75, 0x79, 0x85, 0x3d, 0x7e, 0x2d, 0xe6, 0x3d, 0x22, 0x93, 0x9c, 0xbd,
  0x56, 0xfc, 0xf7, 0x3d, 0x8a, 0x5b, 0xd2, 0xbd, 0xcb, 0x6c, 0xa4, 0x3d,
  0x40, 0xf6, 0xf4, 0xbd, 0xf2, 0x57, 0x58, 0xbc, 0x3d, 0x8c, 0x15, 0xbd,
  0xf7, 0x19, 0xba, 0xbd, 0x41, 0xdb, 0x80, 0xbc, 0xeb, 0x3b, 0xe3, 0xbd,
  0x3b, 0x94, 0x22, 0xbe, 0x45, 0xd4, 0x7b, 0xbd, 0x6f, 0xcc, 0x13, 0xbe,
  0xc0, 0x33, 0x98, 0xbd, 0x11, 0x84, 0xc5, 0xbc, 0xfc, 0xa6, 0xd7, 0x3d,
  0xc8, 0x75, 0x6b, 0xbe, 0x61, 0xc1, 0xb5, 0xbd, 0x40, 0x03, 0x4a, 0xbe,
  0x75, 0x6c, 0xe9, 0xbd, 0x52, 0x41, 0x55, 0xbe, 0xf0, 0x91, 0x87, 0xbd,
  0xb5, 0x93, 0x00, 0xbe, 0x7a, 0xe0, 0x3b, 0xbd, 0xd4, 0xeb, 0xa7, 0xbe,
  0x45, 0xe7, 0x97, 0x3d, 0xd9, 0x96, 0xb1, 0xbd, 0x3e, 0x69, 0x27, 0xbe,
  0x10, 0x92, 0x2b, 0xbe, 0x59, 0x70, 0xaf, 0x3d, 0xee, 0xb4, 0x02, 0xbe,
  0xc1, 0x6d, 0xf7, 0x3c, 0xa2, 0xca, 0x75, 0xbd, 0xda, 0x00, 0xcf, 0xbd,
  0xe5, 0x1c, 0x7d, 0xbe, 0x4d, 0x9f, 0x0c, 0xbd, 0xbb, 0xed, 0x42, 0xbe,
  0x46, 0xd2, 0x25, 0xbe, 0xb0, 0x51, 0x89, 0xbe, 0xa8, 0x55, 0xda, 0xbc,
  0x37, 0xd4, 0x5a, 0xbe, 0xca, 0x7b, 0xb8, 0x3d, 0xf6, 0x08, 0x10, 0xbe,
  0x10, 0x3c, 0x40, 0xbe, 0xff, 0x06, 0x9e, 0xbc, 0xf4, 0xe1, 0x09, 0xbe,
  0x5b, 0x50, 0x8a, 0xbe, 0x6c, 0xfc, 0x59, 0xbe, 0x75, 0xf1, 0x86, 0xbe,
  0xdb, 0x26, 0xca, 0xbd, 0xd5, 0xc6, 0xa9, 0xbe, 0x07, 0xc9, 0x1c, 0xbe,
  0x49, 0x01, 0x6c, 0xbe, 0x10, 0x0c, 0xc5, 0x3c, 0xa4, 0x11, 0x4a, 0xbe,
  0x31, 0x76, 0xb2, 0xbd, 0x1a, 0xc0, 0x12, 0xbe, 0xa3, 0x02, 0xff, 0x3c,
  0x60, 0x0a, 0xf8, 0xbc, 0x46, 0x4f, 0xe2, 0x3d, 0xea, 0x40, 0x14, 0xbc,
  0xfa, 0x08, 0xdd, 0xbc, 0x44, 0x17, 0x8a, 0xbe, 0xef, 0x86, 0x80, 0xbd,
  0xcc, 0xf2, 0x37, 0xbe, 0x15, 0x99, 0xb7, 0xbd, 0x94, 0x26, 0x92, 0xbe,
  0x4d, 0x02, 0x81, 0xbe, 0xc6, 0x61, 0x36, 0xbe, 0x86, 0xf2, 0x9c, 0x3d,
  0xfb, 0xc1, 0x9b, 0xbe, 0x2a, 0x14, 0xd9, 0xbc, 0xed, 0xb9, 0xfe, 0x3d,
  0x92, 0xf7, 0xb2, 0xbc, 0xc1, 0xa3, 0x3f, 0xbd, 0x8f, 0x26, 0xcd, 0xbd,
  0xd5, 0x8a, 0xc2, 0xbd, 0x8d, 0x51, 0xff, 0xbd, 0xf5, 0xae, 0xd5, 0xbd,
  0x7a, 0x3a, 0x00, 0xbe, 0xef, 0xbb, 0xd2, 0x3d, 0x68, 0xe9, 0x00, 0xbd,
  0x4f, 0x83, 0x8b, 0xbd, 0x80, 0x63, 0x0b, 0xbd, 0xb5, 0x78, 0x8e, 0x3b,
  0xb9, 0xc3, 0xd1, 0x3d, 0x71, 0x65, 0x13, 0x3c, 0xeb, 0xf6, 0x28, 0x3e,
  0xd8, 0x93, 0x32, 0xbe, 0x61, 0x9f, 0x03, 0xbd, 0xe0, 0x3c, 0x0d, 0xbe,
  0xe6, 0x08, 0x3f, 0x3e, 0x99, 0x47, 0xed, 0x3c, 0x3c, 0xe4, 0x29, 0xbe,
  0x5b, 0xb8, 0x15, 0xbd, 0xe4, 0x1c, 0x4b, 0x3e, 0x9a, 0xb9, 0xca, 0x3b,
  0x02, 0xba, 0x47, 0x3d, 0x22, 0xcd, 0xa3, 0xbd, 0xe5, 0xdb, 0x91, 0xbd,
  0xbb, 0x5d, 0x69, 0x3e, 0x19, 0x98, 0xf0, 0x3d, 0x0e, 0x5a, 0x5b, 0x3e,
  0x0b, 0x13, 0x3c, 0x3e, 0x6f, 0x27, 0x37, 0x3d, 0x62, 0x06, 0xe5, 0xbb,
  0x11, 0x57, 0x77, 0x3d, 0x2b, 0xb9, 0xd4, 0x3d, 0x3a, 0x43, 0x5f, 0x3e,
  0xb2, 0x12, 0xf9, 0xbc, 0x15, 0xa2, 0x81, 0x3e, 0xc3, 0x2e, 0xff, 0x3c,
  0x5e, 0x38, 0xb5, 0x3d, 0x9c, 0xb0, 0x43, 0x3d, 0x76, 0x73, 0xab, 0x3e,
  0x91, 0xd4, 0x87, 0x3e, 0x58, 0xb8, 0x36, 0x3e, 0xe8, 0x9e, 0x04, 0xbd,
  0xeb, 0xb7, 0x25, 0x3e, 0xa1, 0x98, 0x5d, 0xbd, 0x4e, 0x04, 0x88, 0x3e,
  0x16, 0x84, 0x90, 0x3c, 0x8c, 0x37, 0xa1, 0x3e, 0x86, 0x12, 0xe8, 0x3d,
  0xbb, 0x01, 0x8d, 0x3e, 0xd0, 0x0c, 0x6d, 0x3c, 0xb8, 0xb9, 0x60, 0x3e,
  0x39, 0xc0, 0x7d, 0x3c, 0x8d, 0x8c, 0xfd, 0x3e, 0x60, 0x6a, 0xb0, 0x3d,
  0xbb, 0xf5, 0x5f, 0x3e, 0x89, 0xa3, 0x4e, 0x3e, 0xfb, 0x20, 0x97, 0x3e,
  0x63, 0x28, 0x8a, 0x3c, 0xe2, 0xcf, 0xb2, 0x3e, 0x4e, 0x1e, 0xcc, 0xbd,
  0x55, 0xe5, 0xae, 0x3e, 0x44, 0x14, 0x1a, 0xbe, 0xaf, 0x96, 0x97, 0x3e,
  0xe4, 0xaf, 0x96, 0x3d, 0x83, 0x2b, 0xc8, 0x3e, 0x93, 0x8b, 0x09, 0x3e,
  0x5f, 0xff, 0xa3, 0x3e, 0x6b, 0x6a, 0x68, 0xbd, 0x03, 0x6d, 0xf3, 0x3b,
  0xb8, 0xfe, 0x08, 0x3e, 0x11, 0xd3, 0x86, 0x3e, 0x6c, 0xc7, 0xae, 0x3e,
  0xf4, 0x4a, 0xd5, 0x3d, 0x11, 0x22, 0x83, 0xbd, 0x31, 0x33, 0xa4, 0x3e,
  0xaa, 0x46, 0xe2, 0xbd, 0xe3, 0x42, 0x62, 0x3e, 0x4d, 0x38, 0xd9, 0xbd,
  0xc6, 0x0f, 0xc7, 0x3c, 0xe5, 0x3e, 0x91, 0xbb, 0x60, 0x65, 0xa4, 0x3d,
  0x3d, 0x8b, 0x6d, 0x3d, 0xc9, 0xc6, 0x9f, 0x3d, 0x03, 0xfd, 0x76, 0xbd,
  0x45, 0xdb, 0x6c, 0x3d, 0x72, 0x44, 0x3a, 0x3e, 0x53, 0x35, 0xc5, 0x3c,
  0xdf, 0x67, 0x88, 0x3d, 0x79, 0x6d, 0xe3, 0xbc, 0x1b, 0xe7, 0xe6, 0xbd,
  0xde, 0x1b, 0xaf, 0x3d, 0x6d, 0xb4, 0xac, 0x3c, 0x30, 0x07, 0xb7, 0xbc,
  0x9b, 0x3c, 0xa2, 0x3d, 0x0e, 0x4d, 0x9a, 0x3c, 0xd0, 0x7d, 0x07, 0xba,
  0xe6, 0xd8, 0xd6, 0x3d, 0x7a, 0xb8, 0xe8, 0x3d, 0x81, 0x8a, 0x05, 0x3d,
  0x72, 0xae, 0x1e, 0x3d, 0xc8, 0x0f, 0xad, 0x3c, 0x7d, 0x20, 0xff, 0xbd,
  0x0b, 0xe3, 0x13, 0xbe, 0x4f, 0xb7, 0x73, 0xbe, 0x0a, 0x61, 0xca, 0xbd,
  0x2a, 0x49, 0xa9, 0x3d, 0xb3, 0x6d, 0xf9, 0x3d, 0x86, 0x94, 0x1d, 0x3d,
  0x20, 0x59, 0x46, 0xbd, 0x8b, 0x55, 0xa9, 0x3d, 0xce, 0xa4, 0xfb, 0xbd,
  0xcd, 0x65, 0xc5, 0xbd, 0x87, 0xd9, 0x80, 0x3d, 0x54, 0xeb, 0x3a, 0xbe,
  0x6b, 0xc4, 0x45, 0x3e, 0x96, 0xea, 0x39, 0xbe, 0x90, 0xda, 0x70, 0xbe,
  0x61, 0xa5, 0xe8, 0xbd, 0xca, 0xdc, 0x04, 0xbe, 0x17, 0x98, 0x2e, 0xbd,
  0x28, 0xf6, 0x00, 0xbe, 0xaf, 0xb1, 0x8b, 0x3c, 0xa6, 0x85, 0xd3, 0x3c,
  0xd4, 0xa9, 0x9e, 0x3d, 0x18, 0x7a, 0x0c, 0xbe, 0x24, 0x9b, 0x60, 0xbc,
  0xea, 0xd4, 0x05, 0xbd, 0x46, 0xc2, 0x53, 0xbe, 0x44, 0x4a, 0xee, 0xbd,
  0xb3, 0x4c, 0x21, 0xbd, 0xbd, 0x5a, 0x7c, 0xbd, 0x30, 0x22, 0x88, 0xbd,
  0xa9, 0xc9, 0x00, 0xbd, 0x26, 0x83, 0x97, 0xbe, 0x42, 0x7f, 0x46, 0xbe,
  0x79, 0xdd, 0x04, 0xbe, 0x3b, 0x6a, 0xdf, 0xbd, 0xbd, 0xb4, 0x02, 0x3c,
  0x45, 0x61, 0x77, 0xbe, 0xec, 0x48, 0x58, 0xbb, 0xa1, 0xba, 0x1e, 0xbe,
  0xb8, 0xaf, 0x17, 0xbe, 0xfe, 0x23, 0x6f, 0xbe, 0xd9, 0x8e, 0x92, 0xbe,
  0x53, 0x15, 0xb7, 0xbe, 0xa8, 0xf7, 0x9f, 0xbe, 0x0f, 0xaf, 0x6a, 0xbe,
  0xce, 0xbe, 0xeb, 0xbd, 0xd8, 0x18, 0x9f, 0xbe, 0x8d, 0x41, 0xe7, 0xbc,
  0xa3, 0x0a, 0xa4, 0xbe, 0x6c, 0x60, 0x64, 0xbd, 0x21, 0xcd, 0xb7, 0xbe,
  0x7b, 0x62, 0xad, 0xbd, 0x81, 0xa6, 0x30, 0xbf, 0xe3, 0xb1, 0xe9, 0x3e,
  0x84, 0x26, 0x65, 0x3e, 0x74, 0x51, 0x06, 0xbe, 0x1c, 0xb6, 0x5c, 0x3e,
  0x98, 0x56, 0xde, 0xbe, 0x28, 0x42, 0x5c, 0x3e, 0x10, 0x10, 0xf6, 0xbe,
  0xdd, 0xf9, 0x4f, 0x3e, 0x54, 0xcc, 0xd3, 0xbe, 0x20, 0xa0, 0x82, 0xbc,
  0x78, 0x62, 0xd6, 0xbe, 0xb8, 0xcf, 0xa2, 0x3c, 0x9a, 0x40, 0x8c, 0xbe,
  0x14, 0xe5, 0x25, 0xbe, 0x7a, 0x92, 0x44, 0x3c, 0xb8, 0xa8, 0xc0, 0xbe,
  0xb0, 0x72, 0x47, 0xbe, 0xe4, 0x64, 0xe7, 0xbe, 0x32, 0xc7, 0x01, 0x3e,
  0xfe, 0xde, 0x34, 0xbe, 0x33, 0xee, 0xec, 0xbd, 0x5c, 0x53, 0x8f, 0xbe,
  0xd5, 0xc7, 0xe6, 0x3d, 0x74, 0xf5, 0x17, 0xbe, 0x1d, 0xf8, 0x0b, 0xbd,
  0xfc, 0xf5, 0x08, 0xbe, 0x83, 0x37, 0x6f, 0x3e, 0x44, 0x12, 0x2c, 0xbe,
  0x52, 0x6d, 0x3c, 0x3e, 0xed, 0xb5, 0xd8, 0xbd, 0x8f, 0xd5, 0xd8, 0x3e,
  0xb7, 0xe1, 0x0f, 0xbe, 0x9d, 0x69, 0x89, 0x3e, 0xbc, 0x70, 0xb7, 0xbd,
  0xb6, 0xed, 0x1e, 0x3e, 0x95, 0x67, 0x9d, 0xbd, 0x43, 0x83, 0x96, 0x3e,
  0xd1, 0x0f, 0x36, 0xbe, 0x59, 0x6f, 0x30, 0x3e, 0x69, 0xfb, 0x6c, 0xbd,
  0x75, 0xb8, 0x82, 0x3e, 0x9b, 0x0d, 0xbf, 0x3c, 0xb0, 0xa2, 0xc0, 0x3e,
  0xf8, 0xbf, 0x8b, 0xbd, 0xcd, 0x32, 0xbe, 0x3e, 0x7e, 0x11, 0x29, 0xbc,
  0x47, 0x1a, 0xb6, 0x3e, 0x2a, 0xee, 0x9b, 0xbc, 0x84, 0xde, 0xae, 0x3e,
  0xed, 0x42, 0x0b, 0xbe, 0xaa, 0xa6, 0x1b, 0x3e, 0x37, 0x57, 0x99, 0x3d,
  0xd3, 0x66, 0x45, 0x3e, 0x5b, 0x6e, 0xc4, 0xbc, 0xb6, 0x19, 0x4d, 0x3c,
  0x73, 0x44, 0xc8, 0xbd, 0xd7, 0x48, 0xf4, 0x3d, 0x69, 0xab, 0xaf, 0xbd,
  0x9f, 0xb4, 0x55, 0x3e, 0x76, 0x13, 0xe2, 0x3a, 0xde, 0xd8, 0xfc, 0x3d,
  0x3b, 0xd4, 0xb1, 0xbc, 0x8c, 0xff, 0x4f, 0x3c, 0x4d, 0x6c, 0x01, 0xbe,
  0x76, 0x33, 0x95, 0x3d, 0xa7, 0xb0, 0x2b, 0x3c, 0xc9, 0xba, 0x2f, 0xbd,
  0x42, 0xef, 0x85, 0x3d, 0x6f, 0x81, 0x43, 0x3c, 0x97, 0x7a, 0x8a, 0xbd,
  0xb3, 0x37, 0x6a, 0xbd, 0x8b, 0x1d, 0x6e, 0x3d, 0x34, 0xa7, 0x53, 0xbe,
  0x21, 0x10, 0xc2, 0x3d, 0xaa, 0xbb, 0x97, 0xbe, 0xcf, 0x4b, 0x0f, 0x3e,
  0x9a, 0x16, 0x7b, 0xbe, 0x48, 0x5c, 0xb6, 0x3d, 0x18, 0x2c, 0xa1, 0xbe,
  0xd2, 0xc1, 0x61, 0x3e, 0xf4, 0xea, 0x28, 0xbe, 0x25, 0x8c, 0x15, 0xbe,
  0x00, 0xcd, 0x82, 0xbd, 0x6e, 0x69, 0x44, 0xbd, 0x1a, 0x10, 0xa2, 0x3d,
  0x51, 0x46, 0x2c, 0xbe, 0x43, 0x06, 0x08, 0x3d, 0x0c, 0x82, 0xa9, 0xbe,
  0x7f, 0x00, 0x1d, 0x3d, 0xb2, 0xa8, 0x85, 0xbd, 0x8d, 0xac, 0x92, 0x3d,
  0x8a, 0x6e, 0x2d, 0xbe, 0x7d, 0xee, 0x15, 0x3d, 0xf0, 0x26, 0x39, 0xbe,
  0xf7, 0x7f, 0x2a, 0xbd, 0x71, 0x3e, 0x60, 0x3c, 0x50, 0x7c, 0xc7, 0x3d,
  0xa6, 0x0e, 0x15, 0x3d, 0x46, 0x26, 0xea, 0xbc, 0x8c, 0x6e, 0x62, 0xbe,
  0xf7, 0x8a, 0x19, 0xbe, 0xbf, 0xbd, 0x34, 0xbe, 0x75, 0xba, 0xe7, 0xbd,
  0x5e, 0x83, 0x8b, 0x3d, 0xdd, 0x53, 0xe7, 0xbd, 0x28, 0xb4, 0x10, 0xbd,
  0x58, 0x14, 0xfe, 0xbd, 0xe4, 0x56, 0x27, 0x3e, 0x5a, 0x0f, 0x53, 0xbe,
  0xa8, 0x02, 0xc0, 0x3d, 0xee, 0x1c, 0x0b, 0xbe, 0x53, 0xb4, 0x68, 0x3d,
  0x01, 0x19, 0x6b, 0xbe, 0xeb, 0xc7, 0xc7, 0xbc, 0x0f, 0x2a, 0x13, 0xbe,
  0x2a, 0xba, 0x3f, 0x3e, 0xa0, 0x30, 0xfd, 0xbd, 0xc7, 0x7a, 0x01, 0x3e,
  0x1f, 0x7e, 0xd6, 0xbc, 0x6b, 0x09, 0x88, 0x3e, 0x73, 0x96, 0x9c, 0xbd,
  0x7c, 0x1b, 0x64, 0x3e, 0xdd, 0x40, 0xc1, 0xbd, 0x4a, 0x32, 0x57, 0x3e,
  0x0f, 0xd6, 0x6e, 0x3d, 0xe6, 0x47, 0x2c, 0x3e, 0x5f, 0x72, 0xe9, 0x3d,
  0xe1, 0xc8, 0xf4, 0xbd, 0x7e, 0x51, 0x27, 0x3e, 0x10, 0xf6, 0x27, 0x3c,
  0x7f, 0xcf, 0xaf, 0x3e, 0x80, 0x4a, 0x4a, 0x3e, 0x8d, 0x1c, 0x4f, 0x3e,
  0x82, 0xff, 0x97, 0x3e, 0xb1, 0x39, 0xf1, 0x3e, 0x17, 0xf4, 0x47, 0x3e,
  0xb1, 0x4c, 0xa5, 0x3e, 0x52, 0xb3, 0xb0, 0x3d, 0xf0, 0xd8, 0x9b, 0x3e,
  0xb8, 0x6e, 0xf1, 0x3c, 0x78, 0x41, 0xc5, 0x3e, 0x5f, 0xb9, 0x5a, 0xbe,
  0x6f, 0x88, 0xa6, 0x3e, 0xe8, 0xf4, 0x7a, 0xbe, 0x3a, 0xf2, 0xe7, 0x3e,
  0x29, 0x62, 0xfa, 0xbd, 0xfe, 0x1d, 0x87, 0x3e, 0x01, 0x4c, 0x93, 0xbd,
  0x28, 0x83, 0x95, 0x3e, 0x5e, 0x13, 0x71, 0xbe, 0xed, 0xf5, 0x83, 0x3e,
  0x1f, 0x0c, 0x7e, 0xbe, 0x14, 0x7d, 0x73, 0x3e, 0x65, 0x1e, 0x2c, 0xbe,
  0x5a, 0xe3, 0x08, 0x3e, 0x66, 0xfb, 0xe8, 0xbd, 0x7f, 0xce, 0x02, 0x3e,
  0x09, 0x8a, 0x72, 0xbe, 0x64, 0x2e, 0x27, 0x3e, 0x39, 0x43, 0xc2, 0xbe,
  0x18, 0xba, 0xa2, 0xbe, 0x32, 0x04, 0x8a, 0xbe, 0x9d, 0x4d, 0xbf, 0xbe,
  0xf6, 0x70, 0x4d, 0xbe, 0x9f, 0x07, 0x34, 0xbf, 0x85, 0xc2, 0x0d, 0x3e,
  0xa9, 0x38, 0xec, 0xbe, 0x8b, 0xf6, 0x54, 0xbe, 0x7e, 0x47, 0x44, 0xbf,
  0x5c, 0xd8, 0x0c, 0x3d, 0xf1, 0x2f, 0xda, 0xbe, 0xae, 0x5e, 0x9c, 0xbd,
  0x5f, 0x15, 0x73, 0xbe, 0x1d, 0x8c, 0xe6, 0xbd, 0x83, 0xd4, 0x5f, 0xbe,
  0xb4, 0x5a, 0x70, 0xbd, 0x41, 0x6c, 0xd5, 0xbe, 0x18, 0x16, 0xb3, 0xbd,
  0x89, 0x14, 0x05, 0xbd, 0x14, 0xe8, 0xc4, 0xbd, 0xcc, 0x86, 0xf2, 0xbb,
  0xf5, 0x41, 0x92, 0xbe, 0xef, 0x9e, 0x23, 0x3e, 0xdf, 0xbf, 0xc2, 0xbd,
  0x59, 0x4d, 0x21, 0x3e, 0xa1, 0xc5, 0x33, 0xbe, 0xcc, 0x1d, 0x68, 0x3d,
  0xef, 0xfb, 0x5a, 0xbe, 0x75, 0x6c, 0x70, 0x3d, 0x8c, 0xfd, 0x13, 0xbe,
  0x5b, 0xdd, 0xa7, 0x3d, 0x3c, 0xbd, 0xb1, 0x3d, 0x1f, 0x18, 0xae, 0xbb,
  0x7d, 0xfa, 0x03, 0xbe, 0x01, 0x32, 0xd1, 0xbd, 0x62, 0x21, 0x82, 0xbc,
  0x49, 0xbc, 0xd8, 0x3c, 0xe1, 0xf6, 0xd4, 0xbd, 0xa3, 0x7d, 0xb5, 0x3d,
  0x4c, 0xd9, 0xa3, 0x3c, 0xf0, 0x21, 0xe8, 0xbd, 0x8a, 0x13, 0x4e, 0xbc,
  0x71, 0x4e, 0x51, 0xbc, 0x48, 0x9f, 0xdf, 0xbb, 0x67, 0xd9, 0xd6, 0xbd,
  0xd1, 0xf6, 0xff, 0x3d, 0x9c, 0x85, 0x03, 0xbe, 0xcf, 0x20, 0x18, 0x3c,
  0xb7, 0xba, 0xac, 0xbd, 0xdb, 0x44, 0xd9, 0x3d, 0xe9, 0xaf, 0xf9, 0xbd,
  0x7a, 0x4c, 0xd5, 0x3d, 0x7f, 0x32, 0xe3, 0xbd, 0x56, 0x76, 0xf0, 0x3d,
  0x06, 0x72, 0x57, 0xbe, 0x8b, 0x0d, 0xb5, 0xbd, 0x44, 0xa5, 0x01, 0xbe,
  0xab, 0xe8, 0x58, 0x3d, 0x48, 0xb6, 0xaf, 0xbc, 0x52, 0x73, 0x9c, 0xbd,
  0x6f, 0x96, 0x98, 0x3c, 0x3d, 0x63, 0xc6, 0xbc, 0xbb, 0xcc, 0xdd, 0xbc,
  0x5f, 0x97, 0x19, 0xbe, 0xf8, 0x17, 0x9c, 0x3d, 0xa2, 0x2b, 0x91, 0xbc,
  0x13, 0x5d, 0xf9, 0x3c, 0x07, 0x43, 0x5b, 0xbe, 0x4a, 0x70, 0x04, 0xbd,
  0x2f, 0xf3, 0x07, 0x3c, 0xcb, 0xea, 0xc5, 0xbd, 0x09, 0x34, 0x5b, 0xbd,
  0xf9, 0xa3, 0xcd, 0xbd, 0x30, 0x6b, 0x82, 0xbd, 0x52, 0x48, 0x60, 0xbe,
  0xd7, 0x95, 0x19, 0xbd, 0xb6, 0x79, 0xe4, 0xbe, 0x53, 0x51, 0xe7, 0x3d,
  0x03, 0xc0, 0x6e, 0xbe, 0xf6, 0xec, 0x05, 0xbe, 0x24, 0x45, 0x0f, 0xbf,
  0xda, 0xf7, 0x14, 0x3e, 0xdb, 0xde, 0xc2, 0xbe, 0x17, 0xa6, 0x4a, 0x3d,
  0x13, 0x4b, 0x05, 0xbf, 0x6f, 0x93, 0xd6, 0x3d, 0x9a, 0xc7, 0x06, 0xbf,
  0x6b, 0x10, 0xad, 0x3d, 0xfc, 0xcd, 0xf6, 0xbe, 0x4f, 0xe7, 0x2b, 0x3e,
  0x75, 0xa4, 0xaf, 0xbe, 0xdb, 0xa5, 0x05, 0x3e, 0x28, 0x6d, 0xb7, 0xbe,
  0xa4, 0x7c, 0x5e, 0x3e, 0x55, 0xaf, 0x2f, 0xbe, 0x45, 0x17, 0x23, 0x3e,
  0x33, 0xbc, 0x95, 0xbd, 0x05, 0xfb, 0x37, 0x3e, 0xe2, 0x0f, 0x08, 0xbd,
  0xa8, 0xef, 0xcd, 0x3d, 0xe0, 0x63, 0x0c, 0x3e, 0x06, 0xda, 0x1d, 0x3d,
  0xbf, 0xe2, 0xfc, 0x3d, 0x04, 0x56, 0x58, 0xbd, 0x94, 0x6d, 0x64, 0x3e,
  0xb6, 0xfc, 0x57, 0x3d, 0xd2, 0x58, 0x08, 0x3e, 0x09, 0xf1, 0xd4, 0xbd,
  0x93, 0x00, 0xa5, 0x3e, 0x15, 0x8e, 0x76, 0xbe, 0x0c, 0x47, 0xd8, 0x3d,
  0xa6, 0x91, 0x71, 0xbd, 0x58, 0x8e, 0x92, 0x3e, 0x37, 0x89, 0x10, 0xbe,
  0x45, 0x53, 0x96, 0x3e, 0x78, 0x7a, 0xe6, 0xbd, 0xdb, 0xa0, 0x90, 0x3e,
  0xd0, 0x1b, 0x8d, 0xbd, 0x0a, 0x15, 0x2b, 0x3e, 0xcf, 0x37, 0xb9, 0xbd,
  0xfc, 0xde, 0x04, 0x3e, 0x0a, 0x21, 0x08, 0xbd, 0xa5, 0x87, 0xdf, 0x3d,
  0x7b, 0x25, 0x00, 0xbd, 0x5d, 0xaf, 0xb4, 0xbd, 0x4b, 0x64, 0xd2, 0xba,
  0x96, 0xa8, 0x48, 0x3e, 0x95, 0xa5, 0xb1, 0x3c, 0x15, 0xe4, 0x03, 0xbd,
  0x1e, 0xdb, 0xa5, 0x3c, 0x1a, 0x1a, 0xa2, 0xbc, 0x3e, 0x50, 0xea, 0xbd,
  0x10, 0x99, 0x0b, 0xbe, 0xcf, 0xca, 0x84, 0xbd, 0x88, 0xd5, 0x25, 0xbe,
  0x7d, 0xd9, 0xab, 0x3b, 0xdd, 0x4e, 0x96, 0xbe, 0x7a, 0x27, 0x90, 0x3d,
  0x64, 0x4c, 0x02, 0xbe, 0xbf, 0xa9, 0x10, 0xbe, 0x02, 0xad, 0xd2, 0xbe,
  0xe7, 0x65, 0x86, 0x3d, 0xfa, 0xec, 0xba, 0xbe, 0x9d, 0x44, 0x06, 0xbe,
  0x6d, 0x5e, 0x02, 0xbf, 0xbd, 0x92, 0xa3, 0xbd, 0x3f, 0xd3, 0x09, 0xbf,
  0x3b, 0x1e, 0xd7, 0x3c, 0x30, 0xca, 0x8e, 0xbe, 0xaa, 0x07, 0x4c, 0x3d,
  0xdd, 0x2a, 0xd9, 0xbe, 0x98, 0x9b, 0x1a, 0x3e, 0xd6, 0x15, 0xba, 0xbe,
  0xc9, 0xda, 0x82, 0x3e, 0x1c, 0x76, 0xd5, 0xbe, 0x11, 0x44, 0x94, 0x3e,
  0xe6, 0x99, 0xfd, 0xbe, 0x7e, 0x31, 0xb2, 0x3e, 0x0a, 0x1b, 0xcb, 0xbe,
  0x9b, 0x86, 0xc1, 0x3e, 0x5a, 0x00, 0x28, 0xba, 0x7d, 0x08, 0xdb, 0xbe,
  0x3f, 0x29, 0x9b, 0xbe, 0x5d, 0x9a, 0xed, 0xbe, 0xf9, 0x80, 0xe2, 0x3c,
  0x2b, 0x4b, 0x5e, 0xbe, 0x24, 0x82, 0x65, 0x3e, 0xec, 0xcb, 0xf5, 0xbe,
  0x4a, 0x36, 0x9a, 0x3e, 0x1b, 0xe9, 0x9c, 0xbe, 0xea, 0xff, 0x9c, 0x3e,
  0x8c, 0x9e, 0x7a, 0xbe, 0xc4, 0x7e, 0x05, 0x3f, 0xe1, 0x9e, 0x60, 0xbe,
  0xd8, 0xd7, 0xb8, 0x3e, 0xbd, 0xe0, 0xd0, 0xbd, 0x53, 0xff, 0xd3, 0x3e,
  0xcc, 0xf7, 0x17, 0xbd, 0xd9, 0xfe, 0x06, 0x3f, 0x14, 0x5f, 0xc0, 0xbd,
  0x41, 0xe9, 0x02, 0x3f, 0xe8, 0xc3, 0xb5, 0xbd, 0xe8, 0x0b, 0xb6, 0x3e,
  0xd0, 0xd2, 0x71, 0x3d, 0x69, 0x3f, 0xad, 0x3d, 0xf3, 0x6a, 0xf0, 0xbc,
  0x00, 0x38, 0x10, 0x3e, 0xbc, 0xcf, 0x19, 0xbe, 0x39, 0x7c, 0x37, 0xbe,
  0x7a, 0xeb, 0xdd, 0xbc, 0x26, 0x1f, 0x90, 0x3d, 0x7c, 0x79, 0xa5, 0xbc,
  0xa5, 0x9a, 0xa8, 0xbe, 0xd6, 0xab, 0x44, 0x3b, 0x32, 0x27, 0xb6, 0xbe,
  0x42, 0x53, 0x90, 0xbd, 0xff, 0x59, 0x89, 0xbe, 0xda, 0x9e, 0x08, 0x3e,
  0x10, 0x5a, 0x95, 0xbe, 0x85, 0x0f, 0x0a, 0xbe, 0x02, 0x0c, 0xd4, 0xbe,
  0x74, 0x8b, 0x6f, 0xbd, 0x34, 0x87, 0xd7, 0xbe, 0x12, 0x55, 0x71, 0x3d,
  0x52, 0xe4, 0xe0, 0xbe, 0x71, 0x3b, 0x0e, 0xbc, 0xc9, 0x76, 0xbb, 0xbe,
  0xa7, 0x07, 0x6f, 0x3c, 0x16, 0xf5, 0xb0, 0xbe, 0xc1, 0xcc, 0xe4, 0xbd,
  0x04, 0x1e, 0xbc, 0xbe, 0x63, 0xdf, 0x54, 0x3d, 0xfd, 0xec, 0x8d, 0xbe,
  0x1d, 0x26, 0xe7, 0x3c, 0xe5, 0x61, 0xd3, 0xbe, 0xb9, 0x33, 0x01, 0xbe,
  0xd4, 0x17, 0x29, 0xbd, 0xf9, 0x1c, 0x0e, 0x3e, 0xb5, 0xc9, 0xd8, 0xbd,
  0x83, 0xbb, 0xd1, 0x3c, 0xa4, 0x5f, 0x83, 0xbd, 0xb0, 0x4e, 0xa6, 0x3d,
  0x20, 0x40, 0x65, 0x3e, 0x8d, 0xb9, 0xcf, 0x3d, 0xf6, 0xfc, 0x11, 0x3e,
  0x88, 0x49, 0x11, 0x3c, 0x16, 0xd2, 0x29, 0x3e, 0xba, 0x0b, 0x04, 0xbd,
  0xb6, 0x6e, 0x24, 0x3e, 0xec, 0xd1, 0xab, 0x3d, 0x41, 0x77, 0x6c, 0x3e,
  0xe9, 0x11, 0x03, 0x3e, 0xad, 0x2e, 0x67, 0x3e, 0x29, 0xdc, 0xc9, 0x3d,
  0xe5, 0xd7, 0xd7, 0x3d, 0x39, 0xd1, 0x39, 0x3d, 0x6d, 0x0f, 0xa8, 0x3e,
  0x02, 0xcc, 0xc1, 0x3b, 0x7b, 0x13, 0x76, 0x3e, 0xd0, 0x10, 0x63, 0x3c,
  0x72, 0x63, 0xb5, 0x3e, 0xf0, 0xd6, 0xd0, 0x3d, 0xe1, 0x2e, 0xb4, 0x3e,
  0x6c, 0x05, 0xeb, 0xbc, 0xe6, 0xa9, 0xbb, 0x3e, 0x51, 0xf5, 0x65, 0x3d,
  0x44, 0xb2, 0xa7, 0x3e, 0x4d, 0xd0, 0x77, 0xba, 0xca, 0xd2, 0xaf, 0x3e,
  0x6d, 0xb7, 0xd1, 0x3d, 0x84, 0x00, 0x97, 0x3e, 0xc8, 0xce, 0x20, 0x3e,
  0xb5, 0x89, 0x07, 0x3f, 0x31, 0x65, 0x91, 0x3c, 0x08, 0x22, 0xbe, 0x3e,
  0x75, 0x54, 0x28, 0x3e, 0x74, 0x6d, 0xc1, 0x3e, 0x64, 0x19, 0x00, 0x3e,
  0x04, 0x80, 0xad, 0x3e, 0x11, 0x21, 0x8b, 0x3c, 0x3f, 0x6b, 0x57, 0x3e,
  0xdb, 0xd9, 0x5b, 0x3e, 0xb6, 0xc2, 0x9f, 0x3e, 0x29, 0xc7, 0xd9, 0x3d,
  0xaf, 0xe1, 0x35, 0x3e, 0x7e, 0x28, 0x89, 0x3d, 0xd3, 0x83, 0x73, 0x3e,
  0xd6, 0xf8, 0x40, 0x3d, 0x04, 0xc8, 0x26, 0x3e, 0xb0, 0xdd, 0xa4, 0x3d,
  0x4d, 0x30, 0xad, 0x3d, 0xf8, 0xbd, 0x34, 0xbd, 0x09, 0xd8, 0xcd, 0x3d,
  0x37, 0xf6, 0x73, 0xbc, 0x6e, 0x4f, 0x97, 0x3d, 0xf9, 0x98, 0xc5, 0x3c,
  0xb3, 0xa9, 0x14, 0xbd, 0xe6, 0x52, 0x22, 0xbd, 0x59, 0xe7, 0xf4, 0x3c,
  0x6c, 0x80, 0x0b, 0x3d, 0x62, 0x08, 0x54, 0xbe, 0xaf, 0x3c, 0x34, 0x3d,
  0xc0, 0x0c, 0x6f, 0xbe, 0x7c, 0x5b, 0x07, 0xbd, 0x72, 0x4a, 0x33, 0xbe,
  0x0d, 0x7a, 0x33, 0x3e, 0xdd, 0xd8, 0x4c, 0xbe, 0x8b, 0xeb, 0x6e, 0xbd,
  0xad, 0x78, 0x5c, 0xbe, 0xb4, 0x6f, 0x4a, 0x3c, 0x83, 0xd4, 0x9f, 0xbe,
  0x81, 0x95, 0x66, 0x3c, 0xe9, 0xf8, 0x31, 0xbe, 0x4b, 0x55, 0x51, 0xbd,
  0x7e, 0x36, 0x76, 0xbe, 0x5e, 0x13, 0xe0, 0xbc, 0xfc, 0xe4, 0x2b, 0xbe,
  0x7a, 0x75, 0x6e, 0x3d, 0x8c, 0xb5, 0x7c, 0xbe, 0x91, 0x4a, 0x33, 0xbd,
  0xd7, 0xfe, 0x5c, 0xbe, 0x23, 0x23, 0x82, 0x3c, 0x85, 0x25, 0xaa, 0xbe,
  0xcb, 0xeb, 0x04, 0x3e, 0xd6, 0xe2, 0x92, 0xbe, 0xaa, 0xbe, 0xa0, 0xbd,
  0xc4, 0x8e, 0x8c, 0xbe, 0x96, 0xc0, 0x5b, 0x3e, 0x64, 0xf7, 0xba, 0xbe,
  0xf0, 0x83, 0xd3, 0x3c, 0xcb, 0x80, 0x6c, 0xbe, 0xc1, 0x54, 0xc3, 0x3d,
  0x5b, 0xcc, 0xac, 0xbe, 0xef, 0xa8, 0xa4, 0x3d, 0xfa, 0xa2, 0x8c, 0xbe,
  0xab, 0x9f, 0x32, 0x3e, 0x87, 0x3a, 0xd0, 0xbc, 0xdf, 0xf2, 0xcc, 0xbc,
  0x8b, 0x88, 0x3f, 0xbe, 0x94, 0x97, 0x09, 0x3e, 0xc3, 0xa2, 0x98, 0xbd,
  0x4a, 0xf1, 0xc0, 0x3e, 0xb9, 0x38, 0x3a, 0x3e, 0x43, 0x2f, 0x06, 0x3f,
  0xb7, 0x41, 0xf5, 0x3b, 0xee, 0xe3, 0xd8, 0x3e, 0xe8, 0x56, 0xa4, 0xbd,
  0x81, 0x98, 0xcf, 0x3e, 0xd7, 0x78, 0xcf, 0xbd, 0x18, 0xe7, 0xa0, 0x3e,
  0xb1, 0x9f, 0xc5, 0x3c, 0x29, 0x85, 0x94, 0x3e, 0xc8, 0x9d, 0x53, 0xbe,
  0xf1, 0xdf, 0x67, 0x3e, 0x80, 0x7f, 0x82, 0xbd, 0xe1, 0x0d, 0x2f, 0x3e,
  0xb8, 0xba, 0xe2, 0xbd, 0x22, 0xf8, 0xc9, 0x3e, 0x5f, 0xa5, 0x13, 0xbd,
  0xe9, 0x4d, 0xfa, 0x3e, 0x14, 0xdd, 0x23, 0xbd, 0xc6, 0x19, 0x92, 0x3d,
  0x8b, 0x8f, 0xba, 0x3c, 0x4f, 0x49, 0x12, 0x3e, 0x36, 0xd3, 0x32, 0xbd,
  0x8f, 0x20, 0xb4, 0xbc, 0x34, 0x00, 0x8f, 0x3d, 0x6a, 0x47, 0x89, 0xbd,
  0x45, 0x27, 0x8c, 0x3c, 0xd1, 0x81, 0xb8, 0x3a, 0x90, 0x31, 0x59, 0xbe,
  0x6a, 0xb5, 0x6c, 0x3c, 0xc9, 0xed, 0xf6, 0x3d, 0xbf, 0x88, 0x8a, 0xbd,
  0xd9, 0x02, 0x95, 0xbd, 0x7c, 0xb9, 0x1c, 0xbe, 0xd1, 0xc6, 0x04, 0xbe,
  0x01, 0x99, 0xfa, 0xbd, 0x86, 0x38, 0xc2, 0x3c, 0xd3, 0xec, 0x01, 0xbe,
  0x93, 0x34, 0xc6, 0xbd, 0xc6, 0x4d, 0x4a, 0xbe, 0x7d, 0xec, 0xb0, 0xbc,
  0xca, 0xc3, 0x9e, 0xbd, 0x29, 0x46, 0x57, 0xbd, 0xae, 0x92, 0x08, 0xbe,
  0x0d, 0x06, 0x4d, 0x3e, 0x9d, 0x2d, 0x80, 0xbe, 0xd4, 0x6a, 0xa7, 0x3b,
  0x36, 0x77, 0xb0, 0xbe, 0x30, 0xda, 0xbb, 0xbd, 0xbf, 0xf5, 0x22, 0xbe,
  0x2d, 0xfb, 0xa1, 0xbd, 0xa7, 0x0b, 0xa5, 0xbd, 0x1f, 0xf2, 0x47, 0xbd,
  0x9e, 0x7b, 0x8b, 0xbe, 0x33, 0xc0, 0xdd, 0x3d, 0x41, 0x99, 0x8c, 0xbe,
  0x5d, 0xfe, 0x9a, 0xbd, 0x49, 0xed, 0xb9, 0xbd, 0x29, 0x87, 0xea, 0xbc,
  0x18, 0x52, 0xd8, 0xbd, 0xa0, 0x55, 0x27, 0x3e, 0x90, 0x69, 0x01, 0xbe,
  0xcc, 0xf0, 0xe8, 0xbc, 0x28, 0xfa, 0x20, 0xbe, 0x5b, 0xc8, 0xc2, 0x3c,
  0x54, 0x8b, 0x90, 0xbe, 0x9f, 0xeb, 0x83, 0x3d, 0x9d, 0x13, 0xb6, 0xbe,
  0x36, 0xa9, 0x76, 0xba, 0x97, 0xbd, 0x71, 0xbe, 0x3c, 0x0a, 0xae, 0x3d,
  0x3a, 0x0a, 0x91, 0xbe, 0x4c, 0x34, 0x06, 0xbe, 0xac, 0x09, 0x61, 0xbe,
  0xe1, 0x49, 0x8a, 0xbd, 0x5e, 0xd5, 0xa9, 0xbe, 0x64, 0x87, 0xff, 0xbb,
  0x69, 0x37, 0x99, 0xbd, 0x5e, 0xa1, 0xfb, 0xb9, 0x7a, 0x60, 0x73, 0xbe,
  0xfe, 0x7c, 0xa5, 0xba, 0xb8, 0x5d, 0x8b, 0xbe, 0x4b, 0x4b, 0x01, 0xbb,
  0x4f, 0x77, 0x1d, 0xbe, 0x23, 0x50, 0xd1, 0xbc, 0x22, 0xb6, 0xc4, 0xbd,
  0x27, 0x1d, 0x39, 0xbd, 0x4a, 0x30, 0x31, 0xbd, 0x30, 0xd6, 0xe9, 0xbd,
  0x5a, 0x34, 0xfa, 0xbd, 0xd9, 0xff, 0x88, 0x3b, 0x13, 0xa6, 0xae, 0xbc,
  0x31, 0xcf, 0x25, 0xbe, 0xc0, 0x99, 0x92, 0x3c, 0xdb, 0xcc, 0x8d, 0x3c,
  0x9e, 0x7b, 0x5e, 0xbe, 0x21, 0x81, 0x40, 0xbd, 0x04, 0xfa, 0x2b, 0xbd,
  0x74, 0x3c, 0x52, 0xbc, 0x8d, 0xbc, 0x0e, 0x3e, 0x45, 0x9f, 0x19, 0xbe,
  0xa1, 0xf7, 0x1c, 0xbd, 0x12, 0xdc, 0x3f, 0xbe, 0xba, 0x14, 0xaa, 0xbd,
  0x11, 0xeb, 0xff, 0x3d, 0x26, 0xcf, 0x99, 0xbd, 0xcf, 0x93, 0x5f, 0xbc,
  0x93, 0x3d, 0xd1, 0x3c, 0x4a, 0x0b, 0x3a, 0xbd, 0xa0, 0xdb, 0xc2, 0xbd,
  0x5b, 0x32, 0xbf, 0xbd, 0xf4, 0xe2, 0x21, 0xbd, 0xff, 0x15, 0xa7, 0xbd,
  0xba, 0xed, 0x02, 0x3e, 0x8c, 0xf2, 0xf5, 0xbd, 0xf4, 0xfc, 0x4f, 0x3e,
  0x54, 0xf1, 0x05, 0xbe, 0x6d, 0x50, 0xd5, 0xbc, 0xc4, 0xc1, 0xe6, 0x3d,
  0xc2, 0xb7, 0xbc, 0x3c, 0x4f, 0x78, 0x48, 0x3d, 0xc3, 0x1d, 0xb4, 0x3d,
  0xf5, 0xf9, 0x1a, 0xbd, 0xcd, 0xf6, 0xed, 0x3a, 0xbc, 0x22, 0x42, 0xbc,
  0x21, 0xa0, 0xf4, 0x3d, 0xf8, 0x34, 0xd9, 0xbc, 0xde, 0xb4, 0x6d, 0x3e,
  0x1c, 0x87, 0xc7, 0xbd, 0x4b, 0xac, 0x6f, 0x3e, 0xcb, 0xe6, 0x07, 0xbe,
  0x67, 0x0d, 0x46, 0x3e, 0xd7, 0x9e, 0x61, 0x3d, 0x39, 0xd5, 0x92, 0x3d,
  0x0d, 0x5a, 0x98, 0x3c, 0x66, 0x53, 0x34, 0x3e, 0x00, 0x9e, 0x15, 0xbc,
  0x0e, 0x61, 0xfa, 0x3d, 0x56, 0xc9, 0xfb, 0xbc, 0x14, 0xfb, 0xcd, 0x3e,
  0x33, 0x2d, 0xc2, 0x3c, 0x5d, 0x4e, 0x40, 0x3e, 0x2c, 0x37, 0x63, 0x3e,
  0x8b, 0x3a, 0x5f, 0x3e, 0x95, 0x37, 0xf9, 0xbd, 0x95, 0x35, 0x54, 0x3e,
  0x35, 0x81, 0xd9, 0xbd, 0xdd, 0x31, 0xac, 0x3e, 0x15, 0x04, 0x92, 0xbd,
  0xcf, 0x10, 0xc2, 0x3e, 0xbe, 0xfd, 0x2a, 0x3e, 0x67, 0xda, 0x00, 0x3f,
  0x5c, 0x49, 0x67, 0x3e, 0x94, 0x75, 0x1b, 0x3f, 0x5b, 0xf2, 0x2a, 0x3d,
  0x7b, 0xff, 0x53, 0x3f, 0x06, 0x7b, 0xb7, 0xbb, 0x8f, 0x07, 0x72, 0x3f,
  0x9a, 0xfd, 0xff, 0xff, 0x04, 0x00, 0x00, 0x00, 0x18, 0x00, 0x00, 0x00,
  0x18, 0xd7, 0x20, 0xbf, 0x7a, 0xb0, 0xb6, 0x3e, 0x98, 0xb7, 0x41, 0xbf,
  0xe2, 0x49, 0x2b, 0x40, 0xbc, 0xb8, 0x23, 0x40, 0x0c, 0x64, 0xff, 0x3f,
  0xbe, 0xfd, 0xff, 0xff, 0x04, 0x00, 0x00, 0x00, 0x18, 0x00, 0x00, 0x00,
  0xa0, 0xcc, 0x91, 0xbf, 0x6e, 0xba, 0xef, 0x3e, 0x05, 0x1c, 0xbe, 0x3f,
  0xd6, 0x23, 0xd0, 0xbd, 0xe3, 0x0e, 0x6a, 0xbf, 0xa1, 0x73, 0x20, 0x3f,
  0xe2, 0xfd, 0xff, 0xff, 0x04, 0x00, 0x00, 0x00, 0x18, 0x00, 0x00, 0x00,
  0x3b, 0x06, 0x2a, 0xbf, 0xdd, 0x03, 0xa2, 0x3e, 0xa7, 0xe8, 0x7d, 0x3f,
  0x2a, 0x6e, 0x72, 0xbf, 0x20, 0xd9, 0x6a, 0xbf, 0xcd, 0xe0, 0x32, 0xbf,
  0x06, 0xfe, 0xff, 0xff, 0x04, 0x00, 0x00, 0x00, 0x18, 0x00, 0x00, 0x00,
  0x45, 0x55, 0xec, 0x3b, 0x3b, 0x39, 0x94, 0x3f, 0x3d, 0x3b, 0x72, 0x3d,
  0xfb, 0x80, 0x0d, 0x40, 0x94, 0x2c, 0x10, 0x40, 0xf4, 0xa9, 0x73, 0x3f,
  0x2a, 0xfe, 0xff, 0xff, 0x04, 0x00, 0x00, 0x00, 0x08, 0x00, 0x00, 0x00,
  0x92, 0x3b, 0x6e, 0xbe, 0x39, 0x96, 0x24, 0xbf, 0x3e, 0xfe, 0xff, 0xff,
  0x04, 0x00, 0x00, 0x00, 0x08, 0x00, 0x00, 0x00, 0x7c, 0xca, 0x68, 0x3f,
  0x0f, 0x37, 0x86, 0x3f, 0x52, 0xfe, 0xff, 0xff, 0x04, 0x00, 0x00, 0x00,
  0x08, 0x00, 0x00, 0x00, 0x40, 0x45, 0x6a, 0x3d, 0x47, 0x01, 0x37, 0x3e,
  0x66, 0xfe, 0xff, 0xff, 0x04, 0x00, 0x00, 0x00, 0x08, 0x00, 0x00, 0x00,
  0xb2, 0xf0, 0x35, 0x3f, 0x26, 0x92, 0x99, 0x3e, 0x7a, 0xfe, 0xff, 0xff,
  0x04, 0x00, 0x00, 0x00, 0x10, 0x00, 0x00, 0x00, 0x47, 0x96, 0xfa, 0x3f,
  0x63, 0x38, 0x24, 0xbf, 0xe2, 0xc0, 0xd7, 0x3e, 0x92, 0x21, 0x2f, 0x3f,
  0x96, 0xfe, 0xff, 0xff, 0x04, 0x00, 0x00, 0x00, 0x10, 0x00, 0x00, 0x00,
  0xcb, 0x4f, 0xe2, 0x3e, 0x95, 0xa7, 0x0e, 0xbf, 0xc9, 0x1a, 0x2a, 0x3e,
  0x21, 0xf1, 0xda, 0x3d, 0xb2, 0xfe, 0xff, 0xff, 0x04, 0x00, 0x00, 0x00,
  0x10, 0x00, 0x00, 0x00, 0x44, 0xc7, 0x68, 0x3e, 0xc5, 0x7e, 0x52, 0xbd,
  0x71, 0x15, 0x01, 0x3d, 0x73, 0x6a, 0x21, 0x3f, 0xce, 0xfe, 0xff, 0xff,
  0x04, 0x00, 0x00, 0x00, 0x10, 0x00, 0x00, 0x00, 0x85, 0x9a, 0xce, 0x3f,
  0x68, 0xff, 0x28, 0xbf, 0xc4, 0x67, 0x2b, 0xbf, 0x89, 0xc7, 0x52, 0x3f,
  0xea, 0xfe, 0xff, 0xff, 0x04, 0x00, 0x00, 0x00, 0x0c, 0x00, 0x00, 0x00,
  0x61, 0x3f, 0xc0, 0xbe, 0xd7, 0x1b, 0xd3, 0x3e, 0xc7, 0xe7, 0x02, 0xbe,
  0x02, 0xff, 0xff, 0xff, 0x04, 0x00, 0x00, 0x00, 0x40, 0x00, 0x00, 0x00,
  0x5b, 0x3b, 0x1f, 0xbf, 0xf2, 0xda, 0x19, 0xbf, 0xd7, 0xdb, 0xc1, 0x3e,
  0x81, 0xe4, 0x17, 0x3e, 0xb7, 0xa9, 0x60, 0x3e, 0x0e, 0xb2, 0x0d, 0x3e,
  0x03, 0x0a, 0x48, 0xbe, 0x34, 0x58, 0xad, 0x3e, 0x3f, 0x4f, 0x15, 0xbf,
  0x0a, 0x41, 0x02, 0xbf, 0xa7, 0x9a, 0x95, 0xbe, 0x9e, 0xcf, 0xf1, 0xbe,
  0x79, 0x7b, 0x0f, 0xbd, 0x03, 0x3d, 0xc6, 0x3e, 0xdd, 0x9a, 0x87, 0xbe,
  0x6a, 0xc3, 0x8a, 0xbe, 0x4e, 0xff, 0xff, 0xff, 0x04, 0x00, 0x00, 0x00,
  0x08, 0x00, 0x00, 0x00, 0xff, 0xff, 0xff, 0xff, 0xa0, 0x00, 0x00, 0x00,
  0x62, 0xff, 0xff, 0xff, 0x04, 0x00, 0x00, 0x00, 0x08, 0x00, 0x00, 0x00,
  0x00, 0x00, 0x00, 0x00, 0x00, 0x00, 0x00, 0x00, 0x74, 0xf6, 0xff, 0xff,
  0x78, 0xf6, 0xff, 0xff, 0x0f, 0x00, 0x00, 0x00, 0x4d, 0x4c, 0x49, 0x52,
  0x20, 0x43, 0x6f, 0x6e, 0x76, 0x65, 0x72, 0x74, 0x65, 0x64, 0x2e, 0x00,
  0x01, 0x00, 0x00, 0x00, 0x14, 0x00, 0x00, 0x00, 0x00, 0x00, 0x0e, 0x00,
  0x18, 0x00, 0x14, 0x00, 0x10, 0x00, 0x0c, 0x00, 0x08, 0x00, 0x04, 0x00,
  0x0e, 0x00, 0x00, 0x00, 0x14, 0x00, 0x00, 0x00, 0x1c, 0x00, 0x00, 0x00,
  0xd0, 0x01, 0x00, 0x00, 0xd4, 0x01, 0x00, 0x00, 0xd8, 0x01, 0x00, 0x00,
  0x04, 0x00, 0x00, 0x00, 0x6d, 0x61, 0x69, 0x6e, 0x00, 0x00, 0x00, 0x00,
  0x05, 0x00, 0x00, 0x00, 0x18, 0x01, 0x00, 0x00, 0xd8, 0x00, 0x00, 0x00,
  0x88, 0x00, 0x00, 0x00, 0x40, 0x00, 0x00, 0x00, 0x04, 0x00, 0x00, 0x00,
  0x92, 0xff, 0xff, 0xff, 0x1c, 0x00, 0x00, 0x00, 0x00, 0x00, 0x00, 0x09,
  0x1c, 0x00, 0x00, 0x00, 0x20, 0x00, 0x00, 0x00, 0x03, 0x00, 0x00, 0x00,
  0x00, 0x00, 0x06, 0x00, 0x08, 0x00, 0x04, 0x00, 0x06, 0x00, 0x00, 0x00,
  0x00, 0x00, 0x80, 0x3f, 0x01, 0x00, 0x00, 0x00, 0x18, 0x00, 0x00, 0x00,
  0x01, 0x00, 0x00, 0x00, 0x17, 0x00, 0x00, 0x00, 0xca, 0xff, 0xff, 0xff,
  0x14, 0x00, 0x00, 0x00, 0x00, 0x00, 0x00, 0x08, 0x10, 0x00, 0x00, 0x00,
  0x14, 0x00, 0x00, 0x00, 0x02, 0x00, 0x00, 0x00, 0x34, 0xf7, 0xff, 0xff,
  0x01, 0x00, 0x00, 0x00, 0x17, 0x00, 0x00, 0x00, 0x03, 0x00, 0x00, 0x00,
  0x16, 0x00, 0x00, 0x00, 0x12, 0x00, 0x00, 0x00, 0x04, 0x00, 0x00, 0x00,
  0x00, 0x00, 0x0e, 0x00, 0x1a, 0x00, 0x14, 0x00, 0x10, 0x00, 0x0c, 0x00,
  0x0b, 0x00, 0x04, 0x00, 0x0e, 0x00, 0x00, 0x00, 0x1c, 0x00, 0x00, 0x00,
  0x00, 0x00, 0x00, 0x08, 0x1c, 0x00, 0x00, 0x00, 0x20, 0x00, 0x00, 0x00,
  0x02, 0x00, 0x00, 0x00, 0x00, 0x00, 0x06, 0x00, 0x08, 0x00, 0x07, 0x00,
  0x06, 0x00, 0x00, 0x00, 0x00, 0x00, 0x00, 0x01, 0x01, 0x00, 0x00, 0x00,
  0x16, 0x00, 0x00, 0x00, 0x03, 0x00, 0x00, 0x00, 0x15, 0x00, 0x00, 0x00,
  0x11, 0x00, 0x00, 0x00, 0x03, 0x00, 0x00, 0x00, 0x00, 0x00, 0x0a, 0x00,
  0x10, 0x00, 0x0c, 0x00, 0x08, 0x00, 0x04, 0x00, 0x0a, 0x00, 0x00, 0x00,
  0x0c, 0x00, 0x00, 0x00, 0x10, 0x00, 0x00, 0x00, 0x01, 0x00, 0x00, 0x00,
  0x01, 0x00, 0x00, 0x00, 0x15, 0x00, 0x00, 0x00, 0x02, 0x00, 0x00, 0x00,
  0x14, 0x00, 0x00, 0x00, 0x02, 0x00, 0x00, 0x00, 0x00, 0x00, 0x16, 0x00,
  0x18, 0x00, 0x00, 0x00, 0x14, 0x00, 0x10, 0x00, 0x0f, 0x00, 0x08, 0x00,
  0x00, 0x00, 0x00, 0x00, 0x00, 0x00, 0x04, 0x00, 0x16, 0x00, 0x00, 0x00,
  0x14, 0x00, 0x00, 0x00, 0x1c, 0x00, 0x00, 0x00, 0x00, 0x00, 0x00, 0x47,
  0x20, 0x00, 0x00, 0x00, 0x24, 0x00, 0x00, 0x00, 0x00, 0x00, 0x00, 0x00,
  0x08, 0x00, 0x0c, 0x00, 0x0b, 0x00, 0x04, 0x00, 0x08, 0x00, 0x00, 0x00,
  0x00, 0x00, 0x20, 0x41, 0x00, 0x00, 0x00, 0x04, 0x01, 0x00, 0x00, 0x00,
  0x14, 0x00, 0x00, 0x00, 0x18, 0x00, 0x00, 0x00, 0x00, 0x00, 0x00, 0x00,
  0x10, 0x00, 0x00, 0x00, 0x0f, 0x00, 0x00, 0x00, 0x0e, 0x00, 0x00, 0x00,
  0x0d, 0x00, 0x00, 0x00, 0x08, 0x00, 0x00, 0x00, 0x07, 0x00, 0x00, 0x00,
  0x06, 0x00, 0x00, 0x00, 0x05, 0x00, 0x00, 0x00, 0xff, 0xff, 0xff, 0xff,
  0xff, 0xff, 0xff, 0xff, 0xff, 0xff, 0xff, 0xff, 0x0c, 0x00, 0x00, 0x00,
  0x0b, 0x00, 0x00, 0x00, 0x0a, 0x00, 0x00, 0x00, 0x09, 0x00, 0x00, 0x00,
  0xff, 0xff, 0xff, 0xff, 0xff, 0xff, 0xff, 0xff, 0x01, 0x00, 0x00, 0x00,
  0x13, 0x00, 0x00, 0x00, 0xff, 0xff, 0xff, 0xff, 0xff, 0xff, 0xff, 0xff,
  0xff, 0xff, 0xff, 0xff, 0xff, 0xff, 0xff, 0xff, 0x01, 0x00, 0x00, 0x00,
  0x18, 0x00, 0x00, 0x00, 0x01, 0x00, 0x00, 0x00, 0x00, 0x00, 0x00, 0x00,
  0x19, 0x00, 0x00, 0x00, 0x50, 0x07, 0x00, 0x00, 0xf0, 0x06, 0x00, 0x00,
  0x88, 0x06, 0x00, 0x00, 0x18, 0x06, 0x00, 0x00, 0xc0, 0x05, 0x00, 0x00,
  0x80, 0x05, 0x00, 0x00, 0x40, 0x05, 0x00, 0x00, 0x00, 0x05, 0x00, 0x00,
  0xc0, 0x04, 0x00, 0x00, 0x84, 0x04, 0x00, 0x00, 0x48, 0x04, 0x00, 0x00,
  0x0c, 0x04, 0x00, 0x00, 0xd0, 0x03, 0x00, 0x00, 0x90, 0x03, 0x00, 0x00,
  0x50, 0x03, 0x00, 0x00, 0x0c, 0x03, 0x00, 0x00, 0xc8, 0x02, 0x00, 0x00,
  0x7c, 0x02, 0x00, 0x00, 0x30, 0x02, 0x00, 0x00, 0xe8, 0x01, 0x00, 0x00,
  0x90, 0x01, 0x00, 0x00, 0x40, 0x01, 0x00, 0x00, 0xbc, 0x00, 0x00, 0x00,
  0x50, 0x00, 0x00, 0x00, 0x04, 0x00, 0x00, 0x00, 0x2a, 0xf9, 0xff, 0xff,
  0x00, 0x00, 0x00, 0x01, 0x10, 0x00, 0x00, 0x00, 0x10, 0x00, 0x00, 0x00,
  0x19, 0x00, 0x00, 0x00, 0x28, 0x00, 0x00, 0x00, 0x14, 0xf9, 0xff, 0xff,
  0x19, 0x00, 0x00, 0x00, 0x53, 0x74, 0x61, 0x74, 0x65, 0x66, 0x75, 0x6c,
  0x50, 0x61, 0x72, 0x74, 0x69, 0x74, 0x69, 0x6f, 0x6e, 0x65, 0x64, 0x43,
  0x61, 0x6c, 0x6c, 0x3a, 0x30, 0x00, 0x00, 0x00, 0x02, 0x00, 0x00, 0x00,
  0x01, 0x00, 0x00, 0x00, 0x03, 0x00, 0x00, 0x00, 0x72, 0xf9, 0xff, 0xff,
  0x00, 0x00, 0x00, 0x01, 0x10, 0x00, 0x00, 0x00, 0x10, 0x00, 0x00, 0x00,
  0x18, 0x00, 0x00, 0x00, 0x48, 0x00, 0x00, 0x00, 0x5c, 0xf9, 0xff, 0xff,
  0x38, 0x00, 0x00, 0x00, 0x73, 0x65, 0x71, 0x75, 0x65, 0x6e, 0x74, 0x69,
  0x61, 0x6c, 0x5f, 0x31, 0x2f, 0x64, 0x65, 0x6e, 0x73, 0x65, 0x5f, 0x33,
  0x2f, 0x4d, 0x61, 0x74, 0x4d, 0x75, 0x6c, 0x3b, 0x73, 0x65, 0x71, 0x75,
  0x65, 0x6e, 0x74, 0x69, 0x61, 0x6c, 0x5f, 0x31, 0x2f, 0x64, 0x65, 0x6e,
  0x73, 0x65, 0x5f, 0x33, 0x2f, 0x42, 0x69, 0x61, 0x73, 0x41, 0x64, 0x64,
  0x00, 0x00, 0x00, 0x00, 0x02, 0x00, 0x00, 0x00, 0x01, 0x00, 0x00, 0x00,
  0x03, 0x00, 0x00, 0x00, 0xda, 0xf9, 0xff, 0xff, 0x00, 0x00, 0x00, 0x01,
  0x10, 0x00, 0x00, 0x00, 0x10, 0x00, 0x00, 0x00, 0x17, 0x00, 0x00, 0x00,
  0x60, 0x00, 0x00, 0x00, 0xc4, 0xf9, 0xff, 0xff, 0x52, 0x00, 0x00, 0x00,
  0x73, 0x65, 0x71, 0x75, 0x65, 0x6e, 0x74, 0x69, 0x61, 0x6c, 0x5f, 0x31,
  0x2f, 0x64, 0x65, 0x6e, 0x73, 0x65, 0x5f, 0x32, 0x2f, 0x4d, 0x61, 0x74,
  0x4d, 0x75, 0x6c, 0x3b, 0x73, 0x65, 0x71, 0x75, 0x65, 0x6e, 0x74, 0x69,
  0x61, 0x6c, 0x5f, 0x31, 0x2f, 0x64, 0x65, 0x6e, 0x73, 0x65, 0x5f, 0x32,
  0x2f, 0x52, 0x65, 0x6c, 0x75, 0x3b, 0x73, 0x65, 0x71, 0x75, 0x65, 0x6e,
  0x74, 0x69, 0x61, 0x6c, 0x5f, 0x31, 0x2f, 0x64, 0x65, 0x6e, 0x73, 0x65,
  0x5f, 0x32, 0x2f, 0x42, 0x69, 0x61, 0x73, 0x41, 0x64, 0x64, 0x00, 0x00,
  0x02, 0x00, 0x00, 0x00, 0x01, 0x00, 0x00, 0x00, 0x10, 0x00, 0x00, 0x00,
  0x5a, 0xfa, 0xff, 0xff, 0x00, 0x00, 0x00, 0x01, 0x10, 0x00, 0x00, 0x00,
  0x10, 0x00, 0x00, 0x00, 0x16, 0x00, 0x00, 0x00, 0x2c, 0x00, 0x00, 0x00,
  0x44, 0xfa, 0xff, 0xff, 0x1e, 0x00, 0x00, 0x00, 0x73, 0x65, 0x71, 0x75,
  0x65, 0x6e, 0x74, 0x69, 0x61, 0x6c, 0x5f, 0x31, 0x2f, 0x66, 0x6c, 0x61,
  0x74, 0x74, 0x65, 0x6e, 0x5f, 0x31, 0x2f, 0x52, 0x65, 0x73, 0x68, 0x61,
  0x70, 0x65, 0x00, 0x00, 0x02, 0x00, 0x00, 0x00, 0x01, 0x00, 0x00, 0x00,
  0xa0, 0x00, 0x00, 0x00, 0xa6, 0xfa, 0xff, 0xff, 0x00, 0x00, 0x00, 0x01,
  0x10, 0x00, 0x00, 0x00, 0x10, 0x00, 0x00, 0x00, 0x15, 0x00, 0x00, 0x00,
  0x30, 0x00, 0x00, 0x00, 0x90, 0xfa, 0xff, 0xff, 0x20, 0x00, 0x00, 0x00,
  0x74, 0x66, 0x6c, 0x2e, 0x75, 0x6e, 0x69, 0x64, 0x69, 0x72, 0x65, 0x63,
  0x74, 0x69, 0x6f, 0x6e, 0x61, 0x6c, 0x5f, 0x73, 0x65, 0x71, 0x75, 0x65,
  0x6e, 0x63, 0x65, 0x5f, 0x6c, 0x73, 0x74, 0x6d, 0x00, 0x00, 0x00, 0x00,
  0x03, 0x00, 0x00, 0x00, 0x01, 0x00, 0x00, 0x00, 0x50, 0x00, 0x00, 0x00,
  0x02, 0x00, 0x00, 0x00, 0x56, 0xfb, 0xff, 0xff, 0x00, 0x00, 0x01, 0x01,
  0x0c, 0x00, 0x00, 0x00, 0x0c, 0x00, 0x00, 0x00, 0x28, 0x00, 0x00, 0x00,
  0xe0, 0xfa, 0xff, 0xff, 0x1a, 0x00, 0x00, 0x00, 0x73, 0x65, 0x71, 0x75,
  0x65, 0x6e, 0x74, 0x69, 0x61, 0x6c, 0x5f, 0x31, 0x2f, 0x6c, 0x73, 0x74,
  0x6d, 0x5f, 0x31, 0x2f, 0x7a, 0x65, 0x72, 0x6f, 0x73, 0x31, 0x00, 0x00,
  0x02, 0x00, 0x00, 0x00, 0x01, 0x00, 0x00, 0x00, 0x02, 0x00, 0x00, 0x00,
  0x3e, 0xfb, 0xff, 0xff, 0x00, 0x00, 0x00, 0x01, 0x10, 0x00, 0x00, 0x00,
  0x10, 0x00, 0x00, 0x00, 0x13, 0x00, 0x00, 0x00, 0x28, 0x00, 0x00, 0x00,
  0x28, 0xfb, 0xff, 0xff, 0x1b, 0x00, 0x00, 0x00, 0x73, 0x65, 0x71, 0x75,
  0x65, 0x6e, 0x74, 0x69, 0x61, 0x6c, 0x5f, 0x31, 0x2f, 0x64, 0x65, 0x6e,
  0x73, 0x65, 0x5f, 0x33, 0x2f, 0x4d, 0x61, 0x74, 0x4d, 0x75, 0x6c, 0x00,
  0x02, 0x00, 0x00, 0x00, 0x03, 0x00, 0x00, 0x00, 0x10, 0x00, 0x00, 0x00,
  0x86, 0xfb, 0xff, 0xff, 0x00, 0x00, 0x00, 0x01, 0x10, 0x00, 0x00, 0x00,
  0x10, 0x00, 0x00, 0x00, 0x12, 0x00, 0x00, 0x00, 0x28, 0x00, 0x00, 0x00,
  0x70, 0xfb, 0xff, 0xff, 0x1b, 0x00, 0x00, 0x00, 0x73, 0x65, 0x71, 0x75,
  0x65, 0x6e, 0x74, 0x69, 0x61, 0x6c, 0x5f, 0x31, 0x2f, 0x64, 0x65, 0x6e,
  0x73, 0x65, 0x5f, 0x32, 0x2f, 0x4d, 0x61, 0x74, 0x4d, 0x75, 0x6c, 0x00,
  0x02, 0x00, 0x00, 0x00, 0x10, 0x00, 0x00, 0x00, 0xa0, 0x00, 0x00, 0x00,
  0xce, 0xfb, 0xff, 0xff, 0x00, 0x00, 0x00, 0x01, 0x10, 0x00, 0x00, 0x00,
  0x10, 0x00, 0x00, 0x00, 0x11, 0x00, 0x00, 0x00, 0x20, 0x00, 0x00, 0x00,
  0xb8, 0xfb, 0xff, 0xff, 0x10, 0x00, 0x00, 0x00, 0x61, 0x72, 0x69, 0x74,
  0x68, 0x2e, 0x63, 0x6f, 0x6e, 0x73, 0x74, 0x61, 0x6e, 0x74, 0x31, 0x31,
  0x00, 0x00, 0x00, 0x00, 0x02, 0x00, 0x00, 0x00, 0x02, 0x00, 0x00, 0x00,
  0x03, 0x00, 0x00, 0x00, 0x0e, 0xfc, 0xff, 0xff, 0x00, 0x00, 0x00, 0x01,
  0x10, 0x00, 0x00, 0x00, 0x10, 0x00, 0x00, 0x00, 0x10, 0x00, 0x00, 0x00,
  0x20, 0x00, 0x00, 0x00, 0xf8, 0xfb, 0xff, 0xff, 0x10, 0x00, 0x00, 0x00,
  0x61, 0x72, 0x69, 0x74, 0x68, 0x2e, 0x63, 0x6f, 0x6e, 0x73, 0x74, 0x61,
  0x6e, 0x74, 0x31, 0x30, 0x00, 0x00, 0x00, 0x00, 0x02, 0x00, 0x00, 0x00,
  0x02, 0x00, 0x00, 0x00, 0x03, 0x00, 0x00, 0x00, 0x4e, 0xfc, 0xff, 0xff,
  0x00, 0x00, 0x00, 0x01, 0x10, 0x00, 0x00, 0x00, 0x10, 0x00, 0x00, 0x00,
  0x0f, 0x00, 0x00, 0x00, 0x1c, 0x00, 0x00, 0x00, 0x38, 0xfc, 0xff, 0xff,
  0x0f, 0x00, 0x00, 0x00, 0x61, 0x72, 0x69, 0x74, 0x68, 0x2e, 0x63, 0x6f,
  0x6e, 0x73, 0x74, 0x61, 0x6e, 0x74, 0x39, 0x00, 0x02, 0x00, 0x00, 0x00,
  0x02, 0x00, 0x00, 0x00, 0x03, 0x00, 0x00, 0x00, 0x8a, 0xfc, 0xff, 0xff,
  0x00, 0x00, 0x00, 0x01, 0x10, 0x00, 0x00, 0x00, 0x10, 0x00, 0x00, 0x00,
  0x0e, 0x00, 0x00, 0x00, 0x1c, 0x00, 0x00, 0x00, 0x74, 0xfc, 0xff, 0xff,
  0x0f, 0x00, 0x00, 0x00, 0x61, 0x72, 0x69, 0x74, 0x68, 0x2e, 0x63, 0x6f,
  0x6e, 0x73, 0x74, 0x61, 0x6e, 0x74, 0x38, 0x00, 0x02, 0x00, 0x00, 0x00,
  0x02, 0x00, 0x00, 0x00, 0x03, 0x00, 0x00, 0x00, 0xc6, 0xfc, 0xff, 0xff,
  0x00, 0x00, 0x00, 0x01, 0x10, 0x00, 0x00, 0x00, 0x10, 0x00, 0x00, 0x00,
  0x0d, 0x00, 0x00, 0x00, 0x1c, 0x00, 0x00, 0x00, 0xb0, 0xfc, 0xff, 0xff,
  0x0f, 0x00, 0x00, 0x00, 0x61, 0x72, 0x69, 0x74, 0x68, 0x2e, 0x63, 0x6f,
  0x6e, 0x73, 0x74, 0x61, 0x6e, 0x74, 0x37, 0x00, 0x01, 0x00, 0x00, 0x00,
  0x02, 0x00, 0x00, 0x00, 0xfe, 0xfc, 0xff, 0xff, 0x00, 0x00, 0x00, 0x01,
  0x10, 0x00, 0x00, 0x00, 0x10, 0x00, 0x00, 0x00, 0x0c, 0x00, 0x00, 0x00,
  0x1c, 0x00, 0x00, 0x00, 0xe8, 0xfc, 0xff, 0xff, 0x0f, 0x00, 0x00, 0x00,
  0x61, 0x72, 0x69, 0x74, 0x68, 0x2e, 0x63, 0x6f, 0x6e, 0x73, 0x74, 0x61,
  0x6e, 0x74, 0x36, 0x00, 0x01, 0x00, 0x00, 0x00, 0x02, 0x00, 0x00, 0x00,
  0x36, 0xfd, 0xff, 0xff, 0x00, 0x00, 0x00, 0x01, 0x10, 0x00, 0x00, 0x00,
  0x10, 0x00, 0x00, 0x00, 0x0b, 0x00, 0x00, 0x00, 0x1c, 0x00, 0x00, 0x00,
  0x20, 0xfd, 0xff, 0xff, 0x0f, 0x00, 0x00, 0x00, 0x61, 0x72, 0x69, 0x74,
  0x68, 0x2e, 0x63, 0x6f, 0x6e, 0x73, 0x74, 0x61, 0x6e, 0x74, 0x35, 0x00,
  0x01, 0x00, 0x00, 0x00, 0x02, 0x00, 0x00, 0x00, 0x6e, 0xfd, 0xff, 0xff,
  0x00, 0x00, 0x00, 0x01, 0x10, 0x00, 0x00, 0x00, 0x10, 0x00, 0x00, 0x00,
  0x0a, 0x00, 0x00, 0x00, 0x1c, 0x00, 0x00, 0x00, 0x58, 0xfd, 0xff, 0xff,
  0x0f, 0x00, 0x00, 0x00, 0x61, 0x72, 0x69, 0x74, 0x68, 0x2e, 0x63, 0x6f,
  0x6e, 0x73, 0x74, 0x61, 0x6e, 0x74, 0x34, 0x00, 0x01, 0x00, 0x00, 0x00,
  0x02, 0x00, 0x00, 0x00, 0xa6, 0xfd, 0xff, 0xff, 0x00, 0x00, 0x00, 0x01,
  0x10, 0x00, 0x00, 0x00, 0x10, 0x00, 0x00, 0x00, 0x09, 0x00, 0x00, 0x00,
  0x1c, 0x00, 0x00, 0x00, 0x90, 0xfd, 0xff, 0xff, 0x0f, 0x00, 0x00, 0x00,
  0x61, 0x72, 0x69, 0x74, 0x68, 0x2e, 0x63, 0x6f, 0x6e, 0x73, 0x74, 0x61,
  0x6e, 0x74, 0x33, 0x00, 0x02, 0x00, 0x00, 0x00, 0x02, 0x00, 0x00, 0x00,
  0x02, 0x00, 0x00, 0x00, 0xe2, 0xfd, 0xff, 0xff, 0x00, 0x00, 0x00, 0x01,
  0x10, 0x00, 0x00, 0x00, 0x10, 0x00, 0x00, 0x00, 0x08, 0x00, 0x00, 0x00,
  0x1c, 0x00, 0x00, 0x00, 0xcc, 0xfd, 0xff, 0xff, 0x0f, 0x00, 0x00, 0x00,
  0x61, 0x72, 0x69, 0x74, 0x68, 0x2e, 0x63, 0x6f, 0x6e, 0x73, 0x74, 0x61,
  0x6e, 0x74, 0x32, 0x00, 0x02, 0x00, 0x00, 0x00, 0x02, 0x00, 0x00, 0x00,
  0x02, 0x00, 0x00, 0x00, 0x1e, 0xfe, 0xff, 0xff, 0x00, 0x00, 0x00, 0x01,
  0x10, 0x00, 0x00, 0x00, 0x10, 0x00, 0x00, 0x00, 0x07, 0x00, 0x00, 0x00,
  0x1c, 0x00, 0x00, 0x00, 0x08, 0xfe, 0xff, 0xff, 0x0f, 0x00, 0x00, 0x00,
  0x61, 0x72, 0x69, 0x74, 0x68, 0x2e, 0x63, 0x6f, 0x6e, 0x73, 0x74, 0x61,
  0x6e, 0x74, 0x31, 0x00, 0x02, 0x00, 0x00, 0x00, 0x02, 0x00, 0x00, 0x00,
  0x02, 0x00, 0x00, 0x00, 0x5a, 0xfe, 0xff, 0xff, 0x00, 0x00, 0x00, 0x01,
  0x10, 0x00, 0x00, 0x00, 0x10, 0x00, 0x00, 0x00, 0x06, 0x00, 0x00, 0x00,
  0x1c, 0x00, 0x00, 0x00, 0x44, 0xfe, 0xff, 0xff, 0x0e, 0x00, 0x00, 0x00,
  0x61, 0x72, 0x69, 0x74, 0x68, 0x2e, 0x63, 0x6f, 0x6e, 0x73, 0x74, 0x61,
  0x6e, 0x74, 0x00, 0x00, 0x02, 0x00, 0x00, 0x00, 0x02, 0x00, 0x00, 0x00,
  0x02, 0x00, 0x00, 0x00, 0x96, 0xfe, 0xff, 0xff, 0x00, 0x00, 0x00, 0x01,
  0x10, 0x00, 0x00, 0x00, 0x10, 0x00, 0x00, 0x00, 0x05, 0x00, 0x00, 0x00,
  0x38, 0x00, 0x00, 0x00, 0x80, 0xfe, 0xff, 0xff, 0x2b, 0x00, 0x00, 0x00,
  0x73, 0x65, 0x71, 0x75, 0x65, 0x6e, 0x74, 0x69, 0x61, 0x6c, 0x5f, 0x31,
  0x2f, 0x64, 0x65, 0x6e, 0x73, 0x65, 0x5f, 0x33, 0x2f, 0x42, 0x69, 0x61,
  0x73, 0x41, 0x64, 0x64, 0x2f, 0x52, 0x65, 0x61, 0x64, 0x56, 0x61, 0x72,
  0x69, 0x61, 0x62, 0x6c, 0x65, 0x4f, 0x70, 0x00, 0x01, 0x00, 0x00, 0x00,
  0x03, 0x00, 0x00, 0x00, 0xea, 0xfe, 0xff, 0xff, 0x00, 0x00, 0x00, 0x01,
  0x10, 0x00, 0x00, 0x00, 0x10, 0x00, 0x00, 0x00, 0x04, 0x00, 0x00, 0x00,
  0x38, 0x00, 0x00, 0x00, 0xd4, 0xfe, 0xff, 0xff, 0x2b, 0x00, 0x00, 0x00,
  0x73, 0x65, 0x71, 0x75, 0x65, 0x6e, 0x74, 0x69, 0x61, 0x6c, 0x5f, 0x31,
  0x2f, 0x64, 0x65, 0x6e, 0x73, 0x65, 0x5f, 0x32, 0x2f, 0x42, 0x69, 0x61,
  0x73, 0x41, 0x64, 0x64, 0x2f, 0x52, 0x65, 0x61, 0x64, 0x56, 0x61, 0x72,
  0x69, 0x61, 0x62, 0x6c, 0x65, 0x4f, 0x70, 0x00, 0x01, 0x00, 0x00, 0x00,
  0x10, 0x00, 0x00, 0x00, 0x00, 0x00, 0x16, 0x00, 0x1c, 0x00, 0x18, 0x00,
  0x17, 0x00, 0x10, 0x00, 0x0c, 0x00, 0x08, 0x00, 0x00, 0x00, 0x00, 0x00,
  0x00, 0x00, 0x07, 0x00, 0x16, 0x00, 0x00, 0x00, 0x00, 0x00, 0x00, 0x01,
  0x14, 0x00, 0x00, 0x00, 0x14, 0x00, 0x00, 0x00, 0x03, 0x00, 0x00, 0x00,
  0x00, 0x00, 0x00, 0x02, 0x2c, 0x00, 0x00, 0x00, 0x44, 0xff, 0xff, 0xff,
  0x1c, 0x00, 0x00, 0x00, 0x73, 0x65, 0x71, 0x75, 0x65, 0x6e, 0x74, 0x69,
  0x61, 0x6c, 0x5f, 0x31, 0x2f, 0x66, 0x6c, 0x61, 0x74, 0x74, 0x65, 0x6e,
  0x5f, 0x31, 0x2f, 0x43, 0x6f, 0x6e, 0x73, 0x74, 0x00, 0x00, 0x00, 0x00,
  0x01, 0x00, 0x00, 0x00, 0x02, 0x00, 0x00, 0x00, 0x00, 0x00, 0x16, 0x00,
  0x14, 0x00, 0x10, 0x00, 0x00, 0x00, 0x00, 0x00, 0x0c, 0x00, 0x08, 0x00,
  0x07, 0x00, 0x00, 0x00, 0x00, 0x00, 0x06, 0x00, 0x16, 0x00, 0x00, 0x00,
  0x00, 0x00, 0x01, 0x01, 0x0c, 0x00, 0x00, 0x00, 0x0c, 0x00, 0x00, 0x00,
  0x28, 0x00, 0x00, 0x00, 0xa0, 0xff, 0xff, 0xff, 0x19, 0x00, 0x00, 0x00,
  0x73, 0x65, 0x71, 0x75, 0x65, 0x6e, 0x74, 0x69, 0x61, 0x6c, 0x5f, 0x31,
  0x2f, 0x6c, 0x73, 0x74, 0x6d, 0x5f, 0x31, 0x2f, 0x7a, 0x65, 0x72, 0x6f,
  0x73, 0x00, 0x00, 0x00, 0x02, 0x00, 0x00, 0x00, 0x01, 0x00, 0x00, 0x00,
  0x02, 0x00, 0x00, 0x00, 0x00, 0x00, 0x16, 0x00, 0x18, 0x00, 0x14, 0x00,
  0x00, 0x00, 0x10, 0x00, 0x0c, 0x00, 0x08, 0x00, 0x00, 0x00, 0x00, 0x00,
  0x00, 0x00, 0x07, 0x00, 0x16, 0x00, 0x00, 0x00, 0x00, 0x00, 0x00, 0x01,
  0x14, 0x00, 0x00, 0x00, 0x14, 0x00, 0x00, 0x00, 0x01, 0x00, 0x00, 0x00,
  0x24, 0x00, 0x00, 0x00, 0x04, 0x00, 0x04, 0x00, 0x04, 0x00, 0x00, 0x00,
  0x13, 0x00, 0x00, 0x00, 0x73, 0x65, 0x72, 0x76, 0x69, 0x6e, 0x67, 0x5f,
  0x64, 0x65, 0x66, 0x61, 0x75, 0x6c, 0x74, 0x5f, 0x78, 0x3a, 0x30, 0x00,
  0x03, 0x00, 0x00, 0x00, 0x01, 0x00, 0x00, 0x00, 0x50, 0x00, 0x00, 0x00,
  0x03, 0x00, 0x00, 0x00, 0x04, 0x00, 0x00, 0x00, 0x40, 0x00, 0x00, 0x00,
  0x24, 0x00, 0x00, 0x00, 0x14, 0x00, 0x00, 0x00, 0x04, 0x00, 0x00, 0x00,
  0xdc, 0xff, 0xff, 0xff, 0x19, 0x00, 0x00, 0x00, 0x00, 0x00, 0x00, 0x19,
  0xe8, 0xff, 0xff, 0xff, 0x09, 0x00, 0x00, 0x00, 0x00, 0x00, 0x00, 0x09,
  0xf4, 0xff, 0xff, 0xff, 0x16, 0x00, 0x00, 0x00, 0x00, 0x00, 0x00, 0x16,
  0x0c, 0x00, 0x0c, 0x00, 0x0b, 0x00, 0x00, 0x00, 0x00, 0x00, 0x04, 0x00,
  0x0c, 0x00, 0x00, 0x00, 0x2c, 0x00, 0x00, 0x00, 0x00, 0x00, 0x00, 0x2c
};
