const unsigned char model[] __attribute__((aligned(4))) = {
  0x1c, 0x00, 0x00, 0x00, 0x54, 0x46, 0x4c, 0x33, 0x14, 0x00, 0x20, 0x00,
  0x1c, 0x00, 0x18, 0x00, 0x14, 0x00, 0x10, 0x00, 0x0c, 0x00, 0x00, 0x00,
  0x08, 0x00, 0x04, 0x00, 0x14, 0x00, 0x00, 0x00, 0x1c, 0x00, 0x00, 0x00,
  0x88, 0x00, 0x00, 0x00, 0xe0, 0x00, 0x00, 0x00, 0x18, 0x6a, 0x00, 0x00,
  0x28, 0x6a, 0x00, 0x00, 0xfc, 0x74, 0x00, 0x00, 0x03, 0x00, 0x00, 0x00,
  0x01, 0x00, 0x00, 0x00, 0x04, 0x00, 0x00, 0x00, 0xde, 0x94, 0xff, 0xff,
  0x0c, 0x00, 0x00, 0x00, 0x1c, 0x00, 0x00, 0x00, 0x3c, 0x00, 0x00, 0x00,
  0x0f, 0x00, 0x00, 0x00, 0x73, 0x65, 0x72, 0x76, 0x69, 0x6e, 0x67, 0x5f,
  0x64, 0x65, 0x66, 0x61, 0x75, 0x6c, 0x74, 0x00, 0x01, 0x00, 0x00, 0x00,
  0x04, 0x00, 0x00, 0x00, 0x94, 0xff, 0xff, 0xff, 0x11, 0x00, 0x00, 0x00,
  0x04, 0x00, 0x00, 0x00, 0x08, 0x00, 0x00, 0x00, 0x64, 0x65, 0x6e, 0x73,
  0x65, 0x5f, 0x34, 0x34, 0x00, 0x00, 0x00, 0x00, 0x01, 0x00, 0x00, 0x00,
  0x04, 0x00, 0x00, 0x00, 0xc2, 0x95, 0xff, 0xff, 0x04, 0x00, 0x00, 0x00,
  0x08, 0x00, 0x00, 0x00, 0x69, 0x6e, 0x70, 0x75, 0x74, 0x5f, 0x31, 0x36,
  0x00, 0x00, 0x00, 0x00, 0x02, 0x00, 0x00, 0x00, 0x34, 0x00, 0x00, 0x00,
  0x04, 0x00, 0x00, 0x00, 0xdc, 0xff, 0xff, 0xff, 0x14, 0x00, 0x00, 0x00,
  0x04, 0x00, 0x00, 0x00, 0x13, 0x00, 0x00, 0x00, 0x43, 0x4f, 0x4e, 0x56,
  0x45, 0x52, 0x53, 0x49, 0x4f, 0x4e, 0x5f, 0x4d, 0x45, 0x54, 0x41, 0x44,
  0x41, 0x54, 0x41, 0x00, 0x08, 0x00, 0x0c, 0x00, 0x08, 0x00, 0x04, 0x00,
  0x08, 0x00, 0x00, 0x00, 0x13, 0x00, 0x00, 0x00, 0x04, 0x00, 0x00, 0x00,
  0x13, 0x00, 0x00, 0x00, 0x6d, 0x69, 0x6e, 0x5f, 0x72, 0x75, 0x6e, 0x74,
  0x69, 0x6d, 0x65, 0x5f, 0x76, 0x65, 0x72, 0x73, 0x69, 0x6f, 0x6e, 0x00,
  0x15, 0x00, 0x00, 0x00, 0x34, 0x69, 0x00, 0x00, 0x2c, 0x69, 0x00, 0x00,
  0xfc, 0x68, 0x00, 0x00, 0xac, 0x68, 0x00, 0x00, 0x3c, 0x68, 0x00, 0x00,
  0x2c, 0x62, 0x00, 0x00, 0x10, 0x62, 0x00, 0x00, 0xc0, 0x61, 0x00, 0x00,
  0xa8, 0x61, 0x00, 0x00, 0x98, 0x01, 0x00, 0x00, 0xc8, 0x00, 0x00, 0x00,
  0xc0, 0x00, 0x00, 0x00, 0xb8, 0x00, 0x00, 0x00, 0xb0, 0x00, 0x00, 0x00,
  0xa8, 0x00, 0x00, 0x00, 0xa0, 0x00, 0x00, 0x00, 0x98, 0x00, 0x00, 0x00,
  0x90, 0x00, 0x00, 0x00, 0x88, 0x00, 0x00, 0x00, 0x68, 0x00, 0x00, 0x00,
  0x04, 0x00, 0x00, 0x00, 0x8e, 0x96, 0xff, 0xff, 0x04, 0x00, 0x00, 0x00,
  0x54, 0x00, 0x00, 0x00, 0x0c, 0x00, 0x00, 0x00, 0x08, 0x00, 0x0e, 0x00,
  0x08, 0x00, 0x04, 0x00, 0x08, 0x00, 0x00, 0x00, 0x10, 0x00, 0x00, 0x00,
  0x24, 0x00, 0x00, 0x00, 0x00, 0x00, 0x06, 0x00, 0x08, 0x00, 0x04, 0x00,
  0x06, 0x00, 0x00, 0x00, 0x04, 0x00, 0x00, 0x00, 0x00, 0x00, 0x00, 0x00,
  0x00, 0x00, 0x0a, 0x00, 0x10, 0x00, 0x0c, 0x00, 0x08, 0x00, 0x04, 0x00,
  0x0a, 0x00, 0x00, 0x00, 0x02, 0x00, 0x00, 0x00, 0x02, 0x00, 0x00, 0x00,
  0x04, 0x00, 0x00, 0x00, 0x06, 0x00, 0x00, 0x00, 0x32, 0x2e, 0x31, 0x30,
  0x2e, 0x30, 0x00, 0x00, 0xee, 0x96, 0xff, 0xff, 0x04, 0x00, 0x00, 0x00,
  0x10, 0x00, 0x00, 0x00, 0x31, 0x2e, 0x35, 0x2e, 0x30, 0x00, 0x00, 0x00,
  0x00, 0x00, 0x00, 0x00, 0x00, 0x00, 0x00, 0x00, 0xe8, 0x8c, 0xff, 0xff,
  0xec, 0x8c, 0xff, 0xff, 0xf0, 0x8c, 0xff, 0xff, 0xf4, 0x8c, 0xff, 0xff,
  0xf8, 0x8c, 0xff, 0xff, 0xfc, 0x8c, 0xff, 0xff, 0x00, 0x8d, 0xff, 0xff,
  0x04, 0x8d, 0xff, 0xff, 0x2a, 0x97, 0xff, 0xff, 0x04, 0x00, 0x00, 0x00,
  0xc0, 0x00, 0x00, 0x00, 0xac, 0x92, 0xd8, 0xbd, 0x4d, 0x7e, 0x61, 0x3e,
  0x65, 0x8c, 0x32, 0xbc, 0x01, 0xdc, 0xaf, 0x3e, 0x1d, 0x16, 0xd3, 0xbe,
  0x27, 0xe9, 0x70, 0x3e, 0xed, 0x4f, 0x55, 0x3f, 0x2c, 0xcb, 0xfb, 0x3c,
  0xee, 0x11, 0x14, 0x3f, 0xd6, 0xcf, 0x7c, 0xbf, 0x68, 0xf2, 0x6f, 0xbe,
  0x36, 0x55, 0x1b, 0x3f, 0x28, 0x98, 0x43, 0xbf, 0xc2, 0x8a, 0x54, 0x3f,
  0xf8, 0x69, 0xc7, 0xbd, 0xba, 0xb2, 0xb3, 0x3e, 0xdb, 0x4b, 0xb7, 0xbe,
  0xa1, 0x1a, 0x54, 0x3e, 0x1b, 0x71, 0x56, 0xbf, 0xbf, 0xce, 0x5d, 0x3e,
  0x38, 0xbe, 0xac, 0x3e, 0x53, 0x19, 0x71, 0xbf, 0xe1, 0x5d, 0xc3, 0xbe,
  0xb7, 0xa4, 0x93, 0x3e, 0x0c, 0x37, 0x3b, 0xbf, 0x80, 0xdb, 0x9b, 0x3e,
  0x7d, 0x66, 0x11, 0x3f, 0xed, 0x7c, 0x44, 0xbb, 0xee, 0x48, 0x17, 0x3f,
  0x29, 0x9f, 0xf5, 0xbe, 0x4a, 0x0e, 0x2b, 0x3f, 0x3f, 0x80, 0xb3, 0x3e,
  0x02, 0x6b, 0x50, 0x3f, 0xa2, 0xbf, 0x59, 0xbf, 0x22, 0x03, 0xf0, 0xbc,
  0x77, 0xc2, 0x60, 0xbf, 0x7e, 0x99, 0x27, 0x3f, 0x75, 0x0f, 0x25, 0x3f,
  0xea, 0x5e, 0x38, 0xbf, 0xa0, 0xce, 0x66, 0xbf, 0x49, 0x04, 0x95, 0xbe,
  0x1d, 0xbb, 0xde, 0x3e, 0x6a, 0x13, 0x46, 0x3f, 0xb1, 0xc1, 0x52, 0xbf,
  0x74, 0x2e, 0x0f, 0x3f, 0xf3, 0x18, 0x73, 0xbf, 0x50, 0xf6, 0x30, 0xbf,
  0x11, 0x66, 0x59, 0xbf, 0xf6, 0x97, 0xff, 0xff, 0x04, 0x00, 0x00, 0x00,
  0x00, 0x60, 0x00, 0x00, 0x2d, 0x5e, 0xd7, 0xbd, 0xea, 0x24, 0xde, 0x3d,
  0x54, 0xa4, 0x89, 0x3d, 0x48, 0x2c, 0x4e, 0x3e, 0x7e, 0xad, 0xf4, 0x3d,
  0x2b, 0x53, 0x87, 0x3e, 0xc9, 0xea, 0x82, 0x3e, 0x0b, 0x9a, 0x7c, 0xbe,
  0x1c, 0xd1, 0x4e, 0x3d, 0xba, 0x44, 0xc7, 0x3d, 0x0a, 0x3d, 0x93, 0x3e,
  0xe7, 0x6c, 0x4e, 0x3d, 0xbc, 0x63, 0x53, 0x3e, 0x77, 0x78, 0xba, 0x3e,
  0xb1, 0x8d, 0x65, 0x3d, 0xba, 0xfe, 0xf1, 0xbd, 0xdd, 0xec, 0x17, 0xbd,
  0x1e, 0xa4, 0x42, 0x3e, 0x2e, 0x35, 0x3f, 0x3d, 0xab, 0x49, 0x40, 0x3e,
  0xa6, 0x1f, 0x78, 0x3d, 0x55, 0x5b, 0xf8, 0x3e, 0x2e, 0x5f, 0xbf, 0x3e,
  0xc5, 0x18, 0x20, 0xbe, 0xfa, 0x94, 0x42, 0x3e, 0x3f, 0x3a, 0x17, 0x3e,
  0xef, 0x19, 0x6d, 0x3e, 0x70, 0xf7, 0xa1, 0x3e, 0x39, 0xe5, 0x2e, 0x3e,
  0x71, 0xe0, 0xa0, 0x3e, 0x39, 0xdd, 0xfd, 0x3d, 0xe4, 0x74, 0xdf, 0xbb,
  0xe2, 0xbe, 0x37, 0x3d, 0x1f, 0x61, 0xca, 0x3b, 0x15, 0x0c, 0x77, 0x3c,
  0x33, 0xe2, 0x22, 0x3e, 0x28, 0x65, 0x2a, 0xbb, 0xa1, 0x64, 0x09, 0x3e,
  0xd1, 0x65, 0x8c, 0x3e, 0x52, 0xa8, 0x15, 0xbc, 0x1b, 0xaa, 0x4c, 0x3d,
  0xd2, 0x69, 0xbe, 0x3d, 0xff, 0x54, 0x5c, 0xbd, 0x4d, 0xc8, 0xd5, 0x3d,
  0x32, 0xae, 0x86, 0x3d, 0x81, 0x26, 0x7f, 0x3e, 0xaa, 0xe9, 0xc0, 0xba,
  0xd0, 0x33, 0x8f, 0xbe, 0xbd, 0x88, 0x9c, 0xbc, 0x04, 0x3d, 0xa7, 0xbc,
  0x78, 0x40, 0x94, 0x3d, 0xa6, 0x95, 0x37, 0x3e, 0x6c, 0xf6, 0x0c, 0xbe,
  0x3f, 0xee, 0x8d, 0x3c, 0x3a, 0xad, 0xd5, 0x3e, 0x9f, 0x09, 0xbc, 0xbd,
  0x9f, 0x9a, 0x55, 0x3d, 0x17, 0x98, 0x8f, 0x3d, 0x8f, 0x0e, 0xe2, 0xbd,
  0x7a, 0xf0, 0x45, 0xbc, 0xc6, 0x93, 0x33, 0x3d, 0xa3, 0x58, 0x54, 0x3e,
  0x31, 0x0b, 0x67, 0xbd, 0x5c, 0x52, 0x12, 0x3d, 0x2e, 0x44, 0x61, 0xbd,
  0x37, 0xf2, 0x50, 0xbd, 0x5a, 0xae, 0x26, 0x3e, 0x40, 0x5b, 0x26, 0x3d,
  0xf4, 0x14, 0x7c, 0xbd, 0x39, 0x22, 0xbb, 0x3d, 0x89, 0x3c, 0x58, 0x3e,
  0x12, 0xe7, 0x47, 0xbe, 0x0e, 0xed, 0xb2, 0x3d, 0xbb, 0x7e, 0x4a, 0x3c,
  0x88, 0x91, 0x72, 0xbc, 0xe5, 0x78, 0xa3, 0x3c, 0xf6, 0x2f, 0xbf, 0xbc,
  0xed, 0x4b, 0xc9, 0x3d, 0xdb, 0xaf, 0xa8, 0xbd, 0x9f, 0x51, 0x40, 0x3d,
  0xcb, 0xec, 0xc1, 0xbc, 0x59, 0xdf, 0x47, 0x3b, 0x21, 0xfe, 0xc5, 0xbb,
  0x90, 0x8e, 0x05, 0x3e, 0x47, 0xca, 0x0b, 0xbd, 0x34, 0x39, 0x85, 0x3b,
  0x82, 0x21, 0xc9, 0x3e, 0x7c, 0x6f, 0x24, 0xbe, 0x47, 0x68, 0xa5, 0xbb,
  0xb9, 0x6d, 0x4a, 0xbd, 0xf1, 0xc3, 0xbe, 0xbc, 0xcc, 0xc5, 0xae, 0x3d,
  0x8c, 0x03, 0x83, 0xbd, 0xf6, 0x52, 0x60, 0x3e, 0xd2, 0xc5, 0xe7, 0x3d,
  0x7e, 0xb6, 0x53, 0x3d, 0xee, 0xf5, 0xe1, 0xbd, 0x30, 0x3f, 0x92, 0x3d,
  0xad, 0x34, 0xc2, 0x3d, 0xc1, 0x9b, 0x82, 0x3d, 0xcd, 0x95, 0x98, 0xbc,
  0x3c, 0x8e, 0x8d, 0x3d, 0xc4, 0x82, 0x1c, 0x3e, 0x48, 0xb4, 0xd9, 0xbd,
  0x83, 0xdb, 0x9c, 0x3d, 0x84, 0xe0, 0x0f, 0xbd, 0x9c, 0x3b, 0xef, 0xbd,
  0x61, 0xeb, 0xe0, 0xbd, 0x8a, 0x6d, 0x61, 0x3c, 0x7e, 0xcc, 0x5f, 0x3d,
  0x63, 0x5c, 0x8a, 0xbc, 0x9c, 0x4c, 0xb6, 0x3d, 0x6c, 0xf5, 0xfb, 0xbd,
  0xda, 0x94, 0xd7, 0xbb, 0x7b, 0x36, 0x0d, 0x3e, 0x9e, 0x87, 0x82, 0xbd,
  0x05, 0x9a, 0x58, 0xbd, 0xd4, 0xe1, 0xc1, 0x3d, 0x74, 0xc4, 0xac, 0x3e,
  0x0d, 0xce, 0x35, 0xbe, 0x1b, 0x86, 0x04, 0x3d, 0xab, 0x95, 0x18, 0x3d,
  0x90, 0x40, 0xcc, 0xbb, 0x17, 0x56, 0x5d, 0xbd, 0x9c, 0x83, 0x88, 0xbc,
  0xbe, 0xb8, 0x02, 0x3e, 0x4b, 0xd1, 0x26, 0xbd, 0x43, 0x9b, 0x01, 0xbd,
  0x20, 0xe9, 0xb9, 0xbd, 0xd0, 0xb3, 0x6d, 0x3c, 0xea, 0xd7, 0x69, 0x3d,
  0x11, 0xdb, 0xdf, 0x3d, 0x69, 0x0b, 0x92, 0xbc, 0x0f, 0xba, 0x89, 0x3d,
  0x9d, 0xa6, 0x00, 0x3f, 0x6a, 0x1a, 0x2a, 0xbd, 0x83, 0xf7, 0xe3, 0x3c,
  0xde, 0x17, 0x82, 0xbd, 0x9c, 0x68, 0x32, 0xbd, 0x2c, 0x64, 0xf0, 0xbd,
  0x18, 0xea, 0x13, 0x3d, 0xd0, 0xfc, 0x42, 0x3e, 0x91, 0x7c, 0x0a, 0x3e,
  0xca, 0x97, 0x4a, 0xbd, 0x28, 0xbc, 0x2a, 0xbd, 0x59, 0x87, 0x11, 0xbd,
  0xfe, 0xee, 0x0c, 0x3e, 0xf3, 0xd7, 0x4a, 0xbc, 0x71, 0x3a, 0xc6, 0xbc,
  0xda, 0x78, 0x6c, 0x3e, 0x68, 0xcc, 0xec, 0x3d, 0x6f, 0x70, 0x71, 0xbd,
  0x8f, 0x88, 0xdb, 0x3d, 0x8a, 0xd9, 0xd7, 0x3d, 0x07, 0x86, 0xbb, 0xbd,
  0xe3, 0x70, 0xcc, 0x3c, 0xf9, 0x09, 0xc2, 0x3c, 0x85, 0x55, 0x16, 0x3e,
  0x9d, 0x5e, 0xe0, 0xbc, 0x77, 0x55, 0xd8, 0x3d, 0x9a, 0x96, 0xbe, 0xbd,
  0xa2, 0xab, 0x33, 0x3d, 0xc3, 0xea, 0x18, 0x3e, 0xb9, 0xf1, 0xd5, 0x3c,
  0xfb, 0x8e, 0xae, 0x3d, 0xd4, 0x41, 0xde, 0x3d, 0x98, 0xf3, 0xe2, 0x3d,
  0x74, 0xf1, 0xf1, 0xbd, 0x48, 0xf9, 0x8c, 0xbd, 0x03, 0x1e, 0x5a, 0x3d,
  0x4d, 0xfc, 0xb5, 0xbd, 0x23, 0xa1, 0x03, 0xbe, 0x76, 0x5c, 0xf4, 0xbb,
  0xa8, 0x78, 0x16, 0x3e, 0x9d, 0x50, 0xfb, 0xbc, 0x9e, 0x92, 0x37, 0x3d,
  0x87, 0x35, 0x26, 0xbd, 0xd2, 0x9f, 0x32, 0xbd, 0x04, 0x33, 0xf4, 0x3d,
  0x0e, 0x23, 0x0c, 0x3e, 0xea, 0x28, 0xa8, 0x3c, 0xeb, 0xdd, 0x5f, 0x3d,
  0xa0, 0xce, 0xc6, 0x3e, 0x49, 0x8a, 0x1e, 0xbe, 0x50, 0x1f, 0xa0, 0x3d,
  0xa9, 0xe3, 0x97, 0x3d, 0xfd, 0x7c, 0xce, 0xbd, 0x28, 0x78, 0xb9, 0xba,
  0xe5, 0x7d, 0x6e, 0xbd, 0x47, 0xb9, 0x22, 0x3e, 0x18, 0x95, 0x4c, 0x3d,
  0xf1, 0xb1, 0xa4, 0x3d, 0xad, 0x09, 0x46, 0xbe, 0xfe, 0xde, 0x93, 0xbd,
  0xbd, 0xd6, 0xdb, 0x3c, 0xdd, 0xd4, 0x9d, 0xbd, 0x5a, 0x93, 0x00, 0x3d,
  0xba, 0x40, 0x6f, 0x3c, 0xe4, 0x2f, 0x05, 0x3e, 0xd0, 0xab, 0x32, 0xbe,
  0xcf, 0x78, 0xd5, 0xbc, 0x07, 0x6f, 0x9a, 0xbd, 0xbf, 0x5c, 0x70, 0x3d,
  0x9c, 0x35, 0x04, 0x3d, 0x6a, 0x2e, 0x5d, 0x3d, 0xa5, 0xb0, 0xda, 0x3d,
  0xd2, 0x8f, 0x88, 0xbc, 0xe9, 0xc8, 0x8a, 0x3d, 0xa6, 0xb6, 0xba, 0xbd,
  0x59, 0xe6, 0xf1, 0x3c, 0x95, 0x68, 0x1d, 0xbd, 0x9b, 0x01, 0x80, 0xbd,
  0x56, 0xe4, 0xef, 0xbd, 0xbe, 0xab, 0x00, 0xbd, 0xca, 0x3c, 0x5b, 0x3e,
  0x85, 0xaa, 0x05, 0xbe, 0x58, 0x33, 0xab, 0xbd, 0xf7, 0xc3, 0x88, 0x3d,
  0x19, 0xcc, 0x35, 0xbe, 0x33, 0xb6, 0xae, 0xbd, 0x1c, 0xb0, 0x75, 0x3d,
  0x2c, 0x8c, 0x17, 0x3e, 0x09, 0x70, 0x65, 0x3d, 0x20, 0x15, 0x9c, 0x3d,
  0x55, 0x7b, 0xcf, 0xbd, 0x23, 0x55, 0x28, 0xbd, 0x4a, 0xaf, 0xb9, 0x3d,
  0x25, 0xc5, 0x28, 0xbd, 0x4f, 0x58, 0x88, 0x3d, 0x3a, 0xa8, 0x15, 0x3e,
  0x1c, 0xae, 0x4a, 0x3e, 0x9a, 0x23, 0x52, 0x3c, 0x05, 0xe4, 0x41, 0xbd,
  0x47, 0x3a, 0x40, 0x3c, 0x5b, 0x18, 0x51, 0xbd, 0x6d, 0xc0, 0x51, 0x3b,
  0xc3, 0xcd, 0x50, 0x3c, 0x1f, 0x93, 0x48, 0x3e, 0x63, 0xe4, 0x9f, 0xbd,
  0x4e, 0x21, 0x0a, 0x3d, 0x59, 0xfc, 0x61, 0xbe, 0x3e, 0x8b, 0xa4, 0xbd,
  0x95, 0x7f, 0x06, 0x3e, 0xa2, 0x44, 0xd2, 0x3d, 0x54, 0xdf, 0xc0, 0xbd,
  0xad, 0x1a, 0x0b, 0x3e, 0xaf, 0xd3, 0xdc, 0x3d, 0x39, 0xd0, 0x1c, 0xbe,
  0x7f, 0x43, 0xfc, 0xbc, 0xd3, 0xac, 0x02, 0x3e, 0xe6, 0x42, 0x9a, 0xbd,
  0xf8, 0xf6, 0x04, 0xbe, 0xb2, 0x77, 0xad, 0x3d, 0x0e, 0xe8, 0x42, 0x3e,
  0xfa, 0x7a, 0x2e, 0xbe, 0x62, 0x45, 0xaf, 0x3c, 0xe5, 0xe3, 0xdf, 0xbd,
  0xce, 0x1d, 0xc6, 0x3d, 0x82, 0xd5, 0x69, 0x3e, 0x36, 0xbe, 0x83, 0x3d,
  0xb1, 0xb7, 0x9e, 0xbc, 0xbc, 0x22, 0x09, 0x3e, 0x1b, 0x19, 0xa4, 0x3d,
  0xa8, 0xc6, 0x2f, 0xbe, 0xf1, 0xdd, 0xb1, 0x3d, 0xf2, 0x8f, 0x8d, 0xbc,
  0x39, 0x3f, 0xb6, 0xbd, 0xa5, 0x66, 0xf9, 0xbd, 0x57, 0x57, 0xb8, 0x3c,
  0xc0, 0xec, 0x52, 0x3e, 0x20, 0x0e, 0xa4, 0xbd, 0x1b, 0x38, 0xec, 0x3c,
  0x05, 0xe2, 0x90, 0xbd, 0x26, 0x1e, 0xea, 0x3c, 0xc1, 0x90, 0xf9, 0x3b,
  0xcf, 0xb5, 0xb3, 0xbd, 0x8a, 0x24, 0x4e, 0xbd, 0x58, 0x8b, 0x0b, 0x3e,
  0xb6, 0x83, 0x93, 0x3e, 0xe7, 0x69, 0x24, 0x3c, 0x6a, 0xbf, 0x00, 0x3d,
  0x7b, 0x44, 0x03, 0xbd, 0x6c, 0x28, 0xa5, 0xbd, 0xc5, 0x02, 0x80, 0xbd,
  0xac, 0x20, 0xa0, 0xbd, 0x0b, 0x99, 0x4a, 0x3e, 0x46, 0xc9, 0x8e, 0xbc,
  0x01, 0x11, 0x92, 0xbd, 0x48, 0xe1, 0x34, 0xbd, 0xb1, 0x46, 0x77, 0xbd,
  0x21, 0x6b, 0x2a, 0x3e, 0x86, 0x49, 0x95, 0x3c, 0x47, 0x22, 0xa4, 0x3d,
  0xaf, 0xf3, 0xee, 0x3d, 0xd5, 0x77, 0xdb, 0x3d, 0xad, 0xb3, 0xd0, 0xbc,
  0x82, 0x6f, 0x9e, 0xbd, 0x8e, 0x5c, 0x15, 0x3c, 0x21, 0xdb, 0xbb, 0xbc,
  0x0b, 0xb2, 0x0a, 0xbe, 0x0b, 0xed, 0x0d, 0x3d, 0x0c, 0x93, 0x4f, 0x3e,
  0xb4, 0xe3, 0xdb, 0x3c, 0x1f, 0x30, 0x81, 0xbc, 0xb4, 0x32, 0xf5, 0xbd,
  0x79, 0x85, 0x93, 0xba, 0xd2, 0x9c, 0xce, 0x3d, 0xff, 0xe2, 0x0f, 0x3e,
  0xdf, 0x45, 0xf9, 0xbc, 0xe7, 0x54, 0x0b, 0x3e, 0xed, 0x20, 0x6a, 0x3e,
  0x90, 0x87, 0x98, 0xbd, 0xec, 0x10, 0xcf, 0x3c, 0x0d, 0xce, 0xf7, 0x3d,
  0x32, 0x61, 0x71, 0xbd, 0x22, 0x30, 0xa8, 0x3b, 0x40, 0xc1, 0xfb, 0x3c,
  0xb1, 0x61, 0x45, 0x3d, 0xf8, 0x3a, 0xd1, 0x3b, 0xf4, 0x75, 0x49, 0x3d,
  0x83, 0xd8, 0x8b, 0xbd, 0x9b, 0xd3, 0x01, 0x3c, 0xb9, 0x9f, 0xa4, 0xbc,
  0x58, 0x53, 0x3d, 0x3d, 0x33, 0x90, 0x5e, 0xbd, 0xfe, 0x97, 0xe1, 0x3c,
  0xa7, 0xc1, 0x9c, 0x3e, 0xdf, 0xe6, 0x17, 0xbe, 0xd7, 0x4c, 0x9f, 0x3c,
  0x84, 0x74, 0x30, 0x3d, 0xf8, 0x1d, 0xde, 0x3d, 0x21, 0x00, 0x3d, 0xbd,
  0x71, 0x4f, 0x18, 0x3d, 0xf0, 0x06, 0x1d, 0x3e, 0xfd, 0xa9, 0xc5, 0xbd,
  0x0a, 0xab, 0x64, 0x3e, 0xa8, 0x3d, 0x9e, 0xbe, 0x16, 0x8e, 0x23, 0xbd,
  0x06, 0x64, 0xc6, 0x3d, 0x6d, 0x3f, 0x9b, 0xbb, 0x1f, 0x84, 0xfc, 0xbb,
  0x2d, 0xab, 0x69, 0x3e, 0x55, 0xb5, 0x5d, 0x3e, 0xea, 0x59, 0x6e, 0xbe,
  0x18, 0x96, 0x10, 0xbe, 0xe7, 0xb7, 0x80, 0xbc, 0x66, 0x3b, 0x7f, 0xbe,
  0x85, 0x30, 0x21, 0xbe, 0x06, 0xea, 0x4c, 0x3d, 0x15, 0xb5, 0x0c, 0x3e,
  0xce, 0x60, 0xaf, 0xbe, 0x89, 0x50, 0x72, 0x3c, 0x58, 0xcb, 0x60, 0xbe,
  0x7b, 0x00, 0x0e, 0x3d, 0x88, 0x65, 0x63, 0x3d, 0x46, 0xfa, 0x88, 0xbd,
  0xa2, 0xbe, 0xa1, 0xbd, 0x8a, 0xec, 0x4b, 0x3e, 0xef, 0x13, 0x04, 0x3e,
  0x3b, 0xbe, 0x70, 0xbe, 0x9a, 0xb9, 0xa0, 0xbd, 0xf0, 0x79, 0x89, 0xbd,
  0xb2, 0x0a, 0x14, 0xbe, 0x7f, 0x67, 0x07, 0xbe, 0x93, 0xa9, 0x98, 0x3d,
  0x03, 0xb3, 0x25, 0x3e, 0x0b, 0x9f, 0xa5, 0xbe, 0x87, 0xed, 0x60, 0x3d,
  0x31, 0xff, 0x37, 0xbe, 0x38, 0xe5, 0x5c, 0xbd, 0xee, 0x1d, 0xd8, 0x3c,
  0x62, 0x35, 0xe0, 0x3d, 0xa0, 0x60, 0x80, 0xbc, 0x3a, 0x8b, 0x0a, 0x3e,
  0xbc, 0x58, 0x3f, 0x3e, 0x01, 0x86, 0xe7, 0xbd, 0xe6, 0x68, 0xe1, 0xbd,
  0xa5, 0x3c, 0x46, 0x3d, 0x19, 0xf3, 0x41, 0xbd, 0x0f, 0xcf, 0x36, 0xbe,
  0x4a, 0x9f, 0x03, 0x3d, 0x42, 0xbe, 0x81, 0x3e, 0xd1, 0x22, 0x87, 0xbe,
  0xf7, 0xe9, 0x55, 0xbe, 0xa8, 0x37, 0x22, 0xbe, 0xdc, 0xe2, 0x2e, 0xbe,
  0x21, 0x27, 0xd6, 0xbe, 0x52, 0xb1, 0xfd, 0xbe, 0x06, 0x83, 0x54, 0xbe,
  0xc4, 0x64, 0x56, 0xbe, 0x15, 0x7e, 0x7a, 0xbe, 0x22, 0xd3, 0xa6, 0xbe,
  0x24, 0x27, 0x49, 0xbd, 0x40, 0x1c, 0x0e, 0xbe, 0xd4, 0x94, 0xef, 0xbe,
  0xe3, 0x59, 0x8b, 0xbe, 0xb9, 0xc0, 0xa5, 0xbd, 0x6d, 0x2b, 0xf1, 0xbd,
  0x47, 0xba, 0xf4, 0xbe, 0x4f, 0x48, 0x40, 0x3e, 0xa7, 0x0d, 0xfe, 0x3c,
  0xd4, 0xb9, 0x06, 0xbe, 0x5e, 0xbc, 0xd1, 0xbe, 0x22, 0xcb, 0xd1, 0xbe,
  0x96, 0xaa, 0x3e, 0xbe, 0x11, 0xff, 0x74, 0xbe, 0xa9, 0xe6, 0x08, 0xbe,
  0x55, 0x48, 0x8e, 0xbe, 0xed, 0xa6, 0x20, 0xbd, 0xcd, 0xfd, 0xfd, 0xbd,
  0xfc, 0xf7, 0x99, 0xbe, 0x7e, 0x28, 0x3a, 0xbe, 0x33, 0x51, 0xec, 0xbd,
  0x7f, 0x8f, 0x4b, 0xbe, 0x2b, 0xd6, 0xb5, 0xbe, 0x09, 0xe2, 0x0a, 0x3e,
  0x68, 0xd2, 0x88, 0x3d, 0x11, 0xd9, 0x23, 0xbe, 0xaf, 0xc2, 0x0e, 0xbe,
  0x0b, 0x4a, 0xad, 0xbe, 0x14, 0x0f, 0x1a, 0xbe, 0xee, 0xde, 0x01, 0xbe,
  0x6e, 0x5c, 0x79, 0xbe, 0x05, 0xa4, 0x84, 0xbc, 0x9b, 0xd7, 0x2e, 0xbe,
  0x2c, 0x2a, 0xf3, 0xbd, 0xe3, 0x0b, 0x93, 0xbe, 0x03, 0xea, 0x0f, 0xbe,
  0x5e, 0xeb, 0x22, 0xbe, 0xac, 0xf9, 0x37, 0xbe, 0xb8, 0x71, 0xae, 0xbe,
  0xd3, 0xd7, 0x98, 0x3d, 0x3d, 0x54, 0x05, 0xbe, 0x72, 0xe6, 0x19, 0xbe,
  0x31, 0xaa, 0x90, 0xbe, 0xaf, 0xa5, 0xb1, 0xbe, 0xfa, 0x5c, 0x9b, 0xbe,
  0x81, 0xca, 0x88, 0xbe, 0x9b, 0x5b, 0x62, 0xbe, 0xb6, 0x01, 0x08, 0xbd,
  0x7c, 0xe2, 0xbd, 0xbd, 0xe5, 0xa5, 0xa8, 0xbd, 0xd9, 0x4e, 0xc5, 0xbe,
  0xd4, 0x17, 0x3f, 0xbe, 0x7f, 0xda, 0xf1, 0xbd, 0xc5, 0xd5, 0x0a, 0xbe,
  0xb5, 0xd3, 0xbb, 0xbe, 0xe9, 0x2b, 0x32, 0x3e, 0x3f, 0x5e, 0x08, 0xbe,
  0xfb, 0xe4, 0x88, 0xbe, 0x9c, 0x4f, 0xaf, 0xbe, 0xf3, 0xc2, 0xcc, 0xbe,
  0x80, 0x37, 0x92, 0xbd, 0x25, 0x5b, 0x2b, 0xbe, 0xa8, 0x46, 0xb6, 0xbd,
  0x1e, 0x5b, 0x0a, 0xbd, 0x14, 0xd4, 0x48, 0xbe, 0xca, 0xbf, 0x37, 0xbe,
  0x7d, 0x30, 0xca, 0xbe, 0x2f, 0x5d, 0x30, 0xbe, 0x39, 0x76, 0x2e, 0xbe,
  0x2a, 0xa4, 0xd7, 0xbd, 0x72, 0x54, 0xb6, 0xbe, 0x70, 0xa7, 0x9a, 0x3e,
  0xc4, 0x2e, 0x35, 0x3d, 0x95, 0x36, 0x2a, 0xbd, 0x93, 0x97, 0x2d, 0xbe,
  0x79, 0x43, 0x96, 0xbd, 0x39, 0xce, 0xc9, 0xbd, 0x66, 0x79, 0xc8, 0xbd,
  0xfe, 0x5d, 0x25, 0xbe, 0x2c, 0x43, 0x9c, 0xbd, 0x28, 0x97, 0x65, 0x3d,
  0xe8, 0x71, 0x41, 0xbd, 0xda, 0xaa, 0x82, 0xbe, 0xdf, 0x2d, 0x29, 0xbe,
  0xde, 0xf5, 0x23, 0xbc, 0x5e, 0x87, 0x81, 0xbd, 0xc7, 0x63, 0x0b, 0xbe,
  0xd0, 0xc3, 0x31, 0x3e, 0x83, 0x73, 0x20, 0x3d, 0xbf, 0x51, 0x3e, 0xbd,
  0xaf, 0xf0, 0x3a, 0xbe, 0xe9, 0x5f, 0x82, 0xbd, 0x52, 0x17, 0xd0, 0xbd,
  0x89, 0xb0, 0xb9, 0xbd, 0xd8, 0xf5, 0xa8, 0xbd, 0x85, 0x61, 0x21, 0x3e,
  0x6f, 0x12, 0x6e, 0xbd, 0xc5, 0xb2, 0x33, 0xbe, 0x52, 0xce, 0xa6, 0xbd,
  0x77, 0x60, 0x89, 0xbd, 0xda, 0xe6, 0x06, 0xbd, 0xb2, 0x2a, 0xd1, 0xba,
  0x34, 0x72, 0xb6, 0xbd, 0xa0, 0xc9, 0x5b, 0x3e, 0xdc, 0xb9, 0x97, 0x3d,
  0xb7, 0x0c, 0x7d, 0xbd, 0xa3, 0x67, 0x80, 0xbe, 0x50, 0x79, 0x0e, 0xbe,
  0x79, 0x0a, 0xf2, 0xbd, 0xf3, 0x5b, 0x53, 0xbe, 0x2b, 0x83, 0x39, 0x3d,
  0x59, 0x66, 0x33, 0x3d, 0xbc, 0x9f, 0x88, 0xbd, 0xc7, 0xd7, 0x79, 0xbd,
  0xb4, 0xc7, 0x54, 0xbe, 0xb0, 0x2f, 0x11, 0xbc, 0x33, 0xe9, 0x2c, 0xbe,
  0x17, 0x1a, 0xeb, 0x3b, 0x80, 0xe0, 0x07, 0xbe, 0x00, 0x72, 0x81, 0x3e,
  0x50, 0x16, 0x26, 0x3e, 0xd7, 0xaa, 0x99, 0x3c, 0xab, 0x3e, 0x12, 0xbd,
  0x9f, 0x47, 0x2b, 0xbe, 0x44, 0xf2, 0x67, 0x3d, 0x2e, 0x0a, 0x73, 0x3c,
  0xec, 0x8d, 0x4d, 0xbe, 0xc3, 0x0f, 0x14, 0x3d, 0xc6, 0x24, 0x12, 0x3c,
  0x7f, 0x35, 0xe3, 0x3d, 0x58, 0xf9, 0x43, 0x3d, 0x26, 0x57, 0x81, 0x3d,
  0x88, 0xe2, 0xa2, 0x3d, 0xf3, 0x02, 0x86, 0x3d, 0x4f, 0x49, 0x07, 0x3c,
  0x9d, 0x6b, 0xec, 0xbc, 0x95, 0x3c, 0x83, 0x3d, 0x10, 0x3e, 0xc8, 0x3d,
  0xe2, 0x55, 0xb7, 0xbd, 0x84, 0xa6, 0xac, 0x3d, 0x43, 0x1b, 0x1b, 0x3d,
  0x93, 0x9e, 0xcc, 0xbd, 0x8c, 0x2f, 0x80, 0xbc, 0xb3, 0x02, 0x7c, 0x3e,
  0x03, 0x94, 0x96, 0x3d, 0x8c, 0x2d, 0x54, 0x3c, 0xeb, 0x20, 0x96, 0x3d,
  0xe4, 0x63, 0xe6, 0x3c, 0xdc, 0xc9, 0xf8, 0x3d, 0x30, 0xa2, 0x74, 0x3d,
  0xf2, 0x6d, 0xb0, 0xbc, 0x58, 0xca, 0x4c, 0x3d, 0x94, 0x21, 0x90, 0xbb,
  0xa1, 0xa1, 0x6f, 0x3d, 0x51, 0xb5, 0xe1, 0xbc, 0x95, 0x4a, 0xfb, 0x3d,
  0x01, 0x07, 0x2e, 0xbc, 0xeb, 0xea, 0x71, 0x3d, 0x52, 0x3a, 0x27, 0x3e,
  0x70, 0xe9, 0x1e, 0x3e, 0xb3, 0xae, 0x01, 0x3e, 0x0b, 0xdd, 0x67, 0xbb,
  0xdd, 0x1f, 0x06, 0x3c, 0xe8, 0xa1, 0x67, 0x3d, 0xaa, 0x96, 0x33, 0x3b,
  0x11, 0xdf, 0x6f, 0x3d, 0xba, 0xbd, 0x0d, 0xbd, 0x48, 0x77, 0xcb, 0x3d,
  0xa2, 0xd2, 0x3a, 0x3d, 0x26, 0xe1, 0x8a, 0x3d, 0x76, 0x52, 0x62, 0xbd,
  0x51, 0x77, 0x43, 0xbe, 0xf0, 0x2b, 0x66, 0xbc, 0xe5, 0x21, 0xb3, 0x3d,
  0xe1, 0xbd, 0x43, 0xbd, 0x44, 0xdc, 0x85, 0x3d, 0x94, 0xde, 0xb9, 0x3d,
  0xbc, 0x72, 0xf4, 0x3c, 0xff, 0x4b, 0xc1, 0xbd, 0xde, 0xd7, 0x0d, 0x3c,
  0x46, 0x9e, 0x5b, 0x3c, 0x6d, 0x58, 0x76, 0xbd, 0x77, 0x68, 0xed, 0x3a,
  0xcc, 0x04, 0xc8, 0xbd, 0x7b, 0x11, 0x2d, 0x3e, 0xde, 0x1f, 0x17, 0x3d,
  0x2e, 0x20, 0x03, 0x3d, 0xf6, 0x51, 0xc4, 0xbc, 0x0f, 0x52, 0x14, 0xbc,
  0xff, 0xe2, 0xae, 0x3c, 0x38, 0x04, 0xc2, 0x3d, 0xb1, 0x3a, 0x51, 0x3d,
  0xbb, 0xa2, 0x98, 0x3d, 0x9b, 0x11, 0xed, 0x3d, 0xf8, 0x01, 0xef, 0x3d,
  0xa6, 0xdf, 0x86, 0x3d, 0x26, 0x55, 0x1a, 0x3d, 0x9c, 0x67, 0x88, 0x3e,
  0x16, 0x51, 0x13, 0x3e, 0x4e, 0x99, 0x41, 0x3e, 0x7f, 0xa7, 0xd6, 0x3a,
  0x0a, 0x2e, 0xc7, 0x3d, 0xe4, 0x2a, 0x14, 0x3e, 0x61, 0x86, 0xd7, 0x3b,
  0xfb, 0x51, 0x66, 0xbc, 0x17, 0xd9, 0x16, 0x3e, 0x63, 0xc8, 0x6b, 0xbd,
  0x6e, 0xeb, 0x84, 0x3d, 0x88, 0xb2, 0xf9, 0x3d, 0x0c, 0x09, 0xc8, 0xbb,
  0x71, 0xc0, 0xb5, 0xbd, 0x58, 0xfc, 0x1e, 0x3e, 0xb3, 0xec, 0x8a, 0x3c,
  0xbe, 0x15, 0x65, 0x3d, 0xd5, 0xfb, 0x9c, 0x3c, 0x5a, 0xce, 0xa8, 0x3e,
  0x48, 0x99, 0x78, 0x3c, 0x61, 0x6b, 0x52, 0xbb, 0x66, 0x2c, 0x62, 0x3d,
  0x58, 0x48, 0x16, 0xbe, 0x05, 0x64, 0x4e, 0xbb, 0x81, 0x68, 0x0d, 0x3c,
  0x11, 0xd9, 0xac, 0xbd, 0x89, 0xd0, 0x19, 0xbd, 0xe2, 0x4e, 0x03, 0xbd,
  0x62, 0xd1, 0xb8, 0x3d, 0x42, 0x80, 0x7a, 0xbc, 0x38, 0x9b, 0x23, 0x3e,
  0xa2, 0x68, 0x03, 0xbd, 0x74, 0xeb, 0x2d, 0xbc, 0x3a, 0x46, 0x74, 0x3b,
  0x85, 0x74, 0x17, 0xbe, 0xd4, 0x52, 0x82, 0x3d, 0x96, 0x4b, 0x2f, 0x3d,
  0xa3, 0x2e, 0xa3, 0xbd, 0xd0, 0xba, 0x3e, 0xbd, 0xe3, 0xf7, 0xe9, 0x3d,
  0xb7, 0x5a, 0xfc, 0xbd, 0x85, 0x3a, 0x27, 0xbd, 0x81, 0x4c, 0xcd, 0x3d,
  0x62, 0x0b, 0x60, 0xbd, 0xbc, 0x09, 0x55, 0x3d, 0xf1, 0x0e, 0x58, 0xbd,
  0x7f, 0xee, 0x59, 0x3d, 0x3b, 0x72, 0x42, 0x3e, 0x2e, 0x64, 0x97, 0x3d,
  0xa0, 0x23, 0x06, 0xbd, 0x37, 0x05, 0xd8, 0x3d, 0xc2, 0xb9, 0xf5, 0x3d,
  0xd2, 0x9c, 0xdf, 0x3c, 0x3d, 0x24, 0x9e, 0x3d, 0x3d, 0x82, 0xab, 0xbb,
  0x84, 0x03, 0xcf, 0x3d, 0x68, 0xc2, 0x92, 0x3d, 0x48, 0x2a, 0xfd, 0x3d,
  0x38, 0xaf, 0x1a, 0x3e, 0xa1, 0xd2, 0x0c, 0xbd, 0xca, 0xf9, 0x52, 0x3c,
  0xd3, 0xfa, 0x3a, 0x3d, 0x06, 0x5f, 0x91, 0x3d, 0x64, 0x5b, 0xc6, 0x3d,
  0xbc, 0x64, 0x5b, 0x3c, 0x5c, 0x62, 0xba, 0x3a, 0x5b, 0xd2, 0xeb, 0x3d,
  0xbe, 0x35, 0xdd, 0x3d, 0x8d, 0x34, 0x68, 0x3d, 0x89, 0xb8, 0xda, 0x3c,
  0xaf, 0xe2, 0x0e, 0xbe, 0xcb, 0x75, 0xaf, 0x3d, 0x00, 0x91, 0x90, 0xbd,
  0xaf, 0xc7, 0xd2, 0xbd, 0xd6, 0x7d, 0x2d, 0xbd, 0xff, 0xa2, 0xf3, 0x3d,
  0xa5, 0xd6, 0x0a, 0x3d, 0x7e, 0x90, 0x29, 0xbd, 0x69, 0x0e, 0xc5, 0x3d,
  0x9a, 0xe0, 0xb3, 0x3d, 0x27, 0x17, 0xc3, 0xbd, 0xf7, 0x58, 0x96, 0xba,
  0x32, 0x83, 0x53, 0xbe, 0x04, 0x24, 0x94, 0x3d, 0x4b, 0x59, 0x71, 0xbd,
  0x49, 0x0b, 0x8e, 0xbd, 0xff, 0xdf, 0xda, 0xbb, 0x38, 0x71, 0x83, 0x3b,
  0xb6, 0x2b, 0x84, 0x3d, 0x85, 0x14, 0x0e, 0xbd, 0x26, 0xae, 0x4b, 0x3d,
  0x2a, 0x18, 0x43, 0x3e, 0x79, 0x84, 0xfe, 0x3c, 0x2d, 0x69, 0xa7, 0x3d,
  0xde, 0x9b, 0x50, 0x3d, 0x71, 0xd3, 0x3f, 0x3d, 0x8b, 0xec, 0x10, 0x3e,
  0xc9, 0x0f, 0x9b, 0xbd, 0x66, 0xd6, 0x42, 0x3e, 0x2d, 0x6f, 0xb4, 0x3d,
  0xa3, 0x84, 0x8f, 0x3d, 0xdb, 0x1e, 0x7d, 0x3d, 0x5d, 0x89, 0xb5, 0x3d,
  0x5f, 0xbe, 0x05, 0x3b, 0x5e, 0x66, 0x33, 0x3d, 0x33, 0xc7, 0x1b, 0xbc,
  0x31, 0xf6, 0x40, 0x3d, 0xc3, 0x91, 0xf7, 0x3c, 0x23, 0xbe, 0x09, 0x3e,
  0x16, 0xc5, 0x0e, 0x3d, 0xef, 0xcb, 0x2c, 0x3e, 0x18, 0xd0, 0x3c, 0xbd,
  0xa3, 0x76, 0xbe, 0x3d, 0x83, 0xf7, 0x52, 0x3b, 0xf6, 0x67, 0x68, 0x3d,
  0xe6, 0xba, 0x77, 0x3d, 0xb7, 0xe1, 0x5b, 0x3d, 0x5c, 0x51, 0x02, 0xbe,
  0x05, 0x7d, 0x8a, 0xbd, 0xa7, 0x97, 0xed, 0x3c, 0x5b, 0x73, 0xf1, 0x3d,
  0xe4, 0xd7, 0xfe, 0xbd, 0x1f, 0x98, 0x11, 0x3c, 0x4a, 0xe2, 0xab, 0x3d,
  0xce, 0x92, 0x10, 0x3e, 0x3c, 0xc0, 0x99, 0xbc, 0x19, 0x61, 0x8a, 0x3d,
  0x2b, 0xa1, 0x34, 0x3c, 0x49, 0x30, 0x03, 0xbe, 0x48, 0x61, 0xd2, 0xbc,
  0x32, 0x94, 0x59, 0xbe, 0x01, 0x75, 0x16, 0x3e, 0x69, 0xd1, 0xc5, 0x3c,
  0x80, 0xb6, 0xe6, 0x3d, 0xda, 0xbd, 0x6c, 0x3b, 0x15, 0x33, 0x0f, 0x3d,
  0x98, 0x33, 0x51, 0x3d, 0x1f, 0x38, 0xf3, 0xbd, 0x03, 0x12, 0xbf, 0x3e,
  0x78, 0x96, 0x75, 0x3e, 0x0b, 0x09, 0x5c, 0x3e, 0xc2, 0xbd, 0xd4, 0xbb,
  0x4a, 0xda, 0x82, 0x3d, 0xf8, 0x94, 0x93, 0x3d, 0x44, 0xb6, 0x48, 0x3d,
  0xd0, 0xd3, 0x4b, 0x3d, 0xfc, 0x7a, 0x4d, 0x3d, 0xa6, 0x77, 0x76, 0x3d,
  0x7f, 0x39, 0x8e, 0xba, 0x23, 0xc7, 0xa8, 0x3d, 0xcd, 0xe7, 0xb2, 0xbd,
  0x01, 0x4a, 0x99, 0x3d, 0xc6, 0xe2, 0xb4, 0x3c, 0xef, 0xcd, 0xe1, 0xbd,
  0x52, 0xcc, 0x74, 0x3e, 0x8c, 0x4e, 0x34, 0x3e, 0x23, 0xc2, 0x37, 0x3e,
  0x9a, 0x60, 0x53, 0x3d, 0x3f, 0xe7, 0x66, 0x3e, 0x0e, 0x0a, 0xc4, 0xb9,
  0xe3, 0xc6, 0x92, 0x3d, 0x64, 0xb5, 0x4c, 0x3d, 0x0f, 0x7c, 0x43, 0x3c,
  0x48, 0xd9, 0x61, 0x3d, 0xbf, 0xc1, 0x6a, 0x3d, 0x58, 0x0d, 0x9a, 0xbd,
  0xa0, 0x9b, 0x2b, 0xbe, 0xe3, 0x78, 0x4b, 0x3d, 0x03, 0xdb, 0x2c, 0x3d,
  0xc8, 0x53, 0x95, 0xbd, 0xe4, 0xcc, 0x15, 0x3e, 0x32, 0xd7, 0xa4, 0x3d,
  0xbd, 0x56, 0x8b, 0x3d, 0x10, 0x8f, 0xed, 0xbd, 0x6d, 0x13, 0xe8, 0x3d,
  0x1e, 0x71, 0xa9, 0x3d, 0x53, 0x0e, 0xb0, 0xbd, 0xae, 0xe9, 0xe9, 0xbc,
  0xc9, 0x20, 0x00, 0xbe, 0x1a, 0x08, 0xcf, 0xbe, 0x26, 0xcd, 0x5c, 0xbe,
  0xb5, 0x37, 0x31, 0x3e, 0xf7, 0xb2, 0x53, 0x3e, 0x9c, 0x8a, 0xf8, 0xbd,
  0xdb, 0x2e, 0xc3, 0x3e, 0xef, 0x1d, 0xd3, 0x3e, 0x6f, 0x84, 0x93, 0x3e,
  0x6a, 0xe2, 0x39, 0xbe, 0xc6, 0x77, 0xc1, 0xbd, 0x5f, 0x78, 0x55, 0x3e,
  0x25, 0x16, 0xc0, 0x3d, 0x53, 0x7c, 0x3d, 0xbe, 0x92, 0x6b, 0xed, 0x3e,
  0x0b, 0x4c, 0x2d, 0x3e, 0x1b, 0x2d, 0x34, 0x3e, 0x56, 0xc2, 0x8c, 0xbe,
  0x1f, 0x12, 0x1f, 0xbe, 0x20, 0xcf, 0x8a, 0x3d, 0x2d, 0xc2, 0xf0, 0x3d,
  0xc0, 0x3e, 0x5a, 0xbe, 0x60, 0xbd, 0x91, 0x3e, 0x60, 0x9d, 0xf2, 0x3e,
  0xaf, 0x32, 0x0c, 0x3e, 0xa0, 0x7f, 0x60, 0xbe, 0x7c, 0x60, 0x89, 0xbe,
  0xc6, 0xbe, 0x40, 0x3e, 0x15, 0x09, 0xd5, 0x3d, 0xc5, 0x13, 0x84, 0xbe,
  0x74, 0xac, 0x10, 0x3e, 0x50, 0xf3, 0x35, 0x3e, 0xa1, 0xf1, 0x74, 0x3e,
  0x30, 0xae, 0xe0, 0xbe, 0xbc, 0xa0, 0x1a, 0xbe, 0x0c, 0x61, 0x32, 0x3e,
  0x6f, 0xda, 0x2c, 0x3d, 0x19, 0x43, 0xa7, 0xbc, 0x23, 0xc3, 0x7f, 0xbb,
  0xdd, 0xeb, 0xbc, 0xbd, 0x6a, 0x5e, 0xde, 0xbd, 0xbb, 0xd8, 0x50, 0xbe,
  0xf4, 0xeb, 0xb8, 0x3d, 0x1b, 0x3c, 0x40, 0x3d, 0xb7, 0xfa, 0xd1, 0xbb,
  0x4a, 0x28, 0x3f, 0xbc, 0x39, 0xd0, 0x06, 0x3f, 0xf9, 0x5a, 0x75, 0xbe,
  0x9f, 0x21, 0x7f, 0xbe, 0x19, 0xff, 0x2e, 0xbe, 0x0b, 0xa5, 0x96, 0xbb,
  0x4d, 0x9e, 0x8d, 0x3e, 0x9e, 0xa9, 0xf7, 0x3d, 0xf7, 0x17, 0x2d, 0x3e,
  0xe9, 0x21, 0xc1, 0x3e, 0x1d, 0xaa, 0x4c, 0x3e, 0x27, 0x5e, 0x6c, 0x3e,
  0x10, 0x3b, 0xa5, 0xbc, 0x82, 0xac, 0xee, 0xbd, 0x2b, 0xd7, 0x0a, 0x3e,
  0x6b, 0x86, 0x22, 0x3e, 0x42, 0xf0, 0xbb, 0xbd, 0xa7, 0x44, 0xbf, 0x3e,
  0x38, 0xe7, 0x67, 0x3e, 0xcd, 0xb5, 0xa5, 0x3e, 0x4c, 0xb2, 0x6b, 0xbd,
  0xb6, 0xe9, 0x0d, 0x3b, 0xd0, 0x66, 0xbe, 0x3b, 0xe0, 0xad, 0x1b, 0x3e,
  0x65, 0x2b, 0x63, 0xbd, 0x97, 0x6a, 0xe9, 0xbc, 0x49, 0x04, 0x82, 0x3e,
  0x56, 0x49, 0x15, 0xbb, 0xba, 0x51, 0x0b, 0xbc, 0xa7, 0xab, 0x1d, 0x3c,
  0x90, 0xfd, 0x60, 0x3d, 0x74, 0xa0, 0x94, 0xbd, 0x83, 0x0b, 0x63, 0xbe,
  0x52, 0x62, 0x24, 0x3e, 0x68, 0xa5, 0xf0, 0x3d, 0x6d, 0x6c, 0xe7, 0x3d,
  0xfa, 0xd4, 0xda, 0xbe, 0xe8, 0x79, 0x3f, 0xbe, 0xcc, 0x7a, 0xb7, 0xbd,
  0x52, 0xed, 0x82, 0x3b, 0x69, 0x9a, 0x58, 0xbd, 0x6e, 0x7b, 0xbd, 0x3b,
  0xcd, 0x6c, 0xfe, 0xbd, 0xa2, 0x0d, 0x24, 0xbe, 0xa6, 0x01, 0xae, 0xbe,
  0xfc, 0xa4, 0x6f, 0xbe, 0x47, 0xf1, 0x9d, 0xbc, 0x74, 0xf2, 0x8e, 0x3d,
  0xfa, 0xce, 0x10, 0xbe, 0xc0, 0xc2, 0x33, 0xbc, 0xff, 0xb4, 0xdd, 0xbd,
  0x7a, 0x87, 0xd1, 0xbe, 0xa4, 0x91, 0x6d, 0xbd, 0xf5, 0x71, 0xaa, 0xbd,
  0x0a, 0xfb, 0x0e, 0x3e, 0x08, 0x2a, 0x3e, 0x3e, 0x61, 0xef, 0xd4, 0x3d,
  0x43, 0xac, 0x9b, 0x3e, 0x24, 0x20, 0x40, 0x3e, 0x05, 0x27, 0x12, 0xbd,
  0xc2, 0x76, 0x3e, 0xbb, 0x66, 0x07, 0xe7, 0xbc, 0xf5, 0x0e, 0x85, 0x3e,
  0x57, 0xe2, 0x82, 0x3d, 0xa6, 0x59, 0xc2, 0x3d, 0x7d, 0x64, 0x81, 0xbd,
  0xa5, 0x61, 0x48, 0x3e, 0x1c, 0x93, 0x9a, 0x3e, 0x53, 0x85, 0x06, 0xbd,
  0xea, 0xb3, 0xba, 0xbd, 0xbe, 0x85, 0xbf, 0xbd, 0xa7, 0xb7, 0x5f, 0x3d,
  0xfe, 0x2b, 0xb2, 0x3d, 0xf1, 0xe8, 0x09, 0x3e, 0x24, 0xf6, 0xa7, 0x3e,
  0xfe, 0x23, 0x63, 0x3b, 0x98, 0xb4, 0x54, 0x3d, 0xd2, 0xa3, 0xfe, 0xbd,
  0xb7, 0xbc, 0x15, 0x3e, 0xd4, 0x6e, 0x23, 0x3e, 0x92, 0x4b, 0x8f, 0xbc,
  0xa2, 0xea, 0x87, 0x3d, 0x75, 0xbd, 0x0e, 0x3e, 0xcb, 0x9e, 0xa5, 0x3d,
  0x5a, 0x68, 0x99, 0xbe, 0x67, 0x90, 0xe9, 0xbd, 0x5f, 0x99, 0x53, 0xbd,
  0x5b, 0xd9, 0x90, 0xbe, 0x67, 0x0b, 0x8c, 0x3c, 0xab, 0x77, 0x56, 0xbd,
  0x78, 0x37, 0xfa, 0xbd, 0x43, 0xa6, 0x92, 0xbe, 0xb7, 0x74, 0x95, 0xbe,
  0x75, 0xa5, 0x86, 0xbe, 0xab, 0x96, 0x98, 0xbe, 0xe1, 0x56, 0x1e, 0xbd,
  0x97, 0xf0, 0x6b, 0xbd, 0xcf, 0x23, 0x62, 0x3d, 0xe6, 0x46, 0xb6, 0xbd,
  0xd7, 0x48, 0x70, 0xbe, 0x52, 0x8f, 0x17, 0xbd, 0x94, 0x9a, 0x84, 0x3d,
  0x6e, 0x7b, 0xf2, 0x3d, 0xcc, 0xd8, 0x55, 0xbc, 0xb9, 0x76, 0x6c, 0xbd,
  0x82, 0x60, 0xb7, 0x3d, 0xbd, 0x29, 0x91, 0x3e, 0x99, 0x9d, 0x7c, 0xbd,
  0x0b, 0x64, 0xc0, 0xbd, 0xb0, 0x1b, 0x04, 0xbe, 0x1b, 0xa7, 0x3c, 0x3e,
  0x26, 0x28, 0x1c, 0x3c, 0xb4, 0x8c, 0x4a, 0xbd, 0xff, 0xfd, 0x00, 0x3e,
  0x63, 0xa3, 0x14, 0x3e, 0x8d, 0x90, 0xc8, 0x3e, 0xf4, 0x99, 0x8b, 0xbb,
  0x61, 0x37, 0x4f, 0xbd, 0x81, 0x7c, 0xec, 0x3c, 0x19, 0x82, 0xb8, 0x3c,
  0x45, 0x7b, 0xe8, 0xbc, 0xb9, 0xce, 0x16, 0x3e, 0x86, 0x9b, 0x83, 0x3e,
  0xa1, 0xbe, 0x6d, 0x3d, 0x27, 0x66, 0x46, 0x3d, 0xa5, 0x01, 0x5a, 0x3c,
  0x6a, 0xa3, 0xab, 0x3d, 0xd7, 0x36, 0x8d, 0xbc, 0xea, 0x88, 0xaa, 0xbd,
  0x70, 0xd7, 0x17, 0x3e, 0x0a, 0x8a, 0x8c, 0x3d, 0x06, 0x70, 0x81, 0x3e,
  0x99, 0x36, 0xdc, 0xbe, 0x7f, 0x10, 0x52, 0xbe, 0x5a, 0x8d, 0x39, 0xbe,
  0x3e, 0x5a, 0x6e, 0xbd, 0x55, 0x64, 0x61, 0xbe, 0x97, 0x9b, 0x56, 0x3b,
  0xb7, 0x9a, 0x37, 0xbe, 0xb2, 0x12, 0x41, 0xbe, 0x63, 0x2d, 0x91, 0xbe,
  0x9b, 0xd1, 0x94, 0xbe, 0xac, 0xfb, 0xbe, 0xbd, 0x07, 0xe1, 0x96, 0xbe,
  0x58, 0x0f, 0xc8, 0xbd, 0x09, 0xd9, 0x35, 0x3c, 0x05, 0x28, 0x9c, 0xbe,
  0xc4, 0x85, 0xac, 0xbe, 0xfb, 0xd0, 0x11, 0xbd, 0x0a, 0x5e, 0x58, 0xbd,
  0xd7, 0x5d, 0x90, 0x3d, 0xb4, 0xd1, 0x4f, 0x3d, 0xf0, 0x84, 0xc4, 0xbc,
  0x91, 0x41, 0x63, 0x3d, 0xff, 0xf9, 0xa7, 0xbd, 0x3f, 0xbf, 0x82, 0x3d,
  0x3d, 0xfd, 0xd1, 0x3c, 0xd6, 0xff, 0xb0, 0xbd, 0x20, 0x6c, 0x35, 0x3d,
  0x9b, 0xce, 0x2d, 0x3e, 0xbe, 0xe3, 0xac, 0xbd, 0xe5, 0xe3, 0x21, 0x3e,
  0x4f, 0x6f, 0xf9, 0xba, 0xcc, 0x64, 0xdc, 0x3e, 0x37, 0x69, 0xb5, 0x3c,
  0x2a, 0x19, 0x32, 0x3d, 0x05, 0x2b, 0xf1, 0xbc, 0xff, 0xe1, 0xb5, 0x3d,
  0xa3, 0xca, 0x60, 0x3c, 0x67, 0x4c, 0x4b, 0x3e, 0x3c, 0xdf, 0x6b, 0x3e,
  0xf2, 0x1a, 0x9c, 0x3d, 0xca, 0x1c, 0xac, 0xbd, 0x85, 0x9b, 0xe4, 0x3c,
  0xf8, 0x38, 0x8f, 0xbb, 0x39, 0x5c, 0xd8, 0x3d, 0x89, 0x0e, 0x64, 0x3b,
  0xec, 0xc2, 0x73, 0x3e, 0x65, 0x6e, 0x65, 0xbd, 0x08, 0x1f, 0xd9, 0x3d,
  0xa5, 0xd5, 0xfe, 0xbe, 0x0c, 0x7e, 0x81, 0xbe, 0xac, 0x16, 0x99, 0xbc,
  0x0b, 0x16, 0x52, 0xbd, 0xac, 0x0a, 0x16, 0xbe, 0x1c, 0x49, 0xea, 0x3d,
  0x90, 0xbe, 0x87, 0xbe, 0xca, 0x48, 0x41, 0xbe, 0xee, 0x12, 0xb8, 0xbe,
  0x85, 0x1b, 0x29, 0xbe, 0xd4, 0x3c, 0x23, 0xbe, 0xc8, 0x6d, 0xef, 0xbd,
  0x40, 0xc9, 0xa2, 0xbe, 0x10, 0xea, 0x8d, 0xbd, 0xe5, 0xf5, 0x95, 0xbe,
  0x7f, 0x2f, 0x35, 0xbe, 0xf0, 0x41, 0x2b, 0xbd, 0x4a, 0x9a, 0xe7, 0xba,
  0xa0, 0x48, 0x5a, 0x3c, 0x63, 0x6c, 0x1b, 0x3e, 0x80, 0xcd, 0xc8, 0x3c,
  0x97, 0x24, 0x74, 0xbb, 0x35, 0x80, 0x02, 0x3d, 0x47, 0x02, 0x26, 0xbd,
  0xe5, 0x7a, 0xbb, 0xbc, 0x8f, 0x10, 0x29, 0xbb, 0x93, 0x49, 0x9d, 0x3d,
  0xa5, 0x5f, 0xc0, 0xbc, 0xf8, 0x4f, 0xee, 0x3d, 0xdc, 0xce, 0x5e, 0x3d,
  0x50, 0x18, 0x29, 0x3d, 0x46, 0xda, 0x41, 0x3e, 0x76, 0x04, 0xad, 0xbd,
  0x40, 0x04, 0x20, 0xb8, 0x8d, 0x2f, 0xd0, 0x3d, 0xf5, 0x96, 0xff, 0x3d,
  0x89, 0x9c, 0x37, 0xbb, 0xa4, 0x7e, 0x35, 0xbd, 0x93, 0x2d, 0xcb, 0x3e,
  0xc3, 0x4b, 0x22, 0x3e, 0x25, 0x01, 0x54, 0x3d, 0x21, 0x9c, 0xdb, 0x3b,
  0xf8, 0xba, 0x48, 0x3d, 0x3b, 0xe5, 0x86, 0x3d, 0x06, 0x61, 0x84, 0xbd,
  0x6e, 0xc1, 0x10, 0x3e, 0xcd, 0x69, 0x34, 0xbc, 0x44, 0x25, 0x6d, 0x3d,
  0x27, 0x39, 0x01, 0xbf, 0xd6, 0x38, 0xf7, 0xbd, 0x18, 0x3b, 0x37, 0xbd,
  0x29, 0x7e, 0xe6, 0xbd, 0xba, 0xcd, 0x68, 0xbe, 0x79, 0x8b, 0x96, 0xbc,
  0x76, 0xde, 0x98, 0xbe, 0x04, 0x61, 0xad, 0xbe, 0x01, 0xb1, 0xb8, 0xbe,
  0x83, 0x90, 0x10, 0xbe, 0xf1, 0x4e, 0x0a, 0xbe, 0x56, 0xba, 0x9a, 0xbe,
  0x46, 0x2f, 0xae, 0xbe, 0xcf, 0x74, 0xe8, 0xbc, 0x7a, 0x19, 0x65, 0xbe,
  0x53, 0x7b, 0x8d, 0xbe, 0x0f, 0x2d, 0xbc, 0xbc, 0x36, 0xbb, 0x83, 0xbd,
  0x18, 0x98, 0x1d, 0x3d, 0x70, 0x4e, 0xa8, 0x3d, 0x8d, 0x1e, 0xca, 0x3c,
  0x25, 0x7b, 0xb1, 0x3d, 0xb5, 0x8d, 0xef, 0x3d, 0x3c, 0xfe, 0x5e, 0xbc,
  0x8a, 0x1d, 0x51, 0x3c, 0x99, 0x98, 0x9d, 0xbc, 0xfa, 0xd4, 0xa0, 0x3d,
  0x9d, 0x28, 0x92, 0x3d, 0x50, 0x31, 0x46, 0xbd, 0x57, 0x07, 0x8e, 0x3c,
  0x4a, 0x5f, 0x9f, 0xbd, 0x83, 0x07, 0x82, 0x3e, 0xcd, 0xe6, 0x3d, 0xbc,
  0xa4, 0x30, 0x0d, 0x3c, 0xa4, 0x7e, 0x44, 0xbb, 0x4e, 0xf8, 0xea, 0xbc,
  0xea, 0xe9, 0x30, 0x3d, 0x19, 0xee, 0x38, 0x3d, 0x84, 0xee, 0xa7, 0x3e,
  0x51, 0x91, 0x20, 0x3d, 0x41, 0xbc, 0x1d, 0xbc, 0xe3, 0xf8, 0x39, 0x3d,
  0x99, 0x30, 0xe2, 0x3d, 0xb7, 0x5e, 0x90, 0x3d, 0x4a, 0x47, 0xfa, 0xbc,
  0x92, 0x35, 0x5b, 0x3d, 0x1a, 0xa3, 0x5d, 0xbd, 0xf9, 0x57, 0x9e, 0x3c,
  0x2a, 0x27, 0x91, 0xbe, 0xc6, 0x1d, 0x7d, 0xbe, 0xfa, 0x53, 0x59, 0xbe,
  0xa6, 0x8a, 0x0d, 0xbe, 0x80, 0x15, 0xa5, 0xbe, 0x86, 0xb0, 0xef, 0xbd,
  0x0a, 0xe7, 0x1f, 0xbe, 0xb5, 0xa8, 0xe5, 0xbe, 0x59, 0x3d, 0xc0, 0xbe,
  0x24, 0x49, 0xb4, 0xbe, 0x80, 0x5a, 0xac, 0xbe, 0xca, 0x85, 0x6f, 0xbe,
  0x9a, 0xc5, 0x65, 0xbe, 0x02, 0xc6, 0x5e, 0xbe, 0x98, 0x9f, 0xac, 0xbe,
  0x87, 0x6c, 0x79, 0xbe, 0x0e, 0x9b, 0xe3, 0xbc, 0xd5, 0x17, 0x4f, 0x3d,
  0x20, 0x9b, 0x3b, 0x3e, 0xc6, 0x45, 0x12, 0xbd, 0x2c, 0x05, 0x09, 0x3e,
  0x84, 0x09, 0xf3, 0x3c, 0x90, 0xee, 0x3e, 0xbd, 0x5a, 0xf3, 0x03, 0x3e,
  0x6c, 0x73, 0x17, 0x3e, 0xab, 0xfe, 0x1a, 0x3e, 0xf3, 0xb9, 0x26, 0xbc,
  0x7b, 0x70, 0x92, 0x3d, 0xd2, 0xb1, 0x60, 0xbc, 0x49, 0xad, 0x35, 0x3e,
  0xbd, 0x6a, 0x0a, 0x3e, 0x76, 0xaf, 0x5c, 0x3e, 0x46, 0x96, 0x60, 0x3d,
  0xbc, 0x99, 0xc5, 0x3c, 0x63, 0x54, 0x92, 0x3d, 0x5d, 0x65, 0x5f, 0xbd,
  0x5e, 0x17, 0xd0, 0x3c, 0xf5, 0x08, 0x21, 0x3e, 0x20, 0x38, 0x55, 0x3d,
  0x00, 0x03, 0xc9, 0x3d, 0x35, 0x1c, 0x21, 0x3e, 0xaa, 0xca, 0x2b, 0x3e,
  0xa6, 0x99, 0xe8, 0x3d, 0xe6, 0x0c, 0x20, 0xbd, 0x25, 0x3e, 0xf3, 0xbc,
  0x3a, 0x58, 0xe7, 0x3d, 0x2c, 0x49, 0x06, 0xbd, 0xb2, 0xa7, 0x2a, 0x3b,
  0xff, 0x05, 0x17, 0xbf, 0x44, 0x3f, 0xc5, 0xbe, 0x21, 0x23, 0xb1, 0xbe,
  0x7b, 0x67, 0x0f, 0xbe, 0x44, 0x37, 0xfa, 0xbe, 0xbf, 0xa8, 0xab, 0xbe,
  0x10, 0xc9, 0xa6, 0xbe, 0xc3, 0xfe, 0x03, 0xbf, 0x2e, 0xeb, 0xcf, 0xbe,
  0xe2, 0x28, 0x13, 0xbf, 0xfe, 0xf9, 0xba, 0xbe, 0x95, 0x54, 0xdd, 0xbe,
  0xb0, 0x36, 0xdd, 0xbe, 0xc1, 0xf4, 0x23, 0xbe, 0xac, 0xba, 0x03, 0xbf,
  0xf0, 0xaf, 0x42, 0x3d, 0xac, 0x0f, 0x7e, 0xbe, 0xfb, 0x8c, 0xdf, 0xbe,
  0xb8, 0xc7, 0x91, 0xbe, 0x2c, 0xf0, 0xf1, 0xbe, 0xb6, 0x34, 0x8b, 0xbe,
  0xcc, 0x4a, 0xc9, 0xbe, 0x4b, 0x58, 0xa4, 0xbe, 0xfd, 0xae, 0xf4, 0x3d,
  0x94, 0x24, 0x9e, 0xbe, 0xf6, 0xfe, 0x28, 0xbe, 0xbe, 0x27, 0x36, 0xbf,
  0x6f, 0x74, 0xb7, 0xbe, 0x83, 0x36, 0x01, 0xbf, 0x65, 0x8c, 0x77, 0xbe,
  0x8f, 0xe3, 0xd9, 0xbe, 0xa9, 0x75, 0x01, 0x3f, 0xba, 0xfc, 0x88, 0xbe,
  0xbb, 0xb7, 0x02, 0xbf, 0xa7, 0x42, 0x7a, 0xbe, 0x67, 0x63, 0xa3, 0xbe,
  0x46, 0x71, 0x8a, 0xbe, 0xf0, 0x87, 0xee, 0xbe, 0x3e, 0xa9, 0x22, 0xbe,
  0xa9, 0x05, 0x54, 0x3e, 0x77, 0xd2, 0x42, 0xbe, 0x38, 0xef, 0x53, 0xbd,
  0x24, 0x2f, 0x41, 0xbf, 0x4c, 0x2c, 0x05, 0xbf, 0x5a, 0x99, 0x11, 0xbf,
  0x2b, 0xe7, 0xaa, 0xbe, 0xa8, 0xbe, 0x87, 0xbe, 0x82, 0x71, 0x11, 0x3f,
  0xdb, 0xa1, 0xf8, 0xbd, 0x55, 0x9f, 0x5e, 0xbe, 0x05, 0x42, 0xec, 0x3d,
  0x62, 0xa5, 0x76, 0xbd, 0x99, 0x57, 0xb0, 0xbb, 0xca, 0x89, 0x86, 0xbe,
  0xe3, 0xdd, 0x36, 0xbc, 0x27, 0x3b, 0x98, 0x3d, 0x47, 0xbb, 0x61, 0xbd,
  0xe5, 0x9c, 0xaf, 0x3d, 0x2f, 0xe7, 0xe9, 0xbe, 0x0e, 0x21, 0xb7, 0xbe,
  0x9b, 0xa9, 0x1c, 0xbe, 0x4b, 0x50, 0xba, 0xbe, 0x4a, 0x07, 0x81, 0xbe,
  0xea, 0x90, 0xa2, 0x3e, 0xdd, 0xae, 0xeb, 0x3a, 0x8f, 0xdd, 0x2a, 0x3d,
  0xeb, 0x5a, 0xc9, 0xbc, 0xcb, 0xa9, 0x8c, 0xbd, 0x24, 0x1f, 0xb6, 0x3d,
  0x34, 0x53, 0x0c, 0x3e, 0xa3, 0xd4, 0x6b, 0x3c, 0xab, 0x42, 0xa6, 0x3b,
  0xdc, 0xea, 0x0d, 0x3d, 0xa4, 0x21, 0x62, 0x3d, 0x0f, 0x18, 0x10, 0x3e,
  0x47, 0xbb, 0x0e, 0x3e, 0x1c, 0x20, 0xcf, 0xbc, 0xb2, 0x97, 0x8c, 0x3b,
  0x9c, 0xa2, 0x97, 0x3d, 0x2f, 0x3b, 0x86, 0x3d, 0xa3, 0xb4, 0xc6, 0x3b,
  0x30, 0x3b, 0x5a, 0xbc, 0x8e, 0x43, 0x94, 0x3d, 0xcc, 0x38, 0x92, 0x3d,
  0x79, 0x4b, 0xa0, 0x3d, 0x40, 0xc1, 0x0a, 0x3d, 0x8e, 0x7c, 0x3f, 0x3d,
  0x3d, 0x34, 0x24, 0x3e, 0xe5, 0x31, 0x9a, 0x3d, 0x8e, 0xf4, 0x33, 0x3d,
  0x9e, 0x84, 0xe8, 0x3d, 0x5e, 0xe3, 0x1b, 0x3e, 0xc3, 0xa9, 0x70, 0x3d,
  0x75, 0x35, 0x7b, 0xbc, 0x70, 0x1a, 0x0c, 0x3e, 0xf7, 0x8b, 0x01, 0x3e,
  0xb3, 0xbe, 0xa0, 0x3d, 0x7f, 0x8e, 0xef, 0x3d, 0xa3, 0x1f, 0x26, 0xbd,
  0x26, 0xcc, 0xfd, 0x3a, 0xe7, 0x59, 0x1c, 0x3c, 0xd5, 0xba, 0x32, 0x3e,
  0x79, 0x29, 0x0e, 0xbe, 0x83, 0x96, 0x49, 0x3d, 0xb5, 0xf8, 0xe4, 0xbb,
  0x52, 0x6b, 0x22, 0x3e, 0xde, 0x04, 0x4d, 0xbe, 0x79, 0x54, 0x8b, 0x3d,
  0x8b, 0xe3, 0xa5, 0x3d, 0x75, 0x4a, 0x01, 0x3e, 0x11, 0x42, 0xfd, 0xbd,
  0x5c, 0x42, 0x54, 0xbe, 0x03, 0xd9, 0xc1, 0xbc, 0x2c, 0x3f, 0x4b, 0x3d,
  0x33, 0x69, 0x63, 0x3c, 0xbe, 0x82, 0x57, 0xbd, 0x68, 0x06, 0x3b, 0x3d,
  0x41, 0x74, 0x3f, 0x3e, 0x3e, 0x1c, 0xd0, 0x3d, 0x4e, 0x6d, 0xab, 0x3d,
  0xa4, 0xb3, 0xb5, 0x3d, 0x0a, 0x2c, 0x0f, 0x3e, 0x1c, 0xb4, 0x48, 0x3d,
  0x6e, 0x89, 0xb9, 0x3d, 0xa9, 0x18, 0x94, 0x3c, 0xd8, 0x9b, 0x3a, 0x3d,
  0x00, 0xe7, 0xc1, 0x3d, 0x07, 0x1f, 0x33, 0xbe, 0x26, 0x8f, 0x08, 0x3e,
  0x35, 0x38, 0x1a, 0x3e, 0x47, 0x3e, 0xdf, 0x3d, 0x95, 0x55, 0xab, 0x3c,
  0x94, 0x72, 0xe5, 0xbb, 0x37, 0xbe, 0x13, 0x3e, 0x28, 0x9c, 0x6a, 0xbd,
  0x93, 0xcc, 0x4e, 0x3e, 0x4a, 0xea, 0x09, 0x3e, 0x95, 0x4b, 0x97, 0x3c,
  0xf9, 0x41, 0x35, 0x3d, 0xa2, 0x79, 0x0e, 0x3e, 0x79, 0x97, 0x00, 0x3e,
  0xcb, 0x17, 0xa5, 0x3d, 0xd0, 0x6a, 0xe8, 0x3d, 0x3c, 0x43, 0xab, 0xbd,
  0x63, 0xbf, 0x90, 0xbc, 0x08, 0xf6, 0x09, 0xbd, 0x09, 0xf7, 0xb2, 0x3d,
  0xdf, 0xe4, 0x51, 0xbe, 0x4f, 0x74, 0x95, 0xbc, 0xfd, 0xe6, 0x9a, 0x3b,
  0xd6, 0x45, 0x0e, 0x3d, 0x70, 0xac, 0xc1, 0x3d, 0x28, 0x0a, 0x24, 0x3e,
  0x0a, 0x6b, 0x02, 0x3e, 0x00, 0xd6, 0xa9, 0xbd, 0x17, 0xe1, 0x11, 0x3e,
  0xe4, 0x1c, 0xb0, 0x3d, 0x22, 0x1d, 0xdf, 0xbc, 0x2e, 0xbb, 0x37, 0xbe,
  0x2c, 0xb6, 0x2b, 0xbe, 0x8d, 0x7b, 0xb2, 0x3d, 0x8e, 0x2c, 0xe5, 0x3d,
  0xe1, 0x96, 0x29, 0x3e, 0x62, 0x26, 0xd7, 0xbd, 0x31, 0xa6, 0x07, 0x3e,
  0x0c, 0xee, 0x20, 0x3e, 0x3d, 0xbb, 0x0a, 0xbd, 0x19, 0x95, 0x54, 0x3d,
  0xa7, 0x79, 0xe9, 0x3d, 0x2d, 0xb2, 0xda, 0x3d, 0x1c, 0x49, 0x1d, 0xbd,
  0x32, 0x80, 0xb6, 0x3d, 0xfa, 0x10, 0x13, 0x3d, 0x42, 0x87, 0xaf, 0x3d,
  0xba, 0xa0, 0xfe, 0xbc, 0x6e, 0xe1, 0x81, 0xbd, 0x22, 0x7e, 0xa7, 0x3d,
  0x51, 0x84, 0xd7, 0x3d, 0x98, 0x7a, 0xe8, 0x3d, 0xb2, 0x95, 0x6c, 0xbd,
  0x0c, 0x08, 0x00, 0x3d, 0xb7, 0x5e, 0x38, 0x3e, 0x0e, 0xb8, 0xcf, 0x3d,
  0x90, 0xd1, 0x1d, 0x3e, 0x90, 0x80, 0x15, 0x3e, 0x70, 0x30, 0x0a, 0x3d,
  0x0b, 0x42, 0x2b, 0x3e, 0xc3, 0x41, 0x04, 0x3e, 0xc8, 0xe2, 0xb0, 0x3d,
  0x78, 0x6d, 0x81, 0x3d, 0xb6, 0xfd, 0x2a, 0x3c, 0xfc, 0xe9, 0x1f, 0x3d,
  0x97, 0xf5, 0x15, 0x3d, 0x34, 0xe7, 0x9e, 0x3d, 0x69, 0x69, 0xd6, 0xbb,
  0x5e, 0xb4, 0x99, 0x3c, 0x84, 0xcc, 0x9d, 0x3d, 0x15, 0x34, 0xc0, 0x3d,
  0x85, 0x25, 0xe2, 0xbb, 0x8e, 0x8c, 0x38, 0x3e, 0x33, 0x16, 0xe5, 0x3d,
  0x9d, 0xf1, 0x1e, 0x3e, 0x51, 0x1a, 0xad, 0xbd, 0x20, 0xbc, 0xf9, 0x3d,
  0xf7, 0xfb, 0x54, 0x3c, 0x01, 0x55, 0xc9, 0x3c, 0x5f, 0x8a, 0x14, 0x3d,
  0x8e, 0x06, 0x98, 0xbe, 0xca, 0x40, 0xaa, 0x3d, 0x28, 0x6d, 0x20, 0x3d,
  0x1f, 0xad, 0xb6, 0x3d, 0x39, 0xca, 0x01, 0xbe, 0x4c, 0xcc, 0x2c, 0x3e,
  0xf1, 0x9a, 0xec, 0x3d, 0xcf, 0x8a, 0x05, 0xbd, 0x32, 0xb5, 0x8e, 0xbc,
  0xf8, 0x43, 0x21, 0x3e, 0x03, 0xfd, 0xe3, 0x3d, 0x76, 0x9a, 0x73, 0x3d,
  0x8a, 0x7b, 0x2f, 0x3d, 0xb0, 0x98, 0x76, 0x3d, 0x12, 0x69, 0x66, 0xbc,
  0x51, 0x90, 0x09, 0xbe, 0x36, 0xae, 0xed, 0xbd, 0xf6, 0xb4, 0x12, 0x3e,
  0x46, 0x28, 0xa5, 0x3d, 0xb2, 0x6a, 0x26, 0x3e, 0x4a, 0x4a, 0xbd, 0x3d,
  0x62, 0x77, 0x57, 0x3d, 0x51, 0x78, 0xba, 0x3d, 0xfd, 0x12, 0xa0, 0xbd,
  0x2f, 0xef, 0xac, 0x3c, 0x71, 0xca, 0x33, 0x3d, 0x68, 0xae, 0xe3, 0x3d,
  0x75, 0x2c, 0x95, 0x3d, 0xee, 0xea, 0xf7, 0x3d, 0x4f, 0x2f, 0x85, 0x3d,
  0x74, 0x08, 0x21, 0x3e, 0x6b, 0xe7, 0x90, 0xbc, 0x48, 0xe3, 0x5f, 0xbe,
  0xe8, 0xbd, 0x6b, 0x3d, 0xec, 0x0e, 0xc2, 0x3d, 0x68, 0x3a, 0xce, 0xbd,
  0x3b, 0x88, 0x16, 0xbd, 0x97, 0xd9, 0xed, 0x3c, 0x91, 0x37, 0x61, 0xbc,
  0xab, 0x7f, 0x75, 0xbc, 0x9e, 0x9a, 0x78, 0xbc, 0xef, 0xeb, 0xc8, 0x3d,
  0x2f, 0x18, 0xa8, 0xbc, 0x62, 0xd5, 0x26, 0xbd, 0x8e, 0xa0, 0x2f, 0x3d,
  0x23, 0xec, 0x03, 0x3d, 0x57, 0xa2, 0xa0, 0x3c, 0x5e, 0x00, 0x3b, 0xbd,
  0x93, 0x8d, 0xa5, 0xbe, 0xec, 0x44, 0xf7, 0x3d, 0x4a, 0x75, 0x89, 0x3d,
  0x05, 0xad, 0xf3, 0x39, 0x8e, 0x1d, 0xaa, 0x3c, 0xee, 0x87, 0x14, 0x3d,
  0xe2, 0x01, 0x78, 0x3d, 0xda, 0xea, 0xcc, 0x3c, 0x9e, 0x0b, 0x9a, 0x3c,
  0x3b, 0x1e, 0x24, 0x3e, 0xf6, 0x96, 0x90, 0x3d, 0x54, 0xb2, 0xf5, 0x3c,
  0xa4, 0xb4, 0xc3, 0x3c, 0x86, 0xd0, 0xb3, 0xbc, 0x5a, 0xd3, 0x56, 0x3d,
  0xf5, 0x4b, 0x3e, 0xbc, 0x6a, 0x52, 0xcf, 0x3c, 0x0b, 0xc0, 0x11, 0x3e,
  0xd8, 0x22, 0xe8, 0x3d, 0xe4, 0xb7, 0x1d, 0xbd, 0x69, 0xfa, 0x44, 0xbc,
  0xb0, 0x50, 0x5f, 0x3d, 0xd0, 0x4f, 0xae, 0x3d, 0x02, 0x9d, 0x8c, 0xbc,
  0xbe, 0x10, 0xe9, 0x3b, 0xd3, 0x43, 0x3c, 0x3c, 0xb1, 0xe7, 0x86, 0x3d,
  0xab, 0xe0, 0x87, 0xbc, 0xb6, 0x8e, 0xd5, 0x3d, 0xf4, 0xfa, 0xce, 0x3b,
  0xf8, 0x9c, 0xb4, 0x3d, 0x57, 0xbf, 0xea, 0xbd, 0xb7, 0x47, 0x4e, 0x3c,
  0x45, 0xc1, 0xa8, 0xbd, 0xa0, 0x0d, 0xb3, 0xbd, 0x0d, 0x90, 0x9b, 0xbd,
  0x3a, 0x4e, 0xb2, 0xbc, 0x66, 0xf9, 0x4c, 0xbe, 0xba, 0xdc, 0x5e, 0x3d,
  0xb8, 0x2b, 0xa0, 0x3d, 0x64, 0xb1, 0x3f, 0xbd, 0xfd, 0x87, 0x86, 0x3d,
  0xa1, 0x31, 0x82, 0xbd, 0x50, 0x60, 0xc0, 0xbd, 0x30, 0xa6, 0xd4, 0xbc,
  0xbf, 0xdd, 0x55, 0xbd, 0x9c, 0xb9, 0x30, 0xbd, 0x11, 0x09, 0x90, 0xbd,
  0xe3, 0x51, 0xce, 0xbd, 0xe5, 0xc2, 0x89, 0x3d, 0xa0, 0x84, 0xff, 0xbb,
  0xc2, 0x17, 0x49, 0xbd, 0xc2, 0xbb, 0x06, 0xbe, 0x46, 0x26, 0xba, 0xbd,
  0xc9, 0xa5, 0x2e, 0xbd, 0x34, 0x3c, 0x0c, 0x3d, 0x22, 0xd2, 0xb7, 0x3c,
  0xfc, 0x2d, 0xda, 0xbd, 0x79, 0xd2, 0x84, 0xbd, 0x33, 0xb3, 0xaf, 0x3d,
  0xc6, 0xee, 0x4e, 0x3b, 0x24, 0x91, 0xe6, 0xbc, 0x5e, 0x48, 0xf6, 0x3c,
  0x4b, 0xbc, 0x50, 0x3d, 0x63, 0x0e, 0x1e, 0xbe, 0x6b, 0x20, 0x87, 0xbb,
  0x5b, 0x0f, 0xab, 0x3c, 0x75, 0x85, 0xcb, 0xbc, 0xdf, 0xcd, 0xeb, 0xbd,
  0xe5, 0xc7, 0xc4, 0xbd, 0x53, 0xaa, 0xb7, 0xbd, 0x84, 0x4d, 0x03, 0xbd,
  0xeb, 0x05, 0xda, 0xbd, 0x85, 0xe8, 0x70, 0x3c, 0x4f, 0x44, 0xfa, 0x3c,
  0x35, 0xdd, 0x59, 0xbd, 0x1e, 0xa1, 0x9a, 0xb8, 0xf9, 0xe0, 0xa5, 0xbc,
  0xd1, 0x29, 0x9e, 0xbc, 0x4c, 0xb3, 0xa5, 0xbd, 0x49, 0xf4, 0x53, 0x3d,
  0x7a, 0x97, 0x63, 0x3c, 0x96, 0x1e, 0x16, 0x3e, 0x50, 0xbc, 0xc8, 0xbd,
  0x42, 0x2d, 0x0a, 0xbe, 0xbe, 0x36, 0xd3, 0xbd, 0x68, 0xcc, 0x69, 0xbd,
  0x70, 0x07, 0x23, 0x3d, 0x4d, 0x21, 0x88, 0x3d, 0x55, 0x04, 0xea, 0x3c,
  0x0b, 0xf0, 0x50, 0x3c, 0x31, 0x67, 0xf9, 0xbd, 0x7f, 0xab, 0x35, 0xbd,
  0x19, 0x1c, 0x08, 0xbd, 0xf6, 0x4e, 0x8b, 0xbd, 0x5e, 0x2f, 0xc4, 0xbc,
  0x7e, 0x91, 0xa1, 0xbe, 0x90, 0x8b, 0xbf, 0x3d, 0xa9, 0x3c, 0xc0, 0xbd,
  0xb5, 0xf7, 0x6d, 0xbe, 0x9f, 0xb0, 0x90, 0xbd, 0x59, 0x46, 0xbf, 0xbd,
  0x98, 0x4e, 0xe7, 0xbd, 0xa5, 0xa3, 0x26, 0xbd, 0x59, 0x8b, 0x84, 0xbe,
  0x72, 0x91, 0x02, 0xbe, 0x4f, 0x38, 0x80, 0xbe, 0x87, 0x9e, 0x93, 0xbb,
  0xec, 0x82, 0xc6, 0xbc, 0x26, 0x09, 0xb5, 0xbd, 0x0d, 0x6d, 0xc2, 0xbd,
  0x3a, 0x6c, 0x1c, 0xbd, 0x49, 0xd8, 0x16, 0x3e, 0xda, 0x76, 0x84, 0xbc,
  0x67, 0xb9, 0x53, 0xbd, 0x80, 0xc1, 0x8a, 0xbe, 0xda, 0x51, 0x2b, 0xbe,
  0x86, 0x2c, 0x2b, 0xbe, 0x5f, 0x4b, 0x15, 0xbe, 0x2a, 0xce, 0x93, 0xbe,
  0xc9, 0x5c, 0xa1, 0xbe, 0xd7, 0x48, 0xfb, 0xbc, 0xe1, 0x11, 0x83, 0xbe,
  0x28, 0x0b, 0x38, 0xbe, 0x52, 0xe2, 0x70, 0xbd, 0xc2, 0x98, 0x46, 0xbd,
  0x47, 0x66, 0xad, 0x3c, 0xfe, 0xdf, 0x4b, 0xbe, 0x20, 0xca, 0xaf, 0x3d,
  0x6f, 0x3c, 0x10, 0xbd, 0x62, 0xb4, 0xdb, 0xbc, 0x5d, 0xe8, 0x0d, 0xbe,
  0xa3, 0x61, 0x1b, 0xbe, 0x37, 0x86, 0x4a, 0xbe, 0x48, 0x2b, 0xc9, 0xbd,
  0x22, 0xd2, 0x0d, 0x3e, 0x0d, 0x36, 0x5a, 0xbe, 0x23, 0x2b, 0xeb, 0xbc,
  0x1c, 0x97, 0x66, 0xbe, 0xd0, 0x33, 0x11, 0xbd, 0xfb, 0xd6, 0xc9, 0xbc,
  0x65, 0x14, 0xbd, 0xbc, 0xbe, 0x2c, 0xc2, 0x3c, 0x73, 0x28, 0x2d, 0xbe,
  0x7d, 0x79, 0xb0, 0x3d, 0x9e, 0xa2, 0x68, 0x3e, 0x64, 0xf9, 0x84, 0x3e,
  0x3d, 0xbd, 0x35, 0x3e, 0xf8, 0x42, 0x7e, 0x3e, 0xdc, 0x84, 0xa6, 0x3e,
  0x13, 0xf0, 0xb7, 0x3e, 0x66, 0x9b, 0x0e, 0x3e, 0x75, 0xf7, 0x91, 0xbd,
  0xc7, 0xdc, 0x89, 0x3e, 0x9a, 0xa4, 0x89, 0xbb, 0x43, 0x96, 0xab, 0x3e,
  0x28, 0x5f, 0xcb, 0x3e, 0xe7, 0x65, 0xd6, 0x3e, 0x66, 0x3a, 0x53, 0x3e,
  0xaa, 0xa3, 0x0a, 0x3e, 0xc6, 0x54, 0xdb, 0xbe, 0x46, 0x8c, 0x5a, 0x3e,
  0xbb, 0xf4, 0xa0, 0x3e, 0x9c, 0xa1, 0xd6, 0x3d, 0x4c, 0xaa, 0x94, 0x3e,
  0x46, 0xe4, 0x6d, 0x3e, 0x6e, 0x4f, 0xb8, 0x3e, 0x13, 0x10, 0x3e, 0x3e,
  0x3e, 0x7d, 0x48, 0xbe, 0x68, 0x26, 0xd1, 0x3d, 0x61, 0xfe, 0x0c, 0x3e,
  0x10, 0x62, 0x8c, 0x3e, 0x88, 0x89, 0x6b, 0x3e, 0x15, 0xc1, 0xe2, 0x3e,
  0x6f, 0x62, 0x83, 0x3e, 0x12, 0x9e, 0x06, 0x3e, 0xb7, 0xa4, 0x11, 0xbf,
  0xb5, 0x8d, 0xef, 0xbc, 0xe6, 0x5d, 0x72, 0x3e, 0x5b, 0x2b, 0xb5, 0x3c,
  0x8b, 0xcb, 0x21, 0x3d, 0x58, 0x86, 0xe1, 0x3c, 0x4c, 0x8e, 0x1a, 0x3e,
  0x1b, 0x5b, 0xab, 0x3d, 0x43, 0xeb, 0xb3, 0xbe, 0x2a, 0x1c, 0x52, 0x3b,
  0x2e, 0x2b, 0xb3, 0xbd, 0x17, 0xe2, 0x28, 0x3e, 0xf6, 0xba, 0x08, 0x3e,
  0xda, 0xcb, 0x80, 0x3e, 0x6c, 0x16, 0x0e, 0x3e, 0x04, 0x3e, 0xa1, 0xbb,
  0x9a, 0x4f, 0x2d, 0xbf, 0x44, 0x94, 0x18, 0xbe, 0xeb, 0x21, 0x85, 0xbd,
  0x34, 0x76, 0x3e, 0x3d, 0xc7, 0x2f, 0xd0, 0x3d, 0xff, 0x66, 0x09, 0x3e,
  0x74, 0x34, 0x89, 0x3d, 0xe4, 0x8a, 0xeb, 0x3d, 0x30, 0xa6, 0xd6, 0xbd,
  0xe8, 0x55, 0x81, 0xbd, 0x0e, 0xe7, 0x82, 0x3d, 0xdd, 0x79, 0x9e, 0xbb,
  0x39, 0xe0, 0x7c, 0x3c, 0x93, 0xc3, 0x84, 0xbc, 0xe0, 0xd3, 0x42, 0xbd,
  0x7b, 0xeb, 0x15, 0x3e, 0x56, 0xe6, 0x0d, 0xbd, 0xe7, 0x03, 0xe7, 0xbd,
  0xd9, 0x13, 0x93, 0xbd, 0x02, 0x47, 0x01, 0x3e, 0x7b, 0xed, 0x7b, 0x3d,
  0xd5, 0x08, 0xdd, 0x3c, 0x40, 0x39, 0x1b, 0x3e, 0xef, 0x5c, 0xa9, 0x3d,
  0x26, 0xa7, 0x30, 0x3c, 0xd5, 0xe1, 0x51, 0x3d, 0xcc, 0xdb, 0x8e, 0xbd,
  0x73, 0xb7, 0xa8, 0xbd, 0x24, 0xe3, 0x42, 0xbd, 0xd5, 0x8b, 0x18, 0x3d,
  0x2c, 0xc3, 0x93, 0x3d, 0x0b, 0x1a, 0x12, 0xbd, 0xeb, 0x1a, 0x38, 0xbe,
  0x30, 0xc9, 0xe1, 0x3c, 0x35, 0x1f, 0x44, 0xbd, 0x20, 0xf1, 0x8e, 0xbd,
  0xd6, 0x30, 0x0d, 0x3e, 0xe6, 0x05, 0x51, 0xbd, 0x1b, 0x5e, 0xd3, 0xbd,
  0xd6, 0xfa, 0x80, 0x3d, 0x2b, 0x53, 0x70, 0xbd, 0xdb, 0xa2, 0xd9, 0xbd,
  0x52, 0xdb, 0xd8, 0xbc, 0x2f, 0x09, 0x19, 0x3d, 0x87, 0x2d, 0xc2, 0xbd,
  0x00, 0x3e, 0xe4, 0xbd, 0x2b, 0x81, 0x1c, 0xbd, 0x0d, 0x59, 0x81, 0x3d,
  0x66, 0xf0, 0x99, 0xbe, 0x30, 0xae, 0x8a, 0xbd, 0x22, 0x12, 0xd7, 0xbc,
  0xc2, 0xfa, 0x29, 0x3e, 0xa0, 0x6d, 0x82, 0x3d, 0xb6, 0xb9, 0x07, 0x3d,
  0xf9, 0xcf, 0x58, 0x3e, 0xc4, 0x68, 0x2a, 0x3e, 0xb9, 0x0f, 0xd7, 0x3d,
  0x6c, 0x1a, 0xc2, 0x3c, 0x7d, 0xb4, 0xd7, 0x3d, 0x38, 0x92, 0x4a, 0x3d,
  0x1c, 0xad, 0xb5, 0x3d, 0x31, 0xac, 0x3a, 0x3d, 0x73, 0x7f, 0x47, 0x3e,
  0xe1, 0x9f, 0x5c, 0x3d, 0x0e, 0xc5, 0x28, 0x3c, 0x75, 0xbe, 0x45, 0x3c,
  0xc5, 0x49, 0x1e, 0xbd, 0xd9, 0xca, 0x95, 0x3d, 0x61, 0x18, 0x10, 0x3d,
  0xd7, 0x07, 0xaf, 0x3d, 0x7f, 0xb6, 0x37, 0x3d, 0x58, 0xbe, 0x01, 0x3e,
  0xa3, 0x63, 0x49, 0x3d, 0x7a, 0x9d, 0x8b, 0x3d, 0x29, 0x15, 0xb1, 0x3d,
  0x8f, 0xae, 0xf4, 0x3d, 0xb2, 0x6f, 0x9b, 0x3d, 0x90, 0x22, 0x8f, 0x3d,
  0xd2, 0xfc, 0xb9, 0x3d, 0x1e, 0xcb, 0x45, 0x3d, 0x9f, 0xfd, 0x0b, 0xbd,
  0x08, 0x77, 0xfd, 0x3c, 0xe4, 0x75, 0xc0, 0xbd, 0xf5, 0xcb, 0x64, 0x3c,
  0x31, 0x28, 0xc4, 0xbc, 0xc9, 0x73, 0xdb, 0xbc, 0x42, 0xe4, 0x8b, 0xbc,
  0x4a, 0xc7, 0xd5, 0x3d, 0x21, 0x7d, 0xfd, 0xbd, 0xc3, 0xc4, 0x9b, 0xbd,
  0xfb, 0xfa, 0xc3, 0xbc, 0x08, 0x8d, 0x91, 0x3c, 0x8b, 0x1f, 0x87, 0xbd,
  0x88, 0x8b, 0xd5, 0x3b, 0x68, 0xe4, 0x1e, 0x3d, 0xa4, 0xa0, 0x21, 0x3d,
  0x1e, 0x02, 0x0d, 0xbe, 0xcd, 0x2f, 0x44, 0x3d, 0x52, 0xb4, 0x8f, 0x3d,
  0x94, 0x00, 0x32, 0x3d, 0x48, 0x31, 0x0e, 0x3e, 0x84, 0xb5, 0x1d, 0x3e,
  0xb7, 0x6c, 0x35, 0x3e, 0x23, 0x1b, 0xa4, 0x3e, 0xf8, 0x2e, 0x48, 0x3e,
  0xb2, 0x2d, 0xc7, 0xbc, 0x1b, 0x96, 0xae, 0x3c, 0xf4, 0xfa, 0x1a, 0x3e,
  0x53, 0xfd, 0x0a, 0x3e, 0x5c, 0x9c, 0xed, 0x3d, 0xd5, 0x81, 0x46, 0x3e,
  0x0a, 0x1d, 0x94, 0x3d, 0x3f, 0x0a, 0x6c, 0x3e, 0xc6, 0x17, 0xa8, 0xbd,
  0x16, 0x65, 0xb4, 0xbb, 0xab, 0x07, 0xbd, 0x3d, 0x33, 0x94, 0x3d, 0x3e,
  0xb9, 0x7f, 0x8b, 0x3d, 0x81, 0xce, 0x01, 0x3e, 0x9f, 0x1c, 0x6a, 0x3e,
  0x8c, 0xa0, 0x84, 0x3d, 0x7e, 0x0c, 0x3c, 0x3d, 0xae, 0xd6, 0xb1, 0xbc,
  0xcd, 0x8e, 0x7a, 0x3d, 0xeb, 0xc1, 0x0d, 0x3e, 0xae, 0xfb, 0x2d, 0x3c,
  0x2f, 0x41, 0x86, 0x3d, 0x98, 0xb4, 0xac, 0x3d, 0x06, 0x8b, 0x38, 0xbd,
  0x88, 0x81, 0xfb, 0xbd, 0x77, 0x4c, 0x34, 0x3d, 0x3a, 0x0d, 0x2d, 0xbc,
  0xc0, 0x19, 0x13, 0x3d, 0x55, 0x50, 0x70, 0xba, 0x80, 0x22, 0xda, 0xbc,
  0xd9, 0x34, 0x10, 0x3e, 0x4a, 0x42, 0x0c, 0x3c, 0x21, 0x91, 0x26, 0xbd,
  0x31, 0x9d, 0x63, 0x3d, 0x73, 0xf0, 0xda, 0x3d, 0xa0, 0x4e, 0xd1, 0x3c,
  0xc4, 0xa6, 0xe0, 0xbd, 0x2c, 0x3b, 0x06, 0x3e, 0xcc, 0x23, 0xa1, 0x3d,
  0xfb, 0x24, 0xc3, 0x3b, 0xc3, 0x31, 0xaf, 0x3a, 0xbf, 0x13, 0x64, 0x3d,
  0xb5, 0xce, 0x44, 0x3e, 0x65, 0xc5, 0xf1, 0x3d, 0x49, 0xc5, 0x9c, 0x3d,
  0x75, 0xcd, 0xf5, 0x3d, 0xbd, 0xbc, 0xf7, 0x3d, 0x50, 0xcf, 0x27, 0xbd,
  0x97, 0x20, 0x56, 0x3d, 0xe0, 0xf8, 0xd5, 0x3b, 0xb2, 0x44, 0x1e, 0xbd,
  0xd1, 0x6b, 0x21, 0xbd, 0x95, 0xb4, 0x6c, 0x3d, 0xfd, 0xd1, 0x22, 0x3e,
  0x23, 0x08, 0xae, 0x3c, 0xc6, 0x3a, 0xa1, 0x3e, 0x0a, 0x87, 0x8f, 0xbd,
  0x1b, 0x0f, 0x78, 0x3d, 0xe7, 0xef, 0xea, 0x3d, 0xdc, 0xc8, 0x0e, 0x3e,
  0x6c, 0x6a, 0x6e, 0x3c, 0x25, 0xf3, 0x8c, 0xbd, 0xc6, 0x50, 0x3a, 0x3e,
  0xe5, 0x8a, 0xbc, 0xbc, 0xcb, 0x53, 0x82, 0xbd, 0xee, 0x99, 0xb5, 0x3a,
  0xf6, 0xe4, 0x13, 0x3e, 0xb4, 0xdb, 0x9a, 0x3d, 0x7a, 0x1b, 0xd2, 0x3b,
  0x84, 0x8b, 0x25, 0x3e, 0x3e, 0x65, 0xe4, 0x3c, 0x56, 0xda, 0xcb, 0x3d,
  0xbc, 0x49, 0x35, 0xbd, 0x0f, 0xdb, 0x1f, 0xbd, 0xe4, 0xbc, 0xde, 0xbc,
  0xae, 0x4f, 0x29, 0x3e, 0x43, 0x6f, 0x08, 0x3c, 0xa9, 0x85, 0x58, 0x3d,
  0x2d, 0xaf, 0xd7, 0x3d, 0x72, 0x22, 0x30, 0x3d, 0xf2, 0xd5, 0x7b, 0xbd,
  0x4c, 0x8a, 0xb6, 0x3c, 0x9d, 0x1e, 0xdc, 0x3d, 0xf2, 0xe5, 0xbf, 0x3d,
  0xca, 0xf7, 0xea, 0x3c, 0x9a, 0x94, 0x82, 0x3c, 0x1d, 0x4b, 0x8c, 0x3d,
  0xcd, 0xbb, 0x26, 0x3e, 0x4f, 0xc6, 0xb2, 0xbd, 0x77, 0x45, 0x86, 0x3d,
  0x54, 0x5f, 0xbc, 0xbc, 0x5c, 0xfb, 0x7f, 0x3e, 0x05, 0x20, 0x92, 0xbd,
  0xe4, 0xa4, 0xf5, 0xbc, 0x2e, 0xfd, 0x61, 0x3e, 0x5e, 0x55, 0x88, 0xbd,
  0x39, 0x48, 0x20, 0xbd, 0x24, 0xe2, 0x7f, 0xbd, 0x34, 0x5b, 0xd2, 0x3d,
  0x20, 0x26, 0x66, 0xbe, 0x94, 0x72, 0xb4, 0xbd, 0xdd, 0x5f, 0x5c, 0x3d,
  0xbe, 0x12, 0x50, 0xbd, 0x1c, 0xba, 0xc1, 0x3e, 0x6e, 0xfb, 0x69, 0x3d,
  0x81, 0x14, 0x72, 0xbd, 0x75, 0x5f, 0xd4, 0x3d, 0x1d, 0xb1, 0xdc, 0x3d,
  0x8d, 0x6f, 0x89, 0x3d, 0x7c, 0xd4, 0x2a, 0x3e, 0x91, 0x7f, 0x28, 0xbd,
  0x6f, 0x24, 0xd5, 0xbd, 0xbd, 0xe1, 0x0c, 0xbd, 0x3c, 0x9d, 0xab, 0x3d,
  0xb9, 0x45, 0x30, 0x3d, 0x5d, 0x23, 0x85, 0x3d, 0x9b, 0x94, 0x76, 0xbd,
  0xfd, 0xe4, 0x1c, 0x3e, 0x9a, 0x05, 0xba, 0x3d, 0x52, 0x80, 0x63, 0x3e,
  0x76, 0xbf, 0xa7, 0x3d, 0x6a, 0x91, 0xbe, 0x3d, 0xec, 0x34, 0x0b, 0x3e,
  0x73, 0x1c, 0xb6, 0x3d, 0x01, 0x1f, 0xbf, 0x3d, 0x22, 0xef, 0x15, 0xbd,
  0x4c, 0xd7, 0xa0, 0x3d, 0xe8, 0x60, 0x76, 0x3d, 0xf0, 0x50, 0x01, 0xbd,
  0x77, 0x3e, 0x10, 0x3d, 0x45, 0x10, 0x22, 0x3e, 0x55, 0x89, 0x39, 0x3d,
  0x6b, 0xa5, 0x56, 0xbd, 0xd0, 0x47, 0x2b, 0x3d, 0x0e, 0x04, 0xbd, 0x3d,
  0x2b, 0xf6, 0xa0, 0x3e, 0xfb, 0xb1, 0x61, 0xbd, 0xdd, 0xd1, 0xf3, 0xbd,
  0x28, 0x19, 0xb1, 0xbd, 0x69, 0x43, 0xd8, 0x3b, 0x33, 0x59, 0x11, 0x3d,
  0xd4, 0x4e, 0xae, 0x3b, 0xb1, 0x85, 0xd2, 0xbd, 0x42, 0x18, 0x2e, 0xbe,
  0xf5, 0xbd, 0x3f, 0xbe, 0xc4, 0x82, 0x55, 0xbc, 0x53, 0x5e, 0x63, 0xba,
  0x7b, 0x59, 0x62, 0xbc, 0xc6, 0x2a, 0xfd, 0xbd, 0x3e, 0xb4, 0xd2, 0xbd,
  0x51, 0x52, 0x80, 0x3c, 0x53, 0x97, 0x32, 0x3e, 0x16, 0xa4, 0xed, 0xbd,
  0x53, 0x7f, 0xff, 0x3a, 0xd3, 0x34, 0xba, 0x3d, 0x54, 0x4f, 0x86, 0xbb,
  0x0e, 0x5f, 0x92, 0x3d, 0xc2, 0x13, 0xea, 0x3d, 0x1d, 0x94, 0x3c, 0x3e,
  0xf9, 0xa5, 0x81, 0xbe, 0xc7, 0x85, 0x11, 0xbe, 0x76, 0x3d, 0xf9, 0xbc,
  0x70, 0x9a, 0xac, 0x3d, 0xe7, 0xd0, 0x25, 0xbe, 0x58, 0x6c, 0x5c, 0xbd,
  0xa6, 0xf5, 0xce, 0x3b, 0x2a, 0xb8, 0xe8, 0xbd, 0x80, 0xf0, 0xd5, 0x3e,
  0xaa, 0xd0, 0x60, 0x3d, 0x4a, 0x16, 0x43, 0xbd, 0x5f, 0x27, 0x9b, 0x3d,
  0x5d, 0xa2, 0x80, 0x3e, 0xa4, 0xeb, 0x56, 0x3d, 0x70, 0xf6, 0x03, 0x3e,
  0xea, 0x1d, 0x3d, 0x3e, 0x20, 0x21, 0x1e, 0xbd, 0xb4, 0xca, 0xd4, 0x3c,
  0x5a, 0xc6, 0x58, 0x3d, 0x0f, 0xbe, 0x6e, 0x3e, 0x3a, 0xaa, 0xf8, 0x3c,
  0xa0, 0x80, 0xa9, 0x3d, 0xb4, 0xf4, 0x3d, 0x3d, 0xe9, 0x22, 0xdb, 0x3d,
  0x10, 0xe5, 0xbd, 0x3e, 0x7a, 0xbf, 0x17, 0xbe, 0xfc, 0x37, 0x96, 0xbc,
  0x4e, 0x5a, 0x81, 0xbe, 0x9a, 0x95, 0x70, 0x3d, 0x72, 0x7c, 0x2a, 0xbe,
  0xb4, 0x4d, 0x5f, 0x3d, 0x19, 0x11, 0x8c, 0xbd, 0x89, 0xbc, 0x7b, 0xbe,
  0x7a, 0xac, 0x72, 0xbe, 0xe5, 0xa8, 0x88, 0xbe, 0x63, 0x1c, 0x11, 0xbe,
  0x7f, 0x1e, 0x20, 0xbe, 0x88, 0xa3, 0xd8, 0xbd, 0x27, 0x6b, 0x86, 0xbe,
  0x49, 0xe3, 0xfe, 0xbd, 0xbc, 0xd9, 0x93, 0x3e, 0x22, 0x13, 0xe9, 0xbd,
  0x34, 0x8d, 0x44, 0xbe, 0x08, 0x12, 0x02, 0xbe, 0xe8, 0xab, 0x5d, 0x3c,
  0xaf, 0x6d, 0x28, 0xbe, 0x8e, 0x10, 0x18, 0xbe, 0x52, 0x04, 0x36, 0xbe,
  0x03, 0x17, 0xd7, 0xbe, 0xa8, 0x50, 0x3d, 0xbe, 0xbd, 0xa1, 0x6e, 0xbe,
  0xfb, 0x50, 0xa7, 0xbc, 0x1a, 0xb7, 0x58, 0xbd, 0x07, 0xf6, 0x86, 0x3b,
  0xfe, 0x54, 0x8b, 0xbd, 0xdc, 0x48, 0x8c, 0xbd, 0xac, 0x88, 0xf4, 0x3e,
  0x21, 0x51, 0xda, 0xbd, 0xc0, 0x8f, 0x68, 0x3c, 0x80, 0x7f, 0x0d, 0xbe,
  0xfc, 0x1f, 0x33, 0x3e, 0x10, 0xea, 0x00, 0xbe, 0x7a, 0xe5, 0xb0, 0xbc,
  0xff, 0x90, 0xbf, 0x3d, 0x8d, 0x7b, 0xfd, 0xbd, 0xd3, 0x1a, 0x05, 0xbe,
  0x5a, 0xc8, 0xe4, 0xbd, 0x27, 0x8d, 0x2d, 0x3e, 0xfd, 0xd4, 0xcb, 0x3b,
  0xa3, 0x48, 0x80, 0xbd, 0xe2, 0xfd, 0x35, 0x3d, 0xd4, 0x69, 0x72, 0x3d,
  0x63, 0x62, 0xba, 0x3e, 0xa9, 0x80, 0x82, 0xbd, 0x8d, 0x1c, 0x45, 0x3e,
  0x61, 0x5a, 0xe5, 0xbb, 0x0b, 0xba, 0x09, 0x3e, 0x71, 0x0b, 0xde, 0xbd,
  0xf0, 0x22, 0x3d, 0x3e, 0xd2, 0x7e, 0xbc, 0x3e, 0xf9, 0xf6, 0x60, 0xbe,
  0xaf, 0x87, 0x48, 0x3e, 0x93, 0xa1, 0xa4, 0x3d, 0x32, 0x48, 0xee, 0x3d,
  0x56, 0xdc, 0x1a, 0xba, 0x7b, 0xb7, 0x68, 0xbc, 0x47, 0x52, 0xae, 0x3e,
  0xf2, 0x89, 0xbc, 0xbc, 0x69, 0x8d, 0x39, 0x3c, 0x27, 0x09, 0x1d, 0x3e,
  0x79, 0x37, 0x40, 0x3e, 0xfe, 0x5d, 0x26, 0xbc, 0x6d, 0x8f, 0x1f, 0x3e,
  0xbe, 0x90, 0x0d, 0x3e, 0xd0, 0xca, 0xd7, 0x3e, 0x55, 0x30, 0xfa, 0x3e,
  0x3c, 0x3b, 0x59, 0xbe, 0xa4, 0x19, 0xd6, 0x3d, 0x85, 0x3a, 0x01, 0x3e,
  0xa7, 0xb9, 0xe8, 0x3d, 0xb0, 0x66, 0xb2, 0x3d, 0x66, 0xfd, 0x26, 0x3e,
  0xb5, 0xb8, 0xbc, 0x3e, 0x0b, 0x25, 0x11, 0x3d, 0xdf, 0x15, 0xb6, 0xbc,
  0x75, 0x9a, 0x2a, 0x3d, 0xd0, 0x04, 0x24, 0x3e, 0x5e, 0xc8, 0xe2, 0x3d,
  0x00, 0xbc, 0x9a, 0xbb, 0xb9, 0xba, 0x85, 0x3d, 0x70, 0xe9, 0x2a, 0x3e,
  0x11, 0xf6, 0xf1, 0x3e, 0xc5, 0xf6, 0x0b, 0xbd, 0x2e, 0x8f, 0x34, 0x3c,
  0xcc, 0x08, 0x2c, 0x3d, 0x19, 0xb5, 0x2c, 0x3d, 0xc8, 0x48, 0xb9, 0xbd,
  0x8f, 0x17, 0xfe, 0x3c, 0xa2, 0xd0, 0xa6, 0x3e, 0x5c, 0x9b, 0x12, 0x3d,
  0x75, 0x9e, 0xbe, 0x3c, 0xaa, 0x82, 0xac, 0xbd, 0xb9, 0xa1, 0xb4, 0x3d,
  0x47, 0x08, 0xfb, 0x3d, 0x35, 0xa5, 0x73, 0xbd, 0x15, 0x98, 0x46, 0xbd,
  0x3e, 0x9a, 0xa1, 0x3d, 0x26, 0x56, 0x91, 0x3e, 0x15, 0xc1, 0x01, 0xbe,
  0x2e, 0x91, 0xc4, 0xbc, 0x2f, 0x99, 0xbd, 0xbd, 0x33, 0x36, 0x9a, 0xbd,
  0x1c, 0x7d, 0xbb, 0x3d, 0x49, 0x97, 0x8b, 0xbd, 0x0a, 0x24, 0xca, 0x3d,
  0xa1, 0x9a, 0x02, 0xbe, 0xcd, 0xc1, 0x30, 0x3e, 0xca, 0x95, 0x8f, 0xbd,
  0x99, 0x03, 0xea, 0x3b, 0x92, 0xdc, 0x07, 0x3e, 0x24, 0x49, 0x2b, 0x3c,
  0xc1, 0xf1, 0xba, 0xbd, 0xa0, 0x23, 0x82, 0xbd, 0x69, 0xc5, 0x1c, 0x3e,
  0x39, 0x14, 0x3f, 0xbc, 0xb1, 0x59, 0x4c, 0xbd, 0x30, 0x71, 0x70, 0x3d,
  0xb4, 0x1f, 0x40, 0xbe, 0x80, 0x5d, 0x6b, 0xbd, 0xf5, 0x77, 0x93, 0x3d,
  0x43, 0x7a, 0x5c, 0x3e, 0x14, 0xf6, 0xea, 0xbd, 0x8c, 0xd8, 0xb9, 0xbd,
  0x7e, 0xa6, 0xa5, 0xbd, 0xdf, 0x79, 0x54, 0x3d, 0x0e, 0xdb, 0x8c, 0xbd,
  0xf1, 0x8c, 0x4e, 0xbd, 0x4d, 0x88, 0xef, 0xbc, 0x1f, 0xef, 0x27, 0x3e,
  0x3c, 0x63, 0xf5, 0x3e, 0xd2, 0xb7, 0x3f, 0xbe, 0xe2, 0x1b, 0x04, 0xbe,
  0x4c, 0x3d, 0x27, 0x3d, 0xae, 0x2e, 0x80, 0x3b, 0xdb, 0xfb, 0x59, 0xbd,
  0x23, 0x3e, 0x8c, 0xbd, 0xbb, 0xd6, 0x4c, 0x3e, 0x10, 0x56, 0x29, 0x3d,
  0x15, 0xb0, 0x3c, 0x3d, 0x8d, 0x2f, 0xae, 0xbc, 0xfb, 0x9a, 0x04, 0x3d,
  0x22, 0x13, 0xae, 0x3d, 0x96, 0x30, 0x26, 0x3e, 0x26, 0x38, 0x03, 0xbe,
  0x22, 0x53, 0x7b, 0x3e, 0xdd, 0x2d, 0xaf, 0x3e, 0xfa, 0xe1, 0x34, 0xbe,
  0x09, 0xbe, 0x05, 0xbd, 0xdb, 0xea, 0x86, 0x3d, 0x90, 0xc6, 0x67, 0xbd,
  0x3c, 0x38, 0x9c, 0xbd, 0xc2, 0x39, 0x05, 0x3c, 0xe8, 0xb3, 0x44, 0x3c,
  0xb2, 0x38, 0xf2, 0xbc, 0xab, 0x6e, 0x08, 0x3e, 0x64, 0x56, 0x12, 0x3d,
  0xf8, 0xc2, 0xf5, 0x3b, 0x3d, 0x47, 0x2f, 0xbc, 0xfa, 0x56, 0x03, 0xbe,
  0xa2, 0xff, 0x92, 0xbd, 0xf7, 0xfb, 0x68, 0x3e, 0xc2, 0xac, 0x5e, 0x3e,
  0x84, 0xb4, 0x6c, 0xbe, 0xb1, 0x1f, 0xfa, 0xbb, 0x84, 0x90, 0xa1, 0xbc,
  0x64, 0x02, 0x2d, 0xbe, 0x77, 0xcd, 0xd9, 0xbd, 0x12, 0x57, 0x50, 0x3d,
  0x93, 0x8b, 0xf7, 0xbb, 0xc1, 0x91, 0x53, 0xbd, 0xf2, 0xce, 0xf1, 0x3d,
  0x8d, 0x2a, 0xba, 0xbd, 0x32, 0x44, 0xe4, 0xbd, 0x55, 0x3b, 0x20, 0x3d,
  0x58, 0x8b, 0xfa, 0x3c, 0x15, 0xbb, 0x0a, 0xbe, 0x54, 0xe3, 0xc0, 0x3d,
  0xdf, 0xc3, 0xdd, 0x3e, 0x03, 0x32, 0xa4, 0x3c, 0x2f, 0xa5, 0x27, 0xbd,
  0x38, 0x1f, 0x6f, 0x3d, 0x94, 0x5c, 0x96, 0x3c, 0x83, 0x46, 0xbe, 0xbc,
  0xaa, 0x5b, 0x88, 0xbc, 0xb4, 0x88, 0x98, 0x3e, 0x9d, 0xdc, 0xcb, 0xbc,
  0x61, 0xf4, 0xa0, 0x3e, 0x76, 0x55, 0x4a, 0xbe, 0x2e, 0xbf, 0xc9, 0x3c,
  0x2e, 0xf9, 0x0d, 0x3e, 0xc3, 0xca, 0x5b, 0xbc, 0xdd, 0x3f, 0xe9, 0x3d,
  0xc5, 0xbe, 0x31, 0x3e, 0xff, 0x66, 0xd1, 0x3d, 0xda, 0xa8, 0x1f, 0xbe,
  0x6d, 0x30, 0x7f, 0x3d, 0x5a, 0x17, 0xd1, 0x3d, 0xb5, 0xfe, 0x53, 0xbe,
  0x53, 0x29, 0xf3, 0xbc, 0x9d, 0xd5, 0x45, 0xbd, 0x5c, 0x55, 0x55, 0x3e,
  0x1f, 0x88, 0x99, 0xbd, 0x18, 0xdf, 0x21, 0x3e, 0xe6, 0x6c, 0x82, 0xbd,
  0x02, 0x24, 0xcb, 0x3c, 0xce, 0xb6, 0xf5, 0x3d, 0x89, 0x34, 0x1d, 0x3d,
  0xb9, 0x40, 0xd6, 0xbd, 0x70, 0x62, 0x8f, 0x3d, 0xfe, 0xe6, 0xde, 0x3c,
  0x91, 0xc6, 0x7c, 0x3b, 0xf1, 0xb7, 0x5e, 0xbd, 0x8c, 0x58, 0x10, 0x3c,
  0x7c, 0x09, 0x22, 0xbe, 0x86, 0x01, 0x1e, 0xbe, 0x57, 0xe7, 0xfb, 0xbc,
  0xc7, 0x3c, 0x38, 0x3e, 0xb4, 0xf4, 0x1c, 0xbe, 0xdb, 0x34, 0x04, 0x3e,
  0x29, 0xb3, 0x51, 0xbc, 0xdc, 0xe7, 0xa7, 0x3a, 0x99, 0xd6, 0xea, 0xbc,
  0xc0, 0xed, 0xdc, 0x3d, 0xab, 0x13, 0xb1, 0xbd, 0xe0, 0x6c, 0x74, 0x3e,
  0x1b, 0xa6, 0x7f, 0x3e, 0xe8, 0x9e, 0x05, 0xbd, 0xfc, 0x59, 0x0b, 0xbe,
  0xcb, 0xb3, 0x98, 0xbd, 0x92, 0x89, 0x3e, 0xbd, 0x7b, 0x95, 0x24, 0xbe,
  0xba, 0xa7, 0x38, 0x3b, 0xc2, 0x58, 0x2c, 0x3e, 0x2c, 0x72, 0x1c, 0xbd,
  0xb2, 0x77, 0x6a, 0x3e, 0x6d, 0xc4, 0xe4, 0xbd, 0xf7, 0x3a, 0x0b, 0xbd,
  0xc1, 0xf7, 0x28, 0x3e, 0x42, 0xbe, 0xd6, 0x3a, 0xe1, 0x48, 0xc2, 0xbd,
  0xad, 0x09, 0x88, 0x3d, 0xeb, 0xb0, 0x3c, 0x3e, 0x5e, 0x79, 0xd3, 0xbd,
  0x8f, 0x1e, 0x80, 0xbd, 0xad, 0x6e, 0x9c, 0x3d, 0x98, 0x7b, 0x77, 0xbd,
  0xe1, 0xad, 0xba, 0xbc, 0xce, 0x5b, 0xbf, 0xbd, 0x84, 0x13, 0x7f, 0x3d,
  0xba, 0x2c, 0x93, 0x3c, 0x76, 0x2a, 0x48, 0x3d, 0xc2, 0x71, 0x8c, 0xbd,
  0x71, 0xa6, 0x73, 0xbd, 0xa0, 0x16, 0x3c, 0xbc, 0xe1, 0xf4, 0x85, 0xbc,
  0x99, 0x08, 0x3e, 0x3c, 0x99, 0x3b, 0x16, 0x3e, 0x65, 0x82, 0x95, 0x3e,
  0x01, 0x61, 0x46, 0xbe, 0xac, 0x94, 0x8e, 0x3d, 0x2e, 0xad, 0xd3, 0x3c,
  0xd9, 0x07, 0xc3, 0xbd, 0x92, 0xeb, 0x01, 0xbe, 0x72, 0xf5, 0x1d, 0xbd,
  0x6e, 0xea, 0x27, 0x3e, 0xe5, 0x7a, 0xaa, 0xbd, 0xfe, 0x1d, 0x41, 0x3c,
  0xac, 0xc1, 0xe2, 0xbd, 0x43, 0xe7, 0x98, 0x3c, 0xaa, 0x28, 0xce, 0xbc,
  0xfe, 0xed, 0x17, 0x3d, 0x53, 0x6e, 0xbb, 0xbc, 0x3c, 0xde, 0xdd, 0x3d,
  0xce, 0xfa, 0xea, 0x3e, 0x0d, 0x2c, 0xb2, 0xbd, 0xb3, 0x0e, 0x9c, 0xbc,
  0xe6, 0xdb, 0x08, 0x3d, 0xae, 0xee, 0x33, 0x3c, 0x86, 0xbc, 0xc2, 0xbd,
  0x2f, 0x85, 0x1b, 0x3d, 0xb2, 0x25, 0x8e, 0x3e, 0x52, 0x1c, 0x45, 0xbd,
  0x43, 0x44, 0x85, 0x3e, 0x0a, 0xcd, 0xbc, 0xbd, 0xf3, 0xdc, 0x00, 0x3d,
  0xb0, 0xe0, 0xdc, 0x3d, 0x43, 0x03, 0x50, 0xbc, 0xfd, 0xb7, 0x72, 0xbd,
  0x0d, 0xa0, 0xda, 0x3d, 0x92, 0x9f, 0xae, 0x3e, 0x1a, 0x8f, 0xd1, 0xbd,
  0x61, 0xfd, 0xcc, 0x3b, 0x25, 0x52, 0x32, 0x3d, 0xef, 0x19, 0x50, 0xbe,
  0x5f, 0x41, 0xf5, 0xbd, 0x41, 0x3a, 0x04, 0xbe, 0x44, 0x3a, 0x46, 0x3e,
  0x2e, 0x81, 0xc2, 0xbd, 0x7b, 0xec, 0x9b, 0x3e, 0x27, 0x84, 0x91, 0xbd,
  0xb5, 0xba, 0x51, 0x3c, 0x5d, 0x6e, 0x02, 0x3e, 0xcf, 0xdb, 0x2e, 0xbc,
  0x5d, 0x93, 0xff, 0xbc, 0xe1, 0x26, 0x01, 0x3d, 0x3d, 0xfa, 0x9b, 0x3e,
  0x10, 0xad, 0x01, 0xbe, 0x55, 0x59, 0x47, 0xbd, 0x6a, 0x36, 0x3b, 0x3d,
  0x85, 0x8b, 0xca, 0xbd, 0xc1, 0x3d, 0xdb, 0xbd, 0x10, 0x01, 0xc5, 0xbc,
  0x23, 0xae, 0x15, 0x3e, 0x8b, 0x02, 0x90, 0xbd, 0x3f, 0x98, 0x76, 0x3e,
  0x28, 0xf4, 0xb5, 0xbd, 0x4a, 0x6e, 0x83, 0xbc, 0x69, 0xd8, 0x86, 0x3d,
  0x53, 0xa3, 0xd1, 0x3c, 0x8f, 0x76, 0x6e, 0x3d, 0x21, 0xbf, 0xb5, 0x3d,
  0x24, 0xe6, 0xae, 0x3e, 0x4c, 0x67, 0x31, 0xbd, 0x01, 0x5e, 0xa3, 0xbd,
  0xf0, 0x5d, 0x5b, 0xbc, 0x4f, 0xbb, 0x3e, 0xbe, 0xe4, 0x08, 0x82, 0x3c,
  0xce, 0x57, 0x74, 0x3d, 0x86, 0xd7, 0x2b, 0x3e, 0xc2, 0x07, 0x12, 0xbe,
  0x66, 0x7f, 0x8f, 0x3e, 0xa3, 0x67, 0x29, 0xbe, 0x6a, 0x97, 0x12, 0x3d,
  0x71, 0xa6, 0xd3, 0xbc, 0x93, 0xa9, 0x32, 0xbd, 0x9a, 0x16, 0x6d, 0xbc,
  0xbf, 0x96, 0x35, 0x3e, 0x5c, 0x2b, 0xaa, 0x3e, 0x48, 0xff, 0x9d, 0xbd,
  0xb2, 0x03, 0xab, 0x3c, 0x54, 0x09, 0x76, 0xbb, 0x44, 0xbc, 0x1d, 0xbe,
  0x00, 0xf5, 0x8c, 0xbd, 0x97, 0xcb, 0x24, 0x3c, 0x05, 0x2e, 0x0e, 0x3e,
  0x2d, 0x0d, 0xe1, 0xbd, 0x63, 0x0b, 0x2d, 0x3c, 0x72, 0x5c, 0xdf, 0xbc,
  0x78, 0x72, 0x95, 0xbc, 0x8f, 0x8d, 0xc2, 0x3d, 0xb0, 0xdd, 0xac, 0xbc,
  0x91, 0xa8, 0xf8, 0xbd, 0x07, 0xeb, 0x4d, 0x3d, 0x5f, 0x75, 0x14, 0x3e,
  0x16, 0xeb, 0x1a, 0xbe, 0xfa, 0x73, 0x77, 0x3d, 0xa3, 0xae, 0xe9, 0xbc,
  0x38, 0x28, 0x23, 0xbe, 0x15, 0x73, 0x20, 0xbe, 0x52, 0x45, 0x9d, 0xbd,
  0x35, 0xbb, 0xe7, 0x3d, 0x5d, 0x9d, 0xd2, 0xbd, 0x20, 0x63, 0xf0, 0x37,
  0xff, 0xf7, 0xf3, 0xbd, 0xae, 0x04, 0x88, 0x3c, 0x22, 0x65, 0x39, 0xbd,
  0xc8, 0xa8, 0x83, 0xbd, 0xc8, 0x9e, 0xbd, 0xbd, 0xd2, 0xea, 0xaf, 0x3d,
  0xda, 0x0b, 0xa1, 0x3e, 0xd8, 0xf4, 0xd9, 0x3d, 0x3f, 0xd4, 0x1a, 0x3d,
  0x97, 0x15, 0xbc, 0xbb, 0x89, 0x51, 0xd2, 0xbd, 0x5f, 0x86, 0xb1, 0xbd,
  0x74, 0x5e, 0x91, 0x3c, 0xa7, 0x7b, 0x3c, 0x3e, 0xce, 0x96, 0x83, 0xbd,
  0x74, 0x71, 0x97, 0x3e, 0xad, 0x38, 0x43, 0xbe, 0x57, 0x68, 0xa4, 0xbc,
  0x62, 0x5d, 0x42, 0x3d, 0x54, 0xea, 0x65, 0xbd, 0xe6, 0x0a, 0x65, 0xb9,
  0x28, 0x7b, 0xf6, 0x3d, 0x1a, 0x18, 0x64, 0x3e, 0x8f, 0x19, 0xb6, 0xbc,
  0xbb, 0x36, 0x3c, 0xbd, 0x03, 0x77, 0x62, 0x3c, 0x32, 0x8a, 0x83, 0xbe,
  0x2c, 0xc3, 0xa7, 0xbd, 0x57, 0x1d, 0xd6, 0xbd, 0x47, 0x98, 0xef, 0x3d,
  0xde, 0x85, 0xaf, 0xbe, 0x18, 0x3a, 0xb9, 0xbe, 0x7a, 0xc7, 0x0d, 0xbe,
  0x59, 0x5a, 0x58, 0xbc, 0x2f, 0xf3, 0x2d, 0xbd, 0x6f, 0xd2, 0xff, 0xbd,
  0x6b, 0xa2, 0x5a, 0xbd, 0xfc, 0xac, 0x1c, 0xbd, 0x02, 0xe9, 0x24, 0x3e,
  0xc4, 0x20, 0x53, 0xbd, 0x9f, 0x5c, 0x48, 0xbd, 0x49, 0x01, 0x88, 0x3d,
  0x92, 0xb0, 0x87, 0xbe, 0xe8, 0xa2, 0xed, 0xbd, 0x6b, 0x0e, 0x7b, 0xbb,
  0x74, 0x81, 0x2f, 0x3d, 0x09, 0x01, 0xd9, 0xbe, 0x09, 0x6d, 0x9c, 0xbe,
  0x7f, 0xf4, 0xec, 0xbc, 0xb3, 0x10, 0xc4, 0xbc, 0x6b, 0xe6, 0x94, 0x3d,
  0x7c, 0x00, 0xf7, 0x3c, 0xb2, 0xab, 0x9e, 0x3d, 0x0d, 0xa3, 0xcb, 0x3d,
  0xfe, 0x77, 0x6a, 0x3d, 0x62, 0x71, 0x95, 0x3c, 0x7b, 0x4a, 0xa4, 0x3d,
  0x06, 0xac, 0x5d, 0x3e, 0x8a, 0x19, 0x67, 0xbd, 0x1a, 0xf7, 0x33, 0xbd,
  0x1f, 0x43, 0xf2, 0x3c, 0x05, 0xd3, 0xfa, 0x3d, 0x42, 0x6c, 0xa4, 0x3c,
  0x31, 0x12, 0x8c, 0xbe, 0xd0, 0x4a, 0xa3, 0xbe, 0xf5, 0x29, 0xfa, 0xbd,
  0x0b, 0x3e, 0x72, 0xbd, 0xda, 0x26, 0x3b, 0xbe, 0xbb, 0x4c, 0xc6, 0xbe,
  0xd8, 0xe2, 0xc6, 0x3c, 0x54, 0xea, 0xb9, 0x3d, 0x3b, 0x8c, 0xcb, 0x3c,
  0xf0, 0xb3, 0x10, 0xbf, 0x84, 0x07, 0x2e, 0xbe, 0x5d, 0x4e, 0x16, 0xbe,
  0x97, 0x50, 0xb7, 0x3c, 0x15, 0x62, 0x85, 0xbe, 0x61, 0x37, 0xc2, 0x3d,
  0x38, 0xa7, 0x83, 0xbe, 0x00, 0x68, 0x21, 0x3e, 0xe0, 0x63, 0xa3, 0xbe,
  0xed, 0xf3, 0x63, 0xbd, 0xa5, 0x7c, 0x9b, 0xbe, 0x65, 0x99, 0x3c, 0xbd,
  0xe6, 0xf5, 0x8f, 0xbe, 0x1e, 0x40, 0x9e, 0xbd, 0xe2, 0x40, 0x9a, 0x3e,
  0x64, 0x7a, 0x2a, 0xbe, 0xe9, 0xd5, 0x3e, 0xbe, 0xa1, 0x56, 0x15, 0xbe,
  0x3f, 0x00, 0x32, 0xbe, 0x99, 0x8f, 0x14, 0xbb, 0x5a, 0xd5, 0xd6, 0xbd,
  0xde, 0xf9, 0x08, 0x3e, 0x3b, 0xc1, 0x15, 0xbe, 0x7f, 0xfe, 0x94, 0x3e,
  0x51, 0x0b, 0x6d, 0xbe, 0x28, 0xaa, 0xf4, 0xbc, 0x72, 0x69, 0xde, 0xbd,
  0xde, 0xdc, 0xdb, 0x3d, 0x49, 0x05, 0x94, 0x3d, 0xa0, 0x4c, 0x76, 0xbd,
  0x04, 0xf1, 0x1f, 0xbe, 0x95, 0xfe, 0xd5, 0xbd, 0xc6, 0xf2, 0xdf, 0xbe,
  0xe4, 0xaa, 0xdf, 0xbd, 0x04, 0xe3, 0xf4, 0xbd, 0x3b, 0xdc, 0x4a, 0x3b,
  0xf3, 0xb5, 0x26, 0xbe, 0xf5, 0x03, 0xcd, 0x3d, 0x8a, 0xa6, 0xd2, 0xbc,
  0x39, 0xe2, 0x03, 0xbe, 0x73, 0x91, 0xab, 0xbe, 0xa2, 0xce, 0x45, 0xbe,
  0x46, 0xca, 0x89, 0x3d, 0x94, 0x23, 0x95, 0x3c, 0x35, 0x14, 0x3d, 0xbe,
  0xd9, 0x82, 0x25, 0xbe, 0xe0, 0xfd, 0x46, 0xbc, 0x08, 0x49, 0x2e, 0x3d,
  0x6d, 0x14, 0xb5, 0xbe, 0xd2, 0x66, 0x11, 0xbe, 0x7f, 0xe2, 0x6e, 0xbe,
  0x34, 0x25, 0x10, 0xbe, 0x83, 0x2e, 0xf3, 0xbe, 0x77, 0xf1, 0x01, 0x3b,
  0x40, 0x24, 0x2e, 0xbe, 0xd6, 0x2c, 0x83, 0x3e, 0x05, 0xfc, 0x4c, 0xbe,
  0xcb, 0x0f, 0x2e, 0xbe, 0xae, 0xd2, 0x26, 0xbc, 0x69, 0x2f, 0xa2, 0xbd,
  0x87, 0x50, 0x06, 0xbe, 0xfa, 0x71, 0xaa, 0xbd, 0xd1, 0x96, 0x16, 0x3e,
  0x87, 0xff, 0x1d, 0x3e, 0x4c, 0x75, 0x83, 0xbd, 0x81, 0x42, 0x9b, 0xbd,
  0xf3, 0xa8, 0xb5, 0xbe, 0x6d, 0xeb, 0x0f, 0xbd, 0xd1, 0xa0, 0xf6, 0xbe,
  0x56, 0xa5, 0xfa, 0xbd, 0xbe, 0x9b, 0x02, 0xbe, 0xaa, 0xa1, 0x37, 0x3e,
  0x14, 0xcc, 0x6a, 0xbe, 0x40, 0xf9, 0x6f, 0xbc, 0x81, 0x01, 0xaf, 0xbc,
  0x91, 0xef, 0xda, 0x3d, 0x01, 0x40, 0xce, 0x3d, 0xca, 0xa0, 0x7e, 0x3d,
  0x88, 0x46, 0xc4, 0xbd, 0x2e, 0x34, 0xd0, 0x3d, 0xf2, 0x10, 0xd4, 0xbe,
  0xc1, 0x02, 0x94, 0x3d, 0x0a, 0x92, 0xe5, 0xbc, 0xb8, 0xe7, 0x00, 0xbd,
  0xdf, 0xd6, 0xf5, 0xbd, 0x6b, 0x56, 0x44, 0xbd, 0x0a, 0x45, 0xb3, 0x3c,
  0x07, 0x8d, 0x0d, 0xbe, 0xb2, 0x36, 0xbf, 0x3b, 0xee, 0x04, 0x06, 0x3d,
  0xf4, 0xcf, 0x0f, 0x3e, 0x40, 0x60, 0x78, 0x3d, 0x40, 0xbe, 0x67, 0x3d,
  0x3b, 0x84, 0x4b, 0x3e, 0x9e, 0xbe, 0xe1, 0xbd, 0xac, 0xec, 0x06, 0x3e,
  0x6a, 0x87, 0x26, 0xbe, 0x5f, 0xa6, 0x95, 0x3d, 0x0d, 0x82, 0x12, 0x3e,
  0x43, 0x89, 0x8b, 0xbb, 0xaf, 0xf1, 0x92, 0x3d, 0xae, 0xcc, 0xa6, 0x3d,
  0xe9, 0xdc, 0x2b, 0x3d, 0xe5, 0x11, 0x7f, 0x3e, 0x66, 0x92, 0x70, 0x3d,
  0x91, 0xfa, 0x1b, 0x3e, 0xe6, 0xcf, 0xb4, 0x3d, 0x45, 0xba, 0x89, 0x3a,
  0xdd, 0xf2, 0xbc, 0x3d, 0x75, 0x0b, 0xb9, 0x3d, 0x1b, 0x28, 0xb5, 0x3c,
  0xe2, 0x84, 0x0e, 0x3d, 0x54, 0x72, 0x87, 0x39, 0x6b, 0x92, 0xc5, 0xbc,
  0x55, 0xd0, 0xd5, 0x3d, 0xd3, 0xda, 0x4e, 0x3b, 0x30, 0x8f, 0x7e, 0xbc,
  0xbe, 0x1f, 0x01, 0x3e, 0x34, 0x85, 0x8e, 0x3d, 0xd1, 0x42, 0x44, 0x3d,
  0x5e, 0x3b, 0x50, 0xbe, 0x1c, 0xd7, 0x88, 0xbd, 0x1d, 0xee, 0xf5, 0xbc,
  0x12, 0x2c, 0x4b, 0x3d, 0x86, 0xd1, 0xbe, 0x3d, 0x2c, 0x8a, 0xb6, 0x3d,
  0xf7, 0x0f, 0x12, 0xbe, 0xb3, 0x64, 0x3a, 0xbd, 0x66, 0xc8, 0xea, 0xbd,
  0x56, 0x47, 0x3e, 0x3d, 0x8e, 0xba, 0x2b, 0xbd, 0xcd, 0x26, 0x5f, 0x3d,
  0x3e, 0xe5, 0x44, 0x3d, 0x9b, 0x85, 0xa9, 0x3d, 0x59, 0xc3, 0x8e, 0x3d,
  0x94, 0x3d, 0xcd, 0xbd, 0x87, 0x0d, 0x94, 0x3d, 0xe5, 0x8c, 0xa7, 0x3d,
  0x8c, 0x4b, 0xea, 0x3c, 0xfb, 0x4e, 0xc8, 0x3d, 0x12, 0x09, 0x90, 0xba,
  0x9f, 0xd6, 0x0d, 0xbe, 0x25, 0x4a, 0xc6, 0xbc, 0x23, 0x1b, 0xe3, 0x3d,
  0xd0, 0x75, 0x73, 0xbc, 0x4c, 0x95, 0x49, 0xbc, 0x76, 0x86, 0x44, 0x3e,
  0xd8, 0xa8, 0x54, 0x3b, 0xff, 0x7a, 0x00, 0xbd, 0x52, 0xae, 0xf3, 0xbd,
  0x00, 0xf3, 0x0b, 0x3d, 0xf2, 0xb4, 0x2a, 0x3e, 0x75, 0x49, 0xa3, 0xbd,
  0xe9, 0x3c, 0x3a, 0xbd, 0x5a, 0xb6, 0x1a, 0xbd, 0x38, 0xa5, 0xcb, 0x3d,
  0x62, 0x76, 0x53, 0xbc, 0xde, 0x36, 0xc9, 0xbc, 0x90, 0x94, 0x0d, 0x3d,
  0x26, 0xfc, 0x09, 0xbd, 0x39, 0xc1, 0x96, 0xbd, 0xfc, 0x31, 0x88, 0xbd,
  0x95, 0x86, 0xbb, 0x3d, 0x3a, 0x19, 0x90, 0xbd, 0x86, 0x5e, 0x3a, 0x3d,
  0xec, 0x03, 0x22, 0x3d, 0xa5, 0x56, 0xa0, 0x3d, 0xb4, 0xda, 0xae, 0x3d,
  0xb6, 0x78, 0xb6, 0xbd, 0x1f, 0x37, 0x72, 0xbc, 0xf9, 0x99, 0x50, 0x3d,
  0x15, 0x8a, 0xce, 0x3d, 0x17, 0x4e, 0x6e, 0xbd, 0xeb, 0xf4, 0xbb, 0x3d,
  0x46, 0xf4, 0x7a, 0x3b, 0xf2, 0xa2, 0x1f, 0x3c, 0x4d, 0x6c, 0x35, 0xbe,
  0xe2, 0xf7, 0x37, 0xbe, 0x4d, 0x8f, 0x59, 0x3e, 0xa5, 0xc5, 0xd2, 0xba,
  0xa8, 0x7f, 0x4f, 0x3d, 0xad, 0x49, 0x94, 0x3c, 0xdd, 0x82, 0xb5, 0xbd,
  0x74, 0xcd, 0x40, 0xbe, 0x22, 0x7e, 0xe1, 0xbd, 0xdb, 0xd2, 0x15, 0xbc,
  0xe8, 0x2d, 0x65, 0x3d, 0x90, 0xe8, 0x87, 0x3d, 0x69, 0x6c, 0x29, 0x3e,
  0xb2, 0xd9, 0x05, 0xbe, 0x9e, 0x08, 0x77, 0xbe, 0x97, 0xc2, 0x06, 0x3e,
  0x2d, 0x70, 0x81, 0xbc, 0x02, 0x27, 0x41, 0xbd, 0x2a, 0x81, 0xb2, 0x3d,
  0x5e, 0xb0, 0xeb, 0x3d, 0x5c, 0x2a, 0x81, 0x3d, 0x5d, 0xa5, 0x85, 0xbd,
  0xc0, 0x74, 0x96, 0xbc, 0x9a, 0x1d, 0x55, 0x3e, 0xba, 0xef, 0xd7, 0x3c,
  0x05, 0xcf, 0xca, 0x3d, 0xa3, 0xe2, 0xa4, 0x3d, 0x70, 0xda, 0x70, 0x3d,
  0x12, 0xbe, 0xfe, 0x3d, 0xeb, 0x60, 0x08, 0x3e, 0x09, 0xc1, 0xf0, 0xbd,
  0xd3, 0xa3, 0xc3, 0x3d, 0x1c, 0x85, 0xd4, 0x3d, 0xb8, 0xa9, 0x93, 0xbd,
  0xe0, 0x05, 0x5e, 0x3d, 0x24, 0x24, 0xac, 0x3d, 0xa2, 0x28, 0xcf, 0x3d,
  0xa5, 0x83, 0x59, 0x3c, 0x45, 0x60, 0x7b, 0x3b, 0x32, 0xba, 0x95, 0x3e,
  0x44, 0xb3, 0x32, 0xbe, 0xb8, 0xaa, 0xc5, 0xbd, 0x0a, 0xe5, 0xa9, 0x3d,
  0xdc, 0x75, 0xea, 0xbd, 0xe3, 0x91, 0xd3, 0x3d, 0xc8, 0x80, 0x7f, 0x3d,
  0xbd, 0x1c, 0x00, 0xbe, 0x24, 0x5a, 0xb4, 0xbc, 0xc4, 0xc6, 0x32, 0xbe,
  0xbb, 0xc1, 0xc7, 0xbd, 0x46, 0x2b, 0xbe, 0xbb, 0xd0, 0x9b, 0x24, 0xbe,
  0x0a, 0x36, 0xf8, 0xbd, 0x2b, 0x6d, 0xa0, 0xbd, 0x3c, 0x97, 0x81, 0x3d,
  0x02, 0x72, 0x3b, 0x3d, 0xca, 0x6b, 0x93, 0xbc, 0x14, 0x3a, 0xa9, 0xbd,
  0x0c, 0x84, 0x19, 0x3d, 0x1c, 0xc7, 0x3c, 0xbc, 0x0d, 0x1f, 0x82, 0xbc,
  0xe0, 0xc7, 0x03, 0x3e, 0xc7, 0xf3, 0x3d, 0xbd, 0x26, 0x90, 0x58, 0xbc,
  0x88, 0xac, 0x18, 0x3e, 0x17, 0x10, 0xbf, 0xbc, 0xd2, 0xee, 0x77, 0x3d,
  0xc9, 0x27, 0x87, 0x3d, 0xe9, 0x00, 0x05, 0xbd, 0xe3, 0x6f, 0x8c, 0x3c,
  0x22, 0xd1, 0x90, 0x3d, 0x0d, 0x36, 0x1c, 0x3e, 0x6d, 0x3e, 0xa6, 0x3b,
  0x4d, 0xbd, 0x81, 0xbd, 0xeb, 0x6e, 0x03, 0x3c, 0x6c, 0x36, 0x46, 0xbc,
  0xe3, 0x90, 0xc0, 0xbd, 0x67, 0xbe, 0xcf, 0x3d, 0x94, 0x44, 0x7d, 0x38,
  0xef, 0x28, 0x85, 0x3d, 0x67, 0xd0, 0x0f, 0xbd, 0x57, 0xc9, 0x47, 0xbd,
  0xb0, 0x35, 0x5a, 0xbd, 0xb8, 0xfd, 0x12, 0x39, 0x23, 0x60, 0x8b, 0xbd,
  0x06, 0x08, 0x51, 0xbd, 0x23, 0x60, 0xd8, 0xbd, 0x53, 0xdd, 0xb7, 0x3b,
  0x6e, 0x11, 0x40, 0xbe, 0x38, 0x07, 0x19, 0xbe, 0x78, 0x71, 0x02, 0xbe,
  0xce, 0xc5, 0x09, 0xbd, 0x13, 0xda, 0xba, 0xbd, 0x36, 0xd5, 0x90, 0xbd,
  0x81, 0xe5, 0x45, 0xbe, 0x45, 0xf1, 0x4e, 0x3c, 0x0b, 0xbb, 0xfb, 0xbe,
  0x66, 0xf3, 0xef, 0xbd, 0xf7, 0xda, 0xd8, 0x3c, 0xea, 0x3f, 0xbb, 0x3c,
  0xa2, 0xdb, 0x60, 0xbe, 0xf6, 0xa4, 0xb7, 0x3d, 0x1b, 0x1f, 0x0b, 0xbe,
  0x33, 0xd2, 0xaf, 0x3c, 0x29, 0x26, 0x7b, 0xbb, 0xdb, 0x9e, 0x73, 0x3d,
  0xf7, 0x48, 0xc8, 0xbc, 0x12, 0x50, 0x96, 0x3d, 0x95, 0x0e, 0x98, 0x3c,
  0x50, 0xb5, 0x02, 0xbc, 0xfb, 0x90, 0x41, 0xbe, 0x01, 0x10, 0x2f, 0x3d,
  0x0f, 0xe6, 0x39, 0xbd, 0xed, 0x3d, 0xa8, 0x3d, 0x67, 0x55, 0x70, 0x3d,
  0x62, 0xd3, 0x3d, 0xbd, 0xb7, 0x28, 0x95, 0x3d, 0x4c, 0x99, 0x95, 0xbc,
  0x60, 0x09, 0x4f, 0x3d, 0xc2, 0xb1, 0x0f, 0x3e, 0xaa, 0x07, 0x57, 0xbd,
  0x32, 0xc1, 0x83, 0x3d, 0x60, 0x78, 0x6f, 0xbd, 0x5d, 0x87, 0x6b, 0x3d,
  0xc2, 0xd2, 0xcb, 0x3c, 0xf2, 0x1c, 0x1b, 0x3e, 0x16, 0x6c, 0x88, 0x3d,
  0x47, 0x64, 0xab, 0x3c, 0x33, 0x14, 0x22, 0x3d, 0x68, 0x39, 0xe4, 0xba,
  0x21, 0x05, 0x75, 0x3b, 0xed, 0xfa, 0xaa, 0x3c, 0x56, 0x7f, 0xd6, 0x3c,
  0xe9, 0x91, 0x98, 0xbb, 0xdb, 0x00, 0x43, 0x3d, 0x18, 0x8d, 0x0d, 0x3e,
  0x53, 0x82, 0x8f, 0xbe, 0x9c, 0xf2, 0x8f, 0xbe, 0x20, 0xa8, 0x14, 0xbe,
  0x3c, 0x42, 0x5a, 0x3c, 0x98, 0xc8, 0x8a, 0xbe, 0x4c, 0x17, 0x22, 0xbe,
  0x62, 0x45, 0x60, 0xbd, 0xf9, 0xa1, 0xd0, 0xbd, 0x04, 0xce, 0x07, 0xbf,
  0xf9, 0x64, 0x9a, 0xbe, 0xfc, 0x85, 0x0d, 0xbe, 0x1c, 0xe3, 0x94, 0xbd,
  0xab, 0x5a, 0x49, 0xbe, 0x1d, 0x4c, 0x09, 0xbe, 0x3d, 0x6c, 0x22, 0x3d,
  0x50, 0x9a, 0x53, 0x3d, 0x8d, 0x2b, 0x42, 0xbd, 0x4a, 0x20, 0x83, 0xbd,
  0xa0, 0x31, 0x32, 0x3d, 0x73, 0xad, 0x39, 0x3d, 0xae, 0xfd, 0x2b, 0x3d,
  0xa6, 0x0a, 0x90, 0x3d, 0xc1, 0xcc, 0x6e, 0xbe, 0xc8, 0x34, 0x9f, 0x3d,
  0x5e, 0x99, 0xf6, 0x3c, 0x61, 0x99, 0x10, 0x3e, 0x9c, 0x3e, 0xd6, 0x3d,
  0x24, 0x97, 0x97, 0xbc, 0x8a, 0x18, 0x00, 0x3d, 0x32, 0xaf, 0xb5, 0xba,
  0x1b, 0x80, 0x04, 0x3e, 0xed, 0xdb, 0x44, 0x3e, 0x05, 0xab, 0x8a, 0xbc,
  0xbe, 0xb0, 0x12, 0xbd, 0xec, 0xd1, 0x08, 0x3e, 0x0e, 0x33, 0x92, 0x3c,
  0x64, 0x02, 0x3c, 0x3c, 0x48, 0x13, 0xba, 0xba, 0x28, 0x3e, 0x00, 0xbe,
  0x50, 0x54, 0xd1, 0x3d, 0x71, 0x44, 0xa5, 0x3d, 0xb5, 0x91, 0x37, 0x3e,
  0x12, 0x08, 0x5f, 0x3d, 0xc8, 0x8d, 0xbf, 0x3d, 0x5f, 0x34, 0x07, 0x3c,
  0x3a, 0xa1, 0xd2, 0x3d, 0x98, 0x57, 0x94, 0x3c, 0x2a, 0x7c, 0xee, 0xbd,
  0x61, 0x06, 0x02, 0xbf, 0xbc, 0xe6, 0x9e, 0xbe, 0xf6, 0x68, 0x9b, 0xbe,
  0x49, 0xac, 0x0f, 0xbe, 0x8e, 0xa7, 0x71, 0xbe, 0x90, 0xc7, 0x3b, 0xbe,
  0x74, 0x42, 0x2f, 0xbe, 0x9c, 0xa2, 0xca, 0xbd, 0xcc, 0xf9, 0x1a, 0xbf,
  0x35, 0x03, 0xc3, 0xbe, 0x6c, 0xf9, 0x3d, 0x3c, 0x33, 0xde, 0xfd, 0xbd,
  0x2a, 0x9c, 0xdd, 0xbe, 0xd9, 0x43, 0x59, 0xbb, 0x7d, 0xae, 0x30, 0xbe,
  0x9c, 0x27, 0x87, 0x3e, 0xfd, 0x63, 0xa6, 0xbd, 0x71, 0x65, 0x9f, 0xbe,
  0x46, 0xd9, 0xfb, 0xbc, 0x33, 0xdf, 0x1f, 0xbe, 0xc0, 0xcb, 0x01, 0xbe,
  0xa3, 0x80, 0x84, 0xbe, 0x2b, 0xad, 0x67, 0xbe, 0x2f, 0xc8, 0x9f, 0x3e,
  0x68, 0x37, 0xed, 0xbd, 0x43, 0xd5, 0xd4, 0x3d, 0x73, 0x70, 0x23, 0xbf,
  0x3f, 0x84, 0xe3, 0xbe, 0x3d, 0x88, 0x79, 0xbe, 0x25, 0xcd, 0x02, 0xbf,
  0x70, 0xa7, 0x35, 0xbd, 0xc0, 0xc2, 0x37, 0x3e, 0xd9, 0x76, 0x26, 0xbd,
  0x59, 0x66, 0x97, 0xbe, 0x15, 0x52, 0x6c, 0xbd, 0x37, 0xfa, 0x70, 0xbc,
  0x15, 0xa6, 0xc3, 0x3d, 0xfe, 0x09, 0xdd, 0xbe, 0xa6, 0x4b, 0xed, 0xbe,
  0xcd, 0xde, 0xb5, 0x3e, 0x85, 0x98, 0xd3, 0xbd, 0x8f, 0xd0, 0x74, 0x3d,
  0x3b, 0x57, 0xb6, 0xbe, 0x09, 0xec, 0x82, 0xbe, 0xc4, 0xb4, 0xbd, 0xbe,
  0xea, 0x8f, 0xff, 0xbe, 0x92, 0xa1, 0xba, 0xbd, 0x88, 0x15, 0x30, 0x3e,
  0x9e, 0xed, 0xa7, 0x3d, 0xed, 0x21, 0xfe, 0xbb, 0x5b, 0x61, 0x91, 0x3b,
  0xea, 0x5d, 0xc7, 0xbb, 0xa4, 0x90, 0x1e, 0x3e, 0x03, 0x23, 0x3a, 0x3d,
  0xe7, 0xe2, 0xc3, 0xbe, 0x5c, 0xa8, 0x3f, 0xbe, 0xbc, 0x4a, 0x6b, 0x3d,
  0x6b, 0x82, 0x58, 0x3c, 0x6d, 0x4b, 0x9c, 0xbe, 0xca, 0x80, 0x47, 0xbe,
  0xd1, 0xba, 0xfe, 0x3a, 0x29, 0x02, 0x42, 0xbe, 0x2c, 0xc8, 0x9a, 0xbe,
  0x7a, 0x7e, 0x60, 0xbe, 0xef, 0xf2, 0x0c, 0x3e, 0x60, 0x61, 0x85, 0x3e,
  0xd0, 0x4c, 0x67, 0x3e, 0xed, 0x57, 0x46, 0x3e, 0x2c, 0xd8, 0xb2, 0x3c,
  0x62, 0xda, 0xbd, 0x3e, 0x0f, 0x17, 0xf7, 0x3d, 0x90, 0xf0, 0x70, 0x3e,
  0x11, 0x33, 0xba, 0x3d, 0x48, 0x45, 0x27, 0xbc, 0x71, 0x0a, 0x8b, 0x3e,
  0x9f, 0x75, 0x94, 0x3e, 0x0b, 0xd9, 0x85, 0x3d, 0x7a, 0xff, 0x56, 0x3e,
  0x7d, 0x88, 0x86, 0x3e, 0x26, 0x61, 0x10, 0x3e, 0x93, 0xe6, 0x4d, 0x3e,
  0xf8, 0xbf, 0x87, 0x3e, 0xdb, 0x3d, 0x3c, 0x3e, 0x42, 0xf9, 0x9a, 0x3e,
  0xc6, 0x6e, 0x76, 0x3e, 0x08, 0x94, 0x8d, 0x3e, 0x6b, 0x7a, 0x33, 0x3e,
  0xae, 0xbe, 0x86, 0x3e, 0xe3, 0x45, 0x12, 0x3e, 0xfa, 0xaa, 0xec, 0x3c,
  0x1d, 0x5b, 0xbc, 0x3e, 0xc7, 0x24, 0x86, 0x3e, 0xa8, 0x35, 0x58, 0x3e,
  0x6f, 0x13, 0x24, 0x3e, 0xa4, 0x45, 0x82, 0x3e, 0xaf, 0xf3, 0x8d, 0x3e,
  0x7c, 0x78, 0x0e, 0x3c, 0x1a, 0x7d, 0xb5, 0x3d, 0x3b, 0x52, 0x64, 0x3a,
  0xde, 0xff, 0x33, 0xbe, 0xc0, 0x22, 0x33, 0x3c, 0x09, 0x5e, 0x21, 0x3d,
  0xa9, 0xf6, 0x41, 0xbe, 0x60, 0x32, 0x83, 0xbd, 0x7e, 0x3b, 0xb1, 0xbd,
  0x6b, 0xaf, 0xcd, 0x3d, 0xac, 0xd9, 0x33, 0xbe, 0x80, 0xe6, 0xca, 0xbd,
  0x18, 0xd8, 0x43, 0xbd, 0x61, 0x36, 0x22, 0x3d, 0x3e, 0xd7, 0xb7, 0xbe,
  0xf4, 0x96, 0xb0, 0xbd, 0x26, 0x00, 0x09, 0x3e, 0xbc, 0x11, 0x29, 0x3e,
  0xc3, 0x2b, 0x14, 0x3e, 0x92, 0xf1, 0x3c, 0xbd, 0xb5, 0x9c, 0xc9, 0x3d,
  0xa2, 0x3c, 0x8a, 0x3e, 0xa9, 0xa1, 0x05, 0x3e, 0xa3, 0xb6, 0x67, 0x3e,
  0xbe, 0x69, 0xad, 0x3d, 0x5b, 0x2f, 0xd1, 0x3d, 0xe2, 0x84, 0xa4, 0x3c,
  0xcd, 0x4c, 0x3c, 0x3e, 0x72, 0x2b, 0x69, 0x3d, 0x12, 0xba, 0x8e, 0x3c,
  0x5f, 0x07, 0x97, 0x3c, 0xf9, 0x2b, 0x18, 0x3e, 0x1b, 0x93, 0x62, 0xbd,
  0x3d, 0x43, 0x69, 0x3d, 0x7f, 0x77, 0x45, 0x3e, 0x09, 0x49, 0x6e, 0x3c,
  0x48, 0xad, 0x15, 0x3e, 0x48, 0x4a, 0x6e, 0x3e, 0xa3, 0x80, 0xd1, 0x3d,
  0x7f, 0xba, 0x55, 0x3e, 0x6b, 0x91, 0xdf, 0x3d, 0xb1, 0xf8, 0x2a, 0x3e,
  0xf8, 0xb7, 0x0d, 0x3e, 0x91, 0xcc, 0x33, 0x3e, 0x58, 0x48, 0xeb, 0x3d,
  0x79, 0xd7, 0x8a, 0x3d, 0x1b, 0x10, 0x23, 0x3e, 0xe2, 0xb6, 0x0a, 0x3e,
  0x3e, 0x45, 0xf8, 0x3d, 0x84, 0x7d, 0xc6, 0x3c, 0x9c, 0x37, 0xbf, 0x3d,
  0xae, 0xa6, 0xf2, 0xbc, 0x85, 0x68, 0x29, 0x3e, 0x92, 0x5b, 0xe0, 0x3d,
  0x5f, 0x7a, 0xdb, 0x3c, 0x4f, 0xf7, 0x3f, 0xbc, 0x86, 0x24, 0x04, 0x3d,
  0x0a, 0x37, 0x9d, 0x3d, 0xb4, 0x97, 0xca, 0xbd, 0x70, 0x1e, 0x5f, 0x3d,
  0xc4, 0xc5, 0xbc, 0x3d, 0xfb, 0xa3, 0x75, 0x3d, 0x45, 0x59, 0x0c, 0xbe,
  0x6f, 0xc9, 0x73, 0xbe, 0x1e, 0x63, 0x20, 0x3d, 0x7a, 0xa0, 0xc5, 0x3d,
  0x9d, 0x5a, 0x94, 0x3d, 0x31, 0xb5, 0xaa, 0xbd, 0x2e, 0x27, 0x97, 0x3d,
  0x9e, 0x32, 0x76, 0x3d, 0x37, 0x8a, 0xec, 0xbd, 0x3d, 0x89, 0xda, 0x3c,
  0x0f, 0x81, 0xb0, 0x3c, 0xeb, 0xd7, 0x0d, 0x3e, 0xed, 0x38, 0x82, 0x3d,
  0x3c, 0x23, 0x83, 0x3d, 0x55, 0xb8, 0x40, 0x3d, 0x38, 0x44, 0x0e, 0x3d,
  0x71, 0xb1, 0xc9, 0xbd, 0x0c, 0x46, 0x63, 0x3d, 0xa9, 0x24, 0xea, 0x3d,
  0x2e, 0x8e, 0xca, 0xbc, 0xa1, 0x31, 0x27, 0x3d, 0x89, 0x75, 0x15, 0xbd,
  0x71, 0xd4, 0x23, 0x3e, 0x4f, 0x3f, 0x8e, 0x3d, 0x06, 0x24, 0xf3, 0xbc,
  0xf9, 0x5e, 0x00, 0x3e, 0xd1, 0xf3, 0x35, 0x3e, 0x56, 0x56, 0x51, 0x3d,
  0xe9, 0x6b, 0xf7, 0x3d, 0x21, 0x92, 0xf0, 0x3d, 0xa8, 0x88, 0xb9, 0x3d,
  0xd8, 0x0f, 0xb5, 0x3c, 0x76, 0xb3, 0xdf, 0xbb, 0xa0, 0x07, 0x1c, 0x3e,
  0x5a, 0x72, 0x19, 0x3d, 0xd0, 0x94, 0x21, 0x3d, 0x9f, 0xf0, 0x13, 0x3d,
  0x33, 0x03, 0x75, 0xbd, 0xc4, 0xbd, 0xcf, 0xbc, 0x99, 0xe5, 0xde, 0x3d,
  0x1a, 0x22, 0x8f, 0xbd, 0x90, 0x4a, 0xe2, 0xbc, 0xe7, 0x75, 0xc6, 0xbc,
  0xf4, 0x71, 0x0c, 0x3e, 0xac, 0xba, 0x04, 0x3d, 0x17, 0x6f, 0x0c, 0x3b,
  0xac, 0x46, 0x66, 0x3d, 0x99, 0x2b, 0xd8, 0x3d, 0x58, 0x73, 0x17, 0xbe,
  0x3a, 0x82, 0x0a, 0xbd, 0xbd, 0x35, 0x3d, 0x3e, 0x5d, 0x1b, 0x68, 0x3d,
  0x63, 0xeb, 0xc8, 0x3d, 0x7e, 0x4d, 0x13, 0xbe, 0x8e, 0x03, 0xc8, 0x3d,
  0xb0, 0x02, 0x98, 0x3d, 0xb8, 0x68, 0x99, 0xbd, 0xa8, 0x8c, 0x39, 0xbd,
  0x48, 0x0a, 0x8c, 0x3d, 0xe4, 0xd3, 0x3d, 0xbd, 0x31, 0x2c, 0xb2, 0x3c,
  0x1c, 0x73, 0x52, 0xbc, 0x37, 0x36, 0x61, 0x3d, 0xf7, 0x3f, 0xd7, 0xbb,
  0xde, 0x88, 0x83, 0x3c, 0xfb, 0x4b, 0x1e, 0xbc, 0x99, 0xd4, 0xad, 0x3d,
  0x78, 0xe7, 0x60, 0x3d, 0x96, 0x11, 0x70, 0xbc, 0xa6, 0xe1, 0x08, 0xbd,
  0x70, 0xbf, 0x33, 0xbd, 0x5d, 0x27, 0x75, 0xbd, 0xe9, 0x9f, 0x18, 0x3d,
  0x87, 0x69, 0x6b, 0xbd, 0xe8, 0xc2, 0xb0, 0x3d, 0x73, 0x9c, 0x78, 0xbc,
  0xc2, 0x13, 0x0b, 0x3e, 0x23, 0xae, 0xd5, 0x3c, 0x31, 0x31, 0x4f, 0x3d,
  0xb4, 0xca, 0x3e, 0xbd, 0x9f, 0x01, 0xa1, 0xbd, 0x37, 0xd9, 0x1b, 0x3e,
  0x44, 0x0a, 0x7e, 0x3b, 0xf4, 0xff, 0x42, 0x3c, 0x34, 0xca, 0x64, 0x3d,
  0x6b, 0x11, 0x2b, 0xbe, 0x1e, 0x14, 0x9f, 0xbd, 0xdf, 0x81, 0x36, 0xbd,
  0x8b, 0xad, 0x55, 0xbd, 0xa2, 0xb5, 0xc7, 0xbd, 0xd2, 0x47, 0xf3, 0x3d,
  0x24, 0xe0, 0xbf, 0x3b, 0x12, 0x50, 0x46, 0xbd, 0x98, 0xd0, 0x52, 0xbd,
  0xb8, 0x97, 0xea, 0x3d, 0x97, 0x24, 0x1f, 0x3d, 0xe9, 0x4c, 0x57, 0xbe,
  0x6f, 0xf8, 0x00, 0xbe, 0x5d, 0xce, 0x98, 0x3d, 0x66, 0x43, 0xce, 0xbd,
  0xb2, 0x61, 0xab, 0xbd, 0x41, 0xd7, 0xcb, 0x3c, 0x4a, 0x20, 0x9e, 0xbd,
  0xb8, 0x33, 0x16, 0xbd, 0xa8, 0x18, 0x04, 0xbd, 0x16, 0x73, 0xab, 0xbd,
  0x62, 0xd8, 0xe1, 0x3c, 0x7c, 0x47, 0x5c, 0xbc, 0x8c, 0xb9, 0x07, 0xbe,
  0x1b, 0x80, 0xf4, 0x3d, 0xa0, 0xff, 0xe2, 0xbc, 0x2f, 0x26, 0xa0, 0x3c,
  0x00, 0x80, 0x03, 0xbe, 0xe4, 0xf0, 0x1a, 0x3e, 0xc9, 0xc5, 0xe8, 0xbc,
  0x3f, 0x48, 0x1c, 0xbd, 0x8c, 0x67, 0x6c, 0xbe, 0x8f, 0xd1, 0xee, 0xbd,
  0x03, 0x0b, 0x24, 0xbe, 0x96, 0xc0, 0x98, 0xbe, 0xea, 0x57, 0xf1, 0xbc,
  0x8b, 0x5e, 0x43, 0xbd, 0x6e, 0x60, 0x2f, 0xbd, 0xf3, 0x1d, 0xa1, 0xbc,
  0x4d, 0x54, 0x73, 0xbd, 0x9b, 0xae, 0xcd, 0xbd, 0x98, 0x6c, 0x2e, 0xbe,
  0xa4, 0xa7, 0x50, 0xbe, 0xb3, 0x11, 0x03, 0xbe, 0x81, 0xf0, 0x23, 0x3e,
  0x9f, 0x04, 0x82, 0x3d, 0x33, 0x30, 0x95, 0x3d, 0x56, 0x7b, 0x03, 0xbe,
  0x1a, 0x5c, 0x05, 0xbd, 0x98, 0xc8, 0x8b, 0x3d, 0x06, 0x78, 0x62, 0xbe,
  0xa4, 0xf7, 0x3b, 0xbd, 0xbe, 0x6f, 0x52, 0xbd, 0x1f, 0x82, 0x3b, 0xbd,
  0x12, 0x40, 0x86, 0x3d, 0x1f, 0x20, 0x02, 0xbe, 0x5e, 0x31, 0x20, 0x3c,
  0x12, 0x47, 0xc4, 0xbb, 0xc6, 0xa4, 0xd2, 0xbc, 0x40, 0xde, 0xa3, 0xbe,
  0x88, 0x2f, 0xbf, 0xbd, 0x09, 0xce, 0xc1, 0x3a, 0x67, 0xf8, 0xdd, 0xbc,
  0x16, 0x26, 0x85, 0xbe, 0xb4, 0xc9, 0xbf, 0xbd, 0x72, 0xa2, 0x34, 0xbd,
  0xfd, 0x04, 0xc2, 0xbd, 0x8e, 0x78, 0x3d, 0xbc, 0x9e, 0x02, 0xa8, 0xbd,
  0xc2, 0x9d, 0x8b, 0xbd, 0x46, 0xba, 0xbb, 0xbd, 0x50, 0x77, 0x3d, 0xbe,
  0xf3, 0xa5, 0x99, 0x3c, 0x1d, 0x34, 0xa9, 0xbc, 0x66, 0x80, 0xec, 0xbd,
  0x1a, 0x4e, 0xf2, 0xbd, 0x11, 0x0f, 0xad, 0xbd, 0x88, 0xfc, 0xe8, 0xbd,
  0xbe, 0x42, 0x49, 0x3d, 0x15, 0x5f, 0x78, 0xbe, 0x13, 0x3c, 0x68, 0xbe,
  0xca, 0x3a, 0x5b, 0xbe, 0xae, 0x83, 0xaf, 0xbe, 0x8e, 0xf2, 0x02, 0xbe,
  0x13, 0xb3, 0x13, 0xbe, 0x0a, 0x5e, 0x18, 0x3d, 0xd5, 0x90, 0x3b, 0xbe,
  0x40, 0xf9, 0x77, 0xbe, 0x47, 0xbe, 0x02, 0xbd, 0xfa, 0x6b, 0x48, 0xbe,
  0x9f, 0x37, 0x01, 0xbe, 0x6a, 0xe4, 0x2a, 0xbe, 0x46, 0x31, 0xb9, 0x3d,
  0x4b, 0x73, 0x8c, 0x3c, 0xc0, 0x50, 0x29, 0xbb, 0xf4, 0x0d, 0xa6, 0xbe,
  0x23, 0x4e, 0x15, 0xbe, 0xd4, 0x20, 0x2f, 0xbd, 0x9a, 0xc8, 0x5c, 0xbe,
  0xba, 0x53, 0x85, 0x3b, 0x2b, 0x56, 0x3a, 0xbd, 0x8d, 0xe5, 0x80, 0x3d,
  0xc0, 0x28, 0x1c, 0xbe, 0x8e, 0x0c, 0x22, 0xbe, 0xab, 0xad, 0xa6, 0x3d,
  0x63, 0x60, 0xfc, 0x3c, 0x22, 0xeb, 0x45, 0xbe, 0xcc, 0xe4, 0x3b, 0xbe,
  0x82, 0xfa, 0x8c, 0x3c, 0x8c, 0x5c, 0x37, 0xbe, 0x68, 0x86, 0x02, 0xbe,
  0x89, 0x48, 0x09, 0xbf, 0xd1, 0x28, 0xb6, 0xbe, 0x5b, 0x0b, 0xba, 0xbe,
  0x74, 0x13, 0x1c, 0xbe, 0xce, 0xcf, 0x36, 0xbe, 0x2a, 0xfd, 0xe3, 0xbe,
  0x78, 0xc5, 0x91, 0xbe, 0xdc, 0x1b, 0xbc, 0xbe, 0xaf, 0x61, 0x6b, 0xbe,
  0xee, 0x4a, 0x8d, 0xbe, 0xfc, 0xf8, 0x53, 0xbe, 0x89, 0x80, 0x1d, 0xbe,
  0x2e, 0xd6, 0x96, 0xbe, 0xb5, 0x0b, 0x5c, 0x3e, 0xc0, 0x12, 0x3f, 0xbe,
  0x90, 0xf7, 0xd0, 0xbd, 0x04, 0xc0, 0xf0, 0xbe, 0x84, 0xfe, 0x92, 0xbe,
  0x02, 0x78, 0xa0, 0xbe, 0x97, 0xe0, 0x75, 0xbe, 0xf9, 0xf7, 0x56, 0xbe,
  0x7b, 0x9b, 0x97, 0xbe, 0xc7, 0x52, 0x95, 0xbe, 0x08, 0x19, 0xb7, 0xbe,
  0x16, 0x63, 0xb5, 0xbe, 0xf8, 0x44, 0x4a, 0xbe, 0x9d, 0x41, 0x00, 0x3d,
  0x2a, 0x69, 0x4e, 0xbe, 0xd2, 0x1f, 0xd8, 0xbe, 0xf5, 0xd2, 0xf7, 0x3d,
  0xe9, 0x3c, 0x9e, 0xbc, 0x8d, 0xdf, 0xf4, 0xbd, 0xf9, 0x54, 0xfa, 0xbe,
  0x89, 0x73, 0x58, 0xbe, 0xa1, 0x05, 0x47, 0xbe, 0x06, 0xe2, 0x93, 0xbe,
  0x1e, 0x5a, 0x87, 0x3d, 0x8e, 0xc6, 0xa0, 0xbe, 0x8d, 0xa0, 0x47, 0xbe,
  0xc6, 0xc3, 0x86, 0xbe, 0xde, 0x40, 0xaf, 0xbe, 0xf8, 0xcd, 0xf6, 0xbd,
  0xbf, 0xac, 0x46, 0xbe, 0xac, 0xce, 0xf6, 0xbd, 0x57, 0x20, 0xbb, 0xbe,
  0xcc, 0xf4, 0x3a, 0x3e, 0x0d, 0x98, 0xbd, 0xbd, 0x3b, 0xd2, 0x3e, 0xbe,
  0x87, 0xe0, 0xc9, 0x3c, 0xd6, 0x1b, 0x33, 0x3e, 0x58, 0x7b, 0xaf, 0xbe,
  0x5c, 0xc6, 0xac, 0x3d, 0x74, 0x14, 0xf5, 0x3e, 0x41, 0x12, 0x11, 0x3e,
  0x7e, 0x7e, 0x13, 0xbe, 0x5b, 0x84, 0x97, 0x3b, 0x58, 0x1d, 0x33, 0x3e,
  0x6e, 0x27, 0x01, 0x3e, 0x65, 0xba, 0xbb, 0xbe, 0xee, 0x52, 0xb5, 0x3e,
  0x55, 0x8c, 0x51, 0x3e, 0xbd, 0x08, 0xb3, 0x3d, 0x2d, 0x8e, 0x52, 0xbe,
  0xdb, 0xb8, 0xba, 0xbd, 0xb6, 0x9f, 0xdc, 0x3d, 0xe3, 0x0f, 0xdd, 0xbc,
  0xbc, 0xb1, 0xd3, 0xbe, 0xac, 0x24, 0x89, 0x3d, 0xf1, 0x0e, 0x04, 0x3f,
  0xcb, 0x82, 0x0e, 0x3e, 0x00, 0x2e, 0xce, 0xbd, 0xfc, 0x3a, 0xed, 0xbd,
  0xe1, 0xe1, 0x13, 0x3d, 0xb2, 0x39, 0x83, 0xbd, 0xcf, 0xfa, 0x92, 0xbe,
  0xc1, 0x0f, 0xa1, 0x3e, 0xed, 0x67, 0x73, 0xbd, 0xaf, 0xdf, 0xef, 0x3d,
  0x99, 0x20, 0xc2, 0xbe, 0xe9, 0x04, 0xea, 0xbe, 0x67, 0x93, 0x3c, 0x3d,
  0xd7, 0xba, 0x2a, 0xbe, 0xa8, 0x9f, 0xa0, 0xbe, 0x56, 0x44, 0xd8, 0xbc,
  0xd0, 0xc5, 0x74, 0x3e, 0xcb, 0xa8, 0xaa, 0x3e, 0xe9, 0xff, 0x7f, 0xbe,
  0x0b, 0x4a, 0x27, 0x3d, 0x83, 0xfb, 0x04, 0xbf, 0x8b, 0x20, 0x02, 0xbf,
  0xf6, 0xd0, 0xf2, 0xbe, 0x54, 0x9d, 0xbb, 0x3e, 0x98, 0x04, 0x71, 0x3b,
  0x6b, 0x7c, 0xee, 0x3e, 0xf8, 0xaf, 0x8c, 0xbb, 0xb1, 0xcb, 0xde, 0x3d,
  0x91, 0xa9, 0x37, 0xbd, 0x46, 0x54, 0x98, 0xbd, 0x76, 0x59, 0x8e, 0x3d,
  0x31, 0x2b, 0x47, 0xbd, 0x0a, 0x76, 0x8c, 0x3d, 0xdf, 0x86, 0x29, 0xbe,
  0xd9, 0xe8, 0x80, 0xbd, 0x16, 0x16, 0x3c, 0xbd, 0xf0, 0xe6, 0xe3, 0x3d,
  0x95, 0x0d, 0x3a, 0x3d, 0xfe, 0x56, 0x16, 0x3e, 0xd5, 0x00, 0x86, 0x3e,
  0x75, 0x79, 0xbb, 0xbd, 0xc1, 0x25, 0x13, 0xbe, 0x5c, 0x60, 0x23, 0x3e,
  0x9d, 0xa8, 0xa4, 0x3d, 0xce, 0x9e, 0x89, 0xbd, 0x42, 0xbd, 0x67, 0xbd,
  0xc4, 0x6a, 0x8e, 0xbd, 0xfd, 0x4d, 0x17, 0xbd, 0xf0, 0x8c, 0x76, 0x3d,
  0xb3, 0x71, 0x8d, 0xbd, 0xaa, 0xdb, 0xec, 0xbc, 0x34, 0xbc, 0x88, 0x3c,
  0x9c, 0x36, 0xd9, 0xbd, 0x07, 0x41, 0x16, 0xbd, 0xa6, 0xdb, 0x1b, 0xbc,
  0x65, 0xaa, 0x67, 0x3d, 0x76, 0x34, 0xf0, 0xbd, 0xfd, 0x59, 0xd5, 0xbd,
  0x54, 0x24, 0xbb, 0x3d, 0x52, 0xef, 0xf9, 0x3d, 0xa8, 0x87, 0x0f, 0x3e,
  0x0a, 0x9c, 0x87, 0x3e, 0x81, 0x81, 0x61, 0x3d, 0xf2, 0xc9, 0xce, 0x3d,
  0x9f, 0x3b, 0x85, 0x3e, 0x75, 0x7b, 0x76, 0x3e, 0x2c, 0xa9, 0x22, 0x3d,
  0x7d, 0xd0, 0x6b, 0x3c, 0xcd, 0xea, 0x60, 0x3e, 0xed, 0x29, 0x73, 0x3e,
  0x81, 0xaf, 0xa8, 0x3d, 0x40, 0x36, 0xc2, 0x3e, 0x69, 0xff, 0x90, 0x3e,
  0x14, 0x81, 0x73, 0x3e, 0x2d, 0xc4, 0x85, 0x3d, 0x56, 0x6e, 0x37, 0xbc,
  0x49, 0xe1, 0x6f, 0xbc, 0x45, 0xfa, 0x2d, 0x3c, 0xdf, 0xdb, 0xf1, 0xbd,
  0x58, 0xd5, 0xa3, 0xbd, 0x53, 0xa8, 0x12, 0xbd, 0xd3, 0x27, 0x80, 0xbd,
  0x67, 0xb6, 0x65, 0x3c, 0x0a, 0xe9, 0xe2, 0x3b, 0x79, 0x45, 0x02, 0xbd,
  0xa8, 0xf7, 0xd0, 0xb7, 0x03, 0x7a, 0x26, 0x3c, 0x08, 0xc6, 0xd6, 0xbd,
  0xf6, 0x59, 0xf3, 0xbd, 0xdf, 0x58, 0x5c, 0xbe, 0x8a, 0xe7, 0xb6, 0x3d,
  0xda, 0x2c, 0xac, 0xbd, 0xe0, 0x72, 0xb3, 0xbc, 0xa8, 0xb6, 0x39, 0xbd,
  0x35, 0x35, 0xb2, 0xbd, 0x59, 0x2f, 0x8b, 0xbd, 0xd0, 0x0e, 0xc2, 0xbd,
  0xbb, 0x88, 0xf4, 0xbc, 0x83, 0x5d, 0x27, 0x3c, 0x95, 0x8e, 0x1a, 0xbd,
  0xe0, 0x44, 0xbb, 0x3b, 0x47, 0x9e, 0x61, 0xbd, 0x90, 0x7b, 0x36, 0x3d,
  0x7f, 0xb6, 0x31, 0xbe, 0x1a, 0xae, 0x19, 0xbe, 0xf0, 0x04, 0x8f, 0xbe,
  0x5c, 0xc2, 0xcd, 0x3d, 0xca, 0x0d, 0x2d, 0x3d, 0x0b, 0xf8, 0x03, 0x3e,
  0x85, 0xfb, 0x2d, 0x3e, 0xda, 0xdc, 0xd0, 0x3d, 0x89, 0xda, 0xa7, 0x3d,
  0x67, 0x33, 0x96, 0x3c, 0x1a, 0xf0, 0x8a, 0x3e, 0x66, 0x47, 0x15, 0x3d,
  0x4d, 0x25, 0x41, 0x3d, 0x40, 0xdb, 0xed, 0xbc, 0x93, 0xbe, 0x01, 0x3e,
  0xfd, 0xcd, 0xaf, 0x3d, 0x80, 0x6e, 0x70, 0x3e, 0xe8, 0x9d, 0x4f, 0x3e,
  0xb9, 0xdf, 0x84, 0x3e, 0x3a, 0x57, 0xd3, 0x3d, 0x87, 0x02, 0xcc, 0x3d,
  0x5f, 0x5e, 0xfd, 0xbc, 0xbf, 0x3c, 0x6e, 0xbd, 0xdd, 0xde, 0xb4, 0x3c,
  0xfe, 0x28, 0xc7, 0x3d, 0xd8, 0xe9, 0x0e, 0xbe, 0x43, 0x0a, 0x1c, 0xbd,
  0xe2, 0x85, 0xa8, 0x3d, 0x8a, 0xc4, 0x70, 0x3d, 0x8e, 0x35, 0xad, 0x3d,
  0xf9, 0xb2, 0x04, 0x3d, 0xae, 0x1c, 0x2f, 0x3d, 0xfd, 0x30, 0xe9, 0xbd,
  0x99, 0x85, 0xed, 0x3c, 0xcc, 0xd3, 0x84, 0xbe, 0x58, 0xbb, 0x2e, 0x3d,
  0xd9, 0x82, 0x0c, 0x3e, 0xc2, 0x42, 0x07, 0xbc, 0x13, 0x66, 0xd2, 0xbd,
  0xee, 0x2e, 0x74, 0xbd, 0x0d, 0x7c, 0x42, 0xbd, 0x17, 0x51, 0xc1, 0xbd,
  0x2c, 0xed, 0xd8, 0x3d, 0xac, 0xf9, 0x10, 0x3e, 0xf6, 0x75, 0xe7, 0xbb,
  0x4f, 0x40, 0x85, 0x3d, 0x42, 0xa0, 0xa3, 0x3c, 0xac, 0x58, 0x83, 0x3c,
  0x70, 0xde, 0x44, 0xbc, 0xfb, 0x23, 0x80, 0x3d, 0x1b, 0x95, 0xaa, 0xbe,
  0x40, 0x36, 0x80, 0x3c, 0xce, 0x1e, 0xaa, 0x3d, 0xa5, 0x16, 0x01, 0x3d,
  0x41, 0x0b, 0x04, 0x3c, 0xdc, 0x9a, 0x14, 0x3d, 0x05, 0x02, 0xae, 0x3d,
  0xe2, 0x85, 0xbb, 0x3d, 0xa8, 0xd4, 0x38, 0xbb, 0xff, 0xba, 0x9b, 0xbc,
  0xfb, 0x73, 0x0d, 0xbe, 0x6d, 0xb7, 0xe3, 0x3d, 0x33, 0xbb, 0x84, 0x3d,
  0x15, 0x4f, 0xd0, 0x3c, 0xdc, 0x46, 0x21, 0x3e, 0x2f, 0xbe, 0x0c, 0x3e,
  0x7d, 0x07, 0xfa, 0x3e, 0x4c, 0xc5, 0x40, 0x3b, 0x25, 0x24, 0xa2, 0xbc,
  0xab, 0x23, 0x3b, 0xbb, 0x65, 0x1c, 0x1b, 0xbd, 0xa3, 0xab, 0x51, 0xbd,
  0x5b, 0x60, 0xa8, 0x3c, 0xd6, 0x2e, 0x01, 0x3e, 0x49, 0x96, 0xbf, 0xbd,
  0xf5, 0x84, 0x6c, 0x3d, 0x59, 0x24, 0x94, 0xbd, 0x6a, 0xc4, 0xbf, 0xbd,
  0x49, 0x83, 0xed, 0x3c, 0x61, 0xc2, 0x8d, 0xbc, 0x03, 0x64, 0x35, 0x3d,
  0x4a, 0xe1, 0xcf, 0x3d, 0x88, 0x24, 0x0e, 0xbd, 0x4d, 0x2f, 0xcf, 0xbc,
  0x2a, 0x77, 0xf3, 0xbb, 0x87, 0x4a, 0xa2, 0x3d, 0x39, 0x6d, 0x02, 0xbe,
  0x40, 0x24, 0x85, 0xba, 0x0c, 0xdf, 0xa3, 0x3c, 0x17, 0x40, 0x12, 0x3e,
  0x7c, 0x13, 0xb1, 0xbd, 0x9b, 0xd2, 0xb5, 0x3d, 0xae, 0x3e, 0xd8, 0xbc,
  0xbc, 0x20, 0x90, 0xbd, 0xc2, 0xab, 0xa1, 0x3d, 0x09, 0x3a, 0x94, 0xbd,
  0x9f, 0xdc, 0x41, 0x3c, 0x0f, 0x31, 0x8a, 0xbd, 0x29, 0xe8, 0x1f, 0xbe,
  0x6e, 0x41, 0x99, 0xbd, 0x7c, 0x67, 0x53, 0xbd, 0x0b, 0x41, 0x0a, 0x3c,
  0xdc, 0xbf, 0xd9, 0xbd, 0x35, 0x61, 0xad, 0xbd, 0xd6, 0x68, 0x45, 0xbd,
  0xbc, 0x38, 0x2e, 0xbd, 0x48, 0xbd, 0xe9, 0xbd, 0x57, 0x44, 0xa4, 0xbd,
  0x78, 0x4e, 0x2c, 0xbe, 0xbe, 0xb8, 0x8e, 0x3b, 0x19, 0x0d, 0xa4, 0xbd,
  0x6a, 0x44, 0x40, 0xbd, 0xfd, 0x13, 0x8a, 0xbb, 0xe2, 0xdf, 0x69, 0xbc,
  0x34, 0x79, 0x1e, 0x3f, 0x82, 0x88, 0x32, 0xbc, 0x03, 0x08, 0x01, 0xbc,
  0xb2, 0x83, 0x10, 0xbe, 0x9b, 0x79, 0xc8, 0x3c, 0x73, 0x97, 0xb1, 0x3c,
  0xd5, 0x04, 0xf7, 0xbc, 0x6c, 0x73, 0x9a, 0x3d, 0x07, 0x96, 0xe4, 0xbd,
  0x8e, 0xdf, 0x21, 0x3d, 0x0a, 0x4d, 0x73, 0xbd, 0x69, 0xdf, 0x86, 0xbd,
  0x1c, 0x06, 0x27, 0xbc, 0xaa, 0x97, 0x1b, 0xbd, 0x13, 0x92, 0xc1, 0xbd,
  0x82, 0x62, 0x4d, 0xbb, 0x2e, 0x31, 0x13, 0xbe, 0xfd, 0xec, 0xe4, 0x3c,
  0x61, 0x55, 0x15, 0x3d, 0x59, 0x67, 0x89, 0xbd, 0x2d, 0x54, 0x98, 0xbd,
  0x8e, 0x51, 0x38, 0xbd, 0xe1, 0xf2, 0x83, 0xbd, 0x18, 0x2a, 0x7c, 0x3e,
  0x1f, 0x6d, 0x0f, 0xbe, 0x03, 0xe8, 0x13, 0xbc, 0x09, 0x71, 0x05, 0xbd,
  0xe5, 0x2a, 0x8a, 0x3b, 0x8a, 0x27, 0x96, 0x3b, 0xad, 0x14, 0x29, 0xbd,
  0x00, 0x98, 0xd6, 0x3d, 0x69, 0x38, 0x00, 0xbd, 0x81, 0x73, 0xf2, 0xbd,
  0xcb, 0x9f, 0x54, 0x3c, 0x1a, 0xa6, 0x9b, 0xbd, 0xee, 0xa1, 0x9d, 0x3c,
  0xdd, 0x6b, 0x2d, 0x3d, 0xda, 0xe5, 0xf5, 0x3c, 0xaf, 0x8e, 0x82, 0xbd,
  0x0a, 0x53, 0xd5, 0xbd, 0xa8, 0xb7, 0x3a, 0x3e, 0xcb, 0x16, 0x1c, 0x3d,
  0xbc, 0x8e, 0x02, 0xbd, 0x55, 0x4d, 0xba, 0xbd, 0x7c, 0x7d, 0x8a, 0xbd,
  0x17, 0x22, 0x42, 0xbd, 0xf7, 0xbd, 0x84, 0x3d, 0xc9, 0x66, 0xc8, 0xbc,
  0xf2, 0x2d, 0x3f, 0x3f, 0xdd, 0xc2, 0xf4, 0x3d, 0x8e, 0xb0, 0x81, 0xbd,
  0xdc, 0x5f, 0xfe, 0xbb, 0xa2, 0xe0, 0xb4, 0xbd, 0xc1, 0xf8, 0x8d, 0x3c,
  0x9e, 0xf9, 0x68, 0xbe, 0xf9, 0xfe, 0x22, 0xbc, 0x62, 0x2d, 0xa5, 0xbd,
  0x8a, 0x5e, 0x4a, 0x3d, 0x07, 0x57, 0x17, 0x3c, 0xd7, 0xa7, 0x0a, 0xbe,
  0x86, 0x57, 0x2d, 0xbd, 0xc4, 0x2b, 0xb6, 0xbc, 0x88, 0x99, 0xda, 0x3c,
  0x5b, 0x93, 0xf6, 0xbd, 0xab, 0xd9, 0xfe, 0xbe, 0xd9, 0x1d, 0x8a, 0xbd,
  0x3a, 0xdc, 0xf3, 0x3a, 0xea, 0xfb, 0xfa, 0x3c, 0x35, 0xb6, 0x48, 0xbe,
  0xc8, 0x65, 0xc4, 0xbd, 0x4b, 0xf3, 0x3a, 0xbe, 0x30, 0x26, 0xd6, 0x3d,
  0x85, 0xf1, 0x1e, 0xbb, 0xd8, 0x82, 0x84, 0x3a, 0x5b, 0xd8, 0x6c, 0x3d,
  0x55, 0xf5, 0xc8, 0xbd, 0x55, 0xd2, 0x79, 0xbd, 0x0f, 0xb8, 0x26, 0xbd,
  0xee, 0x64, 0xf4, 0xbc, 0x11, 0xc6, 0x9d, 0xbd, 0x18, 0x05, 0xfa, 0xbe,
  0x6f, 0xd2, 0x06, 0x3e, 0x66, 0x39, 0x2f, 0x3e, 0x96, 0x7c, 0x52, 0x3d,
  0x40, 0x6d, 0x07, 0x3e, 0x06, 0x17, 0xf6, 0x3d, 0x9d, 0xb6, 0xc9, 0x37,
  0xa1, 0x43, 0x00, 0x3b, 0xe2, 0x50, 0x23, 0x3e, 0xe2, 0xca, 0xa1, 0x3c,
  0x2f, 0x05, 0x53, 0x3d, 0x2d, 0x22, 0x0e, 0x3d, 0x79, 0xb6, 0x42, 0x3e,
  0xc4, 0xfa, 0xda, 0x3d, 0x30, 0x5e, 0x8b, 0x3d, 0xea, 0x6d, 0x26, 0x3e,
  0x8b, 0x10, 0xec, 0x3d, 0xd4, 0xab, 0x78, 0x3c, 0x12, 0xd6, 0xc4, 0xbc,
  0x8a, 0x79, 0xd6, 0xbd, 0xb3, 0xc7, 0x48, 0xbd, 0xab, 0x06, 0x8a, 0xbd,
  0xeb, 0xb4, 0x5b, 0xbe, 0x25, 0xdd, 0x59, 0xbe, 0x72, 0x5d, 0x84, 0xbd,
  0xfb, 0x2d, 0x8e, 0x3d, 0x31, 0x27, 0x37, 0x3d, 0x83, 0x2c, 0x53, 0xbd,
  0x23, 0x4b, 0x72, 0xbe, 0x1d, 0x2b, 0x51, 0x3d, 0x0f, 0x03, 0x43, 0xbe,
  0xe1, 0xa0, 0x88, 0xbe, 0xbd, 0x76, 0x7e, 0xbf, 0x7c, 0xd6, 0xfc, 0xbc,
  0x53, 0x43, 0xda, 0x3b, 0x54, 0x54, 0xb0, 0x3d, 0x3b, 0xcf, 0x2a, 0xbe,
  0x6e, 0x31, 0x6d, 0xbd, 0x41, 0x56, 0xea, 0xbd, 0x8e, 0x83, 0x61, 0xbe,
  0x55, 0xd1, 0x0e, 0xbd, 0x40, 0xbe, 0xa8, 0x3c, 0x5f, 0x1c, 0x14, 0x3e,
  0x5c, 0xc4, 0x54, 0xbe, 0x4b, 0x78, 0x81, 0xbd, 0x5d, 0x85, 0x2e, 0x3d,
  0x00, 0x09, 0x66, 0xbe, 0x2b, 0x5e, 0x81, 0xbe, 0x29, 0xe4, 0x97, 0xbf,
  0xa9, 0x6c, 0x39, 0x3d, 0xd0, 0xa9, 0xf3, 0x3d, 0xbb, 0x1b, 0x10, 0x3e,
  0x40, 0x15, 0xb3, 0x3c, 0x04, 0xf6, 0x1d, 0x3e, 0x2f, 0xad, 0x7c, 0x3b,
  0x65, 0xec, 0x1d, 0xbe, 0x13, 0xc7, 0xe3, 0x3d, 0xe5, 0xa9, 0x05, 0x3e,
  0xb9, 0xe0, 0xed, 0x3d, 0x1f, 0xda, 0xb7, 0x3d, 0xe5, 0x08, 0xfc, 0x3d,
  0x00, 0x3e, 0x4b, 0x3d, 0xdc, 0xeb, 0x41, 0xbd, 0x3b, 0x6b, 0x33, 0x3e,
  0xbe, 0x9d, 0x34, 0xbf, 0x03, 0x9d, 0x9e, 0x3e, 0xc4, 0x78, 0xff, 0x3e,
  0x03, 0x73, 0xae, 0x3d, 0x0b, 0x4d, 0x2d, 0x3e, 0xc2, 0x25, 0xb8, 0x3e,
  0xf6, 0x1a, 0x8e, 0x3e, 0x34, 0xe5, 0xae, 0xbe, 0x54, 0x00, 0x18, 0xbe,
  0x14, 0xb6, 0x9a, 0x3e, 0x72, 0x40, 0x95, 0x3e, 0x12, 0x01, 0x8a, 0x3e,
  0x48, 0xa0, 0x9b, 0x3e, 0xac, 0x8b, 0x12, 0x3f, 0xf6, 0x8f, 0xc2, 0xbd,
  0x48, 0xce, 0xcb, 0x3d, 0x53, 0xe4, 0xd0, 0xbe, 0x9f, 0x8f, 0x92, 0x3e,
  0x91, 0x2b, 0xda, 0x3e, 0x88, 0x70, 0x45, 0x3d, 0xda, 0xf5, 0x0b, 0x3e,
  0x35, 0xf9, 0xe6, 0x3e, 0xd6, 0xa4, 0x2e, 0x3e, 0xc8, 0x77, 0xa0, 0xbe,
  0x0b, 0x03, 0x54, 0xbe, 0x73, 0x77, 0xc9, 0x3e, 0x6f, 0x5c, 0x94, 0x3d,
  0x3c, 0x43, 0x41, 0x3e, 0xf2, 0x9f, 0x05, 0x3e, 0x74, 0x5c, 0x09, 0x3f,
  0xc7, 0xb0, 0x6a, 0x3d, 0xde, 0xc6, 0x41, 0xbd, 0x73, 0xc4, 0x07, 0xbf,
  0x99, 0xd7, 0x3e, 0x3e, 0xac, 0x94, 0xaa, 0x3e, 0xa5, 0x6c, 0x22, 0x3d,
  0x70, 0x97, 0x2f, 0xbd, 0x9d, 0x69, 0xba, 0x3e, 0x2c, 0x0b, 0xfb, 0x3d,
  0x02, 0x39, 0xe0, 0xbe, 0x75, 0x6d, 0xfb, 0xbe, 0x28, 0x40, 0x68, 0x3e,
  0x67, 0x82, 0xdf, 0x3d, 0xd2, 0x1c, 0x6d, 0x3e, 0xa3, 0x32, 0x07, 0x3e,
  0x97, 0xb1, 0x15, 0x3f, 0x17, 0xc8, 0x28, 0xbe, 0x19, 0x52, 0xd4, 0xbd,
  0x9c, 0x46, 0x6f, 0xbf, 0x78, 0xae, 0x74, 0xbc, 0xe5, 0x2d, 0x1c, 0x3e,
  0x58, 0xc1, 0x02, 0x3d, 0xb7, 0x87, 0x22, 0xbe, 0xfb, 0x9b, 0x63, 0x3d,
  0xe3, 0x6e, 0x07, 0xbe, 0x90, 0xa8, 0x05, 0xbe, 0x57, 0x3b, 0x88, 0x3d,
  0x42, 0xc8, 0x3d, 0x3d, 0x08, 0x2a, 0x5c, 0xbd, 0x50, 0x99, 0x96, 0x3c,
  0x86, 0x5a, 0x8c, 0x3d, 0x2e, 0x03, 0xde, 0x3c, 0x43, 0xdc, 0x14, 0xbe,
  0xf0, 0x97, 0x86, 0x3c, 0x5f, 0x0f, 0x7a, 0xbe, 0xaa, 0x68, 0x8e, 0xbc,
  0x32, 0x79, 0x61, 0x3c, 0xbf, 0xe9, 0xff, 0xbd, 0x65, 0xd1, 0xfb, 0xbd,
  0xb4, 0xe3, 0xd6, 0x3d, 0x8a, 0x47, 0x0b, 0xbc, 0x6a, 0x2a, 0x40, 0xbe,
  0x4e, 0x75, 0x28, 0xbd, 0x3a, 0xd4, 0x10, 0x3e, 0xd6, 0xa3, 0x8a, 0xbd,
  0xdf, 0x5c, 0x9c, 0xbc, 0x71, 0xc0, 0xa1, 0x3d, 0x75, 0x04, 0x31, 0xbd,
  0xa9, 0x29, 0xcd, 0xbd, 0xdd, 0x3b, 0x7b, 0x3d, 0x84, 0xd9, 0x98, 0xbe,
  0xfb, 0xb1, 0x38, 0x3d, 0x5f, 0xa9, 0x23, 0xbd, 0x37, 0x31, 0x16, 0x3d,
  0x88, 0xcf, 0x79, 0xbe, 0xa8, 0xcf, 0x07, 0xbc, 0xa2, 0x86, 0x5f, 0xbe,
  0x44, 0xcc, 0x14, 0xbf, 0x82, 0x64, 0x50, 0xbe, 0x6c, 0x84, 0xd2, 0x3d,
  0x20, 0x62, 0x1e, 0xbb, 0x3a, 0x6f, 0x21, 0xbe, 0xe0, 0x26, 0xf1, 0xbd,
  0xf3, 0xfc, 0xcc, 0x3c, 0xe9, 0x59, 0xe9, 0xbe, 0x3e, 0x2e, 0x5c, 0xbe,
  0x71, 0xf8, 0x17, 0xbf, 0x85, 0x37, 0xb0, 0xbc, 0x27, 0x99, 0xd1, 0x3c,
  0x6b, 0x2b, 0x0c, 0x3d, 0x58, 0x9b, 0x5c, 0x3d, 0x60, 0xb5, 0x2d, 0x3d,
  0x8c, 0xab, 0x0e, 0x3d, 0x06, 0x06, 0xaf, 0xbd, 0x55, 0xa3, 0x7e, 0x3d,
  0x9e, 0x40, 0x71, 0xbd, 0x27, 0xc1, 0xb5, 0x3d, 0x4f, 0x67, 0x88, 0x3d,
  0x51, 0x9d, 0x5a, 0xbc, 0xcc, 0xfd, 0x83, 0x3d, 0x8c, 0x17, 0x7c, 0xbd,
  0x18, 0x49, 0x16, 0x3d, 0x7b, 0x6f, 0xa0, 0xbd, 0xd9, 0x99, 0xb7, 0xbc,
  0xf6, 0x30, 0x51, 0x3d, 0x4b, 0xc8, 0xba, 0xbc, 0x09, 0x30, 0x38, 0x3d,
  0xd5, 0x98, 0x09, 0x3e, 0x34, 0xed, 0x70, 0xbd, 0xf8, 0xdf, 0xb9, 0xbd,
  0x6e, 0x22, 0xac, 0x3c, 0x31, 0x3f, 0xa4, 0x3c, 0x3f, 0x8d, 0x1c, 0x3c,
  0x6a, 0x99, 0xc4, 0x3d, 0x9d, 0xac, 0xd4, 0x39, 0x43, 0xee, 0x53, 0xbb,
  0xf3, 0xf6, 0xe8, 0xbd, 0x3f, 0xd8, 0x02, 0x3d, 0x51, 0xe1, 0xe1, 0xbd,
  0x48, 0x14, 0x03, 0x3d, 0x8e, 0x03, 0x86, 0x3d, 0xc2, 0x39, 0xdb, 0xba,
  0x31, 0x91, 0xe2, 0xbd, 0x4f, 0x38, 0x39, 0x3d, 0x24, 0xff, 0x14, 0xbd,
  0x07, 0xce, 0x9b, 0xbe, 0x4e, 0x0f, 0x0b, 0xbe, 0x7d, 0xad, 0x61, 0x3d,
  0x2b, 0xc9, 0xd0, 0x3d, 0x24, 0x70, 0x8b, 0xbd, 0x95, 0x72, 0x8c, 0xbd,
  0x73, 0x3c, 0x8a, 0x3d, 0x46, 0xa3, 0x44, 0xbe, 0x3d, 0x02, 0xe3, 0xbd,
  0x54, 0x25, 0xa1, 0xbe, 0x03, 0x5c, 0x4a, 0xbd, 0x54, 0xda, 0xff, 0x3c,
  0x06, 0x54, 0x99, 0x3d, 0x24, 0x97, 0xe4, 0x3d, 0x8b, 0x5e, 0x8e, 0xbd,
  0xac, 0xcd, 0xda, 0x3d, 0xc6, 0xe2, 0x2d, 0xbd, 0x6a, 0x51, 0x3d, 0xbd,
  0x59, 0x59, 0xb1, 0xbb, 0x93, 0x91, 0x3f, 0xbd, 0x85, 0x40, 0x77, 0x3d,
  0x9f, 0x77, 0x23, 0x3d, 0x7d, 0xdd, 0x4f, 0xbd, 0xa9, 0x67, 0xf8, 0xbd,
  0x1a, 0xc5, 0x7a, 0x3d, 0xe0, 0x9b, 0x59, 0x3e, 0xdc, 0x5d, 0x11, 0x3d,
  0x0e, 0x0a, 0xb4, 0xbc, 0x7e, 0xb4, 0x79, 0x3c, 0x2f, 0xc3, 0xb4, 0x3d,
  0xdc, 0xb5, 0x80, 0x3d, 0xcb, 0x61, 0xd4, 0xbc, 0x10, 0x8f, 0x77, 0xbb,
  0xa5, 0x1b, 0x41, 0x3d, 0xfe, 0xc2, 0x9b, 0xbb, 0xd7, 0x05, 0x4c, 0xbd,
  0xfc, 0xcd, 0xaf, 0x3c, 0xd1, 0x48, 0xce, 0xbc, 0xe4, 0xfc, 0xea, 0xbc,
  0xec, 0xe1, 0x2e, 0xbe, 0x98, 0x38, 0xb4, 0x3d, 0x36, 0x9b, 0xab, 0x3d,
  0x8c, 0x30, 0xf8, 0x3d, 0x2c, 0x05, 0xbd, 0xbc, 0x7d, 0xe0, 0x80, 0x3d,
  0x70, 0x44, 0x6e, 0xbd, 0x84, 0x61, 0x1e, 0x3d, 0xeb, 0xf4, 0x65, 0xbc,
  0x03, 0x0d, 0x3f, 0xbe, 0x4b, 0x12, 0xe4, 0xbd, 0x9a, 0x27, 0xcf, 0x3d,
  0x95, 0x47, 0x2e, 0x3d, 0xfd, 0x90, 0xdb, 0xbc, 0x03, 0x57, 0x51, 0xbd,
  0x05, 0xa8, 0xbf, 0xbc, 0x57, 0x8d, 0xcf, 0xbd, 0x2b, 0x63, 0xa4, 0x3d,
  0x7d, 0x46, 0x87, 0xbe, 0xa4, 0x53, 0x8c, 0xb9, 0xa5, 0x36, 0xbb, 0xbd,
  0x0f, 0x40, 0xac, 0x3c, 0x21, 0x1e, 0x80, 0x3d, 0x62, 0x63, 0x7a, 0x3c,
  0x68, 0xfd, 0xb4, 0xbd, 0x29, 0x71, 0x05, 0x3e, 0x30, 0xa5, 0x19, 0x3b,
  0x1b, 0x1f, 0x28, 0x3d, 0x62, 0x89, 0x8f, 0x3b, 0x75, 0x5a, 0x24, 0xbd,
  0x61, 0x47, 0x78, 0x3d, 0xab, 0x2a, 0xab, 0xbd, 0xf8, 0x7c, 0x22, 0x3d,
  0xf2, 0x22, 0x57, 0xbc, 0x41, 0xb5, 0x42, 0x3e, 0x55, 0x85, 0xa5, 0xbd,
  0xbf, 0x08, 0x63, 0x3a, 0x2b, 0x1a, 0x81, 0xbd, 0xd9, 0x7b, 0x86, 0xbc,
  0xe5, 0xf0, 0xaa, 0xbc, 0xe7, 0xbd, 0xb2, 0xbd, 0x4b, 0xdc, 0x08, 0x3e,
  0x2f, 0x8c, 0xcf, 0xbc, 0x54, 0x55, 0x37, 0xbd, 0x31, 0xc8, 0x9c, 0xbc,
  0x43, 0x15, 0x4c, 0xbd, 0x85, 0x1c, 0xa5, 0x3d, 0x4e, 0x06, 0xec, 0xbd,
  0x6d, 0xd1, 0x90, 0x3c, 0x9f, 0x9c, 0xce, 0x3d, 0xd5, 0x9f, 0x95, 0x3d,
  0xa8, 0xc8, 0x36, 0x3d, 0xc9, 0xaa, 0x83, 0x3d, 0xf5, 0x03, 0x93, 0xbd,
  0xe0, 0xef, 0x9f, 0xbd, 0x68, 0x8f, 0x15, 0x3d, 0x48, 0x78, 0x78, 0xbd,
  0xc1, 0x2d, 0xdd, 0xbd, 0xf6, 0x8c, 0x90, 0xbd, 0x36, 0x31, 0x3e, 0xbc,
  0x4f, 0xb9, 0xbf, 0xbd, 0x7f, 0xad, 0xe1, 0xbc, 0xf4, 0xab, 0xda, 0xbc,
  0x8e, 0x11, 0x20, 0x3c, 0xb3, 0x4c, 0x80, 0xbd, 0x2e, 0x51, 0x3f, 0x3d,
  0xca, 0x03, 0x83, 0xbe, 0xf2, 0x41, 0x59, 0x3d, 0xc9, 0xa5, 0x91, 0xbb,
  0x39, 0xe7, 0x81, 0x3c, 0xbc, 0xeb, 0x77, 0x3d, 0xa4, 0xf6, 0xc9, 0x3c,
  0xf5, 0x4e, 0x9c, 0x3d, 0x2b, 0xe7, 0x17, 0x3e, 0x75, 0x54, 0x74, 0x3d,
  0x24, 0xf5, 0x58, 0xbd, 0xec, 0x08, 0x78, 0xbd, 0xd0, 0x4d, 0xf7, 0x3d,
  0x5f, 0xb9, 0xe6, 0x3d, 0x5f, 0x62, 0xed, 0x3b, 0x06, 0x19, 0x8a, 0x3a,
  0x7e, 0x40, 0x88, 0x3d, 0xab, 0x6b, 0xa6, 0x3e, 0xb0, 0xcc, 0x3a, 0xbc,
  0xcd, 0x62, 0x4c, 0xbd, 0xb5, 0x79, 0x58, 0xbd, 0x1f, 0xb9, 0x04, 0x3d,
  0x2c, 0x1b, 0x02, 0xbd, 0x71, 0x55, 0x91, 0x3d, 0x24, 0x08, 0x03, 0x3e,
  0xce, 0xf8, 0xa0, 0x3d, 0xe4, 0x45, 0x7e, 0xbc, 0xf1, 0xda, 0xb4, 0xbd,
  0xaa, 0x99, 0xa0, 0x3d, 0x9e, 0x62, 0x82, 0x3d, 0x76, 0x86, 0x46, 0xbd,
  0x6d, 0xe9, 0x35, 0xbc, 0x66, 0xb4, 0xd6, 0x3c, 0x52, 0x3c, 0x83, 0x3e,
  0xb9, 0xc8, 0xca, 0x3c, 0x02, 0xca, 0x0f, 0xbd, 0x8a, 0xa3, 0xba, 0xba,
  0x56, 0x44, 0xd5, 0x3c, 0x4e, 0x5c, 0x8e, 0xbc, 0x1e, 0x44, 0x70, 0x39,
  0xac, 0x89, 0xc3, 0xbd, 0xa2, 0x22, 0x43, 0x3c, 0x1d, 0x96, 0x67, 0x3d,
  0x59, 0xf5, 0xf9, 0xbc, 0x4e, 0x40, 0xa3, 0x3b, 0x3e, 0x21, 0xb6, 0x3c,
  0x4b, 0x0e, 0x20, 0x3d, 0x0d, 0x8b, 0x1c, 0xbe, 0x7b, 0xef, 0x87, 0x3c,
  0xc1, 0x29, 0xab, 0x3d, 0x7d, 0x66, 0xb6, 0x3c, 0xba, 0x1f, 0xd6, 0xbd,
  0x61, 0xa7, 0x80, 0x3d, 0x60, 0xc9, 0x81, 0x3d, 0xdb, 0x02, 0x65, 0xbd,
  0x8d, 0xdd, 0xfa, 0xbc, 0xae, 0xce, 0x84, 0x3d, 0x34, 0x89, 0xb0, 0xbc,
  0x77, 0xfb, 0x3a, 0x3c, 0x8d, 0x33, 0xfd, 0xbc, 0x90, 0xb8, 0x5d, 0x3d,
  0x35, 0x36, 0x38, 0xbc, 0x22, 0x07, 0x5e, 0xbb, 0x3c, 0xdc, 0x0f, 0x3e,
  0x69, 0x15, 0xda, 0x3d, 0xfc, 0xaf, 0xf3, 0x3e, 0x2c, 0xb0, 0xe6, 0xbc,
  0xf2, 0xeb, 0xeb, 0xbc, 0xcc, 0x5a, 0x60, 0x3d, 0x0f, 0x54, 0x77, 0x3d,
  0xf6, 0x76, 0xb4, 0xbc, 0xec, 0x51, 0x4c, 0x3d, 0x31, 0x36, 0x82, 0x3e,
  0x97, 0xea, 0xaf, 0x3c, 0xd9, 0x77, 0x71, 0x3c, 0x46, 0x63, 0xe0, 0xbd,
  0x47, 0x04, 0x18, 0x3e, 0xe6, 0xa1, 0x04, 0x3e, 0xec, 0x09, 0x3b, 0xbd,
  0xc7, 0xa7, 0x8e, 0x3d, 0xbc, 0x7c, 0xe8, 0xbc, 0x9c, 0x5c, 0xf2, 0x3e,
  0x07, 0xcd, 0x67, 0x3d, 0x41, 0x96, 0x84, 0x3d, 0xc1, 0x5a, 0xcf, 0xbc,
  0xac, 0xe5, 0xb1, 0x3d, 0x98, 0x06, 0xaf, 0xbc, 0x48, 0x01, 0x90, 0xbd,
  0x30, 0x71, 0xee, 0xbd, 0xc6, 0x7f, 0x3b, 0xbd, 0x74, 0xbb, 0x93, 0xbd,
  0xd6, 0x38, 0xdc, 0xbc, 0xcf, 0xf7, 0x20, 0x3d, 0x3a, 0xfc, 0x6f, 0x3d,
  0xc3, 0x30, 0xd8, 0x3c, 0x8f, 0x4f, 0x1a, 0xbe, 0x2e, 0x08, 0xc2, 0xbb,
  0x62, 0x4e, 0x9b, 0x3e, 0x73, 0x3c, 0xc1, 0xbc, 0x7e, 0x63, 0x8d, 0xbd,
  0xd2, 0x7e, 0xea, 0xbd, 0xdd, 0xc4, 0xa9, 0x3d, 0xf9, 0x76, 0x92, 0xbd,
  0x0a, 0x9d, 0xec, 0xbb, 0x57, 0x5d, 0xf7, 0x3c, 0x0e, 0x0a, 0x74, 0xbd,
  0xc6, 0x86, 0xa6, 0xbd, 0x85, 0xfc, 0x15, 0xbe, 0x82, 0xa2, 0x9d, 0x3d,
  0x85, 0x36, 0x9e, 0x3d, 0x86, 0xaf, 0x4e, 0x3d, 0x9d, 0x9f, 0x5d, 0x3d,
  0xb9, 0x21, 0x2b, 0x3c, 0xb5, 0x02, 0x03, 0x3f, 0xad, 0x51, 0xac, 0xbd,
  0x75, 0xbd, 0x7a, 0x3b, 0x9f, 0x49, 0x8a, 0xbc, 0xbf, 0x2a, 0x3c, 0x3d,
  0x95, 0x9f, 0x94, 0xbc, 0x9f, 0x93, 0x87, 0x3d, 0x25, 0xee, 0x48, 0x3d,
  0x80, 0x08, 0xaf, 0xbd, 0x0a, 0xe7, 0x41, 0xbe, 0x22, 0x22, 0xdc, 0xbd,
  0x36, 0x1a, 0x9f, 0x3d, 0xf7, 0xae, 0x69, 0x3d, 0x49, 0x92, 0xae, 0xbd,
  0xfd, 0x93, 0x0d, 0x3e, 0x5d, 0x4f, 0xf5, 0x3d, 0x35, 0x31, 0x13, 0x3f,
  0x06, 0x81, 0x43, 0x3d, 0xd0, 0x87, 0xff, 0x3b, 0x22, 0x5c, 0xbf, 0xbd,
  0x88, 0xbd, 0xd7, 0x3d, 0x74, 0xd8, 0x5b, 0xbc, 0xbe, 0x0f, 0x20, 0xbd,
  0x4e, 0x8a, 0x6d, 0xbc, 0x55, 0x99, 0x01, 0xbd, 0x6d, 0x6f, 0x45, 0xbd,
  0x67, 0xc0, 0xe5, 0xbd, 0x1c, 0x69, 0x0a, 0x3d, 0x6b, 0x0c, 0xb4, 0x3d,
  0x64, 0x85, 0xae, 0x3d, 0x94, 0x0f, 0x30, 0xbe, 0x9e, 0x07, 0xa3, 0xbc,
  0xfa, 0x66, 0xcb, 0x3e, 0x3c, 0x93, 0x83, 0x3e, 0xc5, 0x6a, 0xea, 0x3e,
  0xb1, 0xe2, 0x79, 0x3e, 0xa4, 0x17, 0xb9, 0x3e, 0x04, 0x61, 0x76, 0x3e,
  0x3d, 0x90, 0x01, 0x3f, 0xc5, 0x5b, 0x24, 0x3e, 0xdb, 0x1d, 0x2a, 0xbd,
  0x11, 0xe8, 0x0d, 0x3e, 0xc5, 0x24, 0x9e, 0x3d, 0xd3, 0x80, 0x32, 0x3f,
  0x05, 0x4d, 0x09, 0x3f, 0xbe, 0x9c, 0xdd, 0x3e, 0x91, 0x65, 0xf8, 0x3e,
  0x46, 0x8f, 0xba, 0x3e, 0x11, 0x7f, 0xc2, 0xbe, 0x87, 0x81, 0x60, 0x3e,
  0x8f, 0x67, 0xda, 0x3e, 0x22, 0x9d, 0x6e, 0x3e, 0x3d, 0x28, 0x9d, 0x3e,
  0xf6, 0x2b, 0x70, 0x3e, 0xfe, 0x2d, 0xc4, 0x3e, 0x12, 0xc6, 0x82, 0x3e,
  0xd8, 0x97, 0xa0, 0xbd, 0xef, 0x08, 0x57, 0x3e, 0xb0, 0xf5, 0xf5, 0x3d,
  0x73, 0x78, 0x1b, 0x3f, 0x1a, 0xf0, 0xa6, 0x3e, 0xb0, 0xc2, 0xc5, 0x3e,
