const unsigned char model[] __attribute__((aligned(4))) = {
  0x1c, 0x00, 0x00, 0x00, 0x54, 0x46, 0x4c, 0x33, 0x14, 0x00, 0x20, 0x00,
  0x1c, 0x00, 0x18, 0x00, 0x14, 0x00, 0x10, 0x00, 0x0c, 0x00, 0x00, 0x00,
  0x08, 0x00, 0x04, 0x00, 0x14, 0x00, 0x00, 0x00, 0x1c, 0x00, 0x00, 0x00,
  0x88, 0x00, 0x00, 0x00, 0xe0, 0x00, 0x00, 0x00, 0x48, 0x16, 0x00, 0x00,
  0x58, 0x16, 0x00, 0x00, 0xfc, 0x23, 0x00, 0x00, 0x03, 0x00, 0x00, 0x00,
  0x01, 0x00, 0x00, 0x00, 0x04, 0x00, 0x00, 0x00, 0xa6, 0xe8, 0xff, 0xff,
  0x0c, 0x00, 0x00, 0x00, 0x1c, 0x00, 0x00, 0x00, 0x3c, 0x00, 0x00, 0x00,
  0x0f, 0x00, 0x00, 0x00, 0x73, 0x65, 0x72, 0x76, 0x69, 0x6e, 0x67, 0x5f,
  0x64, 0x65, 0x66, 0x61, 0x75, 0x6c, 0x74, 0x00, 0x01, 0x00, 0x00, 0x00,
  0x04, 0x00, 0x00, 0x00, 0x94, 0xff, 0xff, 0xff, 0x15, 0x00, 0x00, 0x00,
  0x04, 0x00, 0x00, 0x00, 0x08, 0x00, 0x00, 0x00, 0x64, 0x65, 0x6e, 0x73,
  0x65, 0x5f, 0x36, 0x32, 0x00, 0x00, 0x00, 0x00, 0x01, 0x00, 0x00, 0x00,
  0x04, 0x00, 0x00, 0x00, 0x8a, 0xe9, 0xff, 0xff, 0x04, 0x00, 0x00, 0x00,
  0x08, 0x00, 0x00, 0x00, 0x69, 0x6e, 0x70, 0x75, 0x74, 0x5f, 0x32, 0x35,
  0x00, 0x00, 0x00, 0x00, 0x02, 0x00, 0x00, 0x00, 0x34, 0x00, 0x00, 0x00,
  0x04, 0x00, 0x00, 0x00, 0xdc, 0xff, 0xff, 0xff, 0x18, 0x00, 0x00, 0x00,
  0x04, 0x00, 0x00, 0x00, 0x13, 0x00, 0x00, 0x00, 0x43, 0x4f, 0x4e, 0x56,
  0x45, 0x52, 0x53, 0x49, 0x4f, 0x4e, 0x5f, 0x4d, 0x45, 0x54, 0x41, 0x44,
  0x41, 0x54, 0x41, 0x00, 0x08, 0x00, 0x0c, 0x00, 0x08, 0x00, 0x04, 0x00,
  0x08, 0x00, 0x00, 0x00, 0x17, 0x00, 0x00, 0x00, 0x04, 0x00, 0x00, 0x00,
  0x13, 0x00, 0x00, 0x00, 0x6d, 0x69, 0x6e, 0x5f, 0x72, 0x75, 0x6e, 0x74,
  0x69, 0x6d, 0x65, 0x5f, 0x76, 0x65, 0x72, 0x73, 0x69, 0x6f, 0x6e, 0x00,
  0x19, 0x00, 0x00, 0x00, 0x64, 0x15, 0x00, 0x00, 0x5c, 0x15, 0x00, 0x00,
  0x2c, 0x15, 0x00, 0x00, 0xfc, 0x14, 0x00, 0x00, 0xcc, 0x14, 0x00, 0x00,
  0x5c, 0x14, 0x00, 0x00, 0x4c, 0x11, 0x00, 0x00, 0x3c, 0x0e, 0x00, 0x00,
  0x20, 0x0e, 0x00, 0x00, 0xd0, 0x0d, 0x00, 0x00, 0xb8, 0x0d, 0x00, 0x00,
  0xa8, 0x01, 0x00, 0x00, 0xd8, 0x00, 0x00, 0x00, 0xd0, 0x00, 0x00, 0x00,
  0xc8, 0x00, 0x00, 0x00, 0xc0, 0x00, 0x00, 0x00, 0xb8, 0x00, 0x00, 0x00,
  0xb0, 0x00, 0x00, 0x00, 0xa8, 0x00, 0x00, 0x00, 0xa0, 0x00, 0x00, 0x00,
  0x98, 0x00, 0x00, 0x00, 0x90, 0x00, 0x00, 0x00, 0x88, 0x00, 0x00, 0x00,
  0x68, 0x00, 0x00, 0x00, 0x04, 0x00, 0x00, 0x00, 0x66, 0xea, 0xff, 0xff,
  0x04, 0x00, 0x00, 0x00, 0x54, 0x00, 0x00, 0x00, 0x0c, 0x00, 0x00, 0x00,
  0x08, 0x00, 0x0e, 0x00, 0x08, 0x00, 0x04, 0x00, 0x08, 0x00, 0x00, 0x00,
  0x10, 0x00, 0x00, 0x00, 0x24, 0x00, 0x00, 0x00, 0x00, 0x00, 0x06, 0x00,
  0x08, 0x00, 0x04, 0x00, 0x06, 0x00, 0x00, 0x00, 0x04, 0x00, 0x00, 0x00,
  0x00, 0x00, 0x00, 0x00, 0x00, 0x00, 0x0a, 0x00, 0x10, 0x00, 0x0c, 0x00,
  0x08, 0x00, 0x04, 0x00, 0x0a, 0x00, 0x00, 0x00, 0x02, 0x00, 0x00, 0x00,
  0x02, 0x00, 0x00, 0x00, 0x04, 0x00, 0x00, 0x00, 0x06, 0x00, 0x00, 0x00,
  0x32, 0x2e, 0x31, 0x30, 0x2e, 0x30, 0x00, 0x00, 0xc6, 0xea, 0xff, 0xff,
  0x04, 0x00, 0x00, 0x00, 0x10, 0x00, 0x00, 0x00, 0x31, 0x2e, 0x35, 0x2e,
  0x30, 0x00, 0x00, 0x00, 0x00, 0x00, 0x00, 0x00, 0x00, 0x00, 0x00, 0x00,
  0xf8, 0xdd, 0xff, 0xff, 0xfc, 0xdd, 0xff, 0xff, 0x00, 0xde, 0xff, 0xff,
  0x04, 0xde, 0xff, 0xff, 0x08, 0xde, 0xff, 0xff, 0x0c, 0xde, 0xff, 0xff,
  0x10, 0xde, 0xff, 0xff, 0x14, 0xde, 0xff, 0xff, 0x18, 0xde, 0xff, 0xff,
  0x1c, 0xde, 0xff, 0xff, 0x0a, 0xeb, 0xff, 0xff, 0x04, 0x00, 0x00, 0x00,
  0xc0, 0x00, 0x00, 0x00, 0x14, 0xb2, 0x9c, 0xbf, 0x4d, 0x92, 0x0c, 0xbf,
  0x0c, 0x3d, 0x14, 0xbe, 0xff, 0xe8, 0x5e, 0x3f, 0xfa, 0xa3, 0x8f, 0x3d,
  0x8b, 0xd4, 0xa9, 0xbe, 0xc0, 0xc4, 0x44, 0xbf, 0xcf, 0x66, 0x07, 0x3f,
  0xd6, 0x27, 0xa3, 0xbf, 0xb7, 0x54, 0xe4, 0x3e, 0x3e, 0x0c, 0x77, 0x3f,
  0xba, 0xa8, 0x98, 0xbf, 0xa0, 0xee, 0x97, 0x3e, 0x8a, 0x70, 0x3f, 0xbf,
  0x32, 0x38, 0x0d, 0x3f, 0x02, 0xfb, 0xe7, 0x3e, 0x80, 0xb1, 0xd9, 0xbe,
  0xbf, 0x2e, 0x4f, 0x3f, 0xc6, 0x21, 0x7b, 0xbd, 0x67, 0x90, 0x26, 0xbf,
  0x47, 0xd3, 0x31, 0x3d, 0x39, 0x2d, 0x30, 0xbf, 0xd3, 0x94, 0xad, 0x3e,
  0x3d, 0x32, 0xac, 0xbe, 0x82, 0x74, 0x3d, 0x3d, 0xd9, 0x20, 0xd6, 0xbd,
  0x44, 0x6b, 0x73, 0xbf, 0x4c, 0x88, 0x04, 0x3e, 0x78, 0x34, 0xf4, 0xbe,
  0xdd, 0x74, 0x3a, 0x3f, 0xe9, 0x0f, 0x0a, 0x3f, 0xf9, 0xef, 0xb5, 0x3e,
  0xcc, 0xd1, 0x49, 0x3f, 0xd1, 0x8a, 0xd9, 0xbe, 0x5b, 0xbc, 0x23, 0xbf,
  0x47, 0x64, 0xda, 0xbd, 0x84, 0x0f, 0x3f, 0xbf, 0xa1, 0xca, 0x8c, 0x3f,
  0xd7, 0xe6, 0xf8, 0x3e, 0xf5, 0x66, 0x13, 0xbf, 0xb0, 0xc0, 0xac, 0x3e,
  0x04, 0x8b, 0x59, 0xbf, 0x3f, 0x82, 0x01, 0x3e, 0xc2, 0x91, 0x24, 0x3f,
  0x1a, 0xd2, 0xde, 0x3e, 0x8c, 0xf7, 0xc1, 0xbe, 0x79, 0x86, 0x77, 0xbf,
  0x80, 0x50, 0x54, 0xbf, 0xd6, 0xeb, 0xff, 0xff, 0x04, 0x00, 0x00, 0x00,
  0x00, 0x0c, 0x00, 0x00, 0x03, 0x90, 0x10, 0xbf, 0x0f, 0x27, 0x3d, 0xbe,
  0x7c, 0xda, 0x09, 0xbf, 0x40, 0x11, 0x24, 0xbf, 0xd9, 0xce, 0x30, 0x3e,
  0x90, 0x71, 0x71, 0xbd, 0x1a, 0xfd, 0x51, 0x3e, 0x3e, 0xd3, 0xc2, 0xbd,
  0x0a, 0x7f, 0xfa, 0xbe, 0x31, 0x75, 0xa9, 0xbe, 0x22, 0xdf, 0xc7, 0xbe,
  0xe6, 0x9c, 0x0d, 0xbf, 0x3f, 0xec, 0x93, 0x3e, 0x4a, 0xe9, 0x6b, 0xbc,
  0x79, 0x4f, 0xb5, 0x3d, 0x5e, 0x04, 0x45, 0x3d, 0xb3, 0x9e, 0xa7, 0xbd,
  0xc5, 0x3b, 0x57, 0x3d, 0x95, 0x29, 0xfe, 0xbe, 0xaa, 0xb0, 0xd5, 0xbe,
  0x46, 0x00, 0x26, 0x3e, 0xf3, 0xd9, 0x6a, 0xbd, 0x5c, 0x23, 0x34, 0x3c,
  0xd8, 0xab, 0x55, 0x3e, 0x48, 0xbf, 0xea, 0xbd, 0x2a, 0x52, 0xd6, 0xbe,
  0x6d, 0xdc, 0x2e, 0xbf, 0xca, 0x8e, 0x41, 0xbe, 0xad, 0x97, 0x0a, 0x3e,
  0x8a, 0xe5, 0x73, 0x3e, 0x25, 0xfa, 0x19, 0x3e, 0x26, 0xd3, 0xaf, 0x3b,
  0xd6, 0x0c, 0xaa, 0xbd, 0xc2, 0x35, 0xa6, 0xbe, 0x85, 0x06, 0xfb, 0xbe,
  0xc9, 0x1f, 0xd2, 0xbd, 0x8d, 0x4d, 0x88, 0x3e, 0x81, 0xd2, 0x86, 0xbd,
  0xbf, 0x77, 0xbb, 0x3d, 0x40, 0x0f, 0xdc, 0x3d, 0x82, 0x10, 0x81, 0xbe,
  0xd6, 0x66, 0x1f, 0xbe, 0xa9, 0xfa, 0x5f, 0xbe, 0x12, 0x80, 0xa6, 0xbd,
  0x28, 0x2f, 0x7f, 0x3e, 0x30, 0xe3, 0xaa, 0x3e, 0x71, 0x0c, 0xe3, 0x3c,
  0x31, 0x61, 0x7b, 0x3b, 0x2e, 0xc7, 0xea, 0x3d, 0x85, 0x0a, 0x0a, 0x3d,
  0x57, 0x48, 0x96, 0x3e, 0xec, 0x2b, 0xdd, 0xbd, 0x28, 0x0e, 0xea, 0x3c,
  0x13, 0xdd, 0x27, 0xbe, 0xe3, 0x35, 0xf5, 0xbd, 0x31, 0x13, 0x2a, 0xbe,
  0x6e, 0xa9, 0x71, 0x3e, 0x0f, 0xe5, 0x4f, 0xbb, 0x5d, 0x29, 0x6c, 0x3e,
  0xf4, 0x9c, 0x27, 0x3e, 0x28, 0x80, 0x65, 0xbc, 0x8c, 0x33, 0x0e, 0xbd,
  0xd2, 0xcd, 0x44, 0x3e, 0xf7, 0x7c, 0x56, 0x3e, 0xc7, 0x02, 0x04, 0xbe,
  0x5a, 0xd6, 0xa6, 0x3e, 0x07, 0xc3, 0xca, 0xbd, 0xa9, 0x4e, 0x81, 0xbe,
  0x31, 0xcd, 0xa1, 0xbe, 0x4b, 0xa0, 0x28, 0xbf, 0x8a, 0xf9, 0x8d, 0xbe,
  0xd8, 0x71, 0x8a, 0xbe, 0x7a, 0xb3, 0x46, 0xbe, 0x31, 0x13, 0xcf, 0xbe,
  0xf7, 0x67, 0xa0, 0xbe, 0x9c, 0x64, 0x35, 0xbe, 0x6a, 0x8a, 0xe8, 0xbc,
  0xec, 0xc4, 0xab, 0x3e, 0xdc, 0x72, 0x59, 0x3e, 0xce, 0x96, 0xc9, 0xbc,
  0x67, 0x5f, 0x95, 0xbe, 0x1e, 0x4f, 0xa8, 0xbe, 0x3f, 0x84, 0x71, 0xbf,
  0x0f, 0xc7, 0xe2, 0xbe, 0x8a, 0xd5, 0x73, 0x3d, 0x08, 0x38, 0x0f, 0x3f,
  0xf6, 0x9c, 0x20, 0x3e, 0xa5, 0xb8, 0x6e, 0xbe, 0x18, 0xcc, 0x58, 0x3e,
  0xc7, 0xd5, 0x08, 0x3e, 0xbc, 0xc6, 0xd9, 0x3d, 0x0f, 0xf4, 0xdf, 0x3e,
  0xeb, 0x8b, 0x0d, 0xbd, 0xc2, 0xfe, 0x59, 0xbf, 0x69, 0x04, 0x6b, 0xbd,
  0xd6, 0xec, 0x09, 0x3e, 0x63, 0xb4, 0xbf, 0x3e, 0xa5, 0x02, 0xd8, 0x3e,
  0x96, 0x03, 0x4f, 0x3e, 0x6f, 0x46, 0x56, 0x3e, 0x5a, 0x13, 0x10, 0xbe,
  0xeb, 0xe0, 0xa7, 0xbd, 0xbf, 0x61, 0x01, 0xbc, 0x24, 0x46, 0xbe, 0xbb,
  0xe5, 0x80, 0xa2, 0x3e, 0xf6, 0x07, 0x37, 0x3d, 0x8c, 0xe4, 0x1c, 0xbd,
  0x64, 0xa3, 0xce, 0x3e, 0x9e, 0xed, 0x86, 0xbe, 0x5f, 0x80, 0xed, 0x3d,
  0xfa, 0x1e, 0x0b, 0xbe, 0x0f, 0x01, 0xd2, 0xbe, 0x47, 0x6a, 0x14, 0xbc,
  0x3c, 0x25, 0xea, 0xbd, 0x13, 0x2c, 0x9a, 0x3e, 0x9c, 0x69, 0x5a, 0xbd,
  0xfe, 0x47, 0xfb, 0xbe, 0xce, 0xb9, 0xe8, 0xbe, 0xca, 0x8d, 0x25, 0xbd,
  0xd8, 0x68, 0x94, 0xbd, 0xa5, 0x74, 0xb7, 0x3d, 0x99, 0xb7, 0xe9, 0x3e,
  0xaf, 0x4f, 0x5e, 0xbd, 0x00, 0xdf, 0x1d, 0x3d, 0x36, 0x6b, 0x90, 0xbd,
  0xe3, 0xea, 0x78, 0x3e, 0x05, 0xb3, 0xb2, 0xbe, 0xa9, 0x98, 0x32, 0xbe,
  0xb9, 0xc5, 0x93, 0x3e, 0xf9, 0xd0, 0xd3, 0x3e, 0x07, 0xbf, 0x11, 0x3e,
  0xed, 0xcc, 0x22, 0x3e, 0x02, 0x08, 0x92, 0xbe, 0x3e, 0x19, 0x02, 0x3f,
  0x61, 0xf2, 0x52, 0x3e, 0x8a, 0x8d, 0x01, 0x3e, 0x98, 0x1f, 0x13, 0xbd,
  0x80, 0x5c, 0x80, 0xbe, 0x8c, 0xad, 0x80, 0x3e, 0xb9, 0x5e, 0x86, 0xbe,
  0xcd, 0xad, 0x0d, 0xbe, 0x1f, 0x40, 0x91, 0xbe, 0xc5, 0xb6, 0xdd, 0x3c,
  0xd8, 0xe2, 0xea, 0xba, 0xf1, 0x36, 0x94, 0x3d, 0x17, 0xa2, 0xd0, 0x3d,
  0xb2, 0xec, 0xca, 0xbe, 0xfd, 0x11, 0x19, 0xbf, 0x55, 0x18, 0x14, 0x3f,
  0x87, 0x89, 0xb1, 0xbd, 0xdb, 0x5f, 0xa1, 0xbe, 0x83, 0xfb, 0xf8, 0x3d,
  0xdc, 0x8a, 0x08, 0xbe, 0x85, 0x2c, 0x38, 0x3e, 0x53, 0xf6, 0xf7, 0xbe,
  0x71, 0xc7, 0x48, 0xbf, 0xbe, 0xc1, 0x2f, 0x3f, 0xe7, 0xe4, 0x60, 0x3d,
  0xd6, 0x8c, 0x5e, 0xbe, 0x8c, 0x87, 0xd9, 0xbd, 0xed, 0x33, 0xa2, 0xbe,
  0xb5, 0x70, 0x59, 0x3e, 0x69, 0x5d, 0xeb, 0xbe, 0x39, 0x67, 0x9e, 0xbf,
  0x00, 0x7b, 0xb8, 0x3e, 0xb3, 0x3e, 0xba, 0xbc, 0x5f, 0x3c, 0x2a, 0xbf,
  0xf8, 0xb3, 0x87, 0xbe, 0xad, 0xeb, 0xb2, 0x3b, 0xd5, 0x7f, 0xda, 0xbd,
  0xf2, 0x3e, 0x4c, 0x3d, 0xcc, 0x39, 0x15, 0xbe, 0x77, 0xed, 0xa7, 0x3d,
  0x0e, 0xe1, 0x20, 0x3f, 0xf2, 0xb8, 0x66, 0xbe, 0xd0, 0x3b, 0xdf, 0xbe,
  0x86, 0x9c, 0xe6, 0x3d, 0x1c, 0xa6, 0x25, 0xbe, 0x89, 0xb4, 0xce, 0xbd,
  0x15, 0x22, 0x30, 0xbe, 0x0a, 0xab, 0xac, 0x3e, 0xa0, 0x4a, 0x95, 0x3d,
  0x19, 0xdd, 0x08, 0xbf, 0x84, 0xae, 0x17, 0xbf, 0x10, 0x91, 0x05, 0x3f,
  0x2f, 0xff, 0x0b, 0x3e, 0x57, 0x4d, 0x18, 0x3e, 0x1f, 0x54, 0xd9, 0x3e,
  0xde, 0x49, 0xcc, 0x3e, 0x68, 0x60, 0x23, 0x3f, 0xd3, 0xca, 0x1e, 0xbe,
  0xf0, 0xf4, 0xc7, 0xbd, 0x31, 0x7e, 0x00, 0x3f, 0x57, 0x06, 0x73, 0x3e,
  0xaf, 0xff, 0xe1, 0x3e, 0x15, 0xce, 0xb5, 0x3e, 0xa0, 0x5f, 0x97, 0xbe,
  0x55, 0xcd, 0x41, 0x3d, 0x17, 0x09, 0xdc, 0xbe, 0xd8, 0x62, 0x60, 0xbe,
  0x91, 0xcc, 0x1a, 0x3f, 0x89, 0xc2, 0x6d, 0x3e, 0xe1, 0x21, 0x30, 0x3f,
  0x7f, 0x00, 0x83, 0x3e, 0x51, 0x96, 0xa1, 0xbe, 0x6d, 0x7c, 0x88, 0x3e,
  0x98, 0x27, 0x56, 0xbe, 0x6a, 0x78, 0xaf, 0xbd, 0xc0, 0x11, 0x4d, 0x3e,
  0x07, 0x7c, 0x5b, 0x3e, 0x45, 0x2d, 0x2f, 0x3e, 0xca, 0x9c, 0x8f, 0xbc,
  0x04, 0x0a, 0x8b, 0xbd, 0x94, 0xdf, 0x83, 0xbe, 0x88, 0xc1, 0x69, 0xbe,
  0xd0, 0x54, 0x81, 0xbe, 0xe9, 0xd8, 0x6b, 0x3e, 0xdf, 0xe3, 0xfc, 0x3e,
  0x89, 0xef, 0xdf, 0x3e, 0x39, 0xff, 0xf7, 0xbd, 0x0a, 0x66, 0x61, 0xbe,
  0x6a, 0x51, 0x7e, 0x3e, 0x2b, 0x44, 0x26, 0xbe, 0x37, 0xf1, 0x4e, 0x3e,
  0x93, 0x8f, 0x21, 0x3c, 0x9e, 0xe3, 0xc7, 0x3e, 0xb2, 0xc3, 0xf4, 0x3e,
  0xbc, 0xe4, 0xf5, 0xbc, 0xa6, 0xfe, 0x2b, 0xbe, 0xb3, 0xc3, 0x7b, 0x3e,
  0x7a, 0x64, 0xfb, 0xbd, 0x65, 0x95, 0x80, 0xbd, 0x76, 0xf7, 0x41, 0xbe,
  0x2c, 0xbc, 0x8c, 0x3d, 0x04, 0x57, 0x13, 0x3e, 0xdb, 0xc6, 0xf6, 0x3d,
  0xc9, 0x25, 0x97, 0xbd, 0x1e, 0x2a, 0x81, 0xbe, 0x88, 0x03, 0x3c, 0x3c,
  0x20, 0x23, 0xef, 0xbd, 0x72, 0x95, 0x7f, 0xbe, 0xd2, 0x28, 0x2d, 0xbe,
  0xd1, 0x64, 0x0f, 0xbf, 0xb9, 0xdc, 0x31, 0xbf, 0x42, 0x18, 0xcb, 0x3e,
  0xc6, 0x97, 0xdc, 0x3c, 0xb2, 0xe9, 0xf0, 0xbd, 0x85, 0x40, 0x3a, 0x3e,
  0x8d, 0xa2, 0x87, 0xbe, 0x94, 0x70, 0x9c, 0xbe, 0x29, 0xac, 0x0a, 0xbf,
  0x8a, 0x81, 0x1f, 0xbf, 0x0d, 0x2a, 0x82, 0x3e, 0x3f, 0x3c, 0xc0, 0xbd,
  0x94, 0xd3, 0xf8, 0xbc, 0xc0, 0xcd, 0x67, 0x3e, 0xf9, 0x95, 0xcb, 0xbe,
  0x0d, 0xea, 0x0b, 0xbe, 0x09, 0xdb, 0x0a, 0xbf, 0x72, 0xa3, 0x0c, 0xbf,
  0x06, 0xae, 0xc0, 0x3d, 0x44, 0x6d, 0x7e, 0x3e, 0x4d, 0xe6, 0x1a, 0x3d,
  0xe8, 0xac, 0xc8, 0xbc, 0xb5, 0x3d, 0x46, 0xbe, 0xc9, 0x89, 0xc1, 0xbe,
  0x60, 0xd4, 0xc9, 0xbe, 0xd9, 0xd6, 0x7f, 0x3c, 0x70, 0x24, 0xb1, 0x3e,
  0x64, 0xf2, 0x68, 0x3d, 0x2d, 0x57, 0x8f, 0xbd, 0x46, 0xc5, 0xaa, 0xbd,
  0x80, 0x71, 0x9a, 0xbd, 0x9d, 0xf0, 0xbd, 0xbe, 0x1b, 0x4e, 0xe1, 0xbe,
  0x5f, 0x74, 0x0f, 0xbe, 0x80, 0xc7, 0x78, 0x3e, 0x98, 0x08, 0x81, 0x3d,
  0x0d, 0xe3, 0x6a, 0xbd, 0x38, 0x7e, 0xb1, 0x3d, 0x90, 0x99, 0xab, 0xbe,
  0x53, 0x04, 0xc6, 0xbe, 0xa1, 0xa6, 0x58, 0xbe, 0xfd, 0xe3, 0x98, 0xbe,
  0xaa, 0x51, 0x08, 0x3e, 0x10, 0xe7, 0x6e, 0x3d, 0xcc, 0x77, 0x78, 0xbd,
  0x5a, 0x90, 0xca, 0xbd, 0xcd, 0x9f, 0x87, 0xbe, 0x3d, 0x74, 0x9d, 0x3e,
  0x38, 0xc3, 0x60, 0xbe, 0xde, 0x6f, 0xab, 0xbd, 0xe6, 0x8a, 0x36, 0xbd,
  0xb7, 0x37, 0x2d, 0xbf, 0x51, 0x7b, 0x17, 0x3f, 0xf4, 0xdc, 0xc6, 0x3e,
  0x4f, 0xd6, 0x05, 0x3d, 0x03, 0xec, 0x11, 0x3e, 0x93, 0x0c, 0xf3, 0xbd,
  0x74, 0xbf, 0x03, 0xbe, 0x36, 0x9f, 0x9d, 0x3d, 0xcb, 0x50, 0x00, 0xbf,
  0x16, 0x94, 0xc1, 0x3e, 0xf8, 0xe1, 0x07, 0x3e, 0x23, 0xc5, 0xea, 0xbe,
  0x76, 0x06, 0x09, 0x3e, 0x97, 0xf5, 0x39, 0xbe, 0x9d, 0x28, 0xdc, 0xbe,
  0xd7, 0x74, 0xce, 0xbe, 0xfa, 0x13, 0x09, 0xbf, 0x8a, 0x94, 0x52, 0xbe,
  0x99, 0x3a, 0xc5, 0x3d, 0xb8, 0x6b, 0x0c, 0xbd, 0xf0, 0x94, 0x2a, 0x3e,
  0x5b, 0xea, 0x29, 0x3e, 0xfb, 0xd7, 0x2a, 0x3e, 0x1b, 0xee, 0x03, 0x3e,
  0x84, 0x03, 0xd1, 0xbe, 0x0e, 0x87, 0x16, 0x3e, 0xee, 0xbf, 0xf5, 0x3c,
  0xdd, 0xa9, 0xc9, 0xbd, 0x9b, 0x4c, 0x0a, 0x3e, 0x1a, 0x7f, 0xc4, 0xbd,
  0x96, 0x92, 0x4c, 0x3e, 0x1d, 0x12, 0x71, 0x3e, 0xce, 0xfd, 0x18, 0xbe,
  0x08, 0x52, 0x9f, 0x3d, 0x80, 0xed, 0x22, 0x3d, 0x97, 0x88, 0xcd, 0x3c,
  0x45, 0x0d, 0xe1, 0x3d, 0x32, 0x51, 0x4e, 0xbd, 0x72, 0xe5, 0xa4, 0xbd,
  0xcc, 0x11, 0x74, 0xbe, 0x07, 0x3c, 0xe6, 0xbd, 0x56, 0xe3, 0x8f, 0xbd,
  0xc5, 0x17, 0x97, 0xbc, 0x03, 0x11, 0xd8, 0x3d, 0xed, 0xa3, 0xa4, 0xbe,
  0x1a, 0x90, 0xa5, 0x3e, 0x12, 0xb0, 0xf3, 0xbd, 0x95, 0xa4, 0x29, 0x3d,
  0x50, 0xb8, 0x26, 0x3e, 0xda, 0x28, 0x52, 0xbe, 0x12, 0xca, 0xd2, 0xbe,
  0x76, 0xc1, 0x87, 0x3e, 0x59, 0x04, 0x86, 0xbe, 0xb7, 0xb0, 0x0b, 0xbd,
  0x19, 0xad, 0x00, 0x3e, 0x80, 0xf2, 0xda, 0x3d, 0x14, 0x3f, 0x9b, 0x3e,
  0xa3, 0x23, 0xd3, 0xbe, 0x23, 0x9a, 0xd4, 0xbe, 0x3e, 0x2f, 0x04, 0x3f,
  0x63, 0x17, 0x7c, 0x3e, 0x49, 0xd2, 0xa9, 0x3e, 0xa9, 0xf9, 0xe8, 0x3e,
  0x3f, 0xb7, 0x83, 0x3e, 0x45, 0x45, 0xb6, 0x3e, 0xfa, 0xba, 0xcf, 0x3c,
  0x17, 0x53, 0x97, 0x3d, 0xf1, 0x6a, 0x02, 0xbe, 0xc1, 0x17, 0x9e, 0xbe,
  0xd5, 0x55, 0x50, 0x3a, 0x35, 0xfe, 0x3c, 0xbe, 0x60, 0xf6, 0x7b, 0xbe,
  0xa6, 0x22, 0x92, 0xbe, 0xba, 0xda, 0x9d, 0xbe, 0x59, 0x2d, 0x10, 0xbe,
  0xa6, 0x53, 0xe5, 0x3d, 0x80, 0x78, 0x1e, 0xbe, 0x01, 0x01, 0x8d, 0xbd,
  0xb1, 0xfe, 0xa9, 0xbd, 0x18, 0x51, 0xc9, 0xbd, 0x93, 0xe6, 0x2b, 0xbd,
  0xfd, 0x1c, 0x66, 0xbe, 0x63, 0x61, 0xa4, 0xbc, 0xb7, 0x24, 0x44, 0x3e,
  0x89, 0x79, 0xab, 0x3e, 0x7a, 0x4f, 0x4c, 0x3e, 0x33, 0xcd, 0x32, 0x3e,
  0xc2, 0x93, 0xe2, 0x3d, 0x59, 0x9d, 0x8f, 0x3e, 0xb9, 0x6c, 0x57, 0xbe,
  0x4a, 0x87, 0x25, 0x3e, 0xc8, 0xe9, 0xf6, 0xbe, 0xd5, 0x11, 0xe8, 0xbd,
  0x19, 0xe4, 0x0e, 0xbf, 0x51, 0x8a, 0x41, 0xbe, 0x00, 0x9a, 0x80, 0x3e,
  0x61, 0x22, 0x7f, 0xbe, 0x03, 0x2a, 0x88, 0x3d, 0x25, 0x90, 0x87, 0x3e,
  0x06, 0xeb, 0xee, 0xbe, 0x00, 0x88, 0x77, 0x3e, 0x2c, 0xdc, 0xf1, 0xbe,
  0x48, 0x34, 0xd9, 0xbe, 0x03, 0x42, 0x1d, 0x3e, 0xe5, 0xa8, 0x41, 0xbe,
  0x84, 0xae, 0x73, 0x3e, 0x88, 0x19, 0xe8, 0x3d, 0x90, 0x55, 0x62, 0xbe,
  0x38, 0x34, 0x6b, 0x3e, 0x34, 0x22, 0x94, 0xbe, 0x4b, 0x0a, 0x85, 0xbe,
  0xb9, 0xed, 0x0e, 0xbe, 0x43, 0xf5, 0xa6, 0xbe, 0x4a, 0xa6, 0x0e, 0x3e,
  0xc1, 0x50, 0xb0, 0x3e, 0x23, 0x21, 0x3f, 0xbe, 0x68, 0x62, 0xe9, 0xbc,
  0x20, 0xc4, 0x9b, 0xbe, 0x6b, 0xbe, 0x1c, 0xbe, 0xe8, 0x90, 0x48, 0x3d,
  0xc9, 0x37, 0x6a, 0x3e, 0x13, 0x0b, 0xe6, 0x3d, 0xcc, 0xa0, 0xc3, 0x3e,
  0x98, 0x23, 0x48, 0xbe, 0xb8, 0x22, 0x9d, 0x3a, 0xc6, 0x80, 0x49, 0xbe,
  0xf4, 0x81, 0xb0, 0x3d, 0x42, 0x3b, 0xcc, 0x3c, 0x87, 0x92, 0x3a, 0x3e,
  0x5f, 0xa1, 0x26, 0x3e, 0xf1, 0x12, 0xfd, 0x3e, 0xb1, 0xa6, 0xf4, 0xbc,
  0x8b, 0xd7, 0x65, 0x3d, 0x83, 0xaa, 0xe6, 0xbd, 0x6a, 0x7a, 0x86, 0x3a,
  0x36, 0x4b, 0xae, 0x39, 0x83, 0x7e, 0x23, 0xbe, 0xf8, 0x03, 0xde, 0x3d,
  0x94, 0x38, 0x66, 0x3e, 0x6e, 0x2d, 0xd5, 0x3c, 0x00, 0x08, 0x32, 0x3e,
  0xb8, 0x14, 0x88, 0x3d, 0xff, 0x9b, 0x12, 0xbe, 0x94, 0x1b, 0xf7, 0x3d,
  0x7a, 0xc1, 0xd8, 0x3e, 0x0b, 0x36, 0x43, 0xbf, 0x7a, 0xa0, 0x29, 0xbe,
  0x40, 0x5d, 0xba, 0x3d, 0x10, 0x2e, 0x9e, 0xbe, 0x56, 0x6b, 0x57, 0x3e,
  0x3e, 0x73, 0x47, 0xbe, 0x99, 0xa9, 0x48, 0x3d, 0x6f, 0x6b, 0x88, 0x3e,
  0xe5, 0xd2, 0xfc, 0xbe, 0x67, 0x9b, 0x98, 0xbe, 0xb3, 0xfd, 0xaf, 0x3e,
  0xad, 0xca, 0x02, 0x3f, 0xea, 0xdd, 0xb2, 0x3d, 0x1d, 0xbb, 0xc3, 0xbd,
  0x51, 0xac, 0x9b, 0xbe, 0xb1, 0x90, 0x0e, 0x3f, 0x87, 0xda, 0xad, 0xbe,
  0x67, 0xc0, 0xaf, 0xbd, 0xbb, 0x5f, 0x62, 0x3d, 0xce, 0xb8, 0xdf, 0xbd,
  0x4d, 0x2b, 0x8b, 0xbc, 0x16, 0x9e, 0xbe, 0x3d, 0x5d, 0x9f, 0xd8, 0xbd,
  0xe0, 0x36, 0x57, 0x3e, 0x4b, 0xbe, 0x59, 0xbe, 0x8a, 0xc2, 0x02, 0x3d,
  0x8a, 0x90, 0x3c, 0xbe, 0x12, 0x84, 0x3e, 0xbe, 0x86, 0xa3, 0x96, 0x3e,
  0x6e, 0x9b, 0x49, 0xbc, 0x81, 0x76, 0xaf, 0xbc, 0x69, 0x89, 0x17, 0xbe,
  0xc8, 0xc1, 0x61, 0xbe, 0x80, 0xc9, 0x4e, 0xbe, 0x78, 0x39, 0x2a, 0x3e,
  0xaa, 0xb2, 0xce, 0x3b, 0x86, 0xfe, 0xa0, 0x3e, 0x43, 0x5d, 0x25, 0xbb,
  0x55, 0x80, 0x00, 0x3e, 0xca, 0xb6, 0xfe, 0x3e, 0x14, 0xb9, 0x61, 0x3e,
  0x2c, 0x54, 0x80, 0x3e, 0xd1, 0x7a, 0x0a, 0x3e, 0x1b, 0xb4, 0x08, 0xbe,
  0xec, 0x7d, 0x8e, 0x3d, 0x09, 0x61, 0xc7, 0xbc, 0xfe, 0x80, 0x83, 0xbe,
  0xad, 0x9b, 0x1b, 0x3e, 0xe9, 0x5f, 0x6c, 0x3d, 0xb7, 0xe5, 0x88, 0xbe,
  0xbc, 0x07, 0x49, 0x3e, 0xc2, 0x81, 0x75, 0xbe, 0xeb, 0x9e, 0xbc, 0x3d,
  0x10, 0x4c, 0xb2, 0xbc, 0xac, 0x5c, 0x52, 0xbe, 0x73, 0x77, 0x83, 0x3e,
  0xac, 0x64, 0x24, 0xbc, 0xa2, 0x18, 0x8f, 0xbd, 0x74, 0x79, 0xd7, 0x3e,
  0xb6, 0x22, 0x13, 0xbe, 0x7b, 0xcc, 0xc8, 0x3c, 0x8c, 0xe9, 0xae, 0x3e,
  0x29, 0xd2, 0x2c, 0x3e, 0x7a, 0x4f, 0x1b, 0x3e, 0xd4, 0x03, 0x31, 0x3e,
  0x72, 0x70, 0x90, 0x3e, 0xa9, 0x71, 0xb5, 0xbd, 0xa0, 0xad, 0xe4, 0xbd,
  0xe6, 0xe4, 0x05, 0xbc, 0x3b, 0xb7, 0x75, 0xbd, 0xff, 0x4e, 0x18, 0xbe,
  0x8d, 0xad, 0x88, 0xbf, 0xc2, 0xd6, 0x61, 0xbd, 0x88, 0x4c, 0x43, 0x3c,
  0xc3, 0xe8, 0x1f, 0xbe, 0x57, 0x72, 0x21, 0xbe, 0x46, 0x37, 0x62, 0xbd,
  0x94, 0x73, 0x45, 0xbe, 0x0b, 0xe5, 0x46, 0xbe, 0xa8, 0xf3, 0xaa, 0xbf,
  0xca, 0x16, 0x92, 0xbd, 0x91, 0xdf, 0x48, 0xbc, 0x3d, 0x7e, 0xa5, 0x3d,
  0x9e, 0x53, 0x00, 0xbe, 0x0b, 0x62, 0xab, 0xbe, 0xc7, 0x5e, 0xf6, 0x3d,
  0xee, 0x84, 0xbc, 0xbd, 0x22, 0x21, 0x18, 0xbe, 0x86, 0xd4, 0x96, 0x3c,
  0xb1, 0x31, 0xe4, 0x3e, 0x09, 0x64, 0x7d, 0xbe, 0xb0, 0xa8, 0x8f, 0xbd,
  0xf7, 0xe5, 0x5c, 0xbf, 0x7d, 0x0d, 0x47, 0xbf, 0xc2, 0x73, 0xa3, 0x3e,
  0x08, 0xb9, 0xf8, 0x3c, 0x4c, 0x64, 0x9f, 0x3e, 0x8f, 0x4b, 0x48, 0x3e,
  0x20, 0xd7, 0xba, 0xbe, 0xe7, 0x61, 0xc5, 0x3c, 0xe9, 0xc9, 0x8a, 0xbf,
  0x21, 0xe1, 0x4f, 0xbf, 0xf4, 0x86, 0xf3, 0x3d, 0x9c, 0x34, 0xa2, 0x3e,
  0x73, 0x43, 0x02, 0x3e, 0x02, 0xf6, 0xa6, 0x3e, 0x1e, 0x24, 0x8f, 0xbd,
  0x98, 0x04, 0x4d, 0x3c, 0xe0, 0xd5, 0xa2, 0xbe, 0x8d, 0x43, 0xb6, 0xbe,
  0x0e, 0x70, 0x47, 0x3e, 0xad, 0x2c, 0xfc, 0x3c, 0xe2, 0xb1, 0x27, 0x3e,
  0x60, 0xa4, 0x11, 0x3c, 0x97, 0xfc, 0xb6, 0xbe, 0xf6, 0x11, 0xd2, 0xbe,
  0x16, 0x9d, 0x36, 0xbf, 0xa9, 0x6e, 0x5b, 0xbe, 0x84, 0x1b, 0x21, 0xbe,
  0x1f, 0xdf, 0xca, 0x3d, 0x65, 0x40, 0x89, 0xbd, 0xcc, 0x5d, 0x6a, 0x3e,
  0x2f, 0xa7, 0xf3, 0xbe, 0x66, 0x34, 0xe8, 0xbe, 0x84, 0x03, 0x84, 0xbf,
  0x8b, 0xeb, 0x0d, 0xbe, 0x15, 0x4f, 0x5c, 0x3e, 0x06, 0xed, 0x7c, 0x3e,
  0xe1, 0x8c, 0x18, 0xbe, 0xde, 0x5e, 0xfd, 0xbd, 0xc3, 0x40, 0x2e, 0xbe,
  0x05, 0xa1, 0xec, 0xbc, 0xde, 0x52, 0x27, 0xbe, 0xa0, 0xd5, 0x88, 0x3d,
  0x7d, 0x5b, 0xcb, 0x3d, 0x92, 0x35, 0xf3, 0x3d, 0x35, 0xb6, 0x80, 0x3e,
  0xaf, 0x29, 0xf6, 0x3e, 0x88, 0x23, 0xb4, 0xbe, 0x6e, 0x69, 0x82, 0xbe,
  0x2e, 0x7b, 0x94, 0xbe, 0xe8, 0x8d, 0x9c, 0xbe, 0x98, 0x90, 0x8a, 0x3e,
  0x4a, 0xf7, 0x21, 0xbb, 0xdc, 0x17, 0x29, 0x3d, 0x54, 0x41, 0x9d, 0x3e,
  0x5f, 0x71, 0xed, 0xbd, 0x79, 0x90, 0x70, 0xbe, 0xe8, 0xdc, 0x3c, 0xbd,
  0xe3, 0x5b, 0x85, 0xbe, 0xa4, 0xf9, 0x92, 0x3e, 0x0a, 0xa9, 0x9c, 0xba,
  0xf4, 0x8e, 0xac, 0xbb, 0x7a, 0xfb, 0x96, 0xbd, 0xb4, 0x57, 0xa4, 0x3d,
  0x69, 0xcc, 0x87, 0x3d, 0x37, 0x02, 0xc6, 0xbd, 0x99, 0x48, 0xba, 0xbe,
  0xae, 0xa6, 0x26, 0x3f, 0xac, 0x2b, 0xea, 0x3e, 0xa5, 0x5d, 0xb7, 0x3d,
  0x24, 0x65, 0x69, 0xbc, 0xef, 0xb1, 0x9b, 0x3d, 0x31, 0x0c, 0x86, 0xbe,
  0x37, 0xf6, 0x99, 0xbd, 0x96, 0xb3, 0x87, 0xbd, 0xd9, 0x17, 0xfc, 0x3e,
  0xbb, 0x10, 0x80, 0xbe, 0x0b, 0x65, 0x0d, 0xbe, 0xf8, 0xcd, 0x75, 0xbe,
  0xda, 0x1f, 0x86, 0xbd, 0xc8, 0xa3, 0x8c, 0xbe, 0x0d, 0x06, 0x63, 0x3d,
  0x00, 0xd8, 0x37, 0xbe, 0xda, 0x42, 0xb1, 0x3e, 0x09, 0x42, 0x7d, 0xbd,
  0xae, 0xe6, 0xae, 0xbc, 0xc0, 0x65, 0xc5, 0xbe, 0xee, 0xec, 0x07, 0x3f,
  0x76, 0xd4, 0xbe, 0x3e, 0xf5, 0x00, 0x79, 0x3e, 0xbc, 0x09, 0xfe, 0x3e,
  0xa1, 0x7e, 0x07, 0x3f, 0x8b, 0xc5, 0xae, 0x3c, 0xd7, 0x2e, 0xc0, 0x3d,
  0x19, 0xac, 0x3f, 0x3e, 0x78, 0x5a, 0x3e, 0x3e, 0x86, 0x3f, 0x93, 0x3e,
  0x6a, 0xa5, 0xba, 0x3d, 0xa3, 0x72, 0x61, 0x3e, 0x7d, 0xec, 0xb2, 0xbd,
  0x29, 0x21, 0x08, 0xbf, 0xb4, 0x8f, 0x80, 0x3d, 0xe7, 0x08, 0xd4, 0x3d,
  0x9f, 0xf6, 0x8e, 0x3d, 0xa4, 0x31, 0xe6, 0x3d, 0xcf, 0x30, 0x6a, 0x3d,
  0x4d, 0xa4, 0x83, 0x3e, 0x67, 0x52, 0xc6, 0xbe, 0xae, 0xfe, 0x25, 0xbf,
  0xcb, 0x52, 0x10, 0x3e, 0xba, 0xa8, 0x3e, 0x3e, 0x1a, 0x68, 0x91, 0xbe,
  0xac, 0x1c, 0x53, 0x3e, 0xa3, 0x29, 0xde, 0xb9, 0x27, 0xe0, 0x04, 0xbe,
  0x56, 0x8d, 0xa4, 0xbe, 0x1e, 0xaa, 0x36, 0xbf, 0x9e, 0xac, 0x8b, 0xbe,
  0x27, 0xf1, 0x90, 0xbe, 0x85, 0xdf, 0x18, 0x3e, 0x03, 0x3b, 0x0e, 0x3e,
  0x07, 0xd6, 0x8d, 0xbd, 0xe0, 0xdc, 0xa3, 0x3c, 0xd9, 0x7d, 0xea, 0xbd,
  0x1e, 0x8a, 0x1f, 0x3e, 0x11, 0x87, 0x76, 0xbe, 0x32, 0x3c, 0x49, 0x3e,
  0x63, 0x05, 0x4f, 0x3e, 0x9a, 0x29, 0x25, 0x3e, 0xe6, 0xed, 0xe1, 0x3d,
  0xf1, 0x48, 0x8d, 0xbd, 0x55, 0x34, 0x81, 0xbd, 0x1a, 0x76, 0x4c, 0xbe,
  0x95, 0xae, 0x52, 0xbe, 0xa0, 0xa2, 0x2c, 0x3d, 0x5b, 0x62, 0xb6, 0xbd,
  0xe7, 0xa5, 0x1f, 0x3e, 0x02, 0xd6, 0x5e, 0x3c, 0xcf, 0xff, 0xd2, 0x3c,
  0x62, 0xcb, 0x5c, 0xbe, 0xe2, 0x46, 0x19, 0xbf, 0xef, 0x99, 0x0f, 0xbe,
  0xad, 0xaf, 0x89, 0xbe, 0x2d, 0xa7, 0x87, 0x3e, 0xda, 0x15, 0xf1, 0x3e,
  0x04, 0xbf, 0xde, 0x3e, 0x02, 0xa8, 0x60, 0xbc, 0x1d, 0xd4, 0x15, 0xbf,
  0xcb, 0xb7, 0xe3, 0x3e, 0x3f, 0xf5, 0x65, 0xbf, 0x18, 0xff, 0x77, 0xbe,
  0x9b, 0xc0, 0xff, 0x3d, 0x50, 0xe7, 0xd5, 0x3e, 0xfe, 0x55, 0x86, 0x3e,
  0xcb, 0x39, 0x98, 0xbd, 0x34, 0x71, 0xd1, 0xbe, 0x27, 0x85, 0xd6, 0x3e,
  0x24, 0x31, 0x80, 0xbf, 0x7d, 0xf1, 0x0b, 0xbf, 0x2d, 0x7b, 0xb2, 0x3e,
  0xd7, 0xd6, 0xf0, 0xbd, 0xe3, 0xa2, 0x98, 0x3e, 0x8a, 0xb2, 0x48, 0x3e,
  0xb6, 0xfb, 0x11, 0xbe, 0x44, 0xef, 0x65, 0x3e, 0x94, 0x31, 0xed, 0xbe,
  0x5d, 0x6a, 0x92, 0xbe, 0x58, 0xcf, 0x4f, 0x3e, 0xbd, 0xa1, 0x97, 0x3e,
  0xb6, 0x44, 0x26, 0x3f, 0x9e, 0x92, 0xca, 0x3d, 0x4e, 0xaa, 0x19, 0xbe,
  0xb7, 0x91, 0x36, 0xbe, 0x5d, 0x0b, 0xbd, 0xbd, 0xaf, 0xc7, 0xe4, 0x3d,
  0xd6, 0x20, 0x79, 0x3e, 0x6c, 0x1b, 0x08, 0x3f, 0x44, 0x59, 0x85, 0x3e,
  0x3f, 0x36, 0x87, 0x3e, 0xee, 0x53, 0x93, 0x3d, 0xbb, 0x24, 0x48, 0xbe,
  0x34, 0xf3, 0xb1, 0xbd, 0xd8, 0x05, 0x92, 0x3e, 0x3f, 0x10, 0x0c, 0xbe,
  0xf5, 0x7b, 0xfe, 0x3d, 0xa6, 0xbe, 0x19, 0x3f, 0xe1, 0x6e, 0x2e, 0x3e,
  0xd5, 0x29, 0xf2, 0xbd, 0x85, 0xed, 0x64, 0xbd, 0x48, 0x59, 0xd4, 0xbc,
  0x55, 0x1b, 0x4e, 0x3d, 0x57, 0x58, 0x03, 0x3f, 0x6f, 0x4c, 0x4e, 0xbe,
  0xf7, 0xd8, 0xb8, 0x3e, 0xbe, 0x40, 0x09, 0x3f, 0x34, 0x4c, 0x9f, 0xbe,
  0xaf, 0x14, 0x6d, 0x3e, 0x09, 0x26, 0xbf, 0xbd, 0x6f, 0x10, 0x0b, 0xbe,
  0xf1, 0x00, 0x02, 0x3f, 0xbd, 0xfb, 0x57, 0x3e, 0x02, 0x1b, 0x00, 0x3f,
  0x6c, 0x29, 0x5c, 0x3e, 0xe8, 0xc0, 0x94, 0xbe, 0x8a, 0x51, 0xf9, 0x3d,
  0xeb, 0x96, 0xba, 0xbe, 0xa6, 0xcc, 0x6c, 0xbd, 0x66, 0x1b, 0xdb, 0x3e,
  0xe1, 0x5c, 0x95, 0x3d, 0x59, 0x2f, 0xd2, 0x3e, 0x22, 0x19, 0xbc, 0x3e,
  0xbc, 0x78, 0xf9, 0xbd, 0x59, 0x1c, 0xed, 0x3d, 0x78, 0x2b, 0x20, 0xbe,
  0xc8, 0x98, 0x9b, 0xbd, 0xe8, 0x27, 0x2f, 0x3d, 0x43, 0x8c, 0xd9, 0xbc,
  0xf3, 0x8d, 0x50, 0x3e, 0x16, 0xab, 0xc6, 0x3d, 0x54, 0xd0, 0x61, 0xbe,
  0x3b, 0xcb, 0x2e, 0x3d, 0xe5, 0x7d, 0xb4, 0x3d, 0x47, 0xaa, 0x24, 0xbe,
  0xa1, 0xa6, 0xfb, 0x3d, 0x6d, 0x02, 0x87, 0x3e, 0x8a, 0xbe, 0x1d, 0x3e,
  0xe2, 0x07, 0x94, 0x3d, 0x74, 0x32, 0xb8, 0xbe, 0x99, 0x5a, 0xb1, 0x3c,
  0x2f, 0x2a, 0x53, 0xbe, 0xe0, 0x54, 0xff, 0x3d, 0x55, 0xe0, 0x18, 0x3e,
  0x69, 0xb7, 0x14, 0x3e, 0x5f, 0xf7, 0x3a, 0x3e, 0xba, 0x08, 0x2b, 0x3b,
  0xa0, 0x5f, 0xed, 0x3c, 0x31, 0xd8, 0xd3, 0xbc, 0xab, 0x57, 0xb9, 0xbe,
  0x01, 0x6a, 0xb9, 0xbe, 0xe2, 0xf7, 0xff, 0xff, 0x04, 0x00, 0x00, 0x00,
  0x08, 0x00, 0x00, 0x00, 0xff, 0xff, 0xff, 0xff, 0x30, 0x00, 0x00, 0x00,
  0xf6, 0xf7, 0xff, 0xff, 0x04, 0x00, 0x00, 0x00, 0x40, 0x00, 0x00, 0x00,
  0xef, 0xfc, 0xbf, 0x3e, 0x43, 0x20, 0x63, 0x3d, 0x8c, 0x5c, 0x4b, 0x3e,
  0x20, 0xfa, 0x0e, 0xbe, 0x9e, 0xfe, 0x48, 0x3e, 0xa0, 0x0b, 0x08, 0x3f,
  0x6a, 0xfd, 0xfe, 0x3e, 0xb7, 0x38, 0x06, 0xbc, 0x1b, 0xbd, 0xc2, 0x3e,
  0xe1, 0x90, 0x05, 0xbe, 0x36, 0x13, 0x8a, 0xbd, 0xea, 0x6f, 0xe5, 0x3e,
  0x23, 0x14, 0x22, 0x3d, 0xc8, 0x0d, 0xa8, 0x3e, 0x64, 0x9c, 0x01, 0x3e,
  0x77, 0xd5, 0x08, 0x3e, 0x42, 0xf8, 0xff, 0xff, 0x04, 0x00, 0x00, 0x00,
  0x0c, 0x00, 0x00, 0x00, 0x6f, 0x85, 0x7f, 0xbe, 0x0f, 0xc6, 0x36, 0x3e,
  0x48, 0x30, 0x8b, 0x3d, 0x5a, 0xf8, 0xff, 0xff, 0x04, 0x00, 0x00, 0x00,
  0x00, 0x03, 0x00, 0x00, 0x37, 0x6e, 0x38, 0xbf, 0x38, 0x18, 0x00, 0x3f,
  0x04, 0x84, 0x38, 0xbf, 0x9c, 0xce, 0x55, 0x3d, 0xb7, 0x2d, 0x45, 0x3f,
  0x49, 0x6e, 0x3d, 0xbe, 0x55, 0xa9, 0xf3, 0xbe, 0x9a, 0xd4, 0xf9, 0x3e,
  0xb6, 0xb0, 0x6d, 0x3d, 0x59, 0x9d, 0x76, 0x3e, 0xea, 0x25, 0x09, 0x3d,
  0x4c, 0x4d, 0xd3, 0x3e, 0xd0, 0xe0, 0xb2, 0x3e, 0x5f, 0x1c, 0xbf, 0xbb,
  0x62, 0xac, 0x0e, 0xbe, 0x04, 0x5c, 0xe7, 0x3e, 0x78, 0x37, 0x53, 0xbd,
  0x05, 0x24, 0x7d, 0xba, 0xf5, 0x28, 0x0d, 0xbe, 0x88, 0x55, 0x4c, 0xbe,
  0xba, 0x7a, 0x33, 0x3e, 0x67, 0x71, 0x93, 0x3e, 0x6c, 0x98, 0x94, 0x3e,
  0x36, 0x19, 0xb2, 0x3e, 0x0a, 0x5a, 0x21, 0x3d, 0x33, 0x09, 0x1d, 0xbf,
  0x30, 0xdf, 0xd2, 0xbe, 0xa3, 0x1c, 0x11, 0xbe, 0x48, 0x93, 0x0c, 0xbf,
  0x84, 0x78, 0x14, 0xbe, 0x2b, 0xc0, 0xfd, 0xbe, 0x45, 0x7c, 0xd6, 0x3d,
  0xcc, 0xd8, 0x41, 0x3d, 0x76, 0xf1, 0x94, 0xbd, 0x56, 0x49, 0x7b, 0xbe,
  0x8b, 0x66, 0x5b, 0x3e, 0x7d, 0xd1, 0xbf, 0xbd, 0xca, 0x3e, 0xae, 0xbd,
  0x69, 0x9f, 0x03, 0xbd, 0x15, 0x7a, 0xab, 0x3e, 0x9a, 0x50, 0x84, 0xbd,
  0x6c, 0x27, 0xf5, 0x3e, 0xb6, 0x9a, 0x9f, 0x3e, 0x28, 0x90, 0x1c, 0x3f,
  0x98, 0x2f, 0x96, 0x3e, 0xd7, 0x2d, 0x7c, 0x3e, 0x64, 0xd3, 0x88, 0xbd,
  0x7b, 0x82, 0x01, 0x3f, 0xa8, 0x42, 0x32, 0xbf, 0x55, 0xaf, 0x11, 0xbb,
  0xfd, 0xf0, 0x5a, 0xbf, 0x0a, 0x38, 0x20, 0x3e, 0xb1, 0xca, 0x65, 0x3f,
  0xcd, 0x84, 0xc3, 0xbe, 0xb2, 0xdc, 0xe4, 0xbe, 0xbb, 0x32, 0x0e, 0xbe,
  0xaf, 0x1f, 0x61, 0xbe, 0xa7, 0xad, 0x99, 0x3d, 0xb9, 0x35, 0x93, 0xbc,
  0xb3, 0x65, 0xb5, 0xbc, 0x8e, 0xda, 0xe4, 0x3e, 0xe9, 0x72, 0xad, 0x3d,
  0x8a, 0xad, 0xb6, 0xbc, 0xff, 0x1d, 0x45, 0x3e, 0xf8, 0x13, 0x0d, 0x3e,
  0xaf, 0x17, 0xca, 0xbc, 0x2d, 0xd4, 0x76, 0xbc, 0x13, 0x80, 0x65, 0x3d,
  0x49, 0xdb, 0xb4, 0x3e, 0xa4, 0x86, 0x0c, 0x3f, 0xd7, 0x55, 0x93, 0xbd,
  0xd9, 0x90, 0x13, 0x3f, 0xa0, 0x5f, 0x14, 0xbf, 0x58, 0x8c, 0xc0, 0x3c,
  0x8e, 0xf4, 0x1d, 0xbf, 0x00, 0x53, 0xb2, 0x3e, 0x59, 0x91, 0x81, 0x3f,
  0xfd, 0x87, 0xb0, 0xbc, 0x3b, 0x2a, 0x48, 0xbf, 0xae, 0x01, 0x1f, 0x3f,
  0xf7, 0xf6, 0x73, 0x3e, 0x3d, 0x1c, 0x07, 0xbe, 0xc6, 0xbe, 0x7e, 0x3d,
  0x31, 0x03, 0xcd, 0x3d, 0xe5, 0x8c, 0xee, 0x3e, 0xe0, 0x7e, 0x61, 0x3c,
  0x2b, 0xf7, 0xc7, 0x3d, 0x10, 0x9a, 0x98, 0x3e, 0xab, 0x08, 0xf2, 0x3c,
  0xae, 0x45, 0x1c, 0xbd, 0x6f, 0x20, 0xa0, 0x3e, 0xc2, 0x20, 0x90, 0x3d,
  0xc7, 0xd8, 0xf9, 0xbc, 0x48, 0x86, 0xde, 0xbd, 0x7a, 0x3e, 0xbd, 0x3d,
  0x95, 0x7b, 0xf4, 0x3d, 0x80, 0xa2, 0x9a, 0x3e, 0x98, 0x65, 0x17, 0x3f,
  0x12, 0xdb, 0x7f, 0xbd, 0x4a, 0x4a, 0xdc, 0xbd, 0x7a, 0xe3, 0xb6, 0xbe,
  0x6e, 0x8c, 0xa5, 0xbc, 0xf9, 0xc3, 0x2c, 0x3f, 0xbb, 0x3d, 0x0a, 0xbe,
  0xa7, 0xeb, 0xc5, 0xbd, 0x38, 0xf4, 0xd6, 0x3e, 0x42, 0x0d, 0xb6, 0xbe,
  0xe5, 0xb0, 0xa1, 0xbe, 0xfd, 0x4f, 0x85, 0x3c, 0x26, 0x78, 0xfb, 0xbd,
  0x8e, 0xcf, 0x98, 0x3e, 0x45, 0x12, 0x43, 0x3e, 0x8e, 0x58, 0x81, 0xbd,
  0xde, 0x4d, 0x2b, 0x3e, 0x4d, 0x8c, 0x3f, 0xbe, 0xfe, 0xe7, 0x84, 0xbe,
  0x28, 0x92, 0xae, 0x3e, 0x2f, 0x8f, 0xc2, 0xbc, 0x75, 0xbb, 0xe5, 0x3e,
  0xd9, 0x93, 0x4c, 0xbc, 0x90, 0x22, 0x8d, 0xbf, 0xc7, 0x29, 0x7f, 0x3f,
  0x66, 0x9c, 0x0e, 0xbe, 0x4b, 0xd3, 0xe4, 0x3c, 0x73, 0x5f, 0xab, 0x3e,
  0x07, 0x40, 0x8a, 0xbf, 0xc0, 0xa2, 0x07, 0xbc, 0x75, 0xff, 0xc9, 0xbe,
  0xdd, 0x4e, 0x22, 0xbf, 0x59, 0xc7, 0x06, 0x3f, 0x36, 0x95, 0xb3, 0xbe,
  0x7b, 0xd9, 0xb3, 0x3d, 0x3e, 0x8c, 0x9d, 0x3e, 0xfe, 0x63, 0x8a, 0xbe,
  0x71, 0xa2, 0x66, 0xbe, 0x58, 0x00, 0xb8, 0xbd, 0x3a, 0xf1, 0xb9, 0x3c,
  0x3c, 0x6e, 0x37, 0x3d, 0xb3, 0x5a, 0x09, 0x3d, 0xb4, 0x2f, 0x4d, 0x3e,
  0x1a, 0x85, 0x9b, 0x3e, 0x90, 0xc4, 0x1a, 0xbd, 0xaf, 0xc0, 0x33, 0x3d,
  0x39, 0xcf, 0x86, 0x3d, 0xed, 0xb9, 0xa5, 0x3e, 0xaf, 0x56, 0x89, 0x3e,
  0xbb, 0xeb, 0x0b, 0x3f, 0x04, 0xe5, 0x57, 0xbe, 0xfe, 0xbc, 0x85, 0xbe,
  0xdb, 0x8b, 0x84, 0x3e, 0xf1, 0x82, 0x3e, 0xbe, 0xfb, 0x72, 0x63, 0x3e,
  0xd8, 0x4b, 0xef, 0xbd, 0xfc, 0x1c, 0xa6, 0x3e, 0xde, 0x3c, 0x4b, 0x3e,
  0xaf, 0x4a, 0xd4, 0x3c, 0xed, 0x2d, 0xb0, 0xbd, 0x0b, 0x42, 0x8f, 0x3c,
  0x0b, 0x01, 0xd9, 0x3c, 0xb5, 0x77, 0xff, 0xbd, 0x38, 0x8e, 0x04, 0xbe,
  0x96, 0x77, 0x90, 0x3e, 0xe0, 0x80, 0x87, 0xbe, 0xb4, 0x36, 0xb1, 0xbd,
  0x51, 0xc2, 0xa2, 0x3e, 0xc2, 0xb5, 0x0e, 0xbe, 0xcd, 0x57, 0xa7, 0x3b,
  0x55, 0x29, 0x97, 0x3e, 0x13, 0xd7, 0xa5, 0xbd, 0x26, 0x80, 0x5a, 0xbe,
  0x64, 0x47, 0x1c, 0x3d, 0x2a, 0x86, 0xe4, 0xbe, 0x04, 0x43, 0x3c, 0xbf,
  0x25, 0x52, 0x19, 0x3e, 0xcd, 0x2b, 0x0b, 0x3f, 0xf6, 0x4d, 0x01, 0xbe,
  0xed, 0x9c, 0xae, 0xbd, 0xbe, 0x08, 0x3c, 0x3e, 0x5c, 0x02, 0x03, 0x3e,
  0xa6, 0xd3, 0x5a, 0x3e, 0x0d, 0x9e, 0xb0, 0x3b, 0x36, 0xd6, 0x3b, 0x3e,
  0x7a, 0x89, 0xdd, 0xbe, 0x1d, 0x1f, 0xd4, 0x3c, 0xfd, 0xb8, 0x3b, 0x3d,
  0x0e, 0xdc, 0x0d, 0x3f, 0xa5, 0xa9, 0x37, 0x3e, 0x07, 0x5c, 0xf4, 0xbd,
  0xd0, 0xab, 0x68, 0x3d, 0x78, 0x93, 0xa0, 0x3c, 0x94, 0xb5, 0x63, 0x3d,
  0xcb, 0x2d, 0x69, 0x3e, 0x66, 0xfb, 0xff, 0xff, 0x04, 0x00, 0x00, 0x00,
  0x00, 0x03, 0x00, 0x00, 0xc6, 0x52, 0xa0, 0x3e, 0x42, 0x0c, 0x27, 0x3f,
  0xc5, 0x29, 0x0b, 0x3f, 0x03, 0x90, 0xc4, 0x3e, 0xe8, 0xac, 0x03, 0xbe,
  0x93, 0xaf, 0xc2, 0x3e, 0x3b, 0x2b, 0xb1, 0x3e, 0x24, 0x41, 0x31, 0xbe,
  0x1d, 0x70, 0x35, 0x3e, 0x21, 0x43, 0x5d, 0x3e, 0x37, 0x03, 0xa4, 0x3e,
  0xee, 0x35, 0x1e, 0x3e, 0x12, 0xdd, 0x2a, 0x3e, 0x0e, 0x10, 0x1b, 0x3e,
  0xaa, 0xa1, 0x83, 0x3e, 0x8e, 0xa5, 0x94, 0xbe, 0x5b, 0xc9, 0x9f, 0xbe,
  0x33, 0xff, 0x08, 0x3e, 0xdb, 0x94, 0xb2, 0xbe, 0xdb, 0x6d, 0x07, 0xbc,
  0x7c, 0x08, 0x66, 0xbe, 0x29, 0x9c, 0x28, 0xbe, 0x2b, 0x3e, 0x8d, 0xbe,
  0x3e, 0x88, 0xf2, 0xbd, 0x24, 0xc0, 0xa0, 0xbe, 0xc9, 0x58, 0x4a, 0xbf,
  0x9c, 0xa3, 0xd2, 0xbe, 0x56, 0x87, 0x8a, 0x3d, 0x02, 0x01, 0xd5, 0x3e,
  0x30, 0xc4, 0x77, 0xbe, 0xba, 0x9d, 0xad, 0x3e, 0x98, 0x22, 0x30, 0x3d,
  0xfc, 0x0a, 0x64, 0x3c, 0xe1, 0xf7, 0xe8, 0xbe, 0x46, 0xea, 0x23, 0x3d,
  0x31, 0x3b, 0x5d, 0xbd, 0x06, 0x8b, 0x07, 0x3f, 0x4b, 0xa4, 0x47, 0xbf,
  0xd4, 0x39, 0xec, 0xbd, 0xf5, 0x07, 0xa5, 0x3e, 0x62, 0xf5, 0x91, 0xbd,
  0x56, 0x75, 0xa5, 0x3c, 0x27, 0x2e, 0x85, 0x3e, 0xd5, 0xca, 0xe2, 0x3d,
  0x49, 0x77, 0x0c, 0x3f, 0x7d, 0xdb, 0x00, 0xbf, 0xc6, 0x72, 0xa4, 0xbe,
  0xf1, 0x88, 0x31, 0x3f, 0x51, 0x7f, 0xf6, 0x3e, 0x86, 0xd8, 0xa9, 0x3e,
  0xfb, 0x01, 0xcf, 0x3e, 0x2d, 0x5e, 0x64, 0x3e, 0x15, 0xcd, 0xbc, 0x3d,
  0xde, 0xf0, 0xf8, 0x3e, 0x1b, 0x82, 0x9c, 0x3f, 0x00, 0xb7, 0xd3, 0x3e,
  0xb5, 0x27, 0x2c, 0xbe, 0xc1, 0x15, 0x0f, 0x3e, 0xb1, 0x95, 0xf5, 0xbc,
  0x3a, 0xdd, 0x78, 0xbd, 0x8e, 0xf4, 0x3e, 0xbe, 0xae, 0xcf, 0x2e, 0xbc,
  0x9c, 0xca, 0xeb, 0x3e, 0xab, 0xa7, 0x9f, 0x3d, 0x58, 0x5d, 0xa4, 0xbd,
  0xcd, 0x38, 0x44, 0xbd, 0x05, 0x80, 0x10, 0xbe, 0xbb, 0x81, 0x90, 0xbd,
  0xa8, 0x20, 0x99, 0x3e, 0x60, 0x79, 0x1c, 0x3e, 0xe5, 0xdc, 0x20, 0x3e,
  0x3e, 0x3c, 0x0a, 0x3e, 0x31, 0x3c, 0x10, 0xbe, 0x85, 0xe1, 0x49, 0xbe,
  0x32, 0x53, 0xdd, 0xbe, 0xa7, 0x68, 0x99, 0xbe, 0x99, 0x41, 0xc8, 0xbe,
  0xd9, 0xf9, 0x13, 0x3d, 0xe1, 0xb9, 0xd3, 0xbe, 0x88, 0xa6, 0xba, 0xbc,
  0x23, 0xbb, 0xd1, 0x3d, 0xfb, 0x22, 0x45, 0x3d, 0xfc, 0x4c, 0xb4, 0xbe,
  0x40, 0x76, 0x06, 0x3d, 0x05, 0xa8, 0x96, 0x3e, 0x82, 0x00, 0xf3, 0xbd,
  0x4c, 0x65, 0xb7, 0xbe, 0x70, 0x99, 0x7d, 0x3e, 0xfb, 0x62, 0xa7, 0xbc,
  0x1e, 0x75, 0xf1, 0xbd, 0x04, 0x20, 0x9b, 0xbe, 0x58, 0xd3, 0xc4, 0xbe,
  0xd2, 0x7c, 0xaa, 0x3e, 0xdb, 0x0e, 0x03, 0x3e, 0xe0, 0xa9, 0xcd, 0x3e,
  0x70, 0xb5, 0x17, 0x3e, 0x1e, 0x61, 0x35, 0xbf, 0xa6, 0x22, 0x0c, 0xbf,
  0xad, 0x28, 0xdd, 0xbe, 0xe4, 0x7a, 0x07, 0xbf, 0x6f, 0xd5, 0xc9, 0xbd,
  0xbe, 0x8e, 0x43, 0xbf, 0x1f, 0x1e, 0x86, 0xbf, 0xfa, 0x12, 0x65, 0xbe,
  0x9d, 0x9b, 0xd3, 0xbe, 0x84, 0x2f, 0x84, 0xbe, 0x97, 0x97, 0x09, 0xbf,
  0x42, 0x24, 0x68, 0xbd, 0x34, 0xd6, 0xa8, 0x3c, 0x25, 0x21, 0xd7, 0xbe,
  0x4f, 0x2c, 0x29, 0xbe, 0xbe, 0xb0, 0x0d, 0xbe, 0x98, 0x0f, 0x8b, 0x3e,
  0x47, 0x9f, 0x87, 0xbd, 0x06, 0x1b, 0x9f, 0x3c, 0xc4, 0xfa, 0xb5, 0x3b,
  0x7e, 0x9d, 0x0d, 0xbe, 0x2f, 0x98, 0x03, 0x3f, 0xc1, 0x84, 0x5a, 0x3e,
  0xc3, 0x08, 0xdb, 0x3e, 0xaa, 0x49, 0xba, 0x3e, 0xa6, 0xb3, 0x8e, 0x3e,
  0x7c, 0x3a, 0x55, 0x3e, 0xa6, 0xe7, 0xb5, 0x3d, 0x65, 0x38, 0x6b, 0xbe,
  0x1d, 0x2a, 0x28, 0xbc, 0x9a, 0x70, 0x55, 0x3e, 0xe8, 0xc0, 0x99, 0xbd,
  0x57, 0x29, 0x6b, 0xbd, 0xcf, 0x28, 0x13, 0x3e, 0x76, 0x9b, 0x22, 0xbe,
  0xd7, 0x77, 0x7e, 0x3e, 0x3a, 0xfd, 0x52, 0x3e, 0x00, 0xc3, 0x40, 0x3e,
  0x50, 0xca, 0x78, 0x3e, 0xae, 0xae, 0x2f, 0xbe, 0x24, 0x92, 0xfb, 0x3e,
  0xd2, 0x4d, 0xf0, 0x3e, 0xf2, 0x4b, 0x21, 0xbe, 0x01, 0xf8, 0x68, 0x3e,
  0x43, 0xd1, 0x1b, 0xbe, 0x6d, 0x0e, 0xd3, 0x3e, 0xab, 0xd6, 0xaf, 0x3e,
  0x08, 0x75, 0x7e, 0x3e, 0x3c, 0x87, 0x2a, 0x3e, 0x75, 0x58, 0xa0, 0x3d,
  0x57, 0xe2, 0x21, 0x3f, 0x73, 0x7a, 0x09, 0x3f, 0x0a, 0x7a, 0x2a, 0x3e,
  0x1e, 0x30, 0x40, 0xbe, 0xce, 0x70, 0x7e, 0xbe, 0x92, 0xdd, 0xe6, 0x3e,
  0xb8, 0xf3, 0x77, 0x3d, 0x65, 0x60, 0x3d, 0x3e, 0x9d, 0xd8, 0x81, 0x3c,
  0xca, 0x40, 0xe0, 0x3e, 0xea, 0x38, 0xd5, 0x3e, 0x20, 0x16, 0xbc, 0xbe,
  0x59, 0x24, 0x60, 0xbf, 0x26, 0xa7, 0xfb, 0x3c, 0x68, 0xe3, 0x72, 0x3d,
  0x2b, 0x2f, 0x2a, 0x3d, 0x85, 0xef, 0xb5, 0x3e, 0xc4, 0x1f, 0x92, 0x3e,
  0x90, 0xa7, 0xb5, 0x3c, 0x4e, 0x6c, 0x8d, 0xbe, 0xee, 0x86, 0xef, 0xbe,
  0xda, 0x66, 0x5c, 0x3c, 0x7c, 0xa9, 0x82, 0xbe, 0x79, 0xc7, 0x1c, 0xbe,
  0xf9, 0x44, 0xe8, 0xbe, 0x22, 0xf8, 0x0a, 0xbd, 0x1f, 0xf1, 0x9f, 0x3c,
  0xf9, 0x9a, 0x01, 0xbe, 0x93, 0x5a, 0xd9, 0xbe, 0x55, 0x65, 0x4d, 0xbe,
  0x16, 0xfb, 0x8e, 0xbe, 0xaf, 0x9b, 0xaf, 0x3d, 0x7c, 0xd5, 0xba, 0xbe,
  0x13, 0x41, 0x95, 0xbe, 0x0d, 0x85, 0xa0, 0xbe, 0x3b, 0x3d, 0x97, 0x3e,
  0x23, 0xed, 0x34, 0xbe, 0x59, 0xd7, 0x79, 0xbe, 0x68, 0x50, 0x22, 0x3e,
  0x10, 0x22, 0x7b, 0x3e, 0x58, 0x26, 0xc1, 0xbc, 0xa7, 0x4e, 0x76, 0x3e,
  0xa9, 0x06, 0x15, 0x3f, 0x17, 0xb4, 0x72, 0xbe, 0x2a, 0xc0, 0x49, 0x3e,
  0x97, 0x9f, 0x6e, 0x3c, 0x72, 0xfe, 0xff, 0xff, 0x04, 0x00, 0x00, 0x00,
  0x60, 0x00, 0x00, 0x00, 0xf3, 0xd1, 0x10, 0xbf, 0x1e, 0xc9, 0x73, 0x3e,
  0x86, 0x4a, 0x25, 0x3f, 0x78, 0x57, 0xd9, 0x3e, 0x1c, 0x96, 0x86, 0x3e,
  0x75, 0xf4, 0xa5, 0xbe, 0x03, 0x5f, 0x36, 0x3f, 0x3b, 0xf3, 0xe4, 0x3d,
  0x2e, 0x31, 0x16, 0x3e, 0xbf, 0x7d, 0x01, 0x3f, 0x3f, 0x29, 0xc0, 0x3d,
  0xc6, 0xb3, 0xde, 0x3e, 0x7b, 0x71, 0x35, 0x3e, 0x70, 0x91, 0xd0, 0x3e,
  0x07, 0xe7, 0xb7, 0x3e, 0xf4, 0x2c, 0x59, 0x3e, 0x2f, 0x59, 0x0c, 0xbf,
  0xcb, 0x4f, 0x58, 0xbf, 0xcb, 0x2b, 0x18, 0xbf, 0xdc, 0xce, 0x3c, 0xbf,
  0x6a, 0x8c, 0xb1, 0xbe, 0x51, 0xef, 0xd6, 0x3e, 0xb0, 0x08, 0x10, 0x3f,
  0xb2, 0x43, 0xc6, 0x3e, 0xde, 0xfe, 0xff, 0xff, 0x04, 0x00, 0x00, 0x00,
  0x20, 0x00, 0x00, 0x00, 0xc5, 0x98, 0xba, 0xbd, 0xb4, 0xc5, 0xee, 0xbd,
  0x20, 0xbe, 0x18, 0xbe, 0x05, 0xf4, 0xdf, 0xbd, 0xb4, 0x9c, 0xb9, 0x3b,
  0xb3, 0x62, 0x2f, 0x3e, 0xe0, 0x1a, 0x99, 0xbe, 0xc5, 0x71, 0x66, 0xbe,
  0x0a, 0xff, 0xff, 0xff, 0x04, 0x00, 0x00, 0x00, 0x20, 0x00, 0x00, 0x00,
  0xde, 0x43, 0xa2, 0xbc, 0x5e, 0x33, 0xe5, 0x3d, 0xa2, 0x3d, 0xbd, 0xbe,
  0x8d, 0x34, 0x9c, 0x3d, 0x9b, 0x01, 0x9f, 0x3d, 0xa1, 0xbe, 0xc5, 0xbc,
  0xff, 0x35, 0xdf, 0xbd, 0x35, 0x37, 0x48, 0xbb, 0x36, 0xff, 0xff, 0xff,
  0x04, 0x00, 0x00, 0x00, 0x20, 0x00, 0x00, 0x00, 0x81, 0x6d, 0x15, 0xbc,
  0x00, 0x56, 0x1e, 0x36, 0x94, 0xa4, 0xd4, 0xbd, 0x1c, 0x85, 0x09, 0xbe,
  0xd5, 0xda, 0x7f, 0xbc, 0x93, 0x90, 0xd4, 0x3a, 0xb9, 0x92, 0xf2, 0xbd,
  0x3a, 0xc2, 0xb0, 0xbc, 0x78, 0xf2, 0xff, 0xff, 0x7c, 0xf2, 0xff, 0xff,
  0x0f, 0x00, 0x00, 0x00, 0x4d, 0x4c, 0x49, 0x52, 0x20, 0x43, 0x6f, 0x6e,
  0x76, 0x65, 0x72, 0x74, 0x65, 0x64, 0x2e, 0x00, 0x01, 0x00, 0x00, 0x00,
  0x14, 0x00, 0x00, 0x00, 0x00, 0x00, 0x0e, 0x00, 0x18, 0x00, 0x14, 0x00,
  0x10, 0x00, 0x0c, 0x00, 0x08, 0x00, 0x04, 0x00, 0x0e, 0x00, 0x00, 0x00,
  0x14, 0x00, 0x00, 0x00, 0x1c, 0x00, 0x00, 0x00, 0xdc, 0x02, 0x00, 0x00,
  0xe0, 0x02, 0x00, 0x00, 0xe4, 0x02, 0x00, 0x00, 0x04, 0x00, 0x00, 0x00,
  0x6d, 0x61, 0x69, 0x6e, 0x00, 0x00, 0x00, 0x00, 0x0a, 0x00, 0x00, 0x00,
  0x74, 0x02, 0x00, 0x00, 0x10, 0x02, 0x00, 0x00, 0xbc, 0x01, 0x00, 0x00,
  0x78, 0x01, 0x00, 0x00, 0x34, 0x01, 0x00, 0x00, 0xf0, 0x00, 0x00, 0x00,
  0xc8, 0x00, 0x00, 0x00, 0x78, 0x00, 0x00, 0x00, 0x40, 0x00, 0x00, 0x00,
  0x04, 0x00, 0x00, 0x00, 0x22, 0xfe, 0xff, 0xff, 0x1c, 0x00, 0x00, 0x00,
  0x00, 0x00, 0x00, 0x09, 0x1c, 0x00, 0x00, 0x00, 0x20, 0x00, 0x00, 0x00,
  0x04, 0x00, 0x00, 0x00, 0x00, 0x00, 0x06, 0x00, 0x08, 0x00, 0x04, 0x00,
  0x06, 0x00, 0x00, 0x00, 0x00, 0x00, 0x80, 0x3f, 0x01, 0x00, 0x00, 0x00,
  0x15, 0x00, 0x00, 0x00, 0x01, 0x00, 0x00, 0x00, 0x14, 0x00, 0x00, 0x00,
  0x5a, 0xfe, 0xff, 0xff, 0x14, 0x00, 0x00, 0x00, 0x00, 0x00, 0x00, 0x08,
  0x10, 0x00, 0x00, 0x00, 0x14, 0x00, 0x00, 0x00, 0x03, 0x00, 0x00, 0x00,
  0x4c, 0xf3, 0xff, 0xff, 0x01, 0x00, 0x00, 0x00, 0x14, 0x00, 0x00, 0x00,
  0x03, 0x00, 0x00, 0x00, 0x13, 0x00, 0x00, 0x00, 0x0b, 0x00, 0x00, 0x00,
  0x07, 0x00, 0x00, 0x00, 0x8e, 0xfe, 0xff, 0xff, 0x1c, 0x00, 0x00, 0x00,
  0x00, 0x00, 0x00, 0x08, 0x1c, 0x00, 0x00, 0x00, 0x20, 0x00, 0x00, 0x00,
  0x03, 0x00, 0x00, 0x00, 0x00, 0x00, 0x06, 0x00, 0x08, 0x00, 0x07, 0x00,
  0x06, 0x00, 0x00, 0x00, 0x00, 0x00, 0x00, 0x01, 0x01, 0x00, 0x00, 0x00,
  0x13, 0x00, 0x00, 0x00, 0x03, 0x00, 0x00, 0x00, 0x12, 0x00, 0x00, 0x00,
  0x0a, 0x00, 0x00, 0x00, 0x08, 0x00, 0x00, 0x00, 0x00, 0x00, 0x0a, 0x00,
  0x10, 0x00, 0x0c, 0x00, 0x08, 0x00, 0x04, 0x00, 0x0a, 0x00, 0x00, 0x00,
  0x0c, 0x00, 0x00, 0x00, 0x10, 0x00, 0x00, 0x00, 0x02, 0x00, 0x00, 0x00,
  0x01, 0x00, 0x00, 0x00, 0x12, 0x00, 0x00, 0x00, 0x02, 0x00, 0x00, 0x00,
  0x11, 0x00, 0x00, 0x00, 0x09, 0x00, 0x00, 0x00, 0xfe, 0xfe, 0xff, 0xff,
  0x14, 0x00, 0x00, 0x00, 0x00, 0x00, 0x00, 0x05, 0x24, 0x00, 0x00, 0x00,
  0x28, 0x00, 0x00, 0x00, 0x01, 0x00, 0x00, 0x00, 0xee, 0xfe, 0xff, 0xff,
  0x03, 0x00, 0x00, 0x00, 0x01, 0x00, 0x00, 0x00, 0x03, 0x00, 0x00, 0x00,
  0x01, 0x00, 0x00, 0x00, 0x00, 0x00, 0x00, 0x01, 0x01, 0x00, 0x00, 0x00,
  0x11, 0x00, 0x00, 0x00, 0x01, 0x00, 0x00, 0x00, 0x10, 0x00, 0x00, 0x00,
  0xde, 0xfe, 0xff, 0xff, 0x10, 0x00, 0x00, 0x00, 0x00, 0x00, 0x00, 0x01,
  0x1c, 0x00, 0x00, 0x00, 0x20, 0x00, 0x00, 0x00, 0xd0, 0xfe, 0xff, 0xff,
  0x00, 0x00, 0x00, 0x01, 0x01, 0x00, 0x00, 0x00, 0x01, 0x00, 0x00, 0x00,
  0x00, 0x00, 0x00, 0x01, 0x01, 0x00, 0x00, 0x00, 0x10, 0x00, 0x00, 0x00,
  0x03, 0x00, 0x00, 0x00, 0x0f, 0x00, 0x00, 0x00, 0x06, 0x00, 0x00, 0x00,
  0x03, 0x00, 0x00, 0x00, 0x7e, 0xff, 0xff, 0xff, 0x14, 0x00, 0x00, 0x00,
  0x00, 0x00, 0x00, 0x05, 0x24, 0x00, 0x00, 0x00, 0x28, 0x00, 0x00, 0x00,
  0x01, 0x00, 0x00, 0x00, 0x6e, 0xff, 0xff, 0xff, 0x03, 0x00, 0x00, 0x00,
  0x01, 0x00, 0x00, 0x00, 0x03, 0x00, 0x00, 0x00, 0x01, 0x00, 0x00, 0x00,
  0x00, 0x00, 0x00, 0x01, 0x01, 0x00, 0x00, 0x00, 0x0f, 0x00, 0x00, 0x00,
  0x01, 0x00, 0x00, 0x00, 0x0e, 0x00, 0x00, 0x00, 0x5e, 0xff, 0xff, 0xff,
  0x10, 0x00, 0x00, 0x00, 0x00, 0x00, 0x00, 0x01, 0x1c, 0x00, 0x00, 0x00,
  0x20, 0x00, 0x00, 0x00, 0x50, 0xff, 0xff, 0xff, 0x00, 0x00, 0x00, 0x01,
  0x01, 0x00, 0x00, 0x00, 0x01, 0x00, 0x00, 0x00, 0x00, 0x00, 0x00, 0x01,
  0x01, 0x00, 0x00, 0x00, 0x0e, 0x00, 0x00, 0x00, 0x03, 0x00, 0x00, 0x00,
  0x0d, 0x00, 0x00, 0x00, 0x05, 0x00, 0x00, 0x00, 0x02, 0x00, 0x00, 0x00,
  0x00, 0x00, 0x0e, 0x00, 0x1a, 0x00, 0x14, 0x00, 0x10, 0x00, 0x0c, 0x00,
  0x0b, 0x00, 0x04, 0x00, 0x0e, 0x00, 0x00, 0x00, 0x24, 0x00, 0x00, 0x00,
  0x00, 0x00, 0x00, 0x05, 0x34, 0x00, 0x00, 0x00, 0x38, 0x00, 0x00, 0x00,
  0x01, 0x00, 0x00, 0x00, 0x00, 0x00, 0x0e, 0x00, 0x18, 0x00, 0x17, 0x00,
  0x10, 0x00, 0x0c, 0x00, 0x08, 0x00, 0x04, 0x00, 0x0e, 0x00, 0x00, 0x00,
  0x03, 0x00, 0x00, 0x00, 0x01, 0x00, 0x00, 0x00, 0x03, 0x00, 0x00, 0x00,
  0x01, 0x00, 0x00, 0x00, 0x00, 0x00, 0x00, 0x01, 0x01, 0x00, 0x00, 0x00,
  0x0d, 0x00, 0x00, 0x00, 0x01, 0x00, 0x00, 0x00, 0x0c, 0x00, 0x00, 0x00,
  0x00, 0x00, 0x0e, 0x00, 0x14, 0x00, 0x00, 0x00, 0x10, 0x00, 0x0c, 0x00,
  0x0b, 0x00, 0x04, 0x00, 0x0e, 0x00, 0x00, 0x00, 0x1c, 0x00, 0x00, 0x00,
  0x00, 0x00, 0x00, 0x01, 0x28, 0x00, 0x00, 0x00, 0x2c, 0x00, 0x00, 0x00,
  0x0c, 0x00, 0x14, 0x00, 0x13, 0x00, 0x0c, 0x00, 0x08, 0x00, 0x07, 0x00,
  0x0c, 0x00, 0x00, 0x00, 0x00, 0x00, 0x00, 0x01, 0x01, 0x00, 0x00, 0x00,
  0x01, 0x00, 0x00, 0x00, 0x00, 0x00, 0x00, 0x01, 0x01, 0x00, 0x00, 0x00,
  0x0c, 0x00, 0x00, 0x00, 0x03, 0x00, 0x00, 0x00, 0x00, 0x00, 0x00, 0x00,
  0x04, 0x00, 0x00, 0x00, 0x01, 0x00, 0x00, 0x00, 0x01, 0x00, 0x00, 0x00,
  0x15, 0x00, 0x00, 0x00, 0x01, 0x00, 0x00, 0x00, 0x00, 0x00, 0x00, 0x00,
  0x16, 0x00, 0x00, 0x00, 0x28, 0x0a, 0x00, 0x00, 0xb4, 0x09, 0x00, 0x00,
  0x40, 0x09, 0x00, 0x00, 0xe4, 0x08, 0x00, 0x00, 0x8c, 0x08, 0x00, 0x00,
  0x34, 0x08, 0x00, 0x00, 0xdc, 0x07, 0x00, 0x00, 0x80, 0x07, 0x00, 0x00,
  0x24, 0x07, 0x00, 0x00, 0xd4, 0x06, 0x00, 0x00, 0x6c, 0x06, 0x00, 0x00,
  0x1c, 0x06, 0x00, 0x00, 0x20, 0x05, 0x00, 0x00, 0xa8, 0x04, 0x00, 0x00,
  0xac, 0x03, 0x00, 0x00, 0x34, 0x03, 0x00, 0x00, 0x58, 0x02, 0x00, 0x00,
  0xe0, 0x01, 0x00, 0x00, 0x7c, 0x01, 0x00, 0x00, 0xe0, 0x00, 0x00, 0x00,
  0x60, 0x00, 0x00, 0x00, 0x04, 0x00, 0x00, 0x00, 0x46, 0xf6, 0xff, 0xff,
  0x00, 0x00, 0x00, 0x01, 0x14, 0x00, 0x00, 0x00, 0x1c, 0x00, 0x00, 0x00,
  0x1c, 0x00, 0x00, 0x00, 0x16, 0x00, 0x00, 0x00, 0x34, 0x00, 0x00, 0x00,
  0x02, 0x00, 0x00, 0x00, 0xff, 0xff, 0xff, 0xff, 0x03, 0x00, 0x00, 0x00,
  0x28, 0xf6, 0xff, 0xff, 0x19, 0x00, 0x00, 0x00, 0x53, 0x74, 0x61, 0x74,
  0x65, 0x66, 0x75, 0x6c, 0x50, 0x61, 0x72, 0x74, 0x69, 0x74, 0x69, 0x6f,
  0x6e, 0x65, 0x64, 0x43, 0x61, 0x6c, 0x6c, 0x3a, 0x30, 0x00, 0x00, 0x00,
  0x02, 0x00, 0x00, 0x00, 0x01, 0x00, 0x00, 0x00, 0x03, 0x00, 0x00, 0x00,
  0x9e, 0xf6, 0xff, 0xff, 0x00, 0x00, 0x00, 0x01, 0x14, 0x00, 0x00, 0x00,
  0x1c, 0x00, 0x00, 0x00, 0x1c, 0x00, 0x00, 0x00, 0x15, 0x00, 0x00, 0x00,
  0x58, 0x00, 0x00, 0x00, 0x02, 0x00, 0x00, 0x00, 0xff, 0xff, 0xff, 0xff,
  0x03, 0x00, 0x00, 0x00, 0x80, 0xf6, 0xff, 0xff, 0x3c, 0x00, 0x00, 0x00,
  0x73, 0x65, 0x71, 0x75, 0x65, 0x6e, 0x74, 0x69, 0x61, 0x6c, 0x5f, 0x32,
  0x34, 0x2f, 0x64, 0x65, 0x6e, 0x73, 0x65, 0x5f, 0x36, 0x32, 0x2f, 0x4d,
  0x61, 0x74, 0x4d, 0x75, 0x6c, 0x3b, 0x73, 0x65, 0x71, 0x75, 0x65, 0x6e,
  0x74, 0x69, 0x61, 0x6c, 0x5f, 0x32, 0x34, 0x2f, 0x64, 0x65, 0x6e, 0x73,
  0x65, 0x5f, 0x36, 0x32, 0x2f, 0x42, 0x69, 0x61, 0x73, 0x41, 0x64, 0x64,
  0x00, 0x00, 0x00, 0x00, 0x02, 0x00, 0x00, 0x00, 0x01, 0x00, 0x00, 0x00,
  0x03, 0x00, 0x00, 0x00, 0x1a, 0xf7, 0xff, 0xff, 0x00, 0x00, 0x00, 0x01,
  0x14, 0x00, 0x00, 0x00, 0x1c, 0x00, 0x00, 0x00, 0x1c, 0x00, 0x00, 0x00,
  0x14, 0x00, 0x00, 0x00, 0x74, 0x00, 0x00, 0x00, 0x02, 0x00, 0x00, 0x00,
  0xff, 0xff, 0xff, 0xff, 0x10, 0x00, 0x00, 0x00, 0xfc, 0xf6, 0xff, 0xff,
  0x58, 0x00, 0x00, 0x00, 0x73, 0x65, 0x71, 0x75, 0x65, 0x6e, 0x74, 0x69,
  0x61, 0x6c, 0x5f, 0x32, 0x34, 0x2f, 0x64, 0x65, 0x6e, 0x73, 0x65, 0x5f,
  0x36, 0x31, 0x2f, 0x4d, 0x61, 0x74, 0x4d, 0x75, 0x6c, 0x3b, 0x73, 0x65,
  0x71, 0x75, 0x65, 0x6e, 0x74, 0x69, 0x61, 0x6c, 0x5f, 0x32, 0x34, 0x2f,
  0x64, 0x65, 0x6e, 0x73, 0x65, 0x5f, 0x36, 0x31, 0x2f, 0x52, 0x65, 0x6c,
  0x75, 0x3b, 0x73, 0x65, 0x71, 0x75, 0x65, 0x6e, 0x74, 0x69, 0x61, 0x6c,
  0x5f, 0x32, 0x34, 0x2f, 0x64, 0x65, 0x6e, 0x73, 0x65, 0x5f, 0x36, 0x31,
  0x2f, 0x42, 0x69, 0x61, 0x73, 0x41, 0x64, 0x64, 0x00, 0x00, 0x00, 0x00,
  0x02, 0x00, 0x00, 0x00, 0x01, 0x00, 0x00, 0x00, 0x10, 0x00, 0x00, 0x00,
  0xb2, 0xf7, 0xff, 0xff, 0x00, 0x00, 0x00, 0x01, 0x14, 0x00, 0x00, 0x00,
  0x1c, 0x00, 0x00, 0x00, 0x1c, 0x00, 0x00, 0x00, 0x13, 0x00, 0x00, 0x00,
  0x3c, 0x00, 0x00, 0x00, 0x02, 0x00, 0x00, 0x00, 0xff, 0xff, 0xff, 0xff,
  0x30, 0x00, 0x00, 0x00, 0x94, 0xf7, 0xff, 0xff, 0x20, 0x00, 0x00, 0x00,
  0x73, 0x65, 0x71, 0x75, 0x65, 0x6e, 0x74, 0x69, 0x61, 0x6c, 0x5f, 0x32,
  0x34, 0x2f, 0x66, 0x6c, 0x61, 0x74, 0x74, 0x65, 0x6e, 0x5f, 0x32, 0x34,
  0x2f, 0x52, 0x65, 0x73, 0x68, 0x61, 0x70, 0x65, 0x00, 0x00, 0x00, 0x00,
  0x02, 0x00, 0x00, 0x00, 0x01, 0x00, 0x00, 0x00, 0x30, 0x00, 0x00, 0x00,
  0x12, 0xf8, 0xff, 0xff, 0x00, 0x00, 0x00, 0x01, 0x14, 0x00, 0x00, 0x00,
  0x24, 0x00, 0x00, 0x00, 0x24, 0x00, 0x00, 0x00, 0x12, 0x00, 0x00, 0x00,
  0x48, 0x00, 0x00, 0x00, 0x04, 0x00, 0x00, 0x00, 0xff, 0xff, 0xff, 0xff,
  0x02, 0x00, 0x00, 0x00, 0x03, 0x00, 0x00, 0x00, 0x08, 0x00, 0x00, 0x00,
  0xfc, 0xf7, 0xff, 0xff, 0x26, 0x00, 0x00, 0x00, 0x73, 0x65, 0x71, 0x75,
  0x65, 0x6e, 0x74, 0x69, 0x61, 0x6c, 0x5f, 0x32, 0x34, 0x2f, 0x6d, 0x61,
  0x78, 0x5f, 0x70, 0x6f, 0x6f, 0x6c, 0x69, 0x6e, 0x67, 0x32, 0x64, 0x5f,
  0x33, 0x34, 0x2f, 0x4d, 0x61, 0x78, 0x50, 0x6f, 0x6f, 0x6c, 0x00, 0x00,
  0x04, 0x00, 0x00, 0x00, 0x01, 0x00, 0x00, 0x00, 0x02, 0x00, 0x00, 0x00,
  0x03, 0x00, 0x00, 0x00, 0x08, 0x00, 0x00, 0x00, 0x86, 0xf8, 0xff, 0xff,
  0x00, 0x00, 0x00, 0x01, 0x14, 0x00, 0x00, 0x00, 0x24, 0x00, 0x00, 0x00,
  0x24, 0x00, 0x00, 0x00, 0x11, 0x00, 0x00, 0x00, 0xac, 0x00, 0x00, 0x00,
  0x04, 0x00, 0x00, 0x00, 0xff, 0xff, 0xff, 0xff, 0x06, 0x00, 0x00, 0x00,
  0x03, 0x00, 0x00, 0x00, 0x08, 0x00, 0x00, 0x00, 0x70, 0xf8, 0xff, 0xff,
  0x8a, 0x00, 0x00, 0x00, 0x73, 0x65, 0x71, 0x75, 0x65, 0x6e, 0x74, 0x69,
  0x61, 0x6c, 0x5f, 0x32, 0x34, 0x2f, 0x63, 0x6f, 0x6e, 0x76, 0x32, 0x64,
  0x5f, 0x33, 0x34, 0x2f, 0x52, 0x65, 0x6c, 0x75, 0x3b, 0x73, 0x65, 0x71,
  0x75, 0x65, 0x6e, 0x74, 0x69, 0x61, 0x6c, 0x5f, 0x32, 0x34, 0x2f, 0x63,
  0x6f, 0x6e, 0x76, 0x32, 0x64, 0x5f, 0x33, 0x34, 0x2f, 0x42, 0x69, 0x61,
  0x73, 0x41, 0x64, 0x64, 0x3b, 0x73, 0x65, 0x71, 0x75, 0x65, 0x6e, 0x74,
  0x69, 0x61, 0x6c, 0x5f, 0x32, 0x34, 0x2f, 0x63, 0x6f, 0x6e, 0x76, 0x32,
  0x64, 0x5f, 0x33, 0x34, 0x2f, 0x43, 0x6f, 0x6e, 0x76, 0x32, 0x44, 0x3b,
  0x73, 0x65, 0x71, 0x75, 0x65, 0x6e, 0x74, 0x69, 0x61, 0x6c, 0x5f, 0x32,
  0x34, 0x2f, 0x63, 0x6f, 0x6e, 0x76, 0x32, 0x64, 0x5f, 0x33, 0x34, 0x2f,
  0x42, 0x69, 0x61, 0x73, 0x41, 0x64, 0x64, 0x2f, 0x52, 0x65, 0x61, 0x64,
  0x56, 0x61, 0x72, 0x69, 0x61, 0x62, 0x6c, 0x65, 0x4f, 0x70, 0x00, 0x00,
  0x04, 0x00, 0x00, 0x00, 0x01, 0x00, 0x00, 0x00, 0x06, 0x00, 0x00, 0x00,
  0x03, 0x00, 0x00, 0x00, 0x08, 0x00, 0x00, 0x00, 0x5e, 0xf9, 0xff, 0xff,
  0x00, 0x00, 0x00, 0x01, 0x14, 0x00, 0x00, 0x00, 0x24, 0x00, 0x00, 0x00,
  0x24, 0x00, 0x00, 0x00, 0x10, 0x00, 0x00, 0x00, 0x48, 0x00, 0x00, 0x00,
  0x04, 0x00, 0x00, 0x00, 0xff, 0xff, 0xff, 0xff, 0x08, 0x00, 0x00, 0x00,
  0x03, 0x00, 0x00, 0x00, 0x08, 0x00, 0x00, 0x00, 0x48, 0xf9, 0xff, 0xff,
  0x26, 0x00, 0x00, 0x00, 0x73, 0x65, 0x71, 0x75, 0x65, 0x6e, 0x74, 0x69,
  0x61, 0x6c, 0x5f, 0x32, 0x34, 0x2f, 0x6d, 0x61, 0x78, 0x5f, 0x70, 0x6f,
  0x6f, 0x6c, 0x69, 0x6e, 0x67, 0x32, 0x64, 0x5f, 0x33, 0x33, 0x2f, 0x4d,
  0x61, 0x78, 0x50, 0x6f, 0x6f, 0x6c, 0x00, 0x00, 0x04, 0x00, 0x00, 0x00,
  0x01, 0x00, 0x00, 0x00, 0x08, 0x00, 0x00, 0x00, 0x03, 0x00, 0x00, 0x00,
  0x08, 0x00, 0x00, 0x00, 0xd2, 0xf9, 0xff, 0xff, 0x00, 0x00, 0x00, 0x01,
  0x14, 0x00, 0x00, 0x00, 0x24, 0x00, 0x00, 0x00, 0x24, 0x00, 0x00, 0x00,
  0x0f, 0x00, 0x00, 0x00, 0xcc, 0x00, 0x00, 0x00, 0x04, 0x00, 0x00, 0x00,
  0xff, 0xff, 0xff, 0xff, 0x18, 0x00, 0x00, 0x00, 0x03, 0x00, 0x00, 0x00,
  0x08, 0x00, 0x00, 0x00, 0xbc, 0xf9, 0xff, 0xff, 0xa9, 0x00, 0x00, 0x00,
  0x73, 0x65, 0x71, 0x75, 0x65, 0x6e, 0x74, 0x69, 0x61, 0x6c, 0x5f, 0x32,
  0x34, 0x2f, 0x63, 0x6f, 0x6e, 0x76, 0x32, 0x64, 0x5f, 0x33, 0x33, 0x2f,
  0x52, 0x65, 0x6c, 0x75, 0x3b, 0x73, 0x65, 0x71, 0x75, 0x65, 0x6e, 0x74,
  0x69, 0x61, 0x6c, 0x5f, 0x32, 0x34, 0x2f, 0x63, 0x6f, 0x6e, 0x76, 0x32,
  0x64, 0x5f, 0x33, 0x33, 0x2f, 0x42, 0x69, 0x61, 0x73, 0x41, 0x64, 0x64,
  0x3b, 0x73, 0x65, 0x71, 0x75, 0x65, 0x6e, 0x74, 0x69, 0x61, 0x6c, 0x5f,
  0x32, 0x34, 0x2f, 0x63, 0x6f, 0x6e, 0x76, 0x32, 0x64, 0x5f, 0x33, 0x34,
  0x2f, 0x43, 0x6f, 0x6e, 0x76, 0x32, 0x44, 0x3b, 0x73, 0x65, 0x71, 0x75,
  0x65, 0x6e, 0x74, 0x69, 0x61, 0x6c, 0x5f, 0x32, 0x34, 0x2f, 0x63, 0x6f,
  0x6e, 0x76, 0x32, 0x64, 0x5f, 0x33, 0x33, 0x2f, 0x43, 0x6f, 0x6e, 0x76,
  0x32, 0x44, 0x3b, 0x73, 0x65, 0x71, 0x75, 0x65, 0x6e, 0x74, 0x69, 0x61,
  0x6c, 0x5f, 0x32, 0x34, 0x2f, 0x63, 0x6f, 0x6e, 0x76, 0x32, 0x64, 0x5f,
  0x33, 0x33, 0x2f, 0x42, 0x69, 0x61, 0x73, 0x41, 0x64, 0x64, 0x2f, 0x52,
  0x65, 0x61, 0x64, 0x56, 0x61, 0x72, 0x69, 0x61, 0x62, 0x6c, 0x65, 0x4f,
  0x70, 0x00, 0x00, 0x00, 0x04, 0x00, 0x00, 0x00, 0x01, 0x00, 0x00, 0x00,
  0x18, 0x00, 0x00, 0x00, 0x03, 0x00, 0x00, 0x00, 0x08, 0x00, 0x00, 0x00,
  0xca, 0xfa, 0xff, 0xff, 0x00, 0x00, 0x00, 0x01, 0x14, 0x00, 0x00, 0x00,
  0x24, 0x00, 0x00, 0x00, 0x24, 0x00, 0x00, 0x00, 0x0e, 0x00, 0x00, 0x00,
  0x48, 0x00, 0x00, 0x00, 0x04, 0x00, 0x00, 0x00, 0xff, 0xff, 0xff, 0xff,
  0x1a, 0x00, 0x00, 0x00, 0x03, 0x00, 0x00, 0x00, 0x08, 0x00, 0x00, 0x00,
  0xb4, 0xfa, 0xff, 0xff, 0x26, 0x00, 0x00, 0x00, 0x73, 0x65, 0x71, 0x75,
  0x65, 0x6e, 0x74, 0x69, 0x61, 0x6c, 0x5f, 0x32, 0x34, 0x2f, 0x6d, 0x61,
  0x78, 0x5f, 0x70, 0x6f, 0x6f, 0x6c, 0x69, 0x6e, 0x67, 0x32, 0x64, 0x5f,
  0x33, 0x32, 0x2f, 0x4d, 0x61, 0x78, 0x50, 0x6f, 0x6f, 0x6c, 0x00, 0x00,
  0x04, 0x00, 0x00, 0x00, 0x01, 0x00, 0x00, 0x00, 0x1a, 0x00, 0x00, 0x00,
  0x03, 0x00, 0x00, 0x00, 0x08, 0x00, 0x00, 0x00, 0x3e, 0xfb, 0xff, 0xff,
  0x00, 0x00, 0x00, 0x01, 0x14, 0x00, 0x00, 0x00, 0x24, 0x00, 0x00, 0x00,
  0x24, 0x00, 0x00, 0x00, 0x0d, 0x00, 0x00, 0x00, 0xcc, 0x00, 0x00, 0x00,
  0x04, 0x00, 0x00, 0x00, 0xff, 0xff, 0xff, 0xff, 0x4e, 0x00, 0x00, 0x00,
  0x03, 0x00, 0x00, 0x00, 0x08, 0x00, 0x00, 0x00, 0x28, 0xfb, 0xff, 0xff,
  0xa9, 0x00, 0x00, 0x00, 0x73, 0x65, 0x71, 0x75, 0x65, 0x6e, 0x74, 0x69,
  0x61, 0x6c, 0x5f, 0x32, 0x34, 0x2f, 0x63, 0x6f, 0x6e, 0x76, 0x32, 0x64,
  0x5f, 0x33, 0x32, 0x2f, 0x52, 0x65, 0x6c, 0x75, 0x3b, 0x73, 0x65, 0x71,
  0x75, 0x65, 0x6e, 0x74, 0x69, 0x61, 0x6c, 0x5f, 0x32, 0x34, 0x2f, 0x63,
  0x6f, 0x6e, 0x76, 0x32, 0x64, 0x5f, 0x33, 0x32, 0x2f, 0x42, 0x69, 0x61,
  0x73, 0x41, 0x64, 0x64, 0x3b, 0x73, 0x65, 0x71, 0x75, 0x65, 0x6e, 0x74,
  0x69, 0x61, 0x6c, 0x5f, 0x32, 0x34, 0x2f, 0x63, 0x6f, 0x6e, 0x76, 0x32,
  0x64, 0x5f, 0x33, 0x34, 0x2f, 0x43, 0x6f, 0x6e, 0x76, 0x32, 0x44, 0x3b,
  0x73, 0x65, 0x71, 0x75, 0x65, 0x6e, 0x74, 0x69, 0x61, 0x6c, 0x5f, 0x32,
  0x34, 0x2f, 0x63, 0x6f, 0x6e, 0x76, 0x32, 0x64, 0x5f, 0x33, 0x32, 0x2f,
  0x43, 0x6f, 0x6e, 0x76, 0x32, 0x44, 0x3b, 0x73, 0x65, 0x71, 0x75, 0x65,
  0x6e, 0x74, 0x69, 0x61, 0x6c, 0x5f, 0x32, 0x34, 0x2f, 0x63, 0x6f, 0x6e,
  0x76, 0x32, 0x64, 0x5f, 0x33, 0x32, 0x2f, 0x42, 0x69, 0x61, 0x73, 0x41,
  0x64, 0x64, 0x2f, 0x52, 0x65, 0x61, 0x64, 0x56, 0x61, 0x72, 0x69, 0x61,
  0x62, 0x6c, 0x65, 0x4f, 0x70, 0x00, 0x00, 0x00, 0x04, 0x00, 0x00, 0x00,
  0x01, 0x00, 0x00, 0x00, 0x4e, 0x00, 0x00, 0x00, 0x03, 0x00, 0x00, 0x00,
  0x08, 0x00, 0x00, 0x00, 0xa6, 0xfc, 0xff, 0xff, 0x00, 0x00, 0x00, 0x01,
  0x10, 0x00, 0x00, 0x00, 0x10, 0x00, 0x00, 0x00, 0x0c, 0x00, 0x00, 0x00,
  0x2c, 0x00, 0x00, 0x00, 0x08, 0xfc, 0xff, 0xff, 0x1d, 0x00, 0x00, 0x00,
  0x73, 0x65, 0x71, 0x75, 0x65, 0x6e, 0x74, 0x69, 0x61, 0x6c, 0x5f, 0x32,
  0x34, 0x2f, 0x64, 0x65, 0x6e, 0x73, 0x65, 0x5f, 0x36, 0x32, 0x2f, 0x4d,
  0x61, 0x74, 0x4d, 0x75, 0x6c, 0x00, 0x00, 0x00, 0x02, 0x00, 0x00, 0x00,
  0x03, 0x00, 0x00, 0x00, 0x10, 0x00, 0x00, 0x00, 0xf2, 0xfc, 0xff, 0xff,
  0x00, 0x00, 0x00, 0x01, 0x10, 0x00, 0x00, 0x00, 0x10, 0x00, 0x00, 0x00,
  0x0b, 0x00, 0x00, 0x00, 0x2c, 0x00, 0x00, 0x00, 0x54, 0xfc, 0xff, 0xff,
  0x1d, 0x00, 0x00, 0x00, 0x73, 0x65, 0x71, 0x75, 0x65, 0x6e, 0x74, 0x69,
  0x61, 0x6c, 0x5f, 0x32, 0x34, 0x2f, 0x64, 0x65, 0x6e, 0x73, 0x65, 0x5f,
  0x36, 0x31, 0x2f, 0x4d, 0x61, 0x74, 0x4d, 0x75, 0x6c, 0x00, 0x00, 0x00,
  0x02, 0x00, 0x00, 0x00, 0x10, 0x00, 0x00, 0x00, 0x30, 0x00, 0x00, 0x00,
  0x00, 0x00, 0x16, 0x00, 0x1c, 0x00, 0x18, 0x00, 0x17, 0x00, 0x10, 0x00,
  0x0c, 0x00, 0x08, 0x00, 0x00, 0x00, 0x00, 0x00, 0x00, 0x00, 0x07, 0x00,
  0x16, 0x00, 0x00, 0x00, 0x00, 0x00, 0x00, 0x01, 0x14, 0x00, 0x00, 0x00,
  0x14, 0x00, 0x00, 0x00, 0x0a, 0x00, 0x00, 0x00, 0x00, 0x00, 0x00, 0x02,
  0x2c, 0x00, 0x00, 0x00, 0xbc, 0xfc, 0xff, 0xff, 0x1e, 0x00, 0x00, 0x00,
  0x73, 0x65, 0x71, 0x75, 0x65, 0x6e, 0x74, 0x69, 0x61, 0x6c, 0x5f, 0x32,
  0x34, 0x2f, 0x66, 0x6c, 0x61, 0x74, 0x74, 0x65, 0x6e, 0x5f, 0x32, 0x34,
  0x2f, 0x43, 0x6f, 0x6e, 0x73, 0x74, 0x00, 0x00, 0x01, 0x00, 0x00, 0x00,
  0x02, 0x00, 0x00, 0x00, 0xa2, 0xfd, 0xff, 0xff, 0x00, 0x00, 0x00, 0x01,
  0x10, 0x00, 0x00, 0x00, 0x10, 0x00, 0x00, 0x00, 0x09, 0x00, 0x00, 0x00,
  0x3c, 0x00, 0x00, 0x00, 0x04, 0xfd, 0xff, 0xff, 0x2d, 0x00, 0x00, 0x00,
  0x73, 0x65, 0x71, 0x75, 0x65, 0x6e, 0x74, 0x69, 0x61, 0x6c, 0x5f, 0x32,
  0x34, 0x2f, 0x64, 0x65, 0x6e, 0x73, 0x65, 0x5f, 0x36, 0x31, 0x2f, 0x42,
  0x69, 0x61, 0x73, 0x41, 0x64, 0x64, 0x2f, 0x52, 0x65, 0x61, 0x64, 0x56,
  0x61, 0x72, 0x69, 0x61, 0x62, 0x6c, 0x65, 0x4f, 0x70, 0x00, 0x00, 0x00,
  0x01, 0x00, 0x00, 0x00, 0x10, 0x00, 0x00, 0x00, 0xfa, 0xfd, 0xff, 0xff,
  0x00, 0x00, 0x00, 0x01, 0x10, 0x00, 0x00, 0x00, 0x10, 0x00, 0x00, 0x00,
  0x08, 0x00, 0x00, 0x00, 0x3c, 0x00, 0x00, 0x00, 0x5c, 0xfd, 0xff, 0xff,
  0x2d, 0x00, 0x00, 0x00, 0x73, 0x65, 0x71, 0x75, 0x65, 0x6e, 0x74, 0x69,
  0x61, 0x6c, 0x5f, 0x32, 0x34, 0x2f, 0x64, 0x65, 0x6e, 0x73, 0x65, 0x5f,
  0x36, 0x32, 0x2f, 0x42, 0x69, 0x61, 0x73, 0x41, 0x64, 0x64, 0x2f, 0x52,
  0x65, 0x61, 0x64, 0x56, 0x61, 0x72, 0x69, 0x61, 0x62, 0x6c, 0x65, 0x4f,
  0x70, 0x00, 0x00, 0x00, 0x01, 0x00, 0x00, 0x00, 0x03, 0x00, 0x00, 0x00,
  0x52, 0xfe, 0xff, 0xff, 0x00, 0x00, 0x00, 0x01, 0x10, 0x00, 0x00, 0x00,
  0x10, 0x00, 0x00, 0x00, 0x07, 0x00, 0x00, 0x00, 0x2c, 0x00, 0x00, 0x00,
  0xb4, 0xfd, 0xff, 0xff, 0x1e, 0x00, 0x00, 0x00, 0x73, 0x65, 0x71, 0x75,
  0x65, 0x6e, 0x74, 0x69, 0x61, 0x6c, 0x5f, 0x32, 0x34, 0x2f, 0x63, 0x6f,
  0x6e, 0x76, 0x32, 0x64, 0x5f, 0x33, 0x34, 0x2f, 0x43, 0x6f, 0x6e, 0x76,
  0x32, 0x44, 0x00, 0x00, 0x04, 0x00, 0x00, 0x00, 0x08, 0x00, 0x00, 0x00,
  0x03, 0x00, 0x00, 0x00, 0x01, 0x00, 0x00, 0x00, 0x08, 0x00, 0x00, 0x00,
  0xa6, 0xfe, 0xff, 0xff, 0x00, 0x00, 0x00, 0x01, 0x10, 0x00, 0x00, 0x00,
  0x10, 0x00, 0x00, 0x00, 0x06, 0x00, 0x00, 0x00, 0x2c, 0x00, 0x00, 0x00,
  0x08, 0xfe, 0xff, 0xff, 0x1e, 0x00, 0x00, 0x00, 0x73, 0x65, 0x71, 0x75,
  0x65, 0x6e, 0x74, 0x69, 0x61, 0x6c, 0x5f, 0x32, 0x34, 0x2f, 0x63, 0x6f,
  0x6e, 0x76, 0x32, 0x64, 0x5f, 0x33, 0x33, 0x2f, 0x43, 0x6f, 0x6e, 0x76,
  0x32, 0x44, 0x00, 0x00, 0x04, 0x00, 0x00, 0x00, 0x08, 0x00, 0x00, 0x00,
  0x03, 0x00, 0x00, 0x00, 0x01, 0x00, 0x00, 0x00, 0x08, 0x00, 0x00, 0x00,
  0xfa, 0xfe, 0xff, 0xff, 0x00, 0x00, 0x00, 0x01, 0x10, 0x00, 0x00, 0x00,
  0x10, 0x00, 0x00, 0x00, 0x05, 0x00, 0x00, 0x00, 0x2c, 0x00, 0x00, 0x00,
  0x5c, 0xfe, 0xff, 0xff, 0x1e, 0x00, 0x00, 0x00, 0x73, 0x65, 0x71, 0x75,
  0x65, 0x6e, 0x74, 0x69, 0x61, 0x6c, 0x5f, 0x32, 0x34, 0x2f, 0x63, 0x6f,
  0x6e, 0x76, 0x32, 0x64, 0x5f, 0x33, 0x32, 0x2f, 0x43, 0x6f, 0x6e, 0x76,
  0x32, 0x44, 0x00, 0x00, 0x04, 0x00, 0x00, 0x00, 0x08, 0x00, 0x00, 0x00,
  0x03, 0x00, 0x00, 0x00, 0x01, 0x00, 0x00, 0x00, 0x01, 0x00, 0x00, 0x00,
  0x4e, 0xff, 0xff, 0xff, 0x00, 0x00, 0x00, 0x01, 0x10, 0x00, 0x00, 0x00,
  0x10, 0x00, 0x00, 0x00, 0x04, 0x00, 0x00, 0x00, 0x3c, 0x00, 0x00, 0x00,
  0xb0, 0xfe, 0xff, 0xff, 0x2e, 0x00, 0x00, 0x00, 0x73, 0x65, 0x71, 0x75,
  0x65, 0x6e, 0x74, 0x69, 0x61, 0x6c, 0x5f, 0x32, 0x34, 0x2f, 0x63, 0x6f,
  0x6e, 0x76, 0x32, 0x64, 0x5f, 0x33, 0x34, 0x2f, 0x42, 0x69, 0x61, 0x73,
  0x41, 0x64, 0x64, 0x2f, 0x52, 0x65, 0x61, 0x64, 0x56, 0x61, 0x72, 0x69,
  0x61, 0x62, 0x6c, 0x65, 0x4f, 0x70, 0x00, 0x00, 0x01, 0x00, 0x00, 0x00,
  0x08, 0x00, 0x00, 0x00, 0xa6, 0xff, 0xff, 0xff, 0x00, 0x00, 0x00, 0x01,
  0x10, 0x00, 0x00, 0x00, 0x10, 0x00, 0x00, 0x00, 0x03, 0x00, 0x00, 0x00,
  0x3c, 0x00, 0x00, 0x00, 0x08, 0xff, 0xff, 0xff, 0x2e, 0x00, 0x00, 0x00,
  0x73, 0x65, 0x71, 0x75, 0x65, 0x6e, 0x74, 0x69, 0x61, 0x6c, 0x5f, 0x32,
  0x34, 0x2f, 0x63, 0x6f, 0x6e, 0x76, 0x32, 0x64, 0x5f, 0x33, 0x33, 0x2f,
  0x42, 0x69, 0x61, 0x73, 0x41, 0x64, 0x64, 0x2f, 0x52, 0x65, 0x61, 0x64,
  0x56, 0x61, 0x72, 0x69, 0x61, 0x62, 0x6c, 0x65, 0x4f, 0x70, 0x00, 0x00,
  0x01, 0x00, 0x00, 0x00, 0x08, 0x00, 0x00, 0x00, 0x00, 0x00, 0x16, 0x00,
  0x18, 0x00, 0x14, 0x00, 0x00, 0x00, 0x10, 0x00, 0x0c, 0x00, 0x08, 0x00,
  0x00, 0x00, 0x00, 0x00, 0x00, 0x00, 0x07, 0x00, 0x16, 0x00, 0x00, 0x00,
  0x00, 0x00, 0x00, 0x01, 0x10, 0x00, 0x00, 0x00, 0x10, 0x00, 0x00, 0x00,
  0x02, 0x00, 0x00, 0x00, 0x3c, 0x00, 0x00, 0x00, 0x78, 0xff, 0xff, 0xff,
  0x2e, 0x00, 0x00, 0x00, 0x73, 0x65, 0x71, 0x75, 0x65, 0x6e, 0x74, 0x69,
  0x61, 0x6c, 0x5f, 0x32, 0x34, 0x2f, 0x63, 0x6f, 0x6e, 0x76, 0x32, 0x64,
  0x5f, 0x33, 0x32, 0x2f, 0x42, 0x69, 0x61, 0x73, 0x41, 0x64, 0x64, 0x2f,
  0x52, 0x65, 0x61, 0x64, 0x56, 0x61, 0x72, 0x69, 0x61, 0x62, 0x6c, 0x65,
  0x4f, 0x70, 0x00, 0x00, 0x01, 0x00, 0x00, 0x00, 0x08, 0x00, 0x00, 0x00,
  0x00, 0x00, 0x16, 0x00, 0x1c, 0x00, 0x18, 0x00, 0x00, 0x00, 0x14, 0x00,
  0x10, 0x00, 0x0c, 0x00, 0x00, 0x00, 0x00, 0x00, 0x08, 0x00, 0x07, 0x00,
  0x16, 0x00, 0x00, 0x00, 0x00, 0x00, 0x00, 0x01, 0x14, 0x00, 0x00, 0x00,
  0x28, 0x00, 0x00, 0x00, 0x28, 0x00, 0x00, 0x00, 0x01, 0x00, 0x00, 0x00,
  0x40, 0x00, 0x00, 0x00, 0x04, 0x00, 0x00, 0x00, 0xff, 0xff, 0xff, 0xff,
  0x50, 0x00, 0x00, 0x00, 0x03, 0x00, 0x00, 0x00, 0x01, 0x00, 0x00, 0x00,
  0x04, 0x00, 0x04, 0x00, 0x04, 0x00, 0x00, 0x00, 0x1a, 0x00, 0x00, 0x00,
  0x73, 0x65, 0x72, 0x76, 0x69, 0x6e, 0x67, 0x5f, 0x64, 0x65, 0x66, 0x61,
  0x75, 0x6c, 0x74, 0x5f, 0x69, 0x6e, 0x70, 0x75, 0x74, 0x5f, 0x32, 0x35,
  0x3a, 0x30, 0x00, 0x00, 0x04, 0x00, 0x00, 0x00, 0x01, 0x00, 0x00, 0x00,
  0x50, 0x00, 0x00, 0x00, 0x03, 0x00, 0x00, 0x00, 0x01, 0x00, 0x00, 0x00,
  0x05, 0x00, 0x00, 0x00, 0x50, 0x00, 0x00, 0x00, 0x34, 0x00, 0x00, 0x00,
  0x24, 0x00, 0x00, 0x00, 0x14, 0x00, 0x00, 0x00, 0x04, 0x00, 0x00, 0x00,
  0xd0, 0xff, 0xff, 0xff, 0x19, 0x00, 0x00, 0x00, 0x00, 0x00, 0x00, 0x19,
  0xdc, 0xff, 0xff, 0xff, 0x09, 0x00, 0x00, 0x00, 0x00, 0x00, 0x00, 0x09,
  0xe8, 0xff, 0xff, 0xff, 0x16, 0x00, 0x00, 0x00, 0x00, 0x00, 0x00, 0x16,
  0xf4, 0xff, 0xff, 0xff, 0x11, 0x00, 0x00, 0x00, 0x00, 0x00, 0x00, 0x11,
  0x0c, 0x00, 0x0c, 0x00, 0x0b, 0x00, 0x00, 0x00, 0x00, 0x00, 0x04, 0x00,
  0x0c, 0x00, 0x00, 0x00, 0x03, 0x00, 0x00, 0x00, 0x00, 0x00, 0x00, 0x03
};
