const unsigned char model[] __attribute__((aligned(4))) = {
  0x1c, 0x00, 0x00, 0x00, 0x54, 0x46, 0x4c, 0x33, 0x14, 0x00, 0x20, 0x00,
  0x1c, 0x00, 0x18, 0x00, 0x14, 0x00, 0x10, 0x00, 0x0c, 0x00, 0x00, 0x00,
  0x08, 0x00, 0x04, 0x00, 0x14, 0x00, 0x00, 0x00, 0x1c, 0x00, 0x00, 0x00,
  0x88, 0x00, 0x00, 0x00, 0xe0, 0x00, 0x00, 0x00, 0x68, 0x0b, 0x00, 0x00,
  0x78, 0x0b, 0x00, 0x00, 0x1c, 0x19, 0x00, 0x00, 0x03, 0x00, 0x00, 0x00,
  0x01, 0x00, 0x00, 0x00, 0x04, 0x00, 0x00, 0x00, 0x86, 0xf3, 0xff, 0xff,
  0x0c, 0x00, 0x00, 0x00, 0x1c, 0x00, 0x00, 0x00, 0x3c, 0x00, 0x00, 0x00,
  0x0f, 0x00, 0x00, 0x00, 0x73, 0x65, 0x72, 0x76, 0x69, 0x6e, 0x67, 0x5f,
  0x64, 0x65, 0x66, 0x61, 0x75, 0x6c, 0x74, 0x00, 0x01, 0x00, 0x00, 0x00,
  0x04, 0x00, 0x00, 0x00, 0x94, 0xff, 0xff, 0xff, 0x15, 0x00, 0x00, 0x00,
  0x04, 0x00, 0x00, 0x00, 0x08, 0x00, 0x00, 0x00, 0x64, 0x65, 0x6e, 0x73,
  0x65, 0x5f, 0x32, 0x35, 0x00, 0x00, 0x00, 0x00, 0x01, 0x00, 0x00, 0x00,
  0x04, 0x00, 0x00, 0x00, 0x6a, 0xf4, 0xff, 0xff, 0x04, 0x00, 0x00, 0x00,
  0x08, 0x00, 0x00, 0x00, 0x69, 0x6e, 0x70, 0x75, 0x74, 0x5f, 0x31, 0x33,
  0x00, 0x00, 0x00, 0x00, 0x02, 0x00, 0x00, 0x00, 0x34, 0x00, 0x00, 0x00,
  0x04, 0x00, 0x00, 0x00, 0xdc, 0xff, 0xff, 0xff, 0x18, 0x00, 0x00, 0x00,
  0x04, 0x00, 0x00, 0x00, 0x13, 0x00, 0x00, 0x00, 0x43, 0x4f, 0x4e, 0x56,
  0x45, 0x52, 0x53, 0x49, 0x4f, 0x4e, 0x5f, 0x4d, 0x45, 0x54, 0x41, 0x44,
  0x41, 0x54, 0x41, 0x00, 0x08, 0x00, 0x0c, 0x00, 0x08, 0x00, 0x04, 0x00,
  0x08, 0x00, 0x00, 0x00, 0x17, 0x00, 0x00, 0x00, 0x04, 0x00, 0x00, 0x00,
  0x13, 0x00, 0x00, 0x00, 0x6d, 0x69, 0x6e, 0x5f, 0x72, 0x75, 0x6e, 0x74,
  0x69, 0x6d, 0x65, 0x5f, 0x76, 0x65, 0x72, 0x73, 0x69, 0x6f, 0x6e, 0x00,
  0x19, 0x00, 0x00, 0x00, 0x84, 0x0a, 0x00, 0x00, 0x7c, 0x0a, 0x00, 0x00,
  0x5c, 0x0a, 0x00, 0x00, 0x3c, 0x0a, 0x00, 0x00, 0x1c, 0x0a, 0x00, 0x00,
  0xdc, 0x09, 0x00, 0x00, 0x0c, 0x09, 0x00, 0x00, 0x3c, 0x08, 0x00, 0x00,
  0x20, 0x08, 0x00, 0x00, 0xd0, 0x07, 0x00, 0x00, 0xb8, 0x07, 0x00, 0x00,
  0xa8, 0x01, 0x00, 0x00, 0xd8, 0x00, 0x00, 0x00, 0xd0, 0x00, 0x00, 0x00,
  0xc8, 0x00, 0x00, 0x00, 0xc0, 0x00, 0x00, 0x00, 0xb8, 0x00, 0x00, 0x00,
  0xb0, 0x00, 0x00, 0x00, 0xa8, 0x00, 0x00, 0x00, 0xa0, 0x00, 0x00, 0x00,
  0x98, 0x00, 0x00, 0x00, 0x90, 0x00, 0x00, 0x00, 0x88, 0x00, 0x00, 0x00,
  0x68, 0x00, 0x00, 0x00, 0x04, 0x00, 0x00, 0x00, 0x46, 0xf5, 0xff, 0xff,
  0x04, 0x00, 0x00, 0x00, 0x54, 0x00, 0x00, 0x00, 0x0c, 0x00, 0x00, 0x00,
  0x08, 0x00, 0x0e, 0x00, 0x08, 0x00, 0x04, 0x00, 0x08, 0x00, 0x00, 0x00,
  0x10, 0x00, 0x00, 0x00, 0x24, 0x00, 0x00, 0x00, 0x00, 0x00, 0x06, 0x00,
  0x08, 0x00, 0x04, 0x00, 0x06, 0x00, 0x00, 0x00, 0x04, 0x00, 0x00, 0x00,
  0x00, 0x00, 0x00, 0x00, 0x00, 0x00, 0x0a, 0x00, 0x10, 0x00, 0x0c, 0x00,
  0x08, 0x00, 0x04, 0x00, 0x0a, 0x00, 0x00, 0x00, 0x02, 0x00, 0x00, 0x00,
  0x02, 0x00, 0x00, 0x00, 0x04, 0x00, 0x00, 0x00, 0x06, 0x00, 0x00, 0x00,
  0x32, 0x2e, 0x31, 0x30, 0x2e, 0x30, 0x00, 0x00, 0xa6, 0xf5, 0xff, 0xff,
  0x04, 0x00, 0x00, 0x00, 0x10, 0x00, 0x00, 0x00, 0x31, 0x2e, 0x35, 0x2e,
  0x30, 0x00, 0x00, 0x00, 0x00, 0x00, 0x00, 0x00, 0x00, 0x00, 0x00, 0x00,
  0xd8, 0xe8, 0xff, 0xff, 0xdc, 0xe8, 0xff, 0xff, 0xe0, 0xe8, 0xff, 0xff,
  0xe4, 0xe8, 0xff, 0xff, 0xe8, 0xe8, 0xff, 0xff, 0xec, 0xe8, 0xff, 0xff,
  0xf0, 0xe8, 0xff, 0xff, 0xf4, 0xe8, 0xff, 0xff, 0xf8, 0xe8, 0xff, 0xff,
  0xfc, 0xe8, 0xff, 0xff, 0xea, 0xf5, 0xff, 0xff, 0x04, 0x00, 0x00, 0x00,
  0xc0, 0x00, 0x00, 0x00, 0x6d, 0xfb, 0x01, 0xbe, 0x3c, 0x5e, 0x45, 0x3f,
  0x8c, 0x57, 0x96, 0x3f, 0xd8, 0xaa, 0x2f, 0xbf, 0x2b, 0xf3, 0x9c, 0xbe,
  0x55, 0x0f, 0x25, 0x3f, 0x22, 0xec, 0xec, 0xbe, 0x01, 0x93, 0x9f, 0xbe,
  0x37, 0xc2, 0xa6, 0xbe, 0xa2, 0x7f, 0x96, 0x3e, 0xdc, 0xe8, 0x6b, 0xbe,
  0x68, 0xc5, 0x89, 0x3e, 0xc3, 0x58, 0xda, 0x3e, 0xae, 0x4b, 0x66, 0xbf,
  0xed, 0xd9, 0xc6, 0x3e, 0x07, 0x22, 0xb4, 0xbf, 0xf7, 0x66, 0x0f, 0x3f,
  0x6e, 0xd9, 0x2d, 0xbe, 0xbc, 0xf9, 0x0d, 0xbf, 0xea, 0xdf, 0x26, 0xbf,
  0x2f, 0x95, 0xd3, 0xbe, 0x25, 0x3b, 0x2d, 0x3f, 0x25, 0x5c, 0x20, 0xbf,
  0x32, 0x05, 0xda, 0xbe, 0x8b, 0x90, 0xde, 0x3e, 0x5c, 0xda, 0x9e, 0xbe,
  0x5a, 0x03, 0x56, 0x3f, 0xf8, 0x10, 0x3b, 0xbf, 0x55, 0x6f, 0x0d, 0x3f,
  0xfe, 0xd1, 0x16, 0xbd, 0x64, 0x2e, 0xbb, 0x3e, 0x0c, 0x60, 0x71, 0x3f,
  0x43, 0x79, 0x14, 0x3f, 0xde, 0xda, 0x7a, 0xbf, 0x8e, 0xb2, 0x22, 0xbf,
  0x0c, 0x55, 0xe3, 0xbb, 0x07, 0x1b, 0x0a, 0x3f, 0xdd, 0x74, 0x96, 0xbf,
  0x1e, 0x47, 0x12, 0x3f, 0xf2, 0xf2, 0x11, 0x3f, 0x74, 0x48, 0xf9, 0x3e,
  0x3a, 0x6b, 0xac, 0xbf, 0xf8, 0xeb, 0x32, 0xbf, 0xc2, 0xb1, 0x3c, 0x3e,
  0xc0, 0x94, 0x7c, 0xbf, 0xee, 0xba, 0x00, 0x3f, 0x93, 0xae, 0x21, 0xbf,
  0x50, 0xf6, 0x90, 0x3e, 0xb6, 0xf6, 0xff, 0xff, 0x04, 0x00, 0x00, 0x00,
  0x00, 0x06, 0x00, 0x00, 0x83, 0xbb, 0x3c, 0x3d, 0xf3, 0x1f, 0xbd, 0x3e,
  0xcb, 0x84, 0xcf, 0x3e, 0x1a, 0xf3, 0x03, 0x3f, 0xc1, 0x64, 0x29, 0xbe,
  0xec, 0x04, 0xa9, 0x3d, 0xe4, 0x8d, 0x34, 0x3e, 0x85, 0x8f, 0x5e, 0x3f,
  0xf0, 0xb5, 0x30, 0xbf, 0x8a, 0x46, 0xc2, 0xbe, 0xa0, 0x06, 0x84, 0xbe,
  0x80, 0xa9, 0x46, 0x3e, 0x65, 0x6f, 0x29, 0x3e, 0xb4, 0x34, 0x17, 0xbd,
  0x72, 0xa9, 0x8f, 0x3e, 0x98, 0x56, 0x5f, 0x3e, 0xaa, 0x40, 0xf2, 0x3d,
  0x95, 0x6d, 0x59, 0x3e, 0x1c, 0x0b, 0xa0, 0x3d, 0x54, 0x04, 0x4e, 0x3e,
  0x7b, 0x9e, 0xfe, 0xbd, 0x33, 0xe5, 0x8a, 0xbe, 0x07, 0xa4, 0x85, 0xbe,
  0x37, 0x1c, 0x35, 0x3e, 0x36, 0xde, 0xc9, 0x3e, 0x3c, 0xab, 0xa9, 0x3c,
  0xa2, 0x88, 0xa0, 0xbd, 0xdf, 0x59, 0x38, 0x3e, 0xc7, 0xb4, 0xa9, 0x3e,
  0x55, 0xcb, 0x45, 0xbd, 0xf3, 0x68, 0x2c, 0xbe, 0xd4, 0xd9, 0x4b, 0x3e,
  0xc7, 0x9e, 0x19, 0x3f, 0x02, 0x03, 0xbb, 0x3e, 0xf4, 0xe8, 0x1f, 0x3e,
  0xbf, 0xe1, 0x09, 0x3f, 0x90, 0xba, 0xbc, 0xbe, 0x33, 0x06, 0x86, 0xbe,
  0x1b, 0x57, 0x36, 0xbe, 0x2b, 0x58, 0x9c, 0x3d, 0x69, 0x49, 0xb0, 0xbe,
  0xb6, 0x1c, 0x50, 0xbe, 0x9c, 0xf1, 0x01, 0xbe, 0x88, 0x3b, 0xba, 0xbc,
  0x70, 0x0f, 0x38, 0xbf, 0x77, 0xdd, 0xe2, 0xbe, 0xba, 0x5a, 0x17, 0xbf,
  0xb6, 0x56, 0xb4, 0xbe, 0x25, 0x07, 0x53, 0x3d, 0x5c, 0x11, 0xc0, 0xbe,
  0x03, 0x27, 0x19, 0xbf, 0x43, 0xb0, 0x3f, 0xbf, 0x7b, 0x5a, 0x18, 0xbe,
  0x5e, 0x27, 0x9d, 0x3e, 0x0f, 0x13, 0xc6, 0xbe, 0x18, 0x3d, 0x0e, 0xbf,
  0x8e, 0x92, 0x7d, 0x3e, 0xad, 0x5b, 0x5d, 0xbf, 0x24, 0x62, 0x2a, 0xbf,
  0x44, 0xf6, 0xa2, 0xbf, 0xd5, 0xf9, 0x36, 0xbd, 0x2f, 0x30, 0xc0, 0xbd,
  0xe5, 0x50, 0x4c, 0xbe, 0x47, 0xe7, 0x12, 0xbd, 0xab, 0x0e, 0x46, 0xbd,
  0xeb, 0xcc, 0x0f, 0x3b, 0x7f, 0x30, 0x11, 0xbe, 0x66, 0xae, 0x77, 0xbd,
  0xfb, 0x46, 0xb4, 0x3e, 0x56, 0x37, 0x95, 0x3e, 0x9e, 0xe8, 0x98, 0x3d,
  0x28, 0x91, 0x22, 0x3d, 0x2d, 0xa8, 0x57, 0xbe, 0xea, 0x3d, 0xc2, 0x3e,
  0xa4, 0x29, 0xd0, 0x3e, 0x94, 0xa2, 0x02, 0xbe, 0xa9, 0x86, 0x84, 0xbe,
  0x88, 0x45, 0x83, 0x3e, 0xe4, 0x3b, 0x8a, 0x3e, 0x8e, 0xff, 0xb9, 0x3c,
  0x1a, 0x6c, 0xec, 0xbd, 0x07, 0xa0, 0x02, 0x3f, 0x71, 0x9b, 0x9a, 0x3e,
  0x72, 0x44, 0x95, 0xbe, 0xaa, 0x47, 0x5c, 0xbe, 0x2a, 0x21, 0xf5, 0x3d,
  0xb3, 0x62, 0x8c, 0x3d, 0xf6, 0x39, 0xdc, 0xbe, 0x9c, 0xcb, 0x94, 0x3d,
  0x89, 0x4f, 0xb1, 0x3e, 0xd8, 0x40, 0x38, 0x3e, 0x0b, 0x82, 0x6b, 0xbe,
  0x6a, 0xc4, 0x52, 0x3d, 0x7e, 0xc1, 0x7f, 0x3e, 0x9c, 0x32, 0x8d, 0x3c,
  0x5a, 0xcc, 0x9f, 0xbe, 0x37, 0x2c, 0x82, 0xbc, 0xb3, 0xe6, 0x8d, 0x3e,
  0x54, 0x6e, 0xdc, 0x3e, 0x8c, 0xc1, 0xf2, 0xbd, 0x65, 0xb6, 0x81, 0xbe,
  0xa2, 0x90, 0x99, 0x3e, 0x17, 0xae, 0x8d, 0x3e, 0x44, 0x35, 0x57, 0xbc,
  0xa4, 0xf4, 0x8b, 0xbd, 0xb6, 0x4c, 0x10, 0xbc, 0xa7, 0xae, 0xb0, 0x3e,
  0x5c, 0x5b, 0x6c, 0xbe, 0x3d, 0x7a, 0x9f, 0x3c, 0x9c, 0x8d, 0xb9, 0x3e,
  0xb8, 0xce, 0xcc, 0x3c, 0x9c, 0x6e, 0xbf, 0xbe, 0x20, 0x94, 0xb2, 0xbd,
  0x1b, 0x47, 0xe1, 0x3c, 0x57, 0xc0, 0x5f, 0x3e, 0xdb, 0x27, 0xec, 0xbe,
  0x85, 0xf0, 0x4b, 0xbe, 0x7a, 0xf6, 0x0e, 0x3e, 0xf0, 0x5f, 0x8d, 0x3e,
  0x57, 0xc5, 0x3b, 0xbf, 0xc8, 0xa2, 0xa9, 0xbe, 0x89, 0x72, 0x74, 0xbf,
  0xc8, 0x2c, 0x56, 0xbf, 0x7e, 0x5f, 0x5b, 0xbe, 0x86, 0x5b, 0xef, 0xbd,
  0xa6, 0x32, 0xd8, 0xbe, 0x60, 0x23, 0xaa, 0xbe, 0xb0, 0x72, 0x83, 0xbe,
  0xaf, 0x05, 0xc4, 0xbd, 0x6e, 0xa9, 0x91, 0xbe, 0x5e, 0x8f, 0x80, 0xbe,
  0x38, 0xc4, 0xb5, 0xbd, 0xd0, 0x42, 0x02, 0x3f, 0x6e, 0xee, 0x7c, 0xbe,
  0x67, 0xcc, 0x02, 0x3e, 0x53, 0xe2, 0x0c, 0x3e, 0x44, 0xfc, 0xe1, 0x3e,
  0x79, 0x9d, 0x39, 0xbe, 0x13, 0x70, 0x64, 0xbd, 0x5b, 0x65, 0x4e, 0xbd,
  0x50, 0x8a, 0x2a, 0x3e, 0x81, 0xcb, 0x85, 0xbe, 0xcd, 0x5e, 0x71, 0xbd,
  0x91, 0xc2, 0x0c, 0x3e, 0x9c, 0x07, 0x88, 0xbf, 0xdc, 0xcf, 0x91, 0x3e,
  0x5d, 0x0a, 0xc1, 0xbd, 0x65, 0x50, 0x8f, 0xbd, 0x06, 0xa3, 0x86, 0xbe,
  0x3c, 0xd4, 0x73, 0x3e, 0xe3, 0xae, 0x4e, 0x3e, 0x39, 0xaf, 0x12, 0xbe,
  0x37, 0x95, 0x98, 0x3b, 0xbd, 0x8a, 0xff, 0x3e, 0xec, 0x07, 0x80, 0xbe,
  0x16, 0x5c, 0xdd, 0xbd, 0x76, 0x45, 0x21, 0xbf, 0x27, 0x07, 0xd0, 0xbe,
  0x82, 0x49, 0x24, 0xbf, 0xe9, 0x35, 0x21, 0xbe, 0x99, 0xc9, 0xac, 0xbd,
  0x26, 0xe1, 0xee, 0x3e, 0x4a, 0x12, 0x02, 0x3e, 0x28, 0xe4, 0x66, 0xbc,
  0x6f, 0xf5, 0x28, 0xbe, 0x53, 0xd6, 0x93, 0x3e, 0xc5, 0x06, 0xb5, 0xbe,
  0x1c, 0xe4, 0x2f, 0xbe, 0x83, 0x7d, 0xd7, 0xbe, 0xaa, 0x5a, 0x14, 0x3f,
  0xf4, 0x15, 0x78, 0xbc, 0x71, 0x38, 0xf6, 0xbd, 0x24, 0x6b, 0xb6, 0xbe,
  0x0a, 0xd8, 0xb3, 0x3e, 0x79, 0xc8, 0x32, 0x3e, 0x81, 0x42, 0x43, 0xbe,
  0x3c, 0x31, 0xa1, 0xbe, 0x7a, 0x58, 0x6f, 0x3d, 0xf6, 0x1f, 0xc5, 0x3e,
  0xc5, 0xf6, 0xde, 0x3d, 0x6b, 0x22, 0xd3, 0xbd, 0x11, 0xa6, 0xa5, 0x3e,
  0x00, 0xc1, 0xc0, 0x3d, 0xe0, 0x3d, 0x29, 0xbe, 0xe4, 0x12, 0xb2, 0xbe,
  0xb6, 0x09, 0xae, 0xbd, 0xc6, 0x66, 0x65, 0x3e, 0x70, 0xa2, 0x7a, 0xbe,
  0x46, 0xb1, 0x88, 0xbc, 0x07, 0x8a, 0x8f, 0x3d, 0xb2, 0x90, 0x46, 0x3e,
  0x22, 0xef, 0xe1, 0xbd, 0x1b, 0x9b, 0x9f, 0xbe, 0x09, 0x84, 0xa2, 0x3e,
  0x09, 0x33, 0xdd, 0x3e, 0x84, 0xef, 0x00, 0x3f, 0x1d, 0x3c, 0x4f, 0x3e,
  0x65, 0x32, 0x03, 0x3f, 0x19, 0x2a, 0x09, 0x3f, 0xf9, 0x06, 0x92, 0x3e,
  0x2b, 0xca, 0xf5, 0xbe, 0x62, 0x73, 0xf0, 0xbd, 0x56, 0xb0, 0x10, 0xbe,
  0xe6, 0x0c, 0x93, 0x3e, 0xb4, 0x5d, 0x70, 0xba, 0x57, 0x9b, 0xaf, 0x3e,
  0x4d, 0x7d, 0x94, 0x3e, 0x08, 0x68, 0xf4, 0xbd, 0xdb, 0xd2, 0x2c, 0x3e,
  0xb2, 0xa4, 0x0e, 0xbe, 0xdb, 0xd5, 0xaa, 0x3e, 0x2e, 0x4f, 0x57, 0xbe,
  0x91, 0xc3, 0x7a, 0xbc, 0x50, 0xd5, 0x5e, 0xbd, 0x1c, 0xa5, 0x24, 0x3e,
  0x4e, 0xe0, 0x85, 0x3e, 0xed, 0x52, 0xdc, 0xbe, 0xe2, 0xb0, 0x43, 0xbf,
  0xbb, 0x33, 0x54, 0xbf, 0xcc, 0x5e, 0x30, 0xbf, 0x8c, 0x7b, 0x94, 0xbe,
  0xa0, 0x2b, 0x1f, 0xbf, 0x6b, 0xa7, 0x3b, 0xbf, 0x02, 0x08, 0xe8, 0xbe,
  0xb2, 0x68, 0x7f, 0xbe, 0xd6, 0xde, 0x40, 0xbf, 0xf4, 0x14, 0x22, 0xbf,
  0x9a, 0xb1, 0x74, 0xbf, 0x2f, 0x09, 0x56, 0xbd, 0x8f, 0xf7, 0x08, 0xbe,
  0xa8, 0x5e, 0x4e, 0x3e, 0x63, 0xd3, 0x75, 0x3e, 0xdb, 0xfe, 0x1d, 0xbd,
  0x98, 0xb4, 0x3a, 0xbd, 0x00, 0xff, 0xae, 0xbc, 0x39, 0x40, 0xf4, 0x3d,
  0x3a, 0x26, 0xe1, 0x3e, 0x16, 0xf5, 0xa2, 0x3c, 0x33, 0x95, 0x6e, 0x3e,
  0xdb, 0x8b, 0x0a, 0x3e, 0x16, 0xf9, 0xe9, 0x3e, 0xd4, 0x1e, 0x12, 0x3d,
  0x8e, 0x21, 0x4e, 0x3d, 0x84, 0xc0, 0xaf, 0xbd, 0xb7, 0x0e, 0x0a, 0x3f,
  0xb9, 0xe2, 0x80, 0x3d, 0x95, 0x98, 0x71, 0x3e, 0x90, 0x16, 0x07, 0x3e,
  0xe1, 0x66, 0x85, 0xbe, 0x10, 0xd8, 0x0f, 0xbe, 0xb8, 0x54, 0xb8, 0xbe,
  0x87, 0xc2, 0x16, 0xbe, 0x04, 0x7d, 0xee, 0xbe, 0x42, 0xc3, 0x74, 0xbd,
  0xe8, 0x2d, 0x49, 0xbe, 0x3d, 0xb2, 0xa0, 0x3d, 0x67, 0xca, 0x32, 0xbf,
  0x38, 0xf8, 0x91, 0xbd, 0x4e, 0xb4, 0xbb, 0xbe, 0x46, 0xbf, 0x09, 0x3e,
  0xd2, 0x34, 0xe7, 0xbe, 0x3c, 0xaf, 0x5e, 0xbe, 0xcf, 0x46, 0x76, 0xbe,
  0x5a, 0x69, 0x29, 0x3e, 0xae, 0xfc, 0x88, 0xbe, 0x33, 0x83, 0xda, 0x3d,
  0x9e, 0x4c, 0x83, 0x3e, 0x9a, 0xd3, 0xac, 0xbd, 0x4f, 0x64, 0x69, 0xbe,
  0x8a, 0xe1, 0x7e, 0x3d, 0x75, 0xa6, 0x1e, 0xbe, 0xb8, 0xd9, 0x35, 0xbd,
  0xc0, 0xdd, 0x46, 0x3e, 0xaa, 0x93, 0xd1, 0x3e, 0x7a, 0xaa, 0x67, 0x3e,
  0x31, 0xc8, 0xdf, 0x3d, 0xd2, 0xd6, 0x39, 0xbe, 0x4e, 0xe7, 0x0a, 0xbd,
  0xf2, 0x02, 0x3c, 0xbd, 0xc4, 0xc0, 0x5a, 0x38, 0x47, 0x43, 0x45, 0xbe,
  0xc7, 0x3c, 0x63, 0xbd, 0x73, 0xa5, 0xb7, 0xbe, 0xed, 0x54, 0xcb, 0x3c,
  0x1c, 0xad, 0x73, 0x3e, 0xa5, 0x37, 0x97, 0x3c, 0x00, 0xf9, 0xe1, 0x3e,
  0x27, 0x43, 0x4f, 0x3e, 0xe9, 0x2e, 0x68, 0x3e, 0xf6, 0x7a, 0x16, 0xbf,
  0x47, 0xaa, 0xab, 0xbe, 0x82, 0xaf, 0x84, 0xbe, 0xa5, 0x7d, 0xb9, 0x3d,
  0xdc, 0xf1, 0x96, 0xbf, 0x55, 0x01, 0x36, 0xbf, 0xef, 0x41, 0x2f, 0xbe,
  0x1f, 0xd5, 0xda, 0xb9, 0x6d, 0x5b, 0x5c, 0xbe, 0xd2, 0x7f, 0x7c, 0xbe,
  0x56, 0x6a, 0x87, 0x3d, 0x53, 0x2b, 0x8b, 0x3e, 0x1d, 0x12, 0x65, 0xbc,
  0x29, 0x1e, 0x05, 0xbc, 0x51, 0x98, 0x24, 0x3e, 0xf0, 0x12, 0x86, 0x3e,
  0x76, 0x56, 0x3b, 0x3d, 0xae, 0x00, 0x97, 0x3e, 0x22, 0x44, 0x7a, 0x3e,
  0x1d, 0x8d, 0xba, 0x3d, 0xe9, 0x36, 0x68, 0xbd, 0x6b, 0x05, 0x4b, 0xbd,
  0x69, 0xd9, 0xae, 0xbd, 0xbf, 0x0c, 0xcb, 0xbe, 0xcc, 0x1e, 0x1f, 0x3e,
  0xfc, 0xdb, 0xde, 0x3e, 0xe5, 0x9e, 0x24, 0x3e, 0x29, 0x09, 0x02, 0xbf,
  0x8b, 0x4e, 0x01, 0x3e, 0xa8, 0xd0, 0xdb, 0x3e, 0xc8, 0xe7, 0x55, 0x3e,
  0xd8, 0x3a, 0xbc, 0xbe, 0x46, 0x05, 0x04, 0x3c, 0xef, 0x18, 0x4c, 0x3e,
  0xca, 0x92, 0xfd, 0x3d, 0x25, 0xa5, 0xbf, 0x3d, 0xf6, 0x01, 0xc0, 0xbc,
  0x53, 0xaf, 0x91, 0x3e, 0x60, 0x23, 0x10, 0x3e, 0xf8, 0x9c, 0xb2, 0xba,
  0xab, 0x41, 0x68, 0x3e, 0x1b, 0xaa, 0x93, 0x3d, 0x97, 0x5b, 0x74, 0x3d,
  0xf6, 0x2b, 0x00, 0xbe, 0x26, 0x84, 0x6d, 0x3b, 0x86, 0xf3, 0x73, 0x3c,
  0x87, 0x84, 0xc8, 0x3d, 0xf9, 0xeb, 0xa8, 0x3c, 0x01, 0x70, 0x5f, 0xbf,
  0x77, 0x1e, 0xd3, 0xbe, 0x53, 0x53, 0xdb, 0xbe, 0x00, 0xf2, 0x2f, 0xbd,
  0xc8, 0xa7, 0x6d, 0xbf, 0x72, 0x0f, 0x8e, 0xbe, 0x9b, 0xc4, 0x1b, 0xbf,
  0x30, 0x53, 0x73, 0x3e, 0x07, 0xbf, 0xac, 0xbe, 0x1f, 0xb8, 0xc7, 0xbe,
  0x30, 0x01, 0x30, 0xbe, 0xac, 0xec, 0xc4, 0x3e, 0xc0, 0x4a, 0x43, 0x3a,
  0xdc, 0x77, 0xc6, 0x3d, 0x4a, 0xff, 0x6c, 0x3e, 0xdb, 0xee, 0x0c, 0x3f,
  0xd4, 0x8a, 0x3a, 0x3e, 0xfc, 0x57, 0x13, 0x3e, 0xd8, 0x3c, 0x31, 0x3e,
  0xd7, 0xc0, 0xd5, 0xbd, 0x04, 0xc9, 0x0b, 0x3e, 0x1c, 0x9c, 0xfd, 0xbd,
  0x17, 0xbc, 0x9f, 0x3e, 0xa8, 0xf6, 0x32, 0x3e, 0x98, 0x46, 0xff, 0x3c,
  0x3c, 0x7d, 0x13, 0x3e, 0x61, 0xfa, 0xd6, 0xbb, 0x11, 0xb7, 0x34, 0xbf,
  0x33, 0x4f, 0xe0, 0x3d, 0x46, 0xf1, 0x68, 0xbe, 0x8f, 0x43, 0x91, 0xbf,
  0x53, 0x86, 0x65, 0x3d, 0x52, 0x36, 0xe9, 0x3d, 0x5c, 0x4e, 0x49, 0x3d,
  0x80, 0xf3, 0x4e, 0x3e, 0xe3, 0x52, 0xb2, 0xbe, 0xe6, 0x62, 0x99, 0xbd,
  0xa4, 0xcc, 0xfc, 0xba, 0xf5, 0x0a, 0xdf, 0xbe, 0xc9, 0xaa, 0xc4, 0xbf,
  0x23, 0xeb, 0x19, 0xbf, 0x16, 0xe1, 0x8b, 0xbf, 0x4f, 0xe5, 0xe2, 0xbf,
  0x6b, 0xc5, 0x30, 0x3e, 0x26, 0x98, 0x6e, 0x3e, 0x55, 0xf1, 0xba, 0x3e,
  0xa0, 0x04, 0x66, 0x3e, 0xc2, 0xfc, 0xff, 0xff, 0x04, 0x00, 0x00, 0x00,
  0x08, 0x00, 0x00, 0x00, 0xff, 0xff, 0xff, 0xff, 0x18, 0x00, 0x00, 0x00,
  0xd6, 0xfc, 0xff, 0xff, 0x04, 0x00, 0x00, 0x00, 0x40, 0x00, 0x00, 0x00,
  0xeb, 0xae, 0x1d, 0x3a, 0xec, 0x5f, 0x12, 0xbe, 0xc3, 0x05, 0x02, 0x3f,
  0x8e, 0x81, 0x8a, 0xbc, 0xec, 0xce, 0x01, 0x3e, 0xce, 0x5d, 0xf4, 0x3e,
  0x27, 0x8b, 0xa9, 0x3e, 0x7b, 0xc3, 0x6c, 0x3e, 0xef, 0x29, 0x9f, 0xbd,
  0x4e, 0x1e, 0x1d, 0x3f, 0xa5, 0x54, 0xa5, 0xbd, 0xed, 0x27, 0x3c, 0x3e,
  0x4c, 0x8c, 0xdc, 0x3e, 0x3b, 0x75, 0xc7, 0x3c, 0x3b, 0x0f, 0x1c, 0x3f,
  0x8e, 0xbf, 0xc4, 0xbd, 0x22, 0xfd, 0xff, 0xff, 0x04, 0x00, 0x00, 0x00,
  0x0c, 0x00, 0x00, 0x00, 0xed, 0xae, 0x85, 0x3e, 0xba, 0xac, 0xf1, 0x3c,
  0x25, 0x4a, 0x4b, 0xbe, 0x3a, 0xfd, 0xff, 0xff, 0x04, 0x00, 0x00, 0x00,
  0xc0, 0x00, 0x00, 0x00, 0xbc, 0x17, 0x81, 0xbf, 0x07, 0x51, 0x40, 0xbf,
  0xcd, 0x8d, 0x0e, 0x3f, 0x3e, 0x33, 0x6a, 0xbf, 0x9c, 0xf2, 0x1b, 0xbe,
  0xe8, 0xd2, 0xcd, 0x3d, 0x98, 0x7f, 0x77, 0x3f, 0x10, 0xca, 0x52, 0x3e,
  0x2e, 0x85, 0x7a, 0x3e, 0x02, 0x66, 0x19, 0x3f, 0x98, 0x6c, 0x6b, 0x3f,
  0x0f, 0x64, 0xc0, 0x3e, 0x11, 0x6c, 0x50, 0x3f, 0xce, 0x32, 0x61, 0x3f,
  0x9d, 0x09, 0x22, 0xbd, 0xfa, 0xc6, 0x1d, 0x3e, 0x61, 0xed, 0x1c, 0xbd,
  0x8d, 0x89, 0x1c, 0xbf, 0x1e, 0x13, 0xcb, 0xbc, 0xb4, 0x58, 0xa8, 0xbd,
  0x84, 0x20, 0xe9, 0x3e, 0xfd, 0x3f, 0xd9, 0x3d, 0x65, 0xcc, 0x2a, 0xbb,
  0xa6, 0x28, 0x1b, 0xbb, 0x69, 0xb2, 0x3a, 0x3f, 0x82, 0x0b, 0xfa, 0xbd,
  0x0d, 0xb5, 0x44, 0x3e, 0x57, 0xdf, 0xc2, 0x3e, 0x66, 0x38, 0x27, 0xbe,
  0xc1, 0xaa, 0xea, 0x3e, 0xf1, 0xde, 0xd4, 0xbd, 0x74, 0xdd, 0x28, 0xbe,
  0x48, 0xe4, 0xf9, 0x3b, 0x36, 0xa5, 0xaa, 0x3e, 0xa3, 0xc7, 0x26, 0x3f,
  0x43, 0xf2, 0x61, 0xbd, 0x13, 0x84, 0xd1, 0xbe, 0x35, 0x95, 0x86, 0xbd,
  0xc3, 0x1c, 0xf9, 0xbe, 0x49, 0x10, 0x7f, 0x3f, 0x4d, 0x04, 0xa9, 0xbe,
  0x1e, 0x87, 0xab, 0xbe, 0x75, 0x74, 0x1e, 0xbe, 0xb9, 0xfd, 0x52, 0xbd,
  0xcf, 0x1d, 0x12, 0xbf, 0x3e, 0x29, 0x95, 0xbe, 0x25, 0x86, 0x2a, 0xbe,
  0xff, 0xb5, 0x3a, 0x3e, 0x06, 0xfe, 0xff, 0xff, 0x04, 0x00, 0x00, 0x00,
  0xc0, 0x00, 0x00, 0x00, 0x4b, 0xbe, 0x2d, 0xbf, 0x39, 0x19, 0x1c, 0x3d,
  0x91, 0x05, 0x7a, 0x3f, 0xdf, 0x66, 0x5a, 0x3e, 0x7f, 0x71, 0x42, 0xbf,
  0x8c, 0x60, 0xba, 0xbe, 0xfb, 0xcc, 0x9e, 0x3e, 0x1d, 0xf2, 0x73, 0x3e,
  0xce, 0x21, 0x7b, 0xbe, 0xfd, 0xf7, 0x39, 0x3b, 0x22, 0xca, 0xcd, 0x3e,
  0x36, 0x16, 0x46, 0x3d, 0x5a, 0x23, 0x1a, 0x3f, 0x26, 0x04, 0x4e, 0x3f,
  0x55, 0x85, 0xc3, 0xbe, 0x08, 0x99, 0x23, 0xbe, 0x1e, 0xe1, 0xfb, 0x3e,
  0x63, 0x4c, 0x15, 0x3f, 0xa5, 0x45, 0xa0, 0xbe, 0x42, 0x75, 0x6e, 0xbe,
  0x90, 0xe3, 0xd8, 0x3e, 0x42, 0x9c, 0x8a, 0x3e, 0x77, 0x6b, 0xbd, 0x3d,
  0x76, 0x81, 0x57, 0xbe, 0xd5, 0xd3, 0xcf, 0xbe, 0x5e, 0x57, 0x3e, 0xbd,
  0x4a, 0xb4, 0x1a, 0xbf, 0x87, 0x33, 0x93, 0xbe, 0x5e, 0x84, 0x03, 0x3d,
  0x95, 0xa7, 0x64, 0xbe, 0x09, 0x0b, 0x75, 0x3d, 0x54, 0x1c, 0x07, 0xbe,
  0x0a, 0xf3, 0x4a, 0xbd, 0xf7, 0x74, 0x9e, 0xbe, 0xe0, 0x5d, 0x0b, 0x3f,
  0x9d, 0x40, 0xe5, 0x3e, 0xef, 0x6c, 0x3a, 0x3f, 0xda, 0xd5, 0xde, 0xbc,
  0x43, 0x8e, 0x23, 0xbe, 0x46, 0xf4, 0x61, 0x3f, 0xaa, 0x64, 0x5f, 0xbd,
  0x8c, 0x88, 0x24, 0x3e, 0x11, 0xa5, 0x13, 0x3d, 0x23, 0x26, 0xf7, 0x3e,
  0xfe, 0x49, 0x1d, 0xbe, 0x9d, 0x51, 0x4e, 0xbe, 0x5f, 0x90, 0xfd, 0x3c,
  0x3b, 0x68, 0xe0, 0x3d, 0xd2, 0xfe, 0xff, 0xff, 0x04, 0x00, 0x00, 0x00,
  0x30, 0x00, 0x00, 0x00, 0xba, 0x5a, 0x4d, 0xbf, 0xe9, 0xe9, 0x9a, 0xbf,
  0x72, 0x9e, 0x25, 0xbe, 0xf5, 0x5f, 0xe3, 0xbe, 0x44, 0x51, 0x08, 0x3e,
  0xe2, 0x7a, 0x01, 0xbf, 0x81, 0xf1, 0x3a, 0x3f, 0xd3, 0x47, 0x51, 0x3e,
  0xdf, 0x90, 0x17, 0x3f, 0x53, 0xee, 0x48, 0x3f, 0xd4, 0xad, 0x66, 0x3f,
  0x3f, 0xa7, 0xbc, 0xbe, 0x0e, 0xff, 0xff, 0xff, 0x04, 0x00, 0x00, 0x00,
  0x10, 0x00, 0x00, 0x00, 0x4f, 0xc4, 0x56, 0xbe, 0x96, 0x68, 0x92, 0xbe,
  0x5c, 0x87, 0xc7, 0xbe, 0x38, 0x80, 0x49, 0x3a, 0x2a, 0xff, 0xff, 0xff,
  0x04, 0x00, 0x00, 0x00, 0x10, 0x00, 0x00, 0x00, 0x56, 0xf4, 0x03, 0xbe,
  0xf6, 0x19, 0x8b, 0xbd, 0x16, 0x40, 0xe7, 0xbd, 0x14, 0x4a, 0x4b, 0xbd,
  0x46, 0xff, 0xff, 0xff, 0x04, 0x00, 0x00, 0x00, 0x10, 0x00, 0x00, 0x00,
  0x0d, 0xb1, 0x10, 0xbe, 0x9c, 0x35, 0x80, 0xbd, 0xfa, 0x95, 0xae, 0xbd,
  0xd3, 0x60, 0xf9, 0xba, 0x78, 0xf2, 0xff, 0xff, 0x7c, 0xf2, 0xff, 0xff,
  0x0f, 0x00, 0x00, 0x00, 0x4d, 0x4c, 0x49, 0x52, 0x20, 0x43, 0x6f, 0x6e,
  0x76, 0x65, 0x72, 0x74, 0x65, 0x64, 0x2e, 0x00, 0x01, 0x00, 0x00, 0x00,
  0x14, 0x00, 0x00, 0x00, 0x00, 0x00, 0x0e, 0x00, 0x18, 0x00, 0x14, 0x00,
  0x10, 0x00, 0x0c, 0x00, 0x08, 0x00, 0x04, 0x00, 0x0e, 0x00, 0x00, 0x00,
  0x14, 0x00, 0x00, 0x00, 0x1c, 0x00, 0x00, 0x00, 0xdc, 0x02, 0x00, 0x00,
  0xe0, 0x02, 0x00, 0x00, 0xe4, 0x02, 0x00, 0x00, 0x04, 0x00, 0x00, 0x00,
  0x6d, 0x61, 0x69, 0x6e, 0x00, 0x00, 0x00, 0x00, 0x0a, 0x00, 0x00, 0x00,
  0x74, 0x02, 0x00, 0x00, 0x10, 0x02, 0x00, 0x00, 0xbc, 0x01, 0x00, 0x00,
  0x78, 0x01, 0x00, 0x00, 0x34, 0x01, 0x00, 0x00, 0xf0, 0x00, 0x00, 0x00,
  0xc8, 0x00, 0x00, 0x00, 0x78, 0x00, 0x00, 0x00, 0x40, 0x00, 0x00, 0x00,
  0x04, 0x00, 0x00, 0x00, 0x22, 0xfe, 0xff, 0xff, 0x1c, 0x00, 0x00, 0x00,
  0x00, 0x00, 0x00, 0x09, 0x1c, 0x00, 0x00, 0x00, 0x20, 0x00, 0x00, 0x00,
  0x04, 0x00, 0x00, 0x00, 0x00, 0x00, 0x06, 0x00, 0x08, 0x00, 0x04, 0x00,
  0x06, 0x00, 0x00, 0x00, 0x00, 0x00, 0x80, 0x3f, 0x01, 0x00, 0x00, 0x00,
  0x15, 0x00, 0x00, 0x00, 0x01, 0x00, 0x00, 0x00, 0x14, 0x00, 0x00, 0x00,
  0x5a, 0xfe, 0xff, 0xff, 0x14, 0x00, 0x00, 0x00, 0x00, 0x00, 0x00, 0x08,
  0x10, 0x00, 0x00, 0x00, 0x14, 0x00, 0x00, 0x00, 0x03, 0x00, 0x00, 0x00,
  0x4c, 0xf3, 0xff, 0xff, 0x01, 0x00, 0x00, 0x00, 0x14, 0x00, 0x00, 0x00,
  0x03, 0x00, 0x00, 0x00, 0x13, 0x00, 0x00, 0x00, 0x0b, 0x00, 0x00, 0x00,
  0x07, 0x00, 0x00, 0x00, 0x8e, 0xfe, 0xff, 0xff, 0x1c, 0x00, 0x00, 0x00,
  0x00, 0x00, 0x00, 0x08, 0x1c, 0x00, 0x00, 0x00, 0x20, 0x00, 0x00, 0x00,
  0x03, 0x00, 0x00, 0x00, 0x00, 0x00, 0x06, 0x00, 0x08, 0x00, 0x07, 0x00,
  0x06, 0x00, 0x00, 0x00, 0x00, 0x00, 0x00, 0x01, 0x01, 0x00, 0x00, 0x00,
  0x13, 0x00, 0x00, 0x00, 0x03, 0x00, 0x00, 0x00, 0x12, 0x00, 0x00, 0x00,
  0x0a, 0x00, 0x00, 0x00, 0x08, 0x00, 0x00, 0x00, 0x00, 0x00, 0x0a, 0x00,
  0x10, 0x00, 0x0c, 0x00, 0x08, 0x00, 0x04, 0x00, 0x0a, 0x00, 0x00, 0x00,
  0x0c, 0x00, 0x00, 0x00, 0x10, 0x00, 0x00, 0x00, 0x02, 0x00, 0x00, 0x00,
  0x01, 0x00, 0x00, 0x00, 0x12, 0x00, 0x00, 0x00, 0x02, 0x00, 0x00, 0x00,
  0x11, 0x00, 0x00, 0x00, 0x09, 0x00, 0x00, 0x00, 0xfe, 0xfe, 0xff, 0xff,
  0x14, 0x00, 0x00, 0x00, 0x00, 0x00, 0x00, 0x05, 0x24, 0x00, 0x00, 0x00,
  0x28, 0x00, 0x00, 0x00, 0x01, 0x00, 0x00, 0x00, 0xee, 0xfe, 0xff, 0xff,
  0x03, 0x00, 0x00, 0x00, 0x01, 0x00, 0x00, 0x00, 0x03, 0x00, 0x00, 0x00,
  0x01, 0x00, 0x00, 0x00, 0x00, 0x00, 0x00, 0x01, 0x01, 0x00, 0x00, 0x00,
  0x11, 0x00, 0x00, 0x00, 0x01, 0x00, 0x00, 0x00, 0x10, 0x00, 0x00, 0x00,
  0xde, 0xfe, 0xff, 0xff, 0x10, 0x00, 0x00, 0x00, 0x00, 0x00, 0x00, 0x01,
  0x1c, 0x00, 0x00, 0x00, 0x20, 0x00, 0x00, 0x00, 0xd0, 0xfe, 0xff, 0xff,
  0x00, 0x00, 0x00, 0x01, 0x01, 0x00, 0x00, 0x00, 0x01, 0x00, 0x00, 0x00,
  0x00, 0x00, 0x00, 0x01, 0x01, 0x00, 0x00, 0x00, 0x10, 0x00, 0x00, 0x00,
  0x03, 0x00, 0x00, 0x00, 0x0f, 0x00, 0x00, 0x00, 0x06, 0x00, 0x00, 0x00,
  0x03, 0x00, 0x00, 0x00, 0x7e, 0xff, 0xff, 0xff, 0x14, 0x00, 0x00, 0x00,
  0x00, 0x00, 0x00, 0x05, 0x24, 0x00, 0x00, 0x00, 0x28, 0x00, 0x00, 0x00,
  0x01, 0x00, 0x00, 0x00, 0x6e, 0xff, 0xff, 0xff, 0x03, 0x00, 0x00, 0x00,
  0x01, 0x00, 0x00, 0x00, 0x03, 0x00, 0x00, 0x00, 0x01, 0x00, 0x00, 0x00,
  0x00, 0x00, 0x00, 0x01, 0x01, 0x00, 0x00, 0x00, 0x0f, 0x00, 0x00, 0x00,
  0x01, 0x00, 0x00, 0x00, 0x0e, 0x00, 0x00, 0x00, 0x5e, 0xff, 0xff, 0xff,
  0x10, 0x00, 0x00, 0x00, 0x00, 0x00, 0x00, 0x01, 0x1c, 0x00, 0x00, 0x00,
  0x20, 0x00, 0x00, 0x00, 0x50, 0xff, 0xff, 0xff, 0x00, 0x00, 0x00, 0x01,
  0x01, 0x00, 0x00, 0x00, 0x01, 0x00, 0x00, 0x00, 0x00, 0x00, 0x00, 0x01,
  0x01, 0x00, 0x00, 0x00, 0x0e, 0x00, 0x00, 0x00, 0x03, 0x00, 0x00, 0x00,
  0x0d, 0x00, 0x00, 0x00, 0x05, 0x00, 0x00, 0x00, 0x02, 0x00, 0x00, 0x00,
  0x00, 0x00, 0x0e, 0x00, 0x1a, 0x00, 0x14, 0x00, 0x10, 0x00, 0x0c, 0x00,
  0x0b, 0x00, 0x04, 0x00, 0x0e, 0x00, 0x00, 0x00, 0x24, 0x00, 0x00, 0x00,
  0x00, 0x00, 0x00, 0x05, 0x34, 0x00, 0x00, 0x00, 0x38, 0x00, 0x00, 0x00,
  0x01, 0x00, 0x00, 0x00, 0x00, 0x00, 0x0e, 0x00, 0x18, 0x00, 0x17, 0x00,
  0x10, 0x00, 0x0c, 0x00, 0x08, 0x00, 0x04, 0x00, 0x0e, 0x00, 0x00, 0x00,
  0x03, 0x00, 0x00, 0x00, 0x01, 0x00, 0x00, 0x00, 0x03, 0x00, 0x00, 0x00,
  0x01, 0x00, 0x00, 0x00, 0x00, 0x00, 0x00, 0x01, 0x01, 0x00, 0x00, 0x00,
  0x0d, 0x00, 0x00, 0x00, 0x01, 0x00, 0x00, 0x00, 0x0c, 0x00, 0x00, 0x00,
  0x00, 0x00, 0x0e, 0x00, 0x14, 0x00, 0x00, 0x00, 0x10, 0x00, 0x0c, 0x00,
  0x0b, 0x00, 0x04, 0x00, 0x0e, 0x00, 0x00, 0x00, 0x1c, 0x00, 0x00, 0x00,
  0x00, 0x00, 0x00, 0x01, 0x28, 0x00, 0x00, 0x00, 0x2c, 0x00, 0x00, 0x00,
  0x0c, 0x00, 0x14, 0x00, 0x13, 0x00, 0x0c, 0x00, 0x08, 0x00, 0x07, 0x00,
  0x0c, 0x00, 0x00, 0x00, 0x00, 0x00, 0x00, 0x01, 0x01, 0x00, 0x00, 0x00,
  0x01, 0x00, 0x00, 0x00, 0x00, 0x00, 0x00, 0x01, 0x01, 0x00, 0x00, 0x00,
  0x0c, 0x00, 0x00, 0x00, 0x03, 0x00, 0x00, 0x00, 0x00, 0x00, 0x00, 0x00,
  0x04, 0x00, 0x00, 0x00, 0x01, 0x00, 0x00, 0x00, 0x01, 0x00, 0x00, 0x00,
  0x15, 0x00, 0x00, 0x00, 0x01, 0x00, 0x00, 0x00, 0x00, 0x00, 0x00, 0x00,
  0x16, 0x00, 0x00, 0x00, 0x28, 0x0a, 0x00, 0x00, 0xb4, 0x09, 0x00, 0x00,
  0x40, 0x09, 0x00, 0x00, 0xe4, 0x08, 0x00, 0x00, 0x8c, 0x08, 0x00, 0x00,
  0x34, 0x08, 0x00, 0x00, 0xdc, 0x07, 0x00, 0x00, 0x80, 0x07, 0x00, 0x00,
  0x24, 0x07, 0x00, 0x00, 0xd4, 0x06, 0x00, 0x00, 0x6c, 0x06, 0x00, 0x00,
  0x1c, 0x06, 0x00, 0x00, 0x20, 0x05, 0x00, 0x00, 0xa8, 0x04, 0x00, 0x00,
  0xac, 0x03, 0x00, 0x00, 0x34, 0x03, 0x00, 0x00, 0x58, 0x02, 0x00, 0x00,
  0xe0, 0x01, 0x00, 0x00, 0x7c, 0x01, 0x00, 0x00, 0xe0, 0x00, 0x00, 0x00,
  0x60, 0x00, 0x00, 0x00, 0x04, 0x00, 0x00, 0x00, 0x46, 0xf6, 0xff, 0xff,
  0x00, 0x00, 0x00, 0x01, 0x14, 0x00, 0x00, 0x00, 0x1c, 0x00, 0x00, 0x00,
  0x1c, 0x00, 0x00, 0x00, 0x16, 0x00, 0x00, 0x00, 0x34, 0x00, 0x00, 0x00,
  0x02, 0x00, 0x00, 0x00, 0xff, 0xff, 0xff, 0xff, 0x03, 0x00, 0x00, 0x00,
  0x28, 0xf6, 0xff, 0xff, 0x19, 0x00, 0x00, 0x00, 0x53, 0x74, 0x61, 0x74,
  0x65, 0x66, 0x75, 0x6c, 0x50, 0x61, 0x72, 0x74, 0x69, 0x74, 0x69, 0x6f,
  0x6e, 0x65, 0x64, 0x43, 0x61, 0x6c, 0x6c, 0x3a, 0x30, 0x00, 0x00, 0x00,
  0x02, 0x00, 0x00, 0x00, 0x01, 0x00, 0x00, 0x00, 0x03, 0x00, 0x00, 0x00,
  0x9e, 0xf6, 0xff, 0xff, 0x00, 0x00, 0x00, 0x01, 0x14, 0x00, 0x00, 0x00,
  0x1c, 0x00, 0x00, 0x00, 0x1c, 0x00, 0x00, 0x00, 0x15, 0x00, 0x00, 0x00,
  0x58, 0x00, 0x00, 0x00, 0x02, 0x00, 0x00, 0x00, 0xff, 0xff, 0xff, 0xff,
  0x03, 0x00, 0x00, 0x00, 0x80, 0xf6, 0xff, 0xff, 0x3c, 0x00, 0x00, 0x00,
  0x73, 0x65, 0x71, 0x75, 0x65, 0x6e, 0x74, 0x69, 0x61, 0x6c, 0x5f, 0x31,
  0x32, 0x2f, 0x64, 0x65, 0x6e, 0x73, 0x65, 0x5f, 0x32, 0x35, 0x2f, 0x4d,
  0x61, 0x74, 0x4d, 0x75, 0x6c, 0x3b, 0x73, 0x65, 0x71, 0x75, 0x65, 0x6e,
  0x74, 0x69, 0x61, 0x6c, 0x5f, 0x31, 0x32, 0x2f, 0x64, 0x65, 0x6e, 0x73,
  0x65, 0x5f, 0x32, 0x35, 0x2f, 0x42, 0x69, 0x61, 0x73, 0x41, 0x64, 0x64,
  0x00, 0x00, 0x00, 0x00, 0x02, 0x00, 0x00, 0x00, 0x01, 0x00, 0x00, 0x00,
  0x03, 0x00, 0x00, 0x00, 0x1a, 0xf7, 0xff, 0xff, 0x00, 0x00, 0x00, 0x01,
  0x14, 0x00, 0x00, 0x00, 0x1c, 0x00, 0x00, 0x00, 0x1c, 0x00, 0x00, 0x00,
  0x14, 0x00, 0x00, 0x00, 0x74, 0x00, 0x00, 0x00, 0x02, 0x00, 0x00, 0x00,
  0xff, 0xff, 0xff, 0xff, 0x10, 0x00, 0x00, 0x00, 0xfc, 0xf6, 0xff, 0xff,
  0x58, 0x00, 0x00, 0x00, 0x73, 0x65, 0x71, 0x75, 0x65, 0x6e, 0x74, 0x69,
  0x61, 0x6c, 0x5f, 0x31, 0x32, 0x2f, 0x64, 0x65, 0x6e, 0x73, 0x65, 0x5f,
  0x32, 0x34, 0x2f, 0x4d, 0x61, 0x74, 0x4d, 0x75, 0x6c, 0x3b, 0x73, 0x65,
  0x71, 0x75, 0x65, 0x6e, 0x74, 0x69, 0x61, 0x6c, 0x5f, 0x31, 0x32, 0x2f,
  0x64, 0x65, 0x6e, 0x73, 0x65, 0x5f, 0x32, 0x34, 0x2f, 0x52, 0x65, 0x6c,
  0x75, 0x3b, 0x73, 0x65, 0x71, 0x75, 0x65, 0x6e, 0x74, 0x69, 0x61, 0x6c,
  0x5f, 0x31, 0x32, 0x2f, 0x64, 0x65, 0x6e, 0x73, 0x65, 0x5f, 0x32, 0x34,
  0x2f, 0x42, 0x69, 0x61, 0x73, 0x41, 0x64, 0x64, 0x00, 0x00, 0x00, 0x00,
  0x02, 0x00, 0x00, 0x00, 0x01, 0x00, 0x00, 0x00, 0x10, 0x00, 0x00, 0x00,
  0xb2, 0xf7, 0xff, 0xff, 0x00, 0x00, 0x00, 0x01, 0x14, 0x00, 0x00, 0x00,
  0x1c, 0x00, 0x00, 0x00, 0x1c, 0x00, 0x00, 0x00, 0x13, 0x00, 0x00, 0x00,
  0x3c, 0x00, 0x00, 0x00, 0x02, 0x00, 0x00, 0x00, 0xff, 0xff, 0xff, 0xff,
  0x18, 0x00, 0x00, 0x00, 0x94, 0xf7, 0xff, 0xff, 0x20, 0x00, 0x00, 0x00,
  0x73, 0x65, 0x71, 0x75, 0x65, 0x6e, 0x74, 0x69, 0x61, 0x6c, 0x5f, 0x31,
  0x32, 0x2f, 0x66, 0x6c, 0x61, 0x74, 0x74, 0x65, 0x6e, 0x5f, 0x31, 0x32,
  0x2f, 0x52, 0x65, 0x73, 0x68, 0x61, 0x70, 0x65, 0x00, 0x00, 0x00, 0x00,
  0x02, 0x00, 0x00, 0x00, 0x01, 0x00, 0x00, 0x00, 0x18, 0x00, 0x00, 0x00,
  0x12, 0xf8, 0xff, 0xff, 0x00, 0x00, 0x00, 0x01, 0x14, 0x00, 0x00, 0x00,
  0x24, 0x00, 0x00, 0x00, 0x24, 0x00, 0x00, 0x00, 0x12, 0x00, 0x00, 0x00,
  0x48, 0x00, 0x00, 0x00, 0x04, 0x00, 0x00, 0x00, 0xff, 0xff, 0xff, 0xff,
  0x02, 0x00, 0x00, 0x00, 0x03, 0x00, 0x00, 0x00, 0x04, 0x00, 0x00, 0x00,
  0xfc, 0xf7, 0xff, 0xff, 0x26, 0x00, 0x00, 0x00, 0x73, 0x65, 0x71, 0x75,
  0x65, 0x6e, 0x74, 0x69, 0x61, 0x6c, 0x5f, 0x31, 0x32, 0x2f, 0x6d, 0x61,
  0x78, 0x5f, 0x70, 0x6f, 0x6f, 0x6c, 0x69, 0x6e, 0x67, 0x32, 0x64, 0x5f,
  0x32, 0x38, 0x2f, 0x4d, 0x61, 0x78, 0x50, 0x6f, 0x6f, 0x6c, 0x00, 0x00,
  0x04, 0x00, 0x00, 0x00, 0x01, 0x00, 0x00, 0x00, 0x02, 0x00, 0x00, 0x00,
  0x03, 0x00, 0x00, 0x00, 0x04, 0x00, 0x00, 0x00, 0x86, 0xf8, 0xff, 0xff,
  0x00, 0x00, 0x00, 0x01, 0x14, 0x00, 0x00, 0x00, 0x24, 0x00, 0x00, 0x00,
  0x24, 0x00, 0x00, 0x00, 0x11, 0x00, 0x00, 0x00, 0xac, 0x00, 0x00, 0x00,
  0x04, 0x00, 0x00, 0x00, 0xff, 0xff, 0xff, 0xff, 0x06, 0x00, 0x00, 0x00,
  0x03, 0x00, 0x00, 0x00, 0x04, 0x00, 0x00, 0x00, 0x70, 0xf8, 0xff, 0xff,
  0x8a, 0x00, 0x00, 0x00, 0x73, 0x65, 0x71, 0x75, 0x65, 0x6e, 0x74, 0x69,
  0x61, 0x6c, 0x5f, 0x31, 0x32, 0x2f, 0x63, 0x6f, 0x6e, 0x76, 0x32, 0x64,
  0x5f, 0x32, 0x38, 0x2f, 0x52, 0x65, 0x6c, 0x75, 0x3b, 0x73, 0x65, 0x71,
  0x75, 0x65, 0x6e, 0x74, 0x69, 0x61, 0x6c, 0x5f, 0x31, 0x32, 0x2f, 0x63,
  0x6f, 0x6e, 0x76, 0x32, 0x64, 0x5f, 0x32, 0x38, 0x2f, 0x42, 0x69, 0x61,
  0x73, 0x41, 0x64, 0x64, 0x3b, 0x73, 0x65, 0x71, 0x75, 0x65, 0x6e, 0x74,
  0x69, 0x61, 0x6c, 0x5f, 0x31, 0x32, 0x2f, 0x63, 0x6f, 0x6e, 0x76, 0x32,
  0x64, 0x5f, 0x32, 0x38, 0x2f, 0x43, 0x6f, 0x6e, 0x76, 0x32, 0x44, 0x3b,
  0x73, 0x65, 0x71, 0x75, 0x65, 0x6e, 0x74, 0x69, 0x61, 0x6c, 0x5f, 0x31,
  0x32, 0x2f, 0x63, 0x6f, 0x6e, 0x76, 0x32, 0x64, 0x5f, 0x32, 0x38, 0x2f,
  0x42, 0x69, 0x61, 0x73, 0x41, 0x64, 0x64, 0x2f, 0x52, 0x65, 0x61, 0x64,
  0x56, 0x61, 0x72, 0x69, 0x61, 0x62, 0x6c, 0x65, 0x4f, 0x70, 0x00, 0x00,
  0x04, 0x00, 0x00, 0x00, 0x01, 0x00, 0x00, 0x00, 0x06, 0x00, 0x00, 0x00,
  0x03, 0x00, 0x00, 0x00, 0x04, 0x00, 0x00, 0x00, 0x5e, 0xf9, 0xff, 0xff,
  0x00, 0x00, 0x00, 0x01, 0x14, 0x00, 0x00, 0x00, 0x24, 0x00, 0x00, 0x00,
  0x24, 0x00, 0x00, 0x00, 0x10, 0x00, 0x00, 0x00, 0x48, 0x00, 0x00, 0x00,
  0x04, 0x00, 0x00, 0x00, 0xff, 0xff, 0xff, 0xff, 0x08, 0x00, 0x00, 0x00,
  0x03, 0x00, 0x00, 0x00, 0x04, 0x00, 0x00, 0x00, 0x48, 0xf9, 0xff, 0xff,
  0x26, 0x00, 0x00, 0x00, 0x73, 0x65, 0x71, 0x75, 0x65, 0x6e, 0x74, 0x69,
  0x61, 0x6c, 0x5f, 0x31, 0x32, 0x2f, 0x6d, 0x61, 0x78, 0x5f, 0x70, 0x6f,
  0x6f, 0x6c, 0x69, 0x6e, 0x67, 0x32, 0x64, 0x5f, 0x32, 0x37, 0x2f, 0x4d,
  0x61, 0x78, 0x50, 0x6f, 0x6f, 0x6c, 0x00, 0x00, 0x04, 0x00, 0x00, 0x00,
  0x01, 0x00, 0x00, 0x00, 0x08, 0x00, 0x00, 0x00, 0x03, 0x00, 0x00, 0x00,
  0x04, 0x00, 0x00, 0x00, 0xd2, 0xf9, 0xff, 0xff, 0x00, 0x00, 0x00, 0x01,
  0x14, 0x00, 0x00, 0x00, 0x24, 0x00, 0x00, 0x00, 0x24, 0x00, 0x00, 0x00,
  0x0f, 0x00, 0x00, 0x00, 0xcc, 0x00, 0x00, 0x00, 0x04, 0x00, 0x00, 0x00,
  0xff, 0xff, 0xff, 0xff, 0x18, 0x00, 0x00, 0x00, 0x03, 0x00, 0x00, 0x00,
  0x04, 0x00, 0x00, 0x00, 0xbc, 0xf9, 0xff, 0xff, 0xa9, 0x00, 0x00, 0x00,
  0x73, 0x65, 0x71, 0x75, 0x65, 0x6e, 0x74, 0x69, 0x61, 0x6c, 0x5f, 0x31,
  0x32, 0x2f, 0x63, 0x6f, 0x6e, 0x76, 0x32, 0x64, 0x5f, 0x32, 0x37, 0x2f,
  0x52, 0x65, 0x6c, 0x75, 0x3b, 0x73, 0x65, 0x71, 0x75, 0x65, 0x6e, 0x74,
  0x69, 0x61, 0x6c, 0x5f, 0x31, 0x32, 0x2f, 0x63, 0x6f, 0x6e, 0x76, 0x32,
  0x64, 0x5f, 0x32, 0x37, 0x2f, 0x42, 0x69, 0x61, 0x73, 0x41, 0x64, 0x64,
  0x3b, 0x73, 0x65, 0x71, 0x75, 0x65, 0x6e, 0x74, 0x69, 0x61, 0x6c, 0x5f,
  0x31, 0x32, 0x2f, 0x63, 0x6f, 0x6e, 0x76, 0x32, 0x64, 0x5f, 0x32, 0x38,
  0x2f, 0x43, 0x6f, 0x6e, 0x76, 0x32, 0x44, 0x3b, 0x73, 0x65, 0x71, 0x75,
  0x65, 0x6e, 0x74, 0x69, 0x61, 0x6c, 0x5f, 0x31, 0x32, 0x2f, 0x63, 0x6f,
  0x6e, 0x76, 0x32, 0x64, 0x5f, 0x32, 0x37, 0x2f, 0x43, 0x6f, 0x6e, 0x76,
  0x32, 0x44, 0x3b, 0x73, 0x65, 0x71, 0x75, 0x65, 0x6e, 0x74, 0x69, 0x61,
  0x6c, 0x5f, 0x31, 0x32, 0x2f, 0x63, 0x6f, 0x6e, 0x76, 0x32, 0x64, 0x5f,
  0x32, 0x37, 0x2f, 0x42, 0x69, 0x61, 0x73, 0x41, 0x64, 0x64, 0x2f, 0x52,
  0x65, 0x61, 0x64, 0x56, 0x61, 0x72, 0x69, 0x61, 0x62, 0x6c, 0x65, 0x4f,
  0x70, 0x00, 0x00, 0x00, 0x04, 0x00, 0x00, 0x00, 0x01, 0x00, 0x00, 0x00,
  0x18, 0x00, 0x00, 0x00, 0x03, 0x00, 0x00, 0x00, 0x04, 0x00, 0x00, 0x00,
  0xca, 0xfa, 0xff, 0xff, 0x00, 0x00, 0x00, 0x01, 0x14, 0x00, 0x00, 0x00,
  0x24, 0x00, 0x00, 0x00, 0x24, 0x00, 0x00, 0x00, 0x0e, 0x00, 0x00, 0x00,
  0x48, 0x00, 0x00, 0x00, 0x04, 0x00, 0x00, 0x00, 0xff, 0xff, 0xff, 0xff,
  0x1a, 0x00, 0x00, 0x00, 0x03, 0x00, 0x00, 0x00, 0x04, 0x00, 0x00, 0x00,
  0xb4, 0xfa, 0xff, 0xff, 0x26, 0x00, 0x00, 0x00, 0x73, 0x65, 0x71, 0x75,
  0x65, 0x6e, 0x74, 0x69, 0x61, 0x6c, 0x5f, 0x31, 0x32, 0x2f, 0x6d, 0x61,
  0x78, 0x5f, 0x70, 0x6f, 0x6f, 0x6c, 0x69, 0x6e, 0x67, 0x32, 0x64, 0x5f,
  0x32, 0x36, 0x2f, 0x4d, 0x61, 0x78, 0x50, 0x6f, 0x6f, 0x6c, 0x00, 0x00,
  0x04, 0x00, 0x00, 0x00, 0x01, 0x00, 0x00, 0x00, 0x1a, 0x00, 0x00, 0x00,
  0x03, 0x00, 0x00, 0x00, 0x04, 0x00, 0x00, 0x00, 0x3e, 0xfb, 0xff, 0xff,
  0x00, 0x00, 0x00, 0x01, 0x14, 0x00, 0x00, 0x00, 0x24, 0x00, 0x00, 0x00,
  0x24, 0x00, 0x00, 0x00, 0x0d, 0x00, 0x00, 0x00, 0xcc, 0x00, 0x00, 0x00,
  0x04, 0x00, 0x00, 0x00, 0xff, 0xff, 0xff, 0xff, 0x4e, 0x00, 0x00, 0x00,
  0x03, 0x00, 0x00, 0x00, 0x04, 0x00, 0x00, 0x00, 0x28, 0xfb, 0xff, 0xff,
  0xa9, 0x00, 0x00, 0x00, 0x73, 0x65, 0x71, 0x75, 0x65, 0x6e, 0x74, 0x69,
  0x61, 0x6c, 0x5f, 0x31, 0x32, 0x2f, 0x63, 0x6f, 0x6e, 0x76, 0x32, 0x64,
  0x5f, 0x32, 0x36, 0x2f, 0x52, 0x65, 0x6c, 0x75, 0x3b, 0x73, 0x65, 0x71,
  0x75, 0x65, 0x6e, 0x74, 0x69, 0x61, 0x6c, 0x5f, 0x31, 0x32, 0x2f, 0x63,
  0x6f, 0x6e, 0x76, 0x32, 0x64, 0x5f, 0x32, 0x36, 0x2f, 0x42, 0x69, 0x61,
  0x73, 0x41, 0x64, 0x64, 0x3b, 0x73, 0x65, 0x71, 0x75, 0x65, 0x6e, 0x74,
  0x69, 0x61, 0x6c, 0x5f, 0x31, 0x32, 0x2f, 0x63, 0x6f, 0x6e, 0x76, 0x32,
  0x64, 0x5f, 0x32, 0x38, 0x2f, 0x43, 0x6f, 0x6e, 0x76, 0x32, 0x44, 0x3b,
  0x73, 0x65, 0x71, 0x75, 0x65, 0x6e, 0x74, 0x69, 0x61, 0x6c, 0x5f, 0x31,
  0x32, 0x2f, 0x63, 0x6f, 0x6e, 0x76, 0x32, 0x64, 0x5f, 0x32, 0x36, 0x2f,
  0x43, 0x6f, 0x6e, 0x76, 0x32, 0x44, 0x3b, 0x73, 0x65, 0x71, 0x75, 0x65,
  0x6e, 0x74, 0x69, 0x61, 0x6c, 0x5f, 0x31, 0x32, 0x2f, 0x63, 0x6f, 0x6e,
  0x76, 0x32, 0x64, 0x5f, 0x32, 0x36, 0x2f, 0x42, 0x69, 0x61, 0x73, 0x41,
  0x64, 0x64, 0x2f, 0x52, 0x65, 0x61, 0x64, 0x56, 0x61, 0x72, 0x69, 0x61,
  0x62, 0x6c, 0x65, 0x4f, 0x70, 0x00, 0x00, 0x00, 0x04, 0x00, 0x00, 0x00,
  0x01, 0x00, 0x00, 0x00, 0x4e, 0x00, 0x00, 0x00, 0x03, 0x00, 0x00, 0x00,
  0x04, 0x00, 0x00, 0x00, 0xa6, 0xfc, 0xff, 0xff, 0x00, 0x00, 0x00, 0x01,
  0x10, 0x00, 0x00, 0x00, 0x10, 0x00, 0x00, 0x00, 0x0c, 0x00, 0x00, 0x00,
  0x2c, 0x00, 0x00, 0x00, 0x08, 0xfc, 0xff, 0xff, 0x1d, 0x00, 0x00, 0x00,
  0x73, 0x65, 0x71, 0x75, 0x65, 0x6e, 0x74, 0x69, 0x61, 0x6c, 0x5f, 0x31,
  0x32, 0x2f, 0x64, 0x65, 0x6e, 0x73, 0x65, 0x5f, 0x32, 0x35, 0x2f, 0x4d,
  0x61, 0x74, 0x4d, 0x75, 0x6c, 0x00, 0x00, 0x00, 0x02, 0x00, 0x00, 0x00,
  0x03, 0x00, 0x00, 0x00, 0x10, 0x00, 0x00, 0x00, 0xf2, 0xfc, 0xff, 0xff,
  0x00, 0x00, 0x00, 0x01, 0x10, 0x00, 0x00, 0x00, 0x10, 0x00, 0x00, 0x00,
  0x0b, 0x00, 0x00, 0x00, 0x2c, 0x00, 0x00, 0x00, 0x54, 0xfc, 0xff, 0xff,
  0x1d, 0x00, 0x00, 0x00, 0x73, 0x65, 0x71, 0x75, 0x65, 0x6e, 0x74, 0x69,
  0x61, 0x6c, 0x5f, 0x31, 0x32, 0x2f, 0x64, 0x65, 0x6e, 0x73, 0x65, 0x5f,
  0x32, 0x34, 0x2f, 0x4d, 0x61, 0x74, 0x4d, 0x75, 0x6c, 0x00, 0x00, 0x00,
  0x02, 0x00, 0x00, 0x00, 0x10, 0x00, 0x00, 0x00, 0x18, 0x00, 0x00, 0x00,
  0x00, 0x00, 0x16, 0x00, 0x1c, 0x00, 0x18, 0x00, 0x17, 0x00, 0x10, 0x00,
  0x0c, 0x00, 0x08, 0x00, 0x00, 0x00, 0x00, 0x00, 0x00, 0x00, 0x07, 0x00,
  0x16, 0x00, 0x00, 0x00, 0x00, 0x00, 0x00, 0x01, 0x14, 0x00, 0x00, 0x00,
  0x14, 0x00, 0x00, 0x00, 0x0a, 0x00, 0x00, 0x00, 0x00, 0x00, 0x00, 0x02,
  0x2c, 0x00, 0x00, 0x00, 0xbc, 0xfc, 0xff, 0xff, 0x1e, 0x00, 0x00, 0x00,
  0x73, 0x65, 0x71, 0x75, 0x65, 0x6e, 0x74, 0x69, 0x61, 0x6c, 0x5f, 0x31,
  0x32, 0x2f, 0x66, 0x6c, 0x61, 0x74, 0x74, 0x65, 0x6e, 0x5f, 0x31, 0x32,
  0x2f, 0x43, 0x6f, 0x6e, 0x73, 0x74, 0x00, 0x00, 0x01, 0x00, 0x00, 0x00,
  0x02, 0x00, 0x00, 0x00, 0xa2, 0xfd, 0xff, 0xff, 0x00, 0x00, 0x00, 0x01,
  0x10, 0x00, 0x00, 0x00, 0x10, 0x00, 0x00, 0x00, 0x09, 0x00, 0x00, 0x00,
  0x3c, 0x00, 0x00, 0x00, 0x04, 0xfd, 0xff, 0xff, 0x2d, 0x00, 0x00, 0x00,
  0x73, 0x65, 0x71, 0x75, 0x65, 0x6e, 0x74, 0x69, 0x61, 0x6c, 0x5f, 0x31,
  0x32, 0x2f, 0x64, 0x65, 0x6e, 0x73, 0x65, 0x5f, 0x32, 0x34, 0x2f, 0x42,
  0x69, 0x61, 0x73, 0x41, 0x64, 0x64, 0x2f, 0x52, 0x65, 0x61, 0x64, 0x56,
  0x61, 0x72, 0x69, 0x61, 0x62, 0x6c, 0x65, 0x4f, 0x70, 0x00, 0x00, 0x00,
  0x01, 0x00, 0x00, 0x00, 0x10, 0x00, 0x00, 0x00, 0xfa, 0xfd, 0xff, 0xff,
  0x00, 0x00, 0x00, 0x01, 0x10, 0x00, 0x00, 0x00, 0x10, 0x00, 0x00, 0x00,
  0x08, 0x00, 0x00, 0x00, 0x3c, 0x00, 0x00, 0x00, 0x5c, 0xfd, 0xff, 0xff,
  0x2d, 0x00, 0x00, 0x00, 0x73, 0x65, 0x71, 0x75, 0x65, 0x6e, 0x74, 0x69,
  0x61, 0x6c, 0x5f, 0x31, 0x32, 0x2f, 0x64, 0x65, 0x6e, 0x73, 0x65, 0x5f,
  0x32, 0x35, 0x2f, 0x42, 0x69, 0x61, 0x73, 0x41, 0x64, 0x64, 0x2f, 0x52,
  0x65, 0x61, 0x64, 0x56, 0x61, 0x72, 0x69, 0x61, 0x62, 0x6c, 0x65, 0x4f,
  0x70, 0x00, 0x00, 0x00, 0x01, 0x00, 0x00, 0x00, 0x03, 0x00, 0x00, 0x00,
  0x52, 0xfe, 0xff, 0xff, 0x00, 0x00, 0x00, 0x01, 0x10, 0x00, 0x00, 0x00,
  0x10, 0x00, 0x00, 0x00, 0x07, 0x00, 0x00, 0x00, 0x2c, 0x00, 0x00, 0x00,
  0xb4, 0xfd, 0xff, 0xff, 0x1e, 0x00, 0x00, 0x00, 0x73, 0x65, 0x71, 0x75,
  0x65, 0x6e, 0x74, 0x69, 0x61, 0x6c, 0x5f, 0x31, 0x32, 0x2f, 0x63, 0x6f,
  0x6e, 0x76, 0x32, 0x64, 0x5f, 0x32, 0x38, 0x2f, 0x43, 0x6f, 0x6e, 0x76,
  0x32, 0x44, 0x00, 0x00, 0x04, 0x00, 0x00, 0x00, 0x04, 0x00, 0x00, 0x00,
  0x03, 0x00, 0x00, 0x00, 0x01, 0x00, 0x00, 0x00, 0x04, 0x00, 0x00, 0x00,
  0xa6, 0xfe, 0xff, 0xff, 0x00, 0x00, 0x00, 0x01, 0x10, 0x00, 0x00, 0x00,
  0x10, 0x00, 0x00, 0x00, 0x06, 0x00, 0x00, 0x00, 0x2c, 0x00, 0x00, 0x00,
  0x08, 0xfe, 0xff, 0xff, 0x1e, 0x00, 0x00, 0x00, 0x73, 0x65, 0x71, 0x75,
  0x65, 0x6e, 0x74, 0x69, 0x61, 0x6c, 0x5f, 0x31, 0x32, 0x2f, 0x63, 0x6f,
  0x6e, 0x76, 0x32, 0x64, 0x5f, 0x32, 0x37, 0x2f, 0x43, 0x6f, 0x6e, 0x76,
  0x32, 0x44, 0x00, 0x00, 0x04, 0x00, 0x00, 0x00, 0x04, 0x00, 0x00, 0x00,
  0x03, 0x00, 0x00, 0x00, 0x01, 0x00, 0x00, 0x00, 0x04, 0x00, 0x00, 0x00,
  0xfa, 0xfe, 0xff, 0xff, 0x00, 0x00, 0x00, 0x01, 0x10, 0x00, 0x00, 0x00,
  0x10, 0x00, 0x00, 0x00, 0x05, 0x00, 0x00, 0x00, 0x2c, 0x00, 0x00, 0x00,
  0x5c, 0xfe, 0xff, 0xff, 0x1e, 0x00, 0x00, 0x00, 0x73, 0x65, 0x71, 0x75,
  0x65, 0x6e, 0x74, 0x69, 0x61, 0x6c, 0x5f, 0x31, 0x32, 0x2f, 0x63, 0x6f,
  0x6e, 0x76, 0x32, 0x64, 0x5f, 0x32, 0x36, 0x2f, 0x43, 0x6f, 0x6e, 0x76,
  0x32, 0x44, 0x00, 0x00, 0x04, 0x00, 0x00, 0x00, 0x04, 0x00, 0x00, 0x00,
  0x03, 0x00, 0x00, 0x00, 0x01, 0x00, 0x00, 0x00, 0x01, 0x00, 0x00, 0x00,
  0x4e, 0xff, 0xff, 0xff, 0x00, 0x00, 0x00, 0x01, 0x10, 0x00, 0x00, 0x00,
  0x10, 0x00, 0x00, 0x00, 0x04, 0x00, 0x00, 0x00, 0x3c, 0x00, 0x00, 0x00,
  0xb0, 0xfe, 0xff, 0xff, 0x2e, 0x00, 0x00, 0x00, 0x73, 0x65, 0x71, 0x75,
  0x65, 0x6e, 0x74, 0x69, 0x61, 0x6c, 0x5f, 0x31, 0x32, 0x2f, 0x63, 0x6f,
  0x6e, 0x76, 0x32, 0x64, 0x5f, 0x32, 0x38, 0x2f, 0x42, 0x69, 0x61, 0x73,
  0x41, 0x64, 0x64, 0x2f, 0x52, 0x65, 0x61, 0x64, 0x56, 0x61, 0x72, 0x69,
  0x61, 0x62, 0x6c, 0x65, 0x4f, 0x70, 0x00, 0x00, 0x01, 0x00, 0x00, 0x00,
  0x04, 0x00, 0x00, 0x00, 0xa6, 0xff, 0xff, 0xff, 0x00, 0x00, 0x00, 0x01,
  0x10, 0x00, 0x00, 0x00, 0x10, 0x00, 0x00, 0x00, 0x03, 0x00, 0x00, 0x00,
  0x3c, 0x00, 0x00, 0x00, 0x08, 0xff, 0xff, 0xff, 0x2e, 0x00, 0x00, 0x00,
  0x73, 0x65, 0x71, 0x75, 0x65, 0x6e, 0x74, 0x69, 0x61, 0x6c, 0x5f, 0x31,
  0x32, 0x2f, 0x63, 0x6f, 0x6e, 0x76, 0x32, 0x64, 0x5f, 0x32, 0x37, 0x2f,
  0x42, 0x69, 0x61, 0x73, 0x41, 0x64, 0x64, 0x2f, 0x52, 0x65, 0x61, 0x64,
  0x56, 0x61, 0x72, 0x69, 0x61, 0x62, 0x6c, 0x65, 0x4f, 0x70, 0x00, 0x00,
  0x01, 0x00, 0x00, 0x00, 0x04, 0x00, 0x00, 0x00, 0x00, 0x00, 0x16, 0x00,
  0x18, 0x00, 0x14, 0x00, 0x00, 0x00, 0x10, 0x00, 0x0c, 0x00, 0x08, 0x00,
  0x00, 0x00, 0x00, 0x00, 0x00, 0x00, 0x07, 0x00, 0x16, 0x00, 0x00, 0x00,
  0x00, 0x00, 0x00, 0x01, 0x10, 0x00, 0x00, 0x00, 0x10, 0x00, 0x00, 0x00,
  0x02, 0x00, 0x00, 0x00, 0x3c, 0x00, 0x00, 0x00, 0x78, 0xff, 0xff, 0xff,
  0x2e, 0x00, 0x00, 0x00, 0x73, 0x65, 0x71, 0x75, 0x65, 0x6e, 0x74, 0x69,
  0x61, 0x6c, 0x5f, 0x31, 0x32, 0x2f, 0x63, 0x6f, 0x6e, 0x76, 0x32, 0x64,
  0x5f, 0x32, 0x36, 0x2f, 0x42, 0x69, 0x61, 0x73, 0x41, 0x64, 0x64, 0x2f,
  0x52, 0x65, 0x61, 0x64, 0x56, 0x61, 0x72, 0x69, 0x61, 0x62, 0x6c, 0x65,
  0x4f, 0x70, 0x00, 0x00, 0x01, 0x00, 0x00, 0x00, 0x04, 0x00, 0x00, 0x00,
  0x00, 0x00, 0x16, 0x00, 0x1c, 0x00, 0x18, 0x00, 0x00, 0x00, 0x14, 0x00,
  0x10, 0x00, 0x0c, 0x00, 0x00, 0x00, 0x00, 0x00, 0x08, 0x00, 0x07, 0x00,
  0x16, 0x00, 0x00, 0x00, 0x00, 0x00, 0x00, 0x01, 0x14, 0x00, 0x00, 0x00,
  0x28, 0x00, 0x00, 0x00, 0x28, 0x00, 0x00, 0x00, 0x01, 0x00, 0x00, 0x00,
  0x40, 0x00, 0x00, 0x00, 0x04, 0x00, 0x00, 0x00, 0xff, 0xff, 0xff, 0xff,
  0x50, 0x00, 0x00, 0x00, 0x03, 0x00, 0x00, 0x00, 0x01, 0x00, 0x00, 0x00,
  0x04, 0x00, 0x04, 0x00, 0x04, 0x00, 0x00, 0x00, 0x1a, 0x00, 0x00, 0x00,
  0x73, 0x65, 0x72, 0x76, 0x69, 0x6e, 0x67, 0x5f, 0x64, 0x65, 0x66, 0x61,
  0x75, 0x6c, 0x74, 0x5f, 0x69, 0x6e, 0x70, 0x75, 0x74, 0x5f, 0x31, 0x33,
  0x3a, 0x30, 0x00, 0x00, 0x04, 0x00, 0x00, 0x00, 0x01, 0x00, 0x00, 0x00,
  0x50, 0x00, 0x00, 0x00, 0x03, 0x00, 0x00, 0x00, 0x01, 0x00, 0x00, 0x00,
  0x05, 0x00, 0x00, 0x00, 0x50, 0x00, 0x00, 0x00, 0x34, 0x00, 0x00, 0x00,
  0x24, 0x00, 0x00, 0x00, 0x14, 0x00, 0x00, 0x00, 0x04, 0x00, 0x00, 0x00,
  0xd0, 0xff, 0xff, 0xff, 0x19, 0x00, 0x00, 0x00, 0x00, 0x00, 0x00, 0x19,
  0xdc, 0xff, 0xff, 0xff, 0x09, 0x00, 0x00, 0x00, 0x00, 0x00, 0x00, 0x09,
  0xe8, 0xff, 0xff, 0xff, 0x16, 0x00, 0x00, 0x00, 0x00, 0x00, 0x00, 0x16,
  0xf4, 0xff, 0xff, 0xff, 0x11, 0x00, 0x00, 0x00, 0x00, 0x00, 0x00, 0x11,
  0x0c, 0x00, 0x0c, 0x00, 0x0b, 0x00, 0x00, 0x00, 0x00, 0x00, 0x04, 0x00,
  0x0c, 0x00, 0x00, 0x00, 0x03, 0x00, 0x00, 0x00, 0x00, 0x00, 0x00, 0x03
};
