const unsigned char model[] __attribute__((aligned(4))) = {
  0x1c, 0x00, 0x00, 0x00, 0x54, 0x46, 0x4c, 0x33, 0x14, 0x00, 0x20, 0x00,
  0x1c, 0x00, 0x18, 0x00, 0x14, 0x00, 0x10, 0x00, 0x0c, 0x00, 0x00, 0x00,
  0x08, 0x00, 0x04, 0x00, 0x14, 0x00, 0x00, 0x00, 0x1c, 0x00, 0x00, 0x00,
  0x88, 0x00, 0x00, 0x00, 0xe0, 0x00, 0x00, 0x00, 0x38, 0x35, 0x00, 0x00,
  0x48, 0x35, 0x00, 0x00, 0x14, 0x40, 0x00, 0x00, 0x03, 0x00, 0x00, 0x00,
  0x01, 0x00, 0x00, 0x00, 0x04, 0x00, 0x00, 0x00, 0xbe, 0xc9, 0xff, 0xff,
  0x0c, 0x00, 0x00, 0x00, 0x1c, 0x00, 0x00, 0x00, 0x3c, 0x00, 0x00, 0x00,
  0x0f, 0x00, 0x00, 0x00, 0x73, 0x65, 0x72, 0x76, 0x69, 0x6e, 0x67, 0x5f,
  0x64, 0x65, 0x66, 0x61, 0x75, 0x6c, 0x74, 0x00, 0x01, 0x00, 0x00, 0x00,
  0x04, 0x00, 0x00, 0x00, 0x94, 0xff, 0xff, 0xff, 0x11, 0x00, 0x00, 0x00,
  0x04, 0x00, 0x00, 0x00, 0x08, 0x00, 0x00, 0x00, 0x64, 0x65, 0x6e, 0x73,
  0x65, 0x5f, 0x34, 0x30, 0x00, 0x00, 0x00, 0x00, 0x01, 0x00, 0x00, 0x00,
  0x04, 0x00, 0x00, 0x00, 0xa2, 0xca, 0xff, 0xff, 0x04, 0x00, 0x00, 0x00,
  0x08, 0x00, 0x00, 0x00, 0x69, 0x6e, 0x70, 0x75, 0x74, 0x5f, 0x31, 0x34,
  0x00, 0x00, 0x00, 0x00, 0x02, 0x00, 0x00, 0x00, 0x34, 0x00, 0x00, 0x00,
  0x04, 0x00, 0x00, 0x00, 0xdc, 0xff, 0xff, 0xff, 0x14, 0x00, 0x00, 0x00,
  0x04, 0x00, 0x00, 0x00, 0x13, 0x00, 0x00, 0x00, 0x43, 0x4f, 0x4e, 0x56,
  0x45, 0x52, 0x53, 0x49, 0x4f, 0x4e, 0x5f, 0x4d, 0x45, 0x54, 0x41, 0x44,
  0x41, 0x54, 0x41, 0x00, 0x08, 0x00, 0x0c, 0x00, 0x08, 0x00, 0x04, 0x00,
  0x08, 0x00, 0x00, 0x00, 0x13, 0x00, 0x00, 0x00, 0x04, 0x00, 0x00, 0x00,
  0x13, 0x00, 0x00, 0x00, 0x6d, 0x69, 0x6e, 0x5f, 0x72, 0x75, 0x6e, 0x74,
  0x69, 0x6d, 0x65, 0x5f, 0x76, 0x65, 0x72, 0x73, 0x69, 0x6f, 0x6e, 0x00,
  0x15, 0x00, 0x00, 0x00, 0x54, 0x34, 0x00, 0x00, 0x4c, 0x34, 0x00, 0x00,
  0x2c, 0x34, 0x00, 0x00, 0xfc, 0x33, 0x00, 0x00, 0xbc, 0x33, 0x00, 0x00,
  0x2c, 0x32, 0x00, 0x00, 0x10, 0x32, 0x00, 0x00, 0xc0, 0x31, 0x00, 0x00,
  0xa8, 0x31, 0x00, 0x00, 0x98, 0x01, 0x00, 0x00, 0xc8, 0x00, 0x00, 0x00,
  0xc0, 0x00, 0x00, 0x00, 0xb8, 0x00, 0x00, 0x00, 0xb0, 0x00, 0x00, 0x00,
  0xa8, 0x00, 0x00, 0x00, 0xa0, 0x00, 0x00, 0x00, 0x98, 0x00, 0x00, 0x00,
  0x90, 0x00, 0x00, 0x00, 0x88, 0x00, 0x00, 0x00, 0x68, 0x00, 0x00, 0x00,
  0x04, 0x00, 0x00, 0x00, 0x6e, 0xcb, 0xff, 0xff, 0x04, 0x00, 0x00, 0x00,
  0x54, 0x00, 0x00, 0x00, 0x0c, 0x00, 0x00, 0x00, 0x08, 0x00, 0x0e, 0x00,
  0x08, 0x00, 0x04, 0x00, 0x08, 0x00, 0x00, 0x00, 0x10, 0x00, 0x00, 0x00,
  0x24, 0x00, 0x00, 0x00, 0x00, 0x00, 0x06, 0x00, 0x08, 0x00, 0x04, 0x00,
  0x06, 0x00, 0x00, 0x00, 0x04, 0x00, 0x00, 0x00, 0x00, 0x00, 0x00, 0x00,
  0x00, 0x00, 0x0a, 0x00, 0x10, 0x00, 0x0c, 0x00, 0x08, 0x00, 0x04, 0x00,
  0x0a, 0x00, 0x00, 0x00, 0x02, 0x00, 0x00, 0x00, 0x02, 0x00, 0x00, 0x00,
  0x04, 0x00, 0x00, 0x00, 0x06, 0x00, 0x00, 0x00, 0x32, 0x2e, 0x31, 0x30,
  0x2e, 0x30, 0x00, 0x00, 0xce, 0xcb, 0xff, 0xff, 0x04, 0x00, 0x00, 0x00,
  0x10, 0x00, 0x00, 0x00, 0x31, 0x2e, 0x35, 0x2e, 0x30, 0x00, 0x00, 0x00,
  0x00, 0x00, 0x00, 0x00, 0x00, 0x00, 0x00, 0x00, 0xd0, 0xc1, 0xff, 0xff,
  0xd4, 0xc1, 0xff, 0xff, 0xd8, 0xc1, 0xff, 0xff, 0xdc, 0xc1, 0xff, 0xff,
  0xe0, 0xc1, 0xff, 0xff, 0xe4, 0xc1, 0xff, 0xff, 0xe8, 0xc1, 0xff, 0xff,
  0xec, 0xc1, 0xff, 0xff, 0x0a, 0xcc, 0xff, 0xff, 0x04, 0x00, 0x00, 0x00,
  0xc0, 0x00, 0x00, 0x00, 0x6c, 0x27, 0x45, 0x3e, 0x50, 0xbb, 0xfc, 0x3e,
  0xcc, 0xdf, 0x99, 0xbd, 0x81, 0xd8, 0x2f, 0x3f, 0x58, 0xa9, 0x5b, 0xbc,
  0x3e, 0x45, 0x41, 0x3f, 0xc0, 0x26, 0x04, 0x3f, 0xf7, 0xde, 0x42, 0xbf,
  0xc1, 0xd4, 0x82, 0xbf, 0x4b, 0x9c, 0x15, 0x3e, 0x45, 0xe5, 0x20, 0x3e,
  0x82, 0x8b, 0xf0, 0x3c, 0xed, 0x0d, 0xbf, 0xbe, 0x50, 0x84, 0x11, 0xbf,
  0xbd, 0x55, 0x50, 0xbf, 0xaa, 0xab, 0xc2, 0xbf, 0x88, 0xae, 0xfa, 0x3d,
  0xa1, 0xa7, 0xdb, 0x3e, 0x8a, 0x60, 0x1d, 0xbf, 0xe7, 0xb2, 0xb5, 0xbe,
  0xb7, 0xf2, 0x0e, 0x3f, 0xb8, 0x47, 0xcd, 0xbe, 0xb8, 0xed, 0x91, 0x3d,
  0xb8, 0x06, 0x07, 0x3d, 0xaf, 0x99, 0x9a, 0x3e, 0x1e, 0xcb, 0x37, 0x3e,
  0x98, 0xc7, 0xc1, 0x3e, 0x05, 0x44, 0x36, 0xbf, 0x35, 0xa2, 0x6e, 0xbe,
  0xd2, 0xd6, 0xe3, 0x3e, 0x0c, 0x69, 0x9c, 0x3e, 0x4c, 0xa0, 0x21, 0x3e,
  0x74, 0x37, 0x69, 0xbf, 0xef, 0x77, 0x27, 0xbf, 0x6a, 0x0e, 0x3a, 0xbd,
  0xba, 0xa6, 0x68, 0xbf, 0xb8, 0x47, 0x41, 0xbf, 0x75, 0x65, 0xef, 0x3e,
  0x30, 0x23, 0x5e, 0xbf, 0xf4, 0xac, 0xc9, 0x3e, 0xf8, 0x70, 0xe3, 0x3e,
  0x8c, 0xf5, 0x6e, 0xbf, 0xd2, 0xeb, 0x89, 0xbf, 0x19, 0x5c, 0x9c, 0x3d,
  0xb1, 0x1d, 0x3d, 0x3f, 0xa7, 0x15, 0x0c, 0x3f, 0xc8, 0xf7, 0x47, 0x3e,
  0x6a, 0xa7, 0xc6, 0x3e, 0xd6, 0xcc, 0xff, 0xff, 0x04, 0x00, 0x00, 0x00,
  0x00, 0x30, 0x00, 0x00, 0xc1, 0x84, 0x88, 0x3d, 0x0b, 0x95, 0xe0, 0xbe,
  0x46, 0xc1, 0xb5, 0xbe, 0x39, 0xe5, 0x57, 0xbe, 0x85, 0xcd, 0xac, 0xbe,
  0xe0, 0xf7, 0x62, 0xbe, 0x5d, 0xd1, 0x04, 0xbf, 0x0b, 0x8f, 0x93, 0xbe,
  0xa4, 0xdc, 0x0e, 0x3e, 0x92, 0x05, 0xaf, 0xbe, 0x8a, 0x07, 0xe0, 0xbe,
  0x57, 0x95, 0xed, 0xbd, 0x1b, 0x47, 0x17, 0xbf, 0x6b, 0xca, 0xbd, 0xbe,
  0x2c, 0xb7, 0x01, 0xbf, 0x26, 0x4e, 0x01, 0xbf, 0x6b, 0xf5, 0x1c, 0xbd,
  0xb0, 0x50, 0x9a, 0xbe, 0xc2, 0xf5, 0xda, 0xbe, 0x25, 0xf7, 0xf2, 0xbd,
  0x71, 0xea, 0x0d, 0xbf, 0xad, 0xea, 0xe5, 0xbe, 0x35, 0xb2, 0x07, 0xbf,
  0xd0, 0x50, 0x6b, 0xbe, 0x2d, 0x89, 0x59, 0x3e, 0x04, 0xd7, 0xff, 0xbe,
  0x63, 0x03, 0x2b, 0xbe, 0x55, 0x2c, 0xa3, 0xbe, 0x1d, 0x25, 0x0e, 0xbf,
  0x61, 0xb0, 0x83, 0xbe, 0xbf, 0x7b, 0xb7, 0xbe, 0x1c, 0xaf, 0xdb, 0xbe,
  0x7d, 0x65, 0x55, 0x3e, 0x42, 0x13, 0x0b, 0xbf, 0x6a, 0x30, 0xb9, 0xbe,
  0xdf, 0x96, 0x75, 0xbe, 0xa0, 0x54, 0x9f, 0xbe, 0xd9, 0xc5, 0xeb, 0xbe,
  0x77, 0x2b, 0xad, 0xbe, 0x51, 0x56, 0xb3, 0xbe, 0x4a, 0x38, 0x2e, 0x3e,
  0x66, 0x4b, 0x70, 0xbe, 0xf2, 0xe4, 0x12, 0xbe, 0x14, 0xbc, 0xd6, 0xbd,
  0xed, 0x30, 0x9e, 0xbd, 0x43, 0x4c, 0xdb, 0xbc, 0x57, 0x8e, 0x84, 0xbd,
  0x52, 0x61, 0x4e, 0xbd, 0x99, 0x4f, 0x90, 0x3e, 0x88, 0x28, 0x32, 0xbe,
  0x80, 0x90, 0x68, 0xbd, 0xbe, 0xe5, 0x98, 0x3c, 0xcc, 0x6e, 0x4b, 0xbe,
  0xcb, 0x9b, 0x64, 0xbe, 0x70, 0xad, 0x1a, 0xbd, 0x13, 0xc1, 0x0f, 0xbd,
  0x9b, 0x54, 0xb9, 0x3e, 0xae, 0x0e, 0x13, 0xbe, 0x58, 0xb0, 0x1c, 0x3d,
  0x10, 0x3c, 0xfc, 0x3d, 0x6b, 0xff, 0xad, 0x3d, 0x05, 0xa1, 0xbb, 0xbd,
  0x4a, 0x39, 0x81, 0x3d, 0xae, 0x7b, 0x56, 0xbe, 0xc4, 0x77, 0x98, 0x3e,
  0x83, 0x6f, 0x0d, 0x3d, 0x71, 0x23, 0x4b, 0xbb, 0x08, 0x93, 0xb6, 0xbd,
  0xf1, 0x4b, 0xf2, 0xbd, 0x2a, 0x27, 0x10, 0xbd, 0xe1, 0x54, 0x11, 0x3d,
  0xe7, 0x50, 0x29, 0xbc, 0x4a, 0x5d, 0x4c, 0x3e, 0x96, 0x31, 0xdd, 0x3d,
  0x5a, 0xad, 0xf1, 0x3d, 0xba, 0xb6, 0xc1, 0x3d, 0xdd, 0x70, 0x16, 0x3d,
  0x78, 0x6a, 0x13, 0x39, 0xa2, 0xc7, 0x9e, 0xbd, 0x35, 0xe6, 0x6f, 0x3d,
  0x04, 0x63, 0x09, 0x3e, 0x41, 0x90, 0x19, 0xbd, 0x05, 0xe6, 0x04, 0xbc,
  0x16, 0xdc, 0x02, 0x3c, 0x53, 0x3b, 0x6e, 0x3d, 0x14, 0xa7, 0xd0, 0x3d,
  0xaf, 0x09, 0x41, 0xbd, 0xa4, 0x8f, 0x30, 0x3e, 0x31, 0x2b, 0x0b, 0x3e,
  0x01, 0x02, 0xe9, 0x3c, 0x01, 0xbd, 0x6c, 0xbc, 0x22, 0x5e, 0x0d, 0xbe,
  0xc4, 0x13, 0x92, 0x3d, 0x30, 0xaf, 0xb0, 0xbc, 0xc0, 0xfa, 0x6a, 0xb8,
  0xe1, 0xb6, 0x3a, 0x3d, 0x52, 0xfe, 0x85, 0x3e, 0x23, 0xf4, 0x5f, 0x3d,
  0x93, 0x1f, 0xf6, 0x3d, 0x3e, 0x93, 0x8f, 0x3c, 0xac, 0x88, 0x2e, 0xbd,
  0x71, 0x8c, 0xaf, 0xbd, 0x90, 0xa5, 0xcd, 0x3d, 0x20, 0x70, 0x81, 0x3e,
  0x7f, 0x48, 0x3c, 0x3e, 0x49, 0xa2, 0xde, 0x3d, 0xe6, 0x1d, 0x14, 0xbc,
  0x70, 0xa2, 0x90, 0x3e, 0xc9, 0x22, 0x01, 0x3d, 0x4c, 0xae, 0x21, 0x3e,
  0x39, 0xf9, 0xa5, 0x3d, 0x31, 0x5d, 0x40, 0x3e, 0xdb, 0xae, 0xf6, 0x3d,
  0x14, 0x51, 0x98, 0x3d, 0x10, 0x3b, 0x96, 0x3d, 0x1e, 0x05, 0x84, 0xbd,
  0x42, 0x62, 0x60, 0xbd, 0x9d, 0xbf, 0x50, 0x3e, 0xae, 0xc6, 0x11, 0xbe,
  0xd6, 0x4b, 0x8d, 0xbd, 0x55, 0x74, 0x4d, 0x3e, 0x8f, 0xb7, 0x24, 0x3e,
  0x6c, 0xcc, 0x44, 0xbd, 0xf0, 0xcc, 0xc7, 0xbc, 0xfa, 0xd3, 0x01, 0x3d,
  0x34, 0xf5, 0xdc, 0x3d, 0x50, 0xe4, 0xc7, 0x3d, 0xe2, 0x36, 0x68, 0x3a,
  0x76, 0x07, 0xaf, 0x3e, 0x26, 0x1e, 0xb1, 0x3d, 0xa6, 0xb6, 0x67, 0x3e,
  0xae, 0x8e, 0x01, 0xbc, 0xe8, 0x70, 0xb0, 0x3d, 0x30, 0x22, 0x19, 0x3e,
  0xb2, 0x13, 0x53, 0xbd, 0xdb, 0x08, 0xcf, 0x3b, 0x0c, 0x0c, 0x35, 0x3e,
  0xe6, 0xe6, 0x21, 0x3d, 0xf8, 0xaa, 0xde, 0x3d, 0x85, 0x12, 0xeb, 0xbd,
  0x16, 0xec, 0xe5, 0x3d, 0x91, 0x2b, 0x2f, 0x3e, 0xa7, 0x0a, 0x22, 0x3e,
  0x44, 0xd2, 0x34, 0xbd, 0xe4, 0xf1, 0x45, 0x3e, 0x0a, 0x61, 0x7d, 0xbd,
  0xc6, 0x86, 0xbe, 0x3c, 0xf3, 0x36, 0x65, 0xbc, 0x7f, 0xe5, 0x1f, 0x3d,
  0x8b, 0x63, 0xb9, 0x3d, 0xdf, 0x23, 0x60, 0xbc, 0x83, 0xa4, 0x29, 0xbd,
  0x71, 0x8c, 0x69, 0xbd, 0xd7, 0x58, 0x85, 0x3e, 0x27, 0xa5, 0xf0, 0xbb,
  0xfa, 0x9e, 0x97, 0x3d, 0xc0, 0xdf, 0x45, 0x3d, 0x07, 0x2a, 0xa5, 0x3c,
  0x45, 0x87, 0x5b, 0x3d, 0xae, 0x10, 0x5f, 0x3e, 0xcf, 0x26, 0x80, 0x3e,
  0xec, 0xd4, 0xc3, 0x3c, 0xbf, 0x7f, 0xdf, 0x3d, 0x45, 0x39, 0x0b, 0xbe,
  0xd5, 0x1e, 0x16, 0xbe, 0x24, 0xe0, 0x5f, 0x3d, 0xc7, 0x16, 0x4d, 0x3c,
  0x18, 0x39, 0xc9, 0x3d, 0xb8, 0x82, 0x9c, 0x3e, 0xb8, 0x05, 0x8a, 0x3d,
  0x52, 0xa8, 0x1e, 0x3e, 0xa3, 0xb7, 0xa2, 0xbd, 0xca, 0x13, 0xbf, 0x3c,
  0x24, 0xd3, 0x52, 0x3e, 0xa5, 0xd3, 0xd9, 0x3c, 0xf6, 0x98, 0x0d, 0x3e,
  0x1b, 0xd6, 0x8b, 0x3e, 0x45, 0xd3, 0xee, 0xbc, 0xa3, 0x1e, 0xfb, 0x3d,
  0x53, 0xbb, 0x84, 0xbe, 0x6f, 0x7b, 0xcd, 0xbd, 0x4c, 0x35, 0x8b, 0x3c,
  0x48, 0x3a, 0xa8, 0x3c, 0xcb, 0x80, 0x70, 0x3d, 0x44, 0xa5, 0x2c, 0x3e,
  0x17, 0xe0, 0x3d, 0x3e, 0x60, 0xe7, 0x0e, 0xbd, 0x64, 0x4f, 0x82, 0x3c,
  0x95, 0xd5, 0x16, 0xbe, 0x8c, 0xf1, 0x3d, 0x3e, 0xe4, 0xdd, 0xe7, 0x3d,
  0x7c, 0x14, 0xd6, 0x3d, 0x67, 0xfe, 0x1e, 0x3d, 0x4b, 0x5e, 0x07, 0xbf,
  0x46, 0x62, 0xd5, 0xbe, 0xe1, 0xec, 0xea, 0xbe, 0xb9, 0x7c, 0x0d, 0xbf,
  0xb1, 0xb8, 0x14, 0xbf, 0x66, 0xb5, 0x27, 0xbf, 0x44, 0xa8, 0x00, 0xbf,
  0xb8, 0xf2, 0x84, 0x3e, 0x1f, 0x8a, 0x51, 0xbf, 0x89, 0x61, 0xf5, 0xbe,
  0x76, 0xd8, 0xd6, 0xbe, 0x3f, 0x9f, 0xd3, 0xbe, 0x48, 0x41, 0x05, 0xbf,
  0x19, 0xe9, 0xf1, 0xbe, 0x0f, 0xb3, 0x05, 0xbf, 0x0f, 0x05, 0xee, 0x3d,
  0x43, 0xb2, 0x37, 0xbe, 0x05, 0x1f, 0x98, 0xbe, 0x4c, 0xf5, 0xde, 0xbe,
  0x04, 0xfb, 0xef, 0xbe, 0xf9, 0x12, 0x99, 0xbd, 0x45, 0x53, 0xaa, 0xbe,
  0x00, 0x74, 0xd4, 0xbd, 0x76, 0x78, 0xcd, 0x3e, 0x40, 0x75, 0x36, 0xbe,
  0x44, 0xe2, 0xad, 0xbd, 0xd8, 0x1d, 0x0b, 0xbe, 0x06, 0x08, 0x02, 0x3e,
  0x1b, 0x44, 0x38, 0xbe, 0x2d, 0x99, 0xed, 0xbd, 0x1f, 0x41, 0x1d, 0xbe,
  0x75, 0x86, 0xb2, 0x3e, 0xa0, 0x3a, 0xf2, 0x3a, 0x71, 0x53, 0x09, 0x3e,
  0x6a, 0xb8, 0x09, 0xbe, 0x30, 0xfd, 0x88, 0xbc, 0xc6, 0x99, 0xdf, 0xbd,
  0xb5, 0x3f, 0x19, 0x3e, 0x2a, 0x15, 0xb4, 0xbc, 0x16, 0xa3, 0x85, 0x3e,
  0x89, 0x7d, 0x2e, 0x3e, 0x96, 0xc2, 0x3e, 0xbd, 0xf0, 0x52, 0x27, 0xbc,
  0xb3, 0x20, 0x4c, 0xbd, 0x7f, 0xfc, 0x3b, 0x3e, 0xa0, 0x74, 0xea, 0xbc,
  0xdc, 0x8a, 0x00, 0x3e, 0xe8, 0x72, 0x13, 0x3e, 0x87, 0xf2, 0x15, 0x3e,
  0x5c, 0x51, 0x3f, 0x3d, 0x10, 0xf6, 0x17, 0x3d, 0xbb, 0x59, 0xab, 0x3d,
  0xae, 0xa0, 0xf7, 0x3d, 0xdc, 0x18, 0xa3, 0x3d, 0x25, 0xa6, 0xb0, 0xbd,
  0x82, 0xdc, 0x4f, 0x3e, 0x09, 0xfc, 0x3d, 0xbd, 0x6e, 0xea, 0x87, 0xbd,
  0x4a, 0xf0, 0x09, 0x3d, 0xec, 0xd0, 0x24, 0x3d, 0xe4, 0x3a, 0xab, 0x3d,
  0xb0, 0x12, 0x27, 0x3e, 0xcf, 0xf0, 0xfa, 0x3d, 0xb1, 0xb0, 0xcc, 0x3c,
  0xfc, 0xdc, 0x98, 0x3d, 0x92, 0xd7, 0x3d, 0x3d, 0xe0, 0xe2, 0x3e, 0xbe,
  0xaf, 0xd3, 0x27, 0xbe, 0x25, 0x77, 0xdd, 0x3d, 0x6e, 0x4c, 0x3b, 0xbe,
  0xdf, 0xe4, 0xa9, 0xbc, 0x48, 0xc2, 0xc9, 0x3d, 0x21, 0x1b, 0x88, 0x3d,
  0x7c, 0xd3, 0x7c, 0x3d, 0x81, 0x07, 0x89, 0x3c, 0xfa, 0x5a, 0x83, 0xbd,
  0x18, 0x0e, 0x56, 0x3d, 0x47, 0xd8, 0x26, 0x3d, 0xff, 0x9e, 0x86, 0x3e,
  0x7e, 0xdc, 0x53, 0x3e, 0xc9, 0x46, 0x39, 0x3e, 0x7c, 0xef, 0xb1, 0x3b,
  0x02, 0x7a, 0x88, 0x3c, 0x60, 0x90, 0x24, 0x3e, 0xf0, 0x77, 0x6e, 0x3c,
  0xa9, 0x85, 0x44, 0x3e, 0xad, 0x88, 0xfe, 0xbc, 0x70, 0x9c, 0x03, 0x3e,
  0x11, 0x70, 0xaa, 0xbd, 0x7a, 0xc3, 0x1d, 0xbe, 0x5d, 0x30, 0x1f, 0xbd,
  0x07, 0xe4, 0x02, 0xbe, 0x2b, 0x61, 0xa5, 0x3d, 0xf2, 0x76, 0x1f, 0xbe,
  0x9a, 0x7c, 0x4b, 0x3d, 0x5b, 0xd8, 0x98, 0x3e, 0xe5, 0x86, 0x01, 0x3e,
  0xfb, 0x21, 0x98, 0x3d, 0xd7, 0xdd, 0x76, 0xbd, 0xba, 0xd4, 0xa3, 0x3d,
  0x9f, 0x9a, 0x3a, 0x3e, 0x2d, 0x4c, 0x0c, 0x3d, 0xdf, 0xa8, 0x2d, 0xbd,
  0x67, 0x60, 0x78, 0x3d, 0x6c, 0x1b, 0x25, 0x3d, 0x8e, 0x42, 0x25, 0x3d,
  0x0a, 0x03, 0x2e, 0xbe, 0x80, 0x26, 0x99, 0xbc, 0x56, 0xef, 0x01, 0x3d,
  0xe6, 0x73, 0x32, 0x3c, 0xe6, 0x47, 0xc8, 0x3d, 0x53, 0x8a, 0xb0, 0x3e,
  0xb5, 0xcd, 0xf1, 0xbc, 0x0f, 0x35, 0x32, 0xbd, 0x6c, 0x94, 0xf5, 0xbd,
  0x71, 0xb3, 0x56, 0xbe, 0x59, 0x14, 0x93, 0xbd, 0x18, 0x89, 0x3e, 0xbd,
  0x34, 0xd2, 0x9e, 0x3d, 0xe3, 0x0e, 0xa0, 0x3e, 0xb0, 0x5a, 0x04, 0xbc,
  0xeb, 0xd7, 0x3f, 0x3e, 0x1c, 0x1b, 0x13, 0xbe, 0x46, 0xfa, 0x3f, 0x3e,
  0x44, 0x25, 0xbe, 0xbb, 0xa2, 0x86, 0x87, 0xbb, 0xc2, 0x36, 0x0e, 0x3e,
  0x60, 0x33, 0x57, 0x3e, 0x79, 0xc1, 0xee, 0x3d, 0x8e, 0x8b, 0x0e, 0x3e,
  0x65, 0xba, 0x0b, 0x3d, 0x15, 0xcb, 0x4f, 0xbc, 0xee, 0x36, 0x5c, 0xbb,
  0x30, 0x7a, 0x10, 0xbe, 0x11, 0xf7, 0x27, 0x3e, 0x40, 0x23, 0xa5, 0x3e,
  0x67, 0xe1, 0xf8, 0x3c, 0x0b, 0x93, 0xd2, 0x3d, 0xe4, 0xff, 0x0a, 0x3c,
  0xfb, 0xf5, 0xfc, 0xbd, 0x24, 0x11, 0x26, 0x3c, 0x88, 0x7e, 0x0a, 0xbd,
  0xb1, 0xf6, 0x68, 0xbd, 0x1b, 0xaf, 0x15, 0x3e, 0xbc, 0xcc, 0x9b, 0x3d,
  0xee, 0x47, 0x4b, 0x3e, 0x4b, 0xe8, 0x52, 0x3c, 0x58, 0x09, 0xa0, 0xbd,
  0x19, 0xca, 0xfc, 0xbc, 0x63, 0x7e, 0x40, 0xbd, 0x9f, 0xb8, 0xf3, 0x3d,
  0x71, 0x2d, 0xf0, 0x3d, 0xf5, 0x21, 0x72, 0xbd, 0x3d, 0xc5, 0xc9, 0x3b,
  0x93, 0x4e, 0xd7, 0xbc, 0xf7, 0xaf, 0x8a, 0xbd, 0xbd, 0x94, 0x61, 0xbd,
  0x49, 0x94, 0xd8, 0xbc, 0x7d, 0x13, 0x2f, 0x3d, 0xe1, 0x01, 0xeb, 0xbb,
  0x96, 0x26, 0x52, 0x3d, 0xcb, 0xcc, 0x60, 0x3c, 0x55, 0xda, 0x6a, 0xbd,
  0x24, 0xe1, 0x47, 0xbd, 0x74, 0xa3, 0xe5, 0x3d, 0x8a, 0x47, 0xac, 0xbd,
  0x1a, 0x74, 0x81, 0x3d, 0x67, 0x4e, 0x0c, 0x3e, 0xd5, 0x99, 0x24, 0xbe,
  0x3d, 0xdf, 0xac, 0x3d, 0xf5, 0xcc, 0x26, 0xbe, 0x04, 0x14, 0x38, 0xbe,
  0x4d, 0x5d, 0x8b, 0xbd, 0x04, 0xb0, 0x7c, 0x3d, 0xfa, 0x0d, 0xae, 0x3d,
  0xc7, 0xf8, 0xaa, 0x3e, 0x97, 0x14, 0x34, 0x3d, 0x6b, 0x22, 0x07, 0x3d,
  0x00, 0xcc, 0x30, 0xbe, 0xba, 0x5b, 0x14, 0xbe, 0xc8, 0x07, 0xf2, 0xbc,
  0xb3, 0x47, 0x5c, 0xbe, 0xe7, 0x79, 0xd2, 0x3d, 0xb6, 0xd9, 0x61, 0x3e,
  0x89, 0x22, 0x66, 0xbd, 0xe3, 0xc8, 0x85, 0x3d, 0x0d, 0x44, 0x6c, 0x3c,
  0x26, 0xd8, 0xc7, 0xbc, 0xd7, 0xc6, 0x50, 0x3d, 0x49, 0x48, 0xe0, 0xbd,
  0x23, 0xbc, 0x96, 0x3d, 0xb1, 0xda, 0xac, 0xbd, 0xdf, 0x59, 0x30, 0x3e,
  0xaa, 0x5c, 0x71, 0x3e, 0x5c, 0xf2, 0x3a, 0x3f, 0x9d, 0xf9, 0x81, 0x3e,
  0xc3, 0xa6, 0x9d, 0xbc, 0x3f, 0x67, 0x5a, 0x3e, 0x0f, 0x12, 0x34, 0x3e,
  0x58, 0x54, 0xf4, 0xbd, 0xe9, 0xa4, 0x8c, 0x3e, 0x29, 0xcd, 0x60, 0x3e,
  0x4a, 0xe8, 0x23, 0x3f, 0x53, 0xba, 0xa4, 0xbd, 0x3e, 0x13, 0x26, 0x3c,
  0xbc, 0x32, 0xe9, 0x3c, 0xc1, 0x67, 0xd7, 0x3d, 0x17, 0x88, 0xaf, 0x3d,
  0x07, 0x38, 0x08, 0xbe, 0x79, 0x14, 0xa4, 0xbd, 0xae, 0x4c, 0x1c, 0x3f,
  0x79, 0x80, 0x4d, 0x3d, 0x25, 0xf8, 0x92, 0xbd, 0xd3, 0xcc, 0x32, 0x3d,
  0xcc, 0x9f, 0x06, 0xbe, 0x48, 0xe6, 0xbe, 0xbd, 0x29, 0xe9, 0x21, 0xbd,
  0x8b, 0xdd, 0xba, 0xbc, 0x94, 0x4c, 0xd4, 0x3d, 0xff, 0x0d, 0xf8, 0xbd,
  0xbb, 0x1f, 0xb4, 0x3d, 0x48, 0x59, 0xd1, 0x3d, 0x6c, 0x3e, 0x38, 0x3a,
  0xc4, 0x91, 0x9d, 0xba, 0x90, 0x24, 0x46, 0xbd, 0xde, 0x96, 0xb5, 0x3d,
  0x29, 0xda, 0x15, 0x3e, 0x6d, 0xe1, 0x0a, 0xbe, 0x4c, 0xb5, 0x82, 0x3d,
  0x04, 0x11, 0x02, 0xbe, 0xa1, 0x52, 0x32, 0x3b, 0x01, 0xfa, 0xdf, 0x3d,
  0x1a, 0x2c, 0x0c, 0xbd, 0x1c, 0xaa, 0x32, 0x3e, 0xbb, 0x13, 0xd8, 0x3e,
  0x21, 0x13, 0x8b, 0x3e, 0xb1, 0xc6, 0x42, 0xbc, 0x0f, 0x59, 0xa5, 0x3d,
  0xbf, 0xef, 0xc0, 0x3d, 0xd7, 0xbb, 0x77, 0xbe, 0xff, 0x3c, 0x89, 0x3d,
  0x79, 0xc7, 0x25, 0x3d, 0xa0, 0xde, 0x5e, 0x3e, 0x80, 0xfa, 0x32, 0xbe,
  0x5d, 0x0e, 0xf5, 0x3d, 0x14, 0xda, 0x00, 0x3d, 0xe0, 0x59, 0x8f, 0x3c,
  0x2e, 0xbe, 0x96, 0xbe, 0x8f, 0x0c, 0xd4, 0x3b, 0x05, 0x2d, 0x9a, 0xbd,
  0x5a, 0x64, 0xd1, 0x3c, 0xd8, 0x08, 0x77, 0xbd, 0x79, 0x9f, 0x37, 0xbd,
  0x45, 0x75, 0xaa, 0x3c, 0xe8, 0x94, 0x2b, 0xbd, 0x60, 0x15, 0x82, 0x3d,
  0xbc, 0x69, 0x0e, 0xbd, 0x93, 0x8a, 0xda, 0x3d, 0x51, 0x62, 0x92, 0x3e,
  0xf7, 0xd2, 0xc3, 0x3d, 0x19, 0x01, 0x6f, 0xbd, 0xfc, 0x30, 0x07, 0x3d,
  0x89, 0x23, 0x3e, 0x3d, 0xb1, 0xd3, 0x34, 0xbe, 0xf4, 0x9e, 0xa0, 0x3d,
  0x07, 0x82, 0xb2, 0xbd, 0x40, 0x4f, 0xa0, 0x3e, 0x36, 0x0d, 0xec, 0x3b,
  0xf8, 0xc3, 0x21, 0x3d, 0xe6, 0x32, 0xd2, 0x3c, 0xb7, 0x4d, 0x85, 0xbd,
  0x43, 0x5c, 0x6f, 0xbe, 0xed, 0x04, 0x6c, 0x3c, 0x2f, 0x13, 0xbc, 0x3c,
  0x74, 0x89, 0x76, 0xbc, 0x55, 0xa8, 0x3b, 0xbc, 0xfd, 0xae, 0xab, 0x3d,
  0x44, 0xd1, 0x2e, 0xbd, 0xbb, 0x08, 0xb1, 0xbc, 0x08, 0x01, 0xc9, 0x3d,
  0x93, 0x13, 0x17, 0xbe, 0xd0, 0xe7, 0x02, 0xbe, 0xec, 0x33, 0x80, 0x3e,
  0x90, 0xf8, 0x92, 0x3d, 0x09, 0xec, 0x10, 0xbe, 0x51, 0x58, 0x89, 0xbb,
  0xbb, 0x74, 0xdb, 0x3c, 0xb6, 0x2e, 0xdf, 0xbd, 0xce, 0xa7, 0xa8, 0x3d,
  0xa7, 0xb3, 0x11, 0x3d, 0x03, 0x7e, 0x83, 0x3e, 0x08, 0x4e, 0x5f, 0xbb,
  0x0e, 0x3e, 0xd9, 0xbd, 0x94, 0x07, 0xb4, 0xbd, 0x25, 0x6d, 0x97, 0xbd,
  0x36, 0x3e, 0xd4, 0xbd, 0xdf, 0x48, 0x1e, 0x3d, 0xd3, 0xb1, 0xad, 0xbc,
  0xf8, 0x60, 0x80, 0x3c, 0x40, 0x56, 0x33, 0xbe, 0x50, 0x4a, 0x54, 0xbc,
  0x9e, 0x53, 0x9b, 0xbd, 0x86, 0xbe, 0x93, 0xbd, 0x00, 0x26, 0x95, 0x3d,
  0x63, 0x64, 0x01, 0xbe, 0xda, 0xbb, 0x2c, 0x3e, 0x03, 0x51, 0x34, 0x3e,
  0xe0, 0x81, 0x35, 0x3d, 0xcb, 0x56, 0xcd, 0xbc, 0xc6, 0xa4, 0x07, 0x3e,
  0x9e, 0x86, 0x0b, 0xbe, 0x52, 0x36, 0xda, 0xbd, 0x23, 0xfa, 0xa0, 0xbd,
  0xf5, 0x2c, 0x9b, 0x3c, 0x0f, 0x49, 0x5d, 0x3e, 0xbb, 0x25, 0xb8, 0xbd,
  0x29, 0x44, 0x93, 0xbb, 0xed, 0x9d, 0x49, 0xbd, 0x9e, 0xd5, 0x9c, 0x3d,
  0xed, 0x47, 0xc8, 0xbd, 0x3b, 0x5a, 0xf4, 0x3d, 0x77, 0xd9, 0xc0, 0xbd,
  0xb0, 0xdd, 0xae, 0xbd, 0x26, 0x6c, 0x4c, 0xbe, 0xf2, 0x9c, 0xc3, 0xbc,
  0x41, 0x87, 0x3c, 0xbe, 0xb3, 0xd7, 0x3c, 0xbc, 0x97, 0x8b, 0x12, 0x3d,
  0xdf, 0x0e, 0x07, 0x3d, 0x82, 0xa9, 0x22, 0x3e, 0xa1, 0x73, 0x38, 0x3e,
  0x8c, 0xda, 0xa4, 0x3d, 0x76, 0xb3, 0xfd, 0x3d, 0x80, 0x63, 0xb9, 0x3d,
  0xa4, 0x93, 0x07, 0x3d, 0x73, 0x96, 0x10, 0xbe, 0xc0, 0x9c, 0xfc, 0xbc,
  0xe3, 0xd7, 0xdb, 0xbc, 0xdc, 0x87, 0x1f, 0xbd, 0x63, 0xcc, 0xa1, 0xbd,
  0x89, 0xd2, 0xa5, 0x3b, 0xcb, 0x50, 0xcb, 0xbd, 0xfb, 0xa3, 0xb7, 0x3d,
  0x09, 0x62, 0x65, 0xbe, 0x54, 0x92, 0x9a, 0x3d, 0x0e, 0xa9, 0x49, 0xbd,
  0x4d, 0xb6, 0x36, 0xbe, 0x23, 0x8b, 0x0e, 0xbe, 0x81, 0xef, 0x86, 0x3c,
  0xce, 0x84, 0xc4, 0xbd, 0x86, 0xd9, 0x0c, 0x3d, 0x42, 0x99, 0x41, 0xbd,
  0x40, 0xb9, 0xec, 0x3d, 0xc3, 0x4f, 0x43, 0x3e, 0x99, 0x74, 0xad, 0x3e,
  0xf4, 0x70, 0x24, 0x3d, 0x4f, 0x48, 0x8b, 0x3d, 0x31, 0x1d, 0x07, 0xbe,
  0x58, 0x1e, 0xa8, 0x3d, 0x94, 0x14, 0x93, 0xbe, 0x75, 0x4b, 0xc5, 0xbc,
  0x0e, 0xbc, 0x3f, 0xbd, 0x82, 0x1d, 0x6a, 0x3d, 0x1a, 0xa5, 0x54, 0xbe,
  0x02, 0x07, 0xbf, 0x3c, 0xbb, 0xcf, 0x6e, 0xbe, 0x67, 0x1f, 0x1b, 0x3e,
  0xc2, 0x29, 0x6a, 0xbe, 0x9b, 0x83, 0x08, 0x3e, 0xf7, 0xfd, 0x3d, 0xbd,
  0x52, 0x7b, 0x54, 0xbe, 0xf4, 0xec, 0x8f, 0xbe, 0x60, 0xa6, 0x72, 0x3c,
  0xed, 0xdd, 0x84, 0xbe, 0xa9, 0x6a, 0xbb, 0x3d, 0x93, 0x89, 0x4b, 0xbd,
  0x6b, 0x31, 0x45, 0x3e, 0xfd, 0xde, 0x79, 0x3e, 0xa0, 0xc0, 0x02, 0x3e,
  0xfe, 0x84, 0xf5, 0xbd, 0xbf, 0x08, 0x9f, 0x3d, 0x13, 0x75, 0xf3, 0x3c,
  0x9d, 0x16, 0x53, 0x3e, 0x18, 0x10, 0xd0, 0x3a, 0xa7, 0xa8, 0x95, 0x3d,
  0x71, 0x96, 0x6e, 0x3e, 0xa7, 0xb4, 0x65, 0x3d, 0xcd, 0x38, 0xa7, 0x3d,
  0xf7, 0x56, 0x28, 0x3e, 0x15, 0x94, 0x70, 0xbe, 0xed, 0x0b, 0x91, 0x3e,
  0x14, 0xb6, 0xa9, 0x3c, 0xd3, 0x9a, 0xd6, 0x3e, 0xeb, 0xeb, 0xff, 0x3d,
  0xa0, 0xc4, 0x2f, 0x3e, 0x69, 0xee, 0x00, 0x3e, 0xd5, 0x4a, 0x9b, 0x3e,
  0xa4, 0xc8, 0x72, 0xbe, 0x5b, 0x8d, 0xc7, 0x3e, 0xe0, 0x33, 0x06, 0xbe,
  0x76, 0x22, 0x06, 0x3e, 0x80, 0x39, 0x0a, 0xbe, 0xd5, 0x8c, 0x0e, 0x3f,
  0x70, 0xa3, 0x13, 0xbf, 0x87, 0xb1, 0xfa, 0xbd, 0x5b, 0xba, 0x4f, 0xbf,
  0x1a, 0xbf, 0x1d, 0xbd, 0xd2, 0x70, 0x24, 0x3e, 0xba, 0x55, 0x88, 0xbe,
  0xf4, 0x5f, 0x0d, 0xbe, 0x80, 0x48, 0x4b, 0x3e, 0x4f, 0xec, 0xf0, 0xbd,
  0x86, 0xa7, 0xc7, 0xbe, 0xa4, 0xd4, 0xb1, 0xbe, 0x71, 0xa8, 0x38, 0xbe,
  0x8b, 0x58, 0x43, 0x3e, 0xa5, 0x10, 0x26, 0xbe, 0x66, 0xb2, 0x10, 0x3e,
  0x5c, 0x84, 0x5c, 0x3c, 0x5b, 0x90, 0x49, 0x3d, 0x62, 0x77, 0x58, 0xbd,
  0xa0, 0x54, 0x54, 0xbe, 0x5c, 0x86, 0x4f, 0x3d, 0xfc, 0x25, 0xfd, 0xbd,
  0x1c, 0x50, 0x64, 0xbf, 0xd0, 0x57, 0x05, 0xbf, 0x63, 0x83, 0xff, 0xbd,
  0x7f, 0xe3, 0x2e, 0xbf, 0x8f, 0x78, 0x23, 0xbf, 0xcd, 0xcd, 0x30, 0xbf,
  0xbc, 0x67, 0x34, 0xbf, 0xf7, 0x8f, 0x15, 0x3e, 0x49, 0xf6, 0x78, 0xbe,
  0xb9, 0x1e, 0x95, 0x3d, 0x42, 0x92, 0x65, 0x3e, 0xef, 0xf0, 0x1d, 0xbe,
  0xaa, 0xdf, 0x87, 0xbd, 0xe6, 0xed, 0x1e, 0xbe, 0xa2, 0x03, 0xe2, 0x3d,
  0x2b, 0x40, 0x00, 0x3e, 0xa4, 0xef, 0xad, 0xbd, 0x20, 0x46, 0x9f, 0x3d,
  0xd7, 0x82, 0x88, 0xbd, 0x1a, 0x30, 0x3a, 0xbe, 0x86, 0x1a, 0x83, 0xbd,
  0xde, 0xc4, 0x38, 0xbe, 0xad, 0x03, 0x18, 0xbd, 0x8a, 0x60, 0xa3, 0x3e,
  0x66, 0xdd, 0xa4, 0xbd, 0xf7, 0xed, 0x75, 0xbe, 0x94, 0x0e, 0xa7, 0x3d,
  0x91, 0x78, 0x57, 0x3e, 0x7e, 0xb2, 0x81, 0xbe, 0xdc, 0xea, 0xdd, 0x3d,
  0xfa, 0xc2, 0xc9, 0xbc, 0xe4, 0x4a, 0x42, 0x3e, 0xd6, 0xa4, 0xa6, 0xbd,
  0x2d, 0x78, 0xbb, 0xbb, 0xda, 0x91, 0x26, 0x3c, 0x21, 0xe5, 0x09, 0xbe,
  0xc5, 0xd4, 0x23, 0xbe, 0x7f, 0x9c, 0xfd, 0xbc, 0x89, 0x7c, 0xb8, 0xbd,
  0x6c, 0x76, 0x89, 0xbc, 0x78, 0xc7, 0x1a, 0xbe, 0x99, 0x62, 0x55, 0xbd,
  0x25, 0xad, 0x95, 0xbd, 0x21, 0x5d, 0xd8, 0xbd, 0x2b, 0xdd, 0x97, 0xbd,
  0xbd, 0xca, 0xb2, 0xbd, 0x34, 0x9b, 0xa9, 0x3c, 0x32, 0x7a, 0xce, 0x3e,
  0x34, 0x0e, 0x6b, 0x3d, 0x3a, 0x61, 0x84, 0x3d, 0x94, 0x65, 0x19, 0x3e,
  0x4d, 0xff, 0x66, 0x3e, 0x46, 0xe8, 0x6c, 0xbd, 0x8a, 0x2b, 0x8b, 0x3e,
  0x1f, 0x84, 0x47, 0x3e, 0x7d, 0xc0, 0x73, 0x3d, 0x45, 0x70, 0x1c, 0xbd,
  0xb9, 0xf1, 0xd9, 0xbd, 0x3f, 0xdd, 0xd1, 0xbd, 0x41, 0x69, 0x69, 0xbe,
  0x16, 0xf4, 0xb8, 0x3c, 0x2a, 0xc4, 0x5c, 0xbc, 0xe3, 0x9f, 0xcf, 0x3c,
  0xea, 0x4f, 0x8a, 0x3c, 0x95, 0x5c, 0xed, 0xbd, 0x26, 0xcf, 0x91, 0x3c,
  0x00, 0xb5, 0xd1, 0x3c, 0xb9, 0xfc, 0xa0, 0xbe, 0x3b, 0x36, 0x3a, 0x3d,
  0x98, 0x10, 0x8c, 0xbd, 0x95, 0x47, 0xfd, 0x3c, 0xc7, 0x48, 0x70, 0x3e,
  0x0a, 0xfe, 0x68, 0x3d, 0xc8, 0x0b, 0x43, 0x3e, 0x5c, 0x2e, 0xf0, 0x3d,
  0x81, 0xd0, 0x66, 0x3e, 0xc9, 0x85, 0x07, 0xbd, 0xcc, 0x62, 0x0e, 0x3e,
  0x29, 0xdc, 0x7b, 0x3d, 0x65, 0xcc, 0xd0, 0x3b, 0xb3, 0x40, 0x03, 0xbe,
  0xfd, 0xcc, 0x12, 0xbc, 0x63, 0xdc, 0xe3, 0xbd, 0x22, 0x2d, 0xa2, 0xbd,
  0x46, 0xd7, 0x97, 0x3c, 0x71, 0x8e, 0x63, 0xbd, 0xa4, 0xac, 0xa2, 0xbd,
  0x22, 0x9a, 0x8c, 0xbd, 0x2c, 0x79, 0xb8, 0xbd, 0x96, 0x46, 0x53, 0xbd,
  0x58, 0x6a, 0x14, 0x3e, 0x27, 0x72, 0xfc, 0xbd, 0x23, 0x56, 0xa5, 0xbc,
  0xcb, 0xcc, 0xe7, 0x39, 0xc0, 0xa6, 0x4b, 0xbd, 0x03, 0x0f, 0x52, 0x3e,
  0x13, 0xf7, 0x8a, 0x3d, 0xe8, 0x4d, 0xc3, 0xbb, 0x61, 0x4f, 0x79, 0x3e,
  0x0f, 0x79, 0xd7, 0x3d, 0x30, 0xfc, 0x03, 0x3e, 0xf0, 0x7c, 0x19, 0x3e,
  0x34, 0x49, 0x1e, 0x3e, 0x17, 0x48, 0xe3, 0xbd, 0x28, 0xbf, 0xa7, 0x3c,
  0xbc, 0xd5, 0x7e, 0x3d, 0xaa, 0x55, 0x09, 0xbe, 0xd8, 0xcb, 0x09, 0xbd,
  0xeb, 0x0b, 0x0a, 0xbd, 0xfb, 0x35, 0x18, 0xbe, 0x66, 0xac, 0x23, 0x3d,
  0xdb, 0xcb, 0x8e, 0x3c, 0x73, 0xf9, 0x2a, 0xbd, 0x35, 0xce, 0x24, 0xbd,
  0x65, 0x0d, 0xac, 0x3d, 0x26, 0x22, 0x19, 0xbe, 0x68, 0x5d, 0x86, 0xbd,
  0x0d, 0xb5, 0x83, 0xbd, 0x3e, 0x04, 0xb7, 0xbc, 0x45, 0x01, 0x0f, 0xbc,
  0x68, 0xaf, 0xbe, 0x3d, 0xe8, 0x0a, 0x24, 0x3e, 0x5e, 0xa5, 0xd1, 0x3d,
  0x18, 0x3d, 0x43, 0x3e, 0x09, 0x4c, 0xdc, 0xb9, 0x42, 0xce, 0xad, 0x3d,
  0xaa, 0x7f, 0x99, 0x3d, 0x3c, 0xda, 0xb2, 0x3d, 0x49, 0xff, 0x09, 0x3d,
  0x81, 0xec, 0x2b, 0x3b, 0xf1, 0x0b, 0xa8, 0xbe, 0xc6, 0xb5, 0x4f, 0xbe,
  0x89, 0xbc, 0x2c, 0xbd, 0xfc, 0x67, 0xff, 0xbd, 0x9a, 0x7b, 0x76, 0x3d,
  0x04, 0x13, 0x19, 0x3e, 0x19, 0xef, 0x5c, 0xbc, 0x82, 0x82, 0xb6, 0xba,
  0x01, 0xd3, 0x18, 0xbe, 0x72, 0xee, 0x7e, 0xbe, 0x7b, 0x74, 0x32, 0xbd,
  0xcc, 0xdb, 0x92, 0xbd, 0x82, 0x42, 0x58, 0xbd, 0xae, 0xee, 0x2a, 0x3e,
  0x66, 0x96, 0x90, 0x3c, 0x51, 0x3d, 0x26, 0x3e, 0x1a, 0x91, 0x8d, 0x3d,
  0x25, 0xba, 0x7c, 0x3d, 0xca, 0xf1, 0x09, 0x3e, 0x72, 0x82, 0x4c, 0x3e,
  0x28, 0x72, 0x8f, 0x3d, 0x42, 0x7a, 0x5a, 0x3c, 0x41, 0x9d, 0x45, 0xbd,
  0xf6, 0x2c, 0x1b, 0xbd, 0x38, 0xf1, 0x08, 0xbf, 0x86, 0x58, 0xc3, 0xbe,
  0x53, 0xd8, 0x0a, 0x3c, 0x46, 0x19, 0x78, 0xbe, 0xb6, 0x33, 0xf0, 0xbb,
  0x91, 0x26, 0x76, 0xbe, 0x2c, 0x25, 0xea, 0xbc, 0x10, 0x02, 0xc2, 0xbd,
  0xe9, 0xf8, 0x11, 0xbf, 0x62, 0x7a, 0x83, 0xbe, 0x5d, 0xba, 0xeb, 0x3d,
  0x93, 0x2e, 0x5c, 0xbe, 0x23, 0xd6, 0x45, 0x3d, 0xdc, 0x26, 0xcf, 0xbd,
  0x3a, 0xa4, 0x3f, 0x3e, 0xac, 0x84, 0x3e, 0x3e, 0x2a, 0x5e, 0xe4, 0xbe,
  0x0f, 0x0d, 0x36, 0x3d, 0xef, 0xe8, 0x87, 0x3e, 0x34, 0x0e, 0x53, 0xbc,
  0x65, 0x60, 0x4f, 0x3e, 0xe3, 0x07, 0x0a, 0xbc, 0xd2, 0x0f, 0x06, 0xbe,
  0xb3, 0x7e, 0xd2, 0xbc, 0xbe, 0x8c, 0x21, 0xbf, 0x59, 0x22, 0x7d, 0xbe,
  0x85, 0xf1, 0x50, 0x3b, 0xd3, 0x03, 0xc8, 0xbe, 0x9f, 0x5c, 0x1c, 0x3d,
  0x38, 0xd1, 0x2f, 0xbe, 0x40, 0x5d, 0x32, 0xbe, 0x0f, 0x94, 0x30, 0xbe,
  0xa5, 0xf5, 0x2b, 0xbf, 0xff, 0x1f, 0x68, 0xbe, 0xae, 0x3a, 0x17, 0xbe,
  0xfa, 0x58, 0xb0, 0xbe, 0xbb, 0xc8, 0x3c, 0xbe, 0xb1, 0xac, 0x4b, 0xbe,
  0xa0, 0xed, 0x0d, 0x3e, 0xe8, 0x33, 0xc6, 0x3d, 0x88, 0xd3, 0xe2, 0xbe,
  0x68, 0xef, 0x05, 0xbc, 0x01, 0xe1, 0xb3, 0x3d, 0xed, 0x3e, 0x70, 0xbd,
  0x3e, 0xeb, 0xbb, 0x3d, 0x98, 0xbc, 0xac, 0x3c, 0x59, 0x97, 0x03, 0xbe,
  0x09, 0x56, 0x20, 0x3d, 0x5d, 0x14, 0xe8, 0xbe, 0x70, 0x7b, 0x08, 0xbc,
  0xb0, 0x38, 0x6f, 0xbb, 0x04, 0x29, 0x55, 0xbe, 0x9d, 0x26, 0xab, 0xbd,
  0x4b, 0x78, 0x36, 0x3e, 0x8c, 0xe7, 0xe8, 0xbd, 0x9c, 0x39, 0xf1, 0x3d,
  0xe9, 0x9e, 0x8c, 0xbe, 0xd6, 0x3c, 0xb0, 0x3c, 0x38, 0x22, 0x4d, 0xbe,
  0x58, 0xd3, 0x52, 0xbe, 0x57, 0x73, 0xef, 0xbd, 0x05, 0x7e, 0xa8, 0xbd,
  0xed, 0xc4, 0x49, 0xbd, 0x8c, 0x7a, 0xc1, 0x3b, 0xe0, 0x0f, 0xc3, 0xbe,
  0x08, 0xe8, 0x80, 0xbe, 0xe9, 0x52, 0x42, 0x3e, 0x05, 0xf3, 0x59, 0xbe,
  0x60, 0x26, 0x18, 0x3c, 0x56, 0x0b, 0x6e, 0x3e, 0xc3, 0x71, 0xc5, 0xbd,
  0x87, 0xad, 0x52, 0x3e, 0xc6, 0x64, 0xbc, 0xbd, 0x96, 0x26, 0x12, 0x3e,
  0x10, 0x5f, 0xd9, 0x3d, 0xfd, 0x06, 0x12, 0xbd, 0x4f, 0xd7, 0xc8, 0xba,
  0x93, 0xaf, 0x57, 0x3e, 0x7c, 0xb6, 0x05, 0x3d, 0xb7, 0x51, 0x28, 0x3e,
  0x64, 0xc3, 0x27, 0xbd, 0xc7, 0x5b, 0x08, 0x3e, 0xb6, 0x87, 0xf6, 0x3c,
  0xa1, 0xf1, 0x1b, 0xbe, 0x18, 0x8f, 0xe4, 0x3d, 0xf5, 0xd1, 0x35, 0xbd,
  0x7c, 0x66, 0x78, 0xbd, 0x55, 0x32, 0xae, 0xbd, 0x0f, 0xff, 0xe3, 0xbe,
  0xda, 0xc9, 0x99, 0xbe, 0x1b, 0x05, 0x79, 0xbd, 0x4b, 0xde, 0x90, 0xbe,
  0xd8, 0x98, 0x99, 0x3d, 0x15, 0xf6, 0xbe, 0x3d, 0x74, 0x09, 0x26, 0x3d,
  0x12, 0x3e, 0xa9, 0x3d, 0xf7, 0xd1, 0x0e, 0xbd, 0xd9, 0xdd, 0xbe, 0x3d,
  0xcc, 0x26, 0x14, 0xbc, 0xa1, 0xba, 0xe0, 0xbc, 0x19, 0xe5, 0x19, 0x3d,
  0xe4, 0x68, 0x3c, 0x3e, 0xc8, 0x20, 0x46, 0xbd, 0x36, 0xbe, 0x96, 0x3d,
  0x4c, 0xd1, 0x6d, 0x3c, 0x61, 0x93, 0x58, 0x3e, 0x53, 0x9b, 0x06, 0x3e,
  0x31, 0x01, 0x8a, 0xbb, 0xe8, 0xc2, 0x0a, 0x3e, 0xe5, 0x07, 0x7b, 0x3d,
  0xc2, 0xff, 0x7a, 0xbd, 0xfb, 0xbb, 0x84, 0xbd, 0x66, 0xe7, 0x82, 0xbe,
  0x23, 0x52, 0x69, 0xbe, 0xa2, 0x11, 0x4f, 0xbd, 0xf4, 0x61, 0xee, 0xbd,
  0xa7, 0x96, 0x3b, 0xbd, 0xc0, 0xeb, 0xf9, 0x3d, 0x67, 0xe3, 0x85, 0x3d,
  0x1a, 0xcf, 0x14, 0x3e, 0x59, 0xce, 0x9e, 0x3d, 0x4c, 0x42, 0x32, 0x3d,
  0x61, 0x54, 0x4a, 0xbc, 0x5a, 0x5d, 0x9f, 0xbc, 0xdd, 0x56, 0x06, 0x3e,
  0xb7, 0xfd, 0x14, 0x3e, 0xf5, 0x3a, 0x64, 0xbd, 0x03, 0x71, 0xeb, 0x3d,
  0x43, 0xe7, 0x15, 0x3e, 0x84, 0xbd, 0x2b, 0xbb, 0xdf, 0x6b, 0x2e, 0x3d,
  0xbd, 0xb8, 0x85, 0x3d, 0xee, 0xe3, 0xc7, 0x3c, 0xe7, 0x5e, 0xad, 0x3d,
  0x40, 0xe0, 0x91, 0xbd, 0x3f, 0x77, 0xde, 0x3c, 0xd5, 0xe4, 0x06, 0xbe,
  0x1b, 0x48, 0x66, 0xbe, 0x14, 0x0a, 0x04, 0x3d, 0x81, 0x19, 0x7e, 0xbe,
  0x1d, 0xb1, 0x24, 0x3d, 0x26, 0xb5, 0xd4, 0x3d, 0x31, 0x4b, 0x88, 0x3d,
  0x2e, 0xa1, 0x1a, 0xbc, 0xfd, 0x8d, 0x1f, 0xbd, 0x46, 0xfe, 0xa2, 0x3c,
  0x72, 0xe8, 0xc3, 0x3b, 0x42, 0x9c, 0x66, 0x3d, 0xa3, 0x12, 0x03, 0x3e,
  0x27, 0xa6, 0x90, 0x3e, 0x20, 0xae, 0x4b, 0xbd, 0xac, 0x36, 0x28, 0x3e,
  0xe2, 0x12, 0x41, 0x3e, 0x14, 0xbb, 0xcb, 0xbb, 0xd3, 0xa5, 0x37, 0x3c,
  0x34, 0xbd, 0xc3, 0xbd, 0x81, 0x65, 0x26, 0xbd, 0x83, 0x07, 0x5d, 0x3d,
  0x14, 0xdc, 0x9a, 0xbd, 0x33, 0x00, 0x60, 0x3d, 0x4d, 0xa4, 0x8e, 0xbd,
  0x5b, 0x8e, 0x88, 0xbe, 0x4f, 0x6d, 0xee, 0x3c, 0x97, 0xda, 0x48, 0xbe,
  0xcf, 0xb5, 0xaa, 0xbc, 0xac, 0x4d, 0x96, 0x3e, 0xb5, 0xf1, 0x05, 0x3d,
  0x2b, 0xce, 0x9b, 0x3d, 0xc6, 0x5f, 0xa9, 0x3d, 0x69, 0x80, 0x7b, 0x3e,
  0x7b, 0x2f, 0x48, 0x3d, 0xc0, 0xd6, 0x5f, 0xbd, 0x87, 0xf7, 0xe2, 0x3d,
  0x5b, 0xfc, 0x9f, 0x3e, 0xee, 0x6b, 0xb0, 0x3c, 0x0e, 0xc3, 0x06, 0x3e,
  0xe2, 0x7c, 0x13, 0x3e, 0x0b, 0x75, 0x18, 0x3e, 0x99, 0x90, 0x99, 0x3d,
  0x1d, 0xea, 0x62, 0x3d, 0x42, 0xc2, 0x16, 0x3e, 0x94, 0x85, 0xc2, 0x3b,
  0xe3, 0x7f, 0x46, 0x3c, 0x62, 0xe6, 0x70, 0x3d, 0xd5, 0x9a, 0xa4, 0x3b,
  0xd1, 0x14, 0x38, 0xbe, 0x62, 0x7f, 0x59, 0xbd, 0xbd, 0xce, 0x77, 0xbd,
  0xdf, 0x21, 0x0d, 0x3c, 0x5e, 0xc5, 0xc7, 0x3c, 0x08, 0xcb, 0xf8, 0x3d,
  0x09, 0x95, 0xd2, 0x3d, 0x71, 0x05, 0x27, 0x3f, 0x6b, 0x47, 0x40, 0x3c,
  0xdc, 0x84, 0x87, 0xbd, 0x03, 0xaf, 0x36, 0xbd, 0xee, 0x28, 0x13, 0x3e,
  0xe8, 0x53, 0xf2, 0x3c, 0xfe, 0x6f, 0x85, 0x3e, 0x1a, 0x47, 0x0c, 0x3e,
  0x67, 0xd1, 0x05, 0x3f, 0x97, 0x99, 0xd3, 0x3d, 0x4c, 0xa3, 0x38, 0x3e,
  0xc8, 0x75, 0x87, 0xbd, 0x2f, 0x65, 0x31, 0x3d, 0x91, 0x03, 0xe4, 0xbd,
  0x61, 0x2b, 0xb0, 0x3e, 0x25, 0xb9, 0x74, 0x3d, 0x61, 0x91, 0xa4, 0x3e,
  0x9c, 0xa8, 0x11, 0xbe, 0x8c, 0xdf, 0x1b, 0x3e, 0x74, 0x90, 0x01, 0xbe,
  0xcf, 0xb1, 0x12, 0x3e, 0xcf, 0x89, 0xa8, 0xbd, 0xf9, 0xa3, 0xcb, 0x3d,
  0xa0, 0xac, 0x3d, 0xbe, 0x77, 0xc6, 0xc9, 0x3e, 0xcf, 0xff, 0x89, 0x3d,
  0xb0, 0x83, 0x58, 0xbe, 0x6d, 0x74, 0xc6, 0xbb, 0xbb, 0x32, 0xd5, 0xbd,
  0xac, 0x24, 0xce, 0xbd, 0x89, 0x93, 0x3d, 0xbc, 0x6b, 0x5a, 0x56, 0xbe,
  0x79, 0x6a, 0xa2, 0x3d, 0xfb, 0x2e, 0x83, 0x3d, 0x40, 0xbf, 0x47, 0xbc,
  0xe2, 0xd9, 0xe4, 0x3b, 0xa8, 0xdf, 0xe6, 0xbc, 0x01, 0x7b, 0x0e, 0x3e,
  0x8e, 0x9e, 0x94, 0xbd, 0xda, 0xea, 0xfd, 0xbd, 0xe8, 0x72, 0x3c, 0x3e,
  0x0b, 0x14, 0x2f, 0xbd, 0xa8, 0xab, 0xc6, 0xbc, 0xc4, 0x1b, 0xa7, 0xbb,
  0x58, 0xdb, 0x28, 0x3c, 0x57, 0x15, 0x21, 0xbe, 0xa9, 0xc6, 0xea, 0x3d,
  0x90, 0x5f, 0x8a, 0x3c, 0xc3, 0x33, 0x9b, 0x3e, 0x4e, 0x1b, 0xc6, 0x3d,
  0xec, 0xab, 0xa2, 0x3c, 0xe0, 0xeb, 0x11, 0x3d, 0xc2, 0xd8, 0x12, 0x3d,
  0x03, 0x90, 0xf1, 0xbd, 0x1f, 0xa8, 0xd5, 0xbc, 0xeb, 0xa4, 0x9e, 0xbd,
  0x39, 0x41, 0xdd, 0x3d, 0xc2, 0xe6, 0x65, 0xbd, 0x83, 0xf5, 0x72, 0x3d,
  0xb3, 0x30, 0x15, 0x3e, 0xf8, 0xb3, 0x05, 0x3d, 0xb9, 0xb6, 0xac, 0xbd,
  0x8e, 0x9c, 0xdd, 0xbd, 0x74, 0xd7, 0x52, 0xbe, 0xdf, 0xc5, 0x47, 0x3e,
  0xa1, 0x17, 0x2d, 0xbc, 0x09, 0x6a, 0xad, 0xbe, 0xb8, 0x44, 0x4a, 0xbe,
  0xe2, 0x61, 0xba, 0xbe, 0xdc, 0xcc, 0xe7, 0xbb, 0x96, 0x49, 0xa2, 0x3d,
  0xc5, 0xa8, 0x0d, 0xbe, 0x75, 0x47, 0x77, 0x3e, 0x72, 0xb3, 0xc7, 0x3d,
  0xdb, 0x88, 0x92, 0x3d, 0xbe, 0x9f, 0xf6, 0x3d, 0x0e, 0xcd, 0x25, 0xbc,
  0xcb, 0xf9, 0x69, 0x3d, 0x85, 0xf7, 0x24, 0xbd, 0x4c, 0x9e, 0xd2, 0xbd,
  0xae, 0x32, 0x64, 0x3e, 0xce, 0xd5, 0x36, 0x3d, 0xde, 0xe6, 0x92, 0xbd,
  0x54, 0x52, 0x63, 0x3d, 0xf9, 0x6e, 0x70, 0xbd, 0x4c, 0x44, 0x49, 0x3c,
  0x37, 0xd5, 0x99, 0xbe, 0x50, 0xe6, 0x91, 0xbe, 0xf7, 0x54, 0x2b, 0x3e,
  0x81, 0xf1, 0x99, 0x3d, 0x78, 0x45, 0x0b, 0xbf, 0x87, 0xc8, 0x06, 0xbe,
  0xe5, 0x0a, 0x08, 0xbf, 0x31, 0x18, 0x1c, 0xbe, 0x72, 0x83, 0x78, 0x3d,
  0x62, 0x36, 0x6f, 0xbc, 0x49, 0xc7, 0x89, 0x3e, 0xd7, 0xb2, 0xcd, 0x3d,
  0xf0, 0xd6, 0xb2, 0x3c, 0xbd, 0xe5, 0x05, 0x3e, 0x4e, 0xa9, 0xbd, 0xbd,
  0x8f, 0x05, 0xe1, 0xbd, 0xff, 0x20, 0xae, 0x3d, 0xde, 0x1e, 0x26, 0x3c,
  0x8e, 0x63, 0x4e, 0x3e, 0x33, 0x41, 0x87, 0x3c, 0xe7, 0x4b, 0xa0, 0xbd,
  0xe2, 0xa5, 0xaf, 0xbb, 0x51, 0xd9, 0xe0, 0x3d, 0xab, 0x4d, 0x51, 0x3c,
  0xf4, 0xe6, 0x23, 0xbf, 0xa6, 0xd9, 0xb5, 0xbe, 0xbf, 0xcf, 0x82, 0x3e,
  0x5d, 0x84, 0x30, 0xbd, 0xe3, 0xb3, 0x1b, 0xbf, 0x28, 0x48, 0x63, 0x3c,
  0x4f, 0xa4, 0x03, 0xbf, 0xdc, 0x60, 0x31, 0xbe, 0x91, 0x6c, 0xb9, 0x3c,
  0x03, 0x06, 0x0d, 0xbd, 0x8a, 0xdc, 0x0a, 0x3e, 0x1e, 0xf9, 0xbd, 0x3c,
  0xd7, 0xea, 0x94, 0xbd, 0x8e, 0x76, 0x8b, 0x3d, 0xb6, 0x8a, 0x43, 0x3d,
  0x82, 0xa9, 0x63, 0xbd, 0xf8, 0xd1, 0x5c, 0x3d, 0x8b, 0x71, 0x48, 0xbd,
  0x1c, 0x6c, 0xa2, 0x3e, 0x4e, 0xed, 0x22, 0xbb, 0xd7, 0x44, 0x12, 0xbe,
  0x6d, 0x81, 0x84, 0x3c, 0x89, 0x4c, 0x55, 0xbd, 0x80, 0x8b, 0x02, 0x3e,
  0xbc, 0xd2, 0x60, 0xbe, 0xc5, 0x6a, 0xe1, 0xbd, 0x75, 0xe9, 0x6a, 0x3e,
  0x85, 0xe2, 0x52, 0x3e, 0xac, 0x93, 0xc2, 0xbe, 0x27, 0x9f, 0x47, 0x3d,
  0x91, 0xe7, 0x81, 0xbe, 0x94, 0x5f, 0x52, 0xbe, 0xd4, 0xf7, 0xa1, 0x3d,
  0xb7, 0x3c, 0x92, 0xbd, 0xd2, 0xb9, 0xa7, 0x3c, 0xbc, 0xd2, 0x8e, 0xbd,
  0xf2, 0x6b, 0xa1, 0x3c, 0xf3, 0xd4, 0x86, 0x3d, 0xa9, 0xb2, 0x4a, 0xbd,
  0x54, 0x09, 0xe6, 0xbd, 0xe3, 0xee, 0x3b, 0x3d, 0xfe, 0x7a, 0xc2, 0xbd,
  0x86, 0xc5, 0x33, 0x3e, 0x63, 0x3e, 0x93, 0xbd, 0x1f, 0x02, 0xc7, 0x3c,
  0x22, 0x7b, 0x6f, 0xb9, 0x22, 0x30, 0x1b, 0xbd, 0x1a, 0x10, 0xfd, 0x3d,
  0x67, 0x68, 0x41, 0x3e, 0xdc, 0xb2, 0x76, 0xbc, 0x9e, 0x68, 0xde, 0x3c,
  0xc2, 0x1b, 0xbd, 0x3d, 0x5e, 0xbd, 0xbc, 0xbc, 0xec, 0x2b, 0x7e, 0x3e,
  0x60, 0x0d, 0x43, 0x3d, 0x37, 0xff, 0x37, 0x3d, 0xed, 0x00, 0xf9, 0xbc,
  0xe4, 0x01, 0x5b, 0xbc, 0xb3, 0x89, 0xa9, 0x3d, 0x4e, 0xae, 0xd3, 0x3c,
  0xd7, 0x38, 0x93, 0xbc, 0x82, 0xad, 0xae, 0x3d, 0x02, 0x39, 0x30, 0xbd,
  0x75, 0xe0, 0x32, 0x3d, 0xdd, 0x7c, 0x13, 0x3d, 0x11, 0xb6, 0x8a, 0xbd,
  0x04, 0x66, 0x1e, 0x3e, 0xab, 0xa6, 0xcb, 0x3c, 0x9b, 0x85, 0x95, 0x3c,
  0x7f, 0xa2, 0x01, 0xbc, 0x4b, 0xe1, 0x8b, 0x3c, 0xef, 0x9a, 0x1a, 0x3e,
  0x86, 0x81, 0x44, 0x3c, 0xdd, 0x45, 0x64, 0xbd, 0x3d, 0xcf, 0x28, 0x3e,
  0xb5, 0x5a, 0xf8, 0x3d, 0x39, 0x40, 0x53, 0x3d, 0x12, 0xd7, 0xc0, 0x3e,
  0xbd, 0x7f, 0x5b, 0x3d, 0xc5, 0xe3, 0x0b, 0x3e, 0xd6, 0x02, 0x33, 0xbf,
  0x39, 0xe0, 0x2a, 0xbf, 0x52, 0x64, 0xda, 0x3c, 0x3b, 0xd9, 0x20, 0xbf,
  0x7e, 0x1b, 0x48, 0xbf, 0xab, 0x25, 0x2a, 0xbf, 0x30, 0xdc, 0x0f, 0xbf,
  0xba, 0xd0, 0x10, 0xbd, 0x93, 0xdf, 0x01, 0xbf, 0x5a, 0xa6, 0x0b, 0xbf,
  0x0a, 0x0c, 0xe2, 0x3c, 0x93, 0xf8, 0xcb, 0xbe, 0x1f, 0x0e, 0x1f, 0xbf,
  0xcc, 0xe7, 0x34, 0xbf, 0x1e, 0x3a, 0x12, 0xbf, 0x0b, 0x1b, 0x00, 0x3e,
  0xe7, 0xd2, 0x39, 0xbf, 0x46, 0x5e, 0xd4, 0xbe, 0xcd, 0xa8, 0x23, 0xbd,
  0x20, 0xa5, 0x05, 0xbf, 0x9e, 0x05, 0x1e, 0xbf, 0x2e, 0x07, 0xf4, 0xbd,
  0xa3, 0xf3, 0x1e, 0xbf, 0x17, 0x41, 0x09, 0x3d, 0x2b, 0xeb, 0x1f, 0xbe,
  0xae, 0xab, 0x6f, 0xbe, 0xf4, 0x77, 0x4c, 0xbe, 0xc2, 0xf2, 0xaa, 0x3c,
  0xae, 0x2a, 0x22, 0xbe, 0x6e, 0xd0, 0x35, 0xbe, 0x87, 0x91, 0x5d, 0xbe,
  0x3b, 0x01, 0xac, 0x3d, 0x46, 0xfd, 0x92, 0xbe, 0x26, 0xf2, 0xeb, 0xbd,
  0x17, 0x14, 0x8e, 0xbd, 0x2d, 0xd6, 0x48, 0xbe, 0x77, 0x25, 0xe3, 0xbd,
  0x7f, 0xa6, 0xbc, 0xbe, 0xfb, 0xdc, 0xed, 0xbd, 0x20, 0x89, 0x4f, 0x3e,
  0xcf, 0x00, 0x82, 0x3e, 0x16, 0x7f, 0xa6, 0x3d, 0xfd, 0x79, 0x28, 0xbe,
  0x38, 0x3b, 0x20, 0x3e, 0x6a, 0x6d, 0x17, 0x3d, 0xc9, 0x9b, 0x85, 0x3e,
  0x1f, 0xa4, 0xc4, 0x3d, 0x42, 0xba, 0x0c, 0xbc, 0x42, 0xab, 0xa0, 0x3d,
  0xdd, 0x3d, 0xd3, 0x3c, 0x21, 0x82, 0x06, 0x3e, 0x82, 0xb6, 0x13, 0x3d,
  0x07, 0x73, 0x93, 0xbd, 0xcd, 0x7e, 0xc9, 0x3d, 0xd6, 0x28, 0x55, 0x3d,
  0x47, 0x78, 0xf5, 0x3d, 0x58, 0xc8, 0x50, 0x3e, 0x5b, 0x95, 0x27, 0xbe,
  0x58, 0x66, 0x36, 0x3e, 0x96, 0xc1, 0xfb, 0x3d, 0x85, 0x8a, 0x79, 0x3d,
  0x52, 0xf8, 0x33, 0xbc, 0x96, 0x33, 0x36, 0xbd, 0x62, 0x9a, 0x17, 0x3e,
  0xd4, 0xdf, 0x8d, 0x3e, 0xd4, 0x96, 0xa6, 0x3d, 0xd2, 0x31, 0x93, 0x3d,
  0x38, 0xf9, 0x45, 0x3e, 0x9d, 0xed, 0xa6, 0xbb, 0x23, 0x34, 0x81, 0x3e,
  0x00, 0x49, 0x06, 0x3d, 0x67, 0x18, 0x24, 0x3e, 0x93, 0x57, 0x8a, 0x3e,
  0xfc, 0x77, 0x8e, 0x3d, 0x44, 0x60, 0x9b, 0x3c, 0xb7, 0xab, 0x01, 0x3e,
  0x86, 0x6a, 0x62, 0xbd, 0xe2, 0x78, 0x6d, 0x3d, 0x04, 0x23, 0xc6, 0x3d,
  0x96, 0xce, 0x8d, 0x3d, 0x0c, 0x29, 0xe3, 0x3d, 0x1c, 0xff, 0x5e, 0x3e,
  0x42, 0x10, 0xbe, 0x3c, 0x1a, 0xd9, 0x51, 0xbd, 0xe5, 0x27, 0xc2, 0x3d,
  0x2d, 0xc0, 0x3a, 0xbd, 0x6c, 0x2e, 0x0a, 0x3e, 0xd0, 0xe1, 0x24, 0x3e,
  0x9e, 0x38, 0xa3, 0x3d, 0xcc, 0xf7, 0x8c, 0x3d, 0x34, 0xc7, 0xb1, 0x3d,
  0x16, 0xf0, 0x6c, 0x3c, 0x16, 0x41, 0x33, 0x3e, 0xc7, 0x78, 0x23, 0x3e,
  0x99, 0xd9, 0xbe, 0x3b, 0x92, 0x65, 0x57, 0x3d, 0x9f, 0xae, 0x92, 0x3d,
  0x3d, 0xb2, 0x3f, 0x3b, 0xa9, 0x8a, 0x1b, 0x3e, 0x42, 0x49, 0x76, 0xbd,
  0x30, 0xa3, 0xe0, 0xba, 0x9b, 0x15, 0x04, 0xbe, 0xfd, 0x1c, 0x2a, 0x3e,
  0xd3, 0xd1, 0x80, 0x3d, 0x95, 0x89, 0x2d, 0x3d, 0x18, 0x5f, 0x14, 0x3e,
  0x0c, 0xd2, 0x45, 0x3d, 0x56, 0xba, 0x20, 0xbc, 0x05, 0xc9, 0x22, 0xbc,
  0x28, 0xf7, 0x40, 0x3d, 0x59, 0xb7, 0x0b, 0x3e, 0x9e, 0xf3, 0xa5, 0x3d,
  0xca, 0x1b, 0x01, 0x3e, 0x4b, 0x72, 0xbe, 0xbc, 0x23, 0x85, 0x81, 0xbc,
  0x90, 0x6c, 0xa0, 0x3e, 0x36, 0xf6, 0x52, 0x3d, 0x2d, 0xab, 0x39, 0x3e,
  0xc6, 0x05, 0x1c, 0x3e, 0x3f, 0xd7, 0x74, 0x3d, 0x55, 0x22, 0x3a, 0x3e,
  0x65, 0xaa, 0xc0, 0x3b, 0x98, 0x6a, 0xe3, 0x3c, 0x82, 0xc1, 0x69, 0xbd,
  0x9d, 0x55, 0xa8, 0xbd, 0x95, 0x78, 0xa5, 0x3d, 0x80, 0xfd, 0x0f, 0x3e,
  0x65, 0x2c, 0xc6, 0x3d, 0x31, 0x2c, 0xa8, 0x3d, 0x29, 0x3b, 0x2f, 0x3d,
  0x22, 0x76, 0x38, 0xbc, 0xde, 0xc8, 0xc2, 0xbb, 0x0e, 0x53, 0xfb, 0xbb,
  0xbb, 0xd9, 0xcd, 0x3c, 0x7e, 0x74, 0x5b, 0xbd, 0xbf, 0x5e, 0x29, 0x3d,
  0xa9, 0x14, 0x58, 0x3e, 0x6a, 0x10, 0xa4, 0xbc, 0x07, 0x32, 0x19, 0xbc,
  0x44, 0xcf, 0x75, 0x3d, 0x0f, 0x85, 0xdb, 0x3c, 0x08, 0x85, 0x0b, 0x3e,
  0x1e, 0xa3, 0x0f, 0x3e, 0x9a, 0x26, 0xf8, 0xbd, 0xb2, 0x26, 0xde, 0x3d,
  0x8f, 0xbb, 0x51, 0xbc, 0xbc, 0x37, 0x16, 0xbe, 0x18, 0xe5, 0xcd, 0x3d,
  0xbf, 0x56, 0xb2, 0x3c, 0x30, 0x43, 0xc7, 0x3d, 0xbc, 0x22, 0x22, 0x3d,
  0x7f, 0x90, 0x4c, 0xbe, 0xc3, 0x73, 0xf1, 0x3d, 0xe7, 0x4f, 0x00, 0x3e,
  0x82, 0x4e, 0x99, 0x3d, 0x41, 0xa6, 0x98, 0xbd, 0xdb, 0x67, 0x44, 0x3d,
  0xaa, 0x90, 0x5a, 0x3d, 0xb8, 0xe0, 0x86, 0x3d, 0xa0, 0xd4, 0xbb, 0x3b,
  0xbf, 0xd4, 0x1f, 0xbe, 0x75, 0xa6, 0x64, 0xbe, 0x69, 0xb3, 0x0b, 0xbe,
  0xba, 0x20, 0x9f, 0xbd, 0x7d, 0x2c, 0xfa, 0xbd, 0xd4, 0x0b, 0x86, 0xbc,
  0xef, 0x6b, 0xf7, 0xbd, 0x21, 0xc5, 0x5c, 0x3d, 0x2a, 0x8e, 0xd3, 0x3a,
  0x6a, 0xd6, 0xa1, 0x3d, 0x6d, 0x1d, 0x17, 0xbe, 0x06, 0x61, 0x58, 0xbd,
  0xeb, 0xdd, 0x4e, 0x3d, 0xd1, 0x65, 0xfa, 0xbd, 0x38, 0x0e, 0xe2, 0x3b,
  0x2b, 0x2e, 0xaf, 0xbd, 0x68, 0xed, 0xcc, 0xbd, 0xbf, 0x64, 0x09, 0x3e,
  0x79, 0x1d, 0x13, 0x3e, 0xd2, 0xbb, 0xbc, 0xbc, 0x0d, 0x92, 0xb4, 0x3d,
  0xe4, 0xf6, 0x97, 0x3b, 0xc1, 0x9f, 0x21, 0xbd, 0x9d, 0xd8, 0x35, 0xbe,
  0xdb, 0x51, 0x05, 0xbe, 0x6e, 0x56, 0x96, 0xbd, 0xab, 0xfa, 0xa5, 0xbd,
  0xa3, 0x77, 0xb8, 0xbd, 0xfc, 0x49, 0x7a, 0xbe, 0xcd, 0xe0, 0x24, 0xbe,
  0x59, 0xc2, 0x40, 0xbe, 0xc2, 0xb3, 0xef, 0xbd, 0xeb, 0xc8, 0xf1, 0x3e,
  0x9b, 0xfe, 0x52, 0x3e, 0xaa, 0x8c, 0x9a, 0x3e, 0x8a, 0xd7, 0x49, 0x3e,
  0x52, 0xd9, 0x29, 0x3e, 0xe2, 0x9b, 0x81, 0x3e, 0xac, 0xf0, 0x48, 0x3e,
  0x80, 0xf1, 0x9e, 0xbe, 0xa1, 0x15, 0x0a, 0x3f, 0x46, 0x3d, 0x88, 0x3e,
  0x88, 0x02, 0x64, 0x3e, 0xc3, 0x95, 0x57, 0x3e, 0xf5, 0xcc, 0x98, 0x3e,
  0xe4, 0xc0, 0x3d, 0x3e, 0xe1, 0xb3, 0x84, 0x3e, 0xeb, 0xa8, 0xab, 0xbd,
  0x06, 0x77, 0xb0, 0x3e, 0x10, 0xfc, 0x24, 0x3e, 0xbe, 0x85, 0xb3, 0xbe,
  0x7b, 0xce, 0xe4, 0x39, 0x06, 0x41, 0x96, 0x3e, 0xe2, 0x8f, 0x60, 0xbd,
  0x56, 0x39, 0xc0, 0x3d, 0xb4, 0xef, 0xf8, 0xbd, 0xb4, 0x74, 0x90, 0x3d,
  0x0c, 0x29, 0x5b, 0xbd, 0xbe, 0x8f, 0x3b, 0x3d, 0x88, 0xf9, 0x76, 0xbd,
  0xc3, 0xa0, 0xe8, 0x3d, 0xf5, 0x10, 0xe5, 0xbd, 0xf5, 0xbd, 0x88, 0xbd,
  0x4f, 0xdc, 0x4a, 0xbe, 0xc3, 0x60, 0xb8, 0x3d, 0x11, 0xb2, 0x9d, 0x3c,
  0x8b, 0x13, 0x45, 0x3d, 0xe8, 0x67, 0x26, 0xbe, 0xc5, 0xc3, 0xdb, 0xbd,
  0x84, 0xe7, 0x09, 0xbe, 0xe9, 0x7b, 0x5e, 0x3a, 0xb1, 0x65, 0x0b, 0xbe,
  0xfd, 0xde, 0x03, 0xbd, 0x76, 0xc0, 0xbc, 0xbc, 0xd9, 0xab, 0x0d, 0xbe,
  0x33, 0xac, 0x61, 0xbe, 0x5a, 0xd0, 0xc0, 0x3c, 0xed, 0xa2, 0x4e, 0xbe,
  0xee, 0xeb, 0xff, 0x3c, 0x2f, 0x37, 0xb5, 0xbd, 0x29, 0x4c, 0x91, 0x3a,
  0x9d, 0x1d, 0xb4, 0xbc, 0xf3, 0x9f, 0xc0, 0x3d, 0x07, 0x2c, 0x25, 0x3d,
  0x4d, 0x02, 0xa8, 0x3d, 0xc9, 0x41, 0x48, 0x3d, 0xdf, 0x6f, 0x02, 0xbe,
  0x4d, 0xfc, 0xfb, 0xbd, 0xfc, 0xa3, 0xc6, 0x3b, 0x26, 0x9b, 0x69, 0xbe,
  0x34, 0xd4, 0xb1, 0xbc, 0x28, 0xc6, 0x37, 0xbe, 0x61, 0x53, 0xa2, 0x3d,
  0x93, 0x69, 0xdc, 0x3b, 0x21, 0x0e, 0x40, 0x3d, 0x56, 0x81, 0x3e, 0xbe,
  0x4a, 0x5f, 0x96, 0x3d, 0xaa, 0xe1, 0xbe, 0x3d, 0x2a, 0x2b, 0x77, 0xbe,
  0x90, 0x4a, 0xe0, 0xbd, 0x49, 0xcb, 0x4a, 0xbd, 0xf5, 0xec, 0xc4, 0xbd,
  0xee, 0x82, 0x83, 0x3c, 0x23, 0xd7, 0x50, 0xbc, 0xaf, 0x40, 0xbf, 0x3d,
  0x6a, 0xa3, 0x3c, 0x3e, 0x7a, 0xfc, 0x84, 0x3e, 0x06, 0x18, 0x84, 0x3c,
  0x74, 0x0e, 0x8f, 0x3d, 0x55, 0x3c, 0xc8, 0xbd, 0xe9, 0x3b, 0xac, 0x3d,
  0x9c, 0x1e, 0x1f, 0xbe, 0x84, 0x0d, 0x3f, 0x3c, 0x31, 0x3b, 0x99, 0x3d,
  0x1b, 0x91, 0x7c, 0xbc, 0x14, 0x3d, 0x43, 0x3d, 0x43, 0x99, 0x63, 0x3d,
  0xaa, 0x33, 0x21, 0x3d, 0xd7, 0x60, 0xb3, 0xbd, 0x75, 0x23, 0x4c, 0xbd,
  0x39, 0xe7, 0xd9, 0xbd, 0xb9, 0x4e, 0x88, 0xbd, 0x79, 0x84, 0xf0, 0xbd,
  0xea, 0x65, 0x6f, 0x3c, 0x2c, 0xd6, 0xb2, 0x3d, 0xd5, 0x82, 0x2d, 0xbe,
  0x6d, 0x84, 0x6a, 0xbd, 0x31, 0x45, 0x83, 0xbd, 0xed, 0x6b, 0x0a, 0x3e,
  0xf6, 0xc5, 0x03, 0x3e, 0xc5, 0x21, 0x50, 0x3e, 0x66, 0xe1, 0x4b, 0xbc,
  0xc9, 0x86, 0xd1, 0x3d, 0x95, 0xec, 0x63, 0xbc, 0x29, 0x90, 0x29, 0x3d,
  0x71, 0xb5, 0x8a, 0x3c, 0xe0, 0x5c, 0xce, 0x3c, 0xa5, 0x95, 0xe6, 0x3d,
  0x9d, 0x88, 0x99, 0x3e, 0x2b, 0xfc, 0x7d, 0x3c, 0xd4, 0xa3, 0x53, 0xbd,
  0x67, 0x3a, 0xce, 0x3d, 0x8a, 0x4e, 0x8a, 0xbb, 0x9f, 0x5d, 0x17, 0xbe,
  0x55, 0x18, 0x07, 0xbd, 0x02, 0x57, 0xb3, 0xbd, 0xb2, 0x67, 0x73, 0xbc,
  0xa0, 0xee, 0xaa, 0xbc, 0xe8, 0xb6, 0xf8, 0x37, 0x51, 0x43, 0x3f, 0xbe,
  0x53, 0x62, 0x13, 0xbd, 0xc7, 0x39, 0xab, 0xbd, 0x65, 0xf8, 0x22, 0xbd,
  0x5e, 0x97, 0xa0, 0x3d, 0x34, 0x4b, 0xb6, 0x3e, 0x02, 0x41, 0x00, 0x3d,
  0x5d, 0xdf, 0xf1, 0x3d, 0xd6, 0xba, 0xbb, 0x3d, 0x18, 0x95, 0xf9, 0xbc,
  0x10, 0xe5, 0xa7, 0xbd, 0x3a, 0xe7, 0x24, 0x3d, 0xd6, 0xb8, 0x41, 0x3e,
  0x4f, 0xf5, 0x7d, 0x3e, 0xeb, 0x9c, 0x0f, 0x3e, 0x63, 0xf1, 0x4a, 0x3d,
  0x48, 0x1a, 0x33, 0x3d, 0x0c, 0x21, 0x31, 0x3d, 0x23, 0xb5, 0x76, 0x3b,
  0x7a, 0xb2, 0xf7, 0xbc, 0xd9, 0x62, 0xda, 0x3d, 0x22, 0xd1, 0x00, 0xbe,
  0x30, 0x8b, 0xfa, 0xbc, 0xd3, 0xeb, 0x17, 0x3d, 0x5a, 0x41, 0x1d, 0xbd,
  0x1a, 0x57, 0xc3, 0xbd, 0x71, 0xe8, 0x64, 0xbd, 0xd7, 0x7e, 0xb1, 0x3d,
  0x97, 0xd5, 0x00, 0x3e, 0x6c, 0x8f, 0x9b, 0x3e, 0xd7, 0x7e, 0xc3, 0x3a,
  0x30, 0xc3, 0x86, 0x3d, 0x73, 0xaf, 0x58, 0x3d, 0xc3, 0x56, 0xe3, 0x3d,
  0x47, 0x78, 0x88, 0xbe, 0x92, 0x3a, 0x49, 0x3d, 0x9b, 0xdb, 0x96, 0x3c,
  0x0d, 0x5a, 0xc4, 0x3e, 0xc5, 0x0e, 0xec, 0x3c, 0x27, 0xfa, 0xde, 0x3c,
  0xf1, 0xf8, 0x10, 0x3e, 0xaf, 0x20, 0x7d, 0x3d, 0xb8, 0x02, 0x4d, 0x3e,
  0xb5, 0x01, 0x26, 0x3c, 0xd1, 0x36, 0x24, 0xbd, 0x13, 0x48, 0xb0, 0x3d,
  0xe5, 0x58, 0x8e, 0x3d, 0x90, 0x48, 0x94, 0x3c, 0x36, 0x8b, 0xcc, 0x3c,
  0xb9, 0xa3, 0x91, 0x3d, 0x67, 0x63, 0x3b, 0xbe, 0xa5, 0x97, 0x7f, 0xba,
  0xc2, 0x08, 0x56, 0xbd, 0xe6, 0x87, 0x63, 0xbd, 0xd6, 0x32, 0x3a, 0xbe,
  0x94, 0x73, 0xb0, 0x3c, 0xa8, 0xc2, 0x55, 0xbe, 0xf2, 0xdc, 0x21, 0xbe,
  0x0b, 0xc1, 0xb5, 0xbe, 0x32, 0x21, 0x0e, 0x3c, 0x3d, 0x79, 0x31, 0xbd,
  0xf8, 0x6a, 0xf0, 0x3c, 0x0d, 0x5e, 0x3c, 0xbe, 0x78, 0x22, 0x80, 0xbc,
  0x4b, 0x5d, 0x12, 0xbe, 0x7d, 0x63, 0x59, 0xbe, 0x41, 0x6d, 0x3e, 0xbd,
  0x29, 0x73, 0x2c, 0x3d, 0x38, 0xb6, 0xd5, 0x3c, 0x3d, 0x97, 0x88, 0xbc,
  0x3a, 0x29, 0x0b, 0x3c, 0xa1, 0x2f, 0x95, 0x3d, 0xfe, 0x06, 0x07, 0x3a,
  0xd6, 0xa6, 0x6e, 0x3d, 0x9f, 0xee, 0x01, 0xbe, 0x10, 0x1b, 0x27, 0x3f,
  0xad, 0xb6, 0xe4, 0x3e, 0x48, 0xca, 0xa0, 0x3d, 0x0d, 0xfd, 0xf8, 0x3e,
  0x81, 0xef, 0x0b, 0x3f, 0xaa, 0x19, 0xd0, 0x3d, 0x96, 0xfd, 0x6d, 0x3e,
  0xf4, 0x9e, 0xdd, 0xbd, 0xcf, 0x43, 0x28, 0x3f, 0xcb, 0x21, 0x82, 0x3e,
  0x0c, 0xab, 0xaa, 0x3d, 0xe5, 0x40, 0x49, 0x3e, 0xe3, 0x13, 0x01, 0x3f,
  0x29, 0xf0, 0x05, 0x3e, 0x42, 0x68, 0xb2, 0x3e, 0x0d, 0x25, 0xbc, 0xbe,
  0x40, 0x8b, 0x2c, 0x3f, 0xd4, 0x79, 0x5e, 0x3e, 0xec, 0xc4, 0x2b, 0xbe,
  0xdb, 0x38, 0x22, 0x3e, 0xd3, 0x97, 0xb3, 0x3e, 0x23, 0xd0, 0x81, 0x3d,
  0x70, 0x4a, 0xf0, 0x3d, 0x30, 0x97, 0x4b, 0x3d, 0x4a, 0x0f, 0xf6, 0x3c,
  0x57, 0x04, 0x0e, 0xbd, 0x79, 0x4c, 0xca, 0x3c, 0x93, 0xc4, 0xa2, 0x3d,
  0xa1, 0x51, 0xc7, 0x3d, 0x22, 0x71, 0x49, 0x3b, 0x16, 0xb2, 0x69, 0xbd,
  0x30, 0xfc, 0xfa, 0x3c, 0x00, 0xd9, 0x34, 0x3c, 0x2c, 0xf2, 0x91, 0xbc,
  0x1c, 0x64, 0xa7, 0x3e, 0x8a, 0xd7, 0x48, 0x3e, 0x76, 0xf1, 0xea, 0xbc,
  0x81, 0x70, 0xbb, 0x3c, 0xc7, 0x94, 0x83, 0xbd, 0xda, 0xd0, 0xb1, 0xbd,
  0xb6, 0xc5, 0x14, 0xbe, 0xda, 0x7e, 0x54, 0xbd, 0x5f, 0x99, 0xa3, 0xbe,
  0x7d, 0x2d, 0x22, 0xbe, 0xa1, 0x44, 0x0f, 0xbd, 0xe0, 0xb5, 0x15, 0xbe,
  0x5c, 0xb1, 0xd7, 0xbc, 0x59, 0x4e, 0xcb, 0x3d, 0x83, 0xe5, 0x84, 0x3d,
  0x03, 0xa0, 0x17, 0x3e, 0xab, 0xdb, 0x49, 0x3e, 0xa8, 0x71, 0x03, 0x3e,
  0xf0, 0xce, 0x92, 0xbc, 0x23, 0x4f, 0x42, 0x3e, 0x84, 0x0d, 0xe3, 0x3d,
  0xff, 0xf8, 0x94, 0xbd, 0xe9, 0xf7, 0x9c, 0x3d, 0x3a, 0x2c, 0x49, 0x3d,
  0x9c, 0x60, 0xbb, 0x3e, 0x75, 0x95, 0x4c, 0x3e, 0x8a, 0xc2, 0x67, 0x3c,
  0x42, 0x14, 0x05, 0x3e, 0xb8, 0xc2, 0x3b, 0x3d, 0xa4, 0xd0, 0x12, 0xbe,
  0x3d, 0x11, 0x36, 0x3d, 0x74, 0x71, 0x42, 0x3a, 0xdc, 0xe7, 0xc2, 0xbd,
  0x45, 0x7a, 0xff, 0x3c, 0xf8, 0xbb, 0x28, 0xbd, 0xf6, 0x3e, 0x82, 0x3c,
  0xc4, 0x17, 0x6c, 0xbd, 0x80, 0x00, 0x1c, 0x3e, 0xf9, 0xd5, 0x39, 0x3e,
  0xa7, 0x4c, 0xa4, 0xbd, 0xf8, 0xaa, 0x1f, 0x3e, 0x25, 0x67, 0x0f, 0x3e,
  0x91, 0x28, 0x9b, 0xbd, 0x74, 0x43, 0xce, 0x3d, 0xe4, 0x5f, 0xe8, 0x3b,
  0x3b, 0x51, 0xae, 0x3d, 0xca, 0xb8, 0x58, 0xbd, 0xda, 0xc7, 0x04, 0x3d,
  0x71, 0x4d, 0xdf, 0x3e, 0x59, 0x6b, 0x41, 0x3e, 0x97, 0x3e, 0x40, 0xbd,
  0x35, 0x99, 0x74, 0x3d, 0x78, 0xd5, 0xc1, 0xbd, 0xf5, 0x9b, 0x81, 0xbd,
  0x3b, 0xc4, 0x22, 0xba, 0x9f, 0xd3, 0x99, 0x3d, 0x27, 0xcf, 0xa0, 0x3d,
  0x4a, 0x8d, 0x9d, 0x3c, 0x3c, 0xf8, 0x05, 0x3d, 0xbd, 0x3d, 0x7f, 0x3d,
  0x36, 0x57, 0x9e, 0x3d, 0x3e, 0xba, 0x70, 0x3c, 0x5d, 0x53, 0xb8, 0x3d,
  0xcc, 0x67, 0x11, 0x3d, 0x83, 0xb8, 0xd0, 0x3d, 0xde, 0xc5, 0x1d, 0x3e,
  0xb1, 0x6d, 0x27, 0xbd, 0x26, 0xb8, 0x85, 0x3d, 0x1f, 0x33, 0xf1, 0x3d,
  0xec, 0x5f, 0xd8, 0xbd, 0x8e, 0x36, 0x29, 0xbd, 0x85, 0x8a, 0x02, 0xbd,
  0x2d, 0xf8, 0x8f, 0x3e, 0x60, 0x2e, 0x4f, 0x3e, 0x56, 0x73, 0x9b, 0xbd,
  0x6b, 0xb2, 0x19, 0x3e, 0xde, 0x1e, 0x64, 0xbd, 0x72, 0x54, 0x98, 0xbd,
  0x62, 0x59, 0x41, 0xbc, 0x32, 0xd9, 0x83, 0x3d, 0x6c, 0x37, 0x07, 0x3e,
  0xf3, 0xac, 0xbe, 0x3d, 0xca, 0x31, 0x7a, 0xbc, 0x25, 0x31, 0xbf, 0x3d,
  0x9e, 0xbd, 0xf4, 0x3b, 0xec, 0xf2, 0x73, 0x3b, 0x73, 0x79, 0xf3, 0x3d,
  0x4e, 0x74, 0x7b, 0xbd, 0xc6, 0xe0, 0x08, 0x3d, 0xc0, 0xab, 0x9d, 0x3d,
  0xe1, 0xbe, 0xaa, 0xbd, 0xbe, 0x4e, 0xa6, 0x3d, 0x1f, 0x06, 0x4a, 0x3d,
  0xf5, 0xa1, 0x5c, 0x3d, 0x73, 0xfc, 0x46, 0xbd, 0x16, 0xb4, 0xf3, 0xbd,
  0xeb, 0x0a, 0x57, 0x3e, 0x6d, 0xaf, 0x22, 0xbc, 0x00, 0xd8, 0x60, 0xbe,
  0xc4, 0xa5, 0x9d, 0xbc, 0x89, 0xa9, 0x2f, 0xbe, 0xb8, 0x97, 0xff, 0x3c,
  0xa2, 0x0b, 0xdc, 0xbc, 0x6a, 0xd9, 0xf9, 0x3d, 0x9a, 0x6d, 0x77, 0x3d,
  0x55, 0x03, 0x08, 0x3e, 0xf0, 0x4e, 0xdc, 0x3d, 0x54, 0xdc, 0x0d, 0x3e,
  0x3a, 0xef, 0xab, 0x3c, 0xf1, 0x44, 0x70, 0xbc, 0x7a, 0x4b, 0x69, 0xbc,
  0x3a, 0xdf, 0x4e, 0xbd, 0x31, 0xd0, 0x08, 0xbe, 0xab, 0xb6, 0xd4, 0x3d,
  0xfb, 0xee, 0x0e, 0xbe, 0xfb, 0xa3, 0xca, 0x3d, 0x6b, 0xf4, 0x10, 0xbe,
  0x0a, 0x8a, 0x1c, 0xbd, 0x9f, 0x55, 0x43, 0xbe, 0x20, 0xd3, 0xc4, 0xbd,
  0xb8, 0x0a, 0x34, 0x3e, 0xf1, 0x45, 0x05, 0x3d, 0x3c, 0x16, 0x92, 0xbe,
  0xf2, 0xa4, 0x2b, 0x3e, 0xcc, 0xc6, 0x70, 0xbe, 0xd5, 0xb3, 0x0c, 0x3e,
  0x3a, 0x9a, 0x08, 0x3d, 0xec, 0xbf, 0x19, 0x3e, 0xde, 0x92, 0x01, 0xbd,
  0xa7, 0xc9, 0x37, 0x3e, 0xb5, 0x20, 0xd0, 0x3d, 0xb9, 0x52, 0x15, 0x3e,
  0x44, 0xc9, 0xe1, 0xbc, 0xb6, 0xf2, 0x1b, 0xbe, 0x6d, 0x77, 0xe1, 0xbd,
  0x82, 0x22, 0x73, 0xbe, 0x8e, 0xc7, 0x2d, 0x3b, 0x05, 0xba, 0x75, 0x3d,
  0x97, 0xc5, 0xf5, 0xbd, 0x6e, 0x99, 0x68, 0xbd, 0x5e, 0x59, 0x3d, 0xbe,
  0xae, 0xf1, 0x5f, 0xbd, 0xe3, 0x7b, 0x9e, 0xbe, 0xf7, 0xd5, 0xad, 0xbe,
  0xb1, 0xf1, 0x7e, 0x3e, 0xf9, 0xee, 0x94, 0x3d, 0xfc, 0x4d, 0xb0, 0xbe,
  0x5a, 0x47, 0xe0, 0xbd, 0x70, 0x2f, 0xd2, 0xbe, 0x80, 0x71, 0x1d, 0xbe,
  0x8a, 0x78, 0x34, 0x3a, 0xa1, 0xe2, 0x5e, 0x3c, 0x84, 0xad, 0xf6, 0x3c,
  0x63, 0x96, 0xe2, 0x3d, 0x38, 0x02, 0xb5, 0xbc, 0x85, 0xe4, 0xe5, 0xbc,
  0x8a, 0xaf, 0x8d, 0xbb, 0x77, 0x82, 0x64, 0x3c, 0x5f, 0x48, 0x14, 0x3e,
  0x06, 0x3b, 0x41, 0xbd, 0x83, 0xe2, 0x12, 0xbe, 0xf9, 0x9d, 0xc4, 0x3d,
  0xea, 0x78, 0xd9, 0x3d, 0x65, 0x4b, 0x1b, 0xbd, 0x3f, 0x74, 0x3d, 0xbc,
  0xf4, 0x1a, 0x77, 0x3d, 0x9f, 0xfb, 0x1e, 0x3e, 0xd3, 0x6e, 0x79, 0x3d,
  0x7e, 0xbc, 0xb6, 0xbe, 0x79, 0x04, 0xa6, 0xbc, 0xb7, 0x19, 0x64, 0x3e,
  0x7e, 0x8f, 0xe8, 0xbd, 0x81, 0x10, 0xcd, 0x3d, 0xf8, 0x3d, 0x60, 0x3e,
  0xab, 0x55, 0x83, 0xbc, 0xd6, 0x59, 0x12, 0xbe, 0x03, 0x70, 0x3c, 0xbd,
  0x0f, 0xe0, 0x06, 0xbe, 0xe0, 0x66, 0x6b, 0x3d, 0xee, 0x15, 0x8d, 0x3c,
  0xf5, 0x36, 0x25, 0xbe, 0x4e, 0x7c, 0x74, 0x3d, 0x34, 0x31, 0x91, 0xbd,
  0x84, 0xde, 0x33, 0xbe, 0xb0, 0x96, 0x8b, 0xbe, 0xd1, 0x6b, 0xd7, 0xbe,
  0xeb, 0x3e, 0xab, 0xbd, 0xc3, 0xb6, 0xb6, 0xbd, 0x38, 0x66, 0xfa, 0xbd,
  0x60, 0xc0, 0xdb, 0x3b, 0x94, 0xcf, 0x1a, 0xbe, 0x58, 0x78, 0x30, 0xbe,
  0x7b, 0xf2, 0xd6, 0xbd, 0x18, 0xa0, 0x88, 0xbe, 0x0d, 0xc2, 0x0e, 0xbe,
  0x9b, 0x96, 0xcd, 0xbe, 0xaf, 0xe7, 0x1b, 0xbe, 0xc5, 0x9d, 0x6f, 0x3c,
  0x09, 0xbb, 0x34, 0xbe, 0xe8, 0xa8, 0x55, 0xbe, 0xf4, 0xab, 0x80, 0xbe,
  0xac, 0x8e, 0xda, 0xbd, 0x7b, 0xf0, 0xb9, 0xbd, 0x67, 0x8f, 0x15, 0xbe,
  0x56, 0xe1, 0x85, 0xbd, 0x50, 0x47, 0x12, 0xbd, 0xd4, 0x88, 0x52, 0xbe,
  0x29, 0x39, 0xe6, 0xbc, 0xe9, 0x42, 0x03, 0xbf, 0x0d, 0xdd, 0xb8, 0xbe,
  0xdf, 0x62, 0x99, 0xbb, 0x8c, 0xda, 0xfe, 0xbe, 0x34, 0xb6, 0x21, 0xbe,
  0xbd, 0xb4, 0xb0, 0x3d, 0xd1, 0x74, 0x48, 0xbe, 0x25, 0xf0, 0x9b, 0xbe,
  0x04, 0xdd, 0xab, 0xbe, 0x80, 0x15, 0x0d, 0xbf, 0x01, 0xa1, 0x06, 0xbe,
  0xc7, 0x10, 0x0d, 0xbf, 0xb5, 0xaf, 0x68, 0xbe, 0x4e, 0xa1, 0x7f, 0xbd,
  0xb0, 0x1a, 0x97, 0xbd, 0x7f, 0xf7, 0x5e, 0xbe, 0x3a, 0x89, 0x63, 0xbe,
  0xfe, 0xea, 0x28, 0xbe, 0x47, 0xfe, 0xe8, 0xbd, 0x49, 0x52, 0x27, 0xbe,
  0xd5, 0x17, 0xe3, 0x3c, 0x8d, 0xb3, 0x06, 0x3e, 0x8e, 0x64, 0xa3, 0xbe,
  0xba, 0xf8, 0x9c, 0xbe, 0x10, 0x07, 0x9c, 0xbe, 0xfa, 0x73, 0x5d, 0xbe,
  0x2c, 0x96, 0x5d, 0xbe, 0x65, 0xfe, 0xd7, 0xbe, 0x28, 0x1e, 0xbd, 0xbd,
  0x32, 0x8a, 0x3b, 0x3e, 0xf7, 0x85, 0x30, 0xbe, 0xd4, 0x8c, 0xbc, 0xbd,
  0x94, 0xe8, 0x7e, 0xbe, 0x20, 0x59, 0xa6, 0xbe, 0x2b, 0xd2, 0x4f, 0xbe,
  0x7c, 0x37, 0xb5, 0xbe, 0x62, 0xf8, 0xc1, 0xbe, 0x97, 0x18, 0x4d, 0x3e,
  0x2a, 0xe1, 0x31, 0xbd, 0x39, 0x94, 0x9d, 0xbd, 0x57, 0x13, 0xa5, 0xbe,
  0xe1, 0x40, 0xab, 0xbe, 0xf1, 0x5b, 0x3e, 0xbd, 0xb7, 0x2c, 0x7b, 0xbe,
  0x28, 0xe4, 0x50, 0xbd, 0x8c, 0x00, 0x6a, 0x3e, 0xd8, 0x21, 0x9d, 0xbd,
  0xf1, 0x45, 0xc8, 0x3d, 0x9c, 0x02, 0xa5, 0xbd, 0xd0, 0xf4, 0x26, 0xbd,
  0x11, 0x9a, 0x76, 0xbd, 0xc8, 0xea, 0x85, 0xbe, 0xea, 0xdb, 0xc1, 0xbc,
  0x3d, 0xbc, 0x60, 0x3e, 0x27, 0x2f, 0x47, 0xbd, 0x76, 0x28, 0x3f, 0x3d,
  0xf4, 0xa5, 0x58, 0xbe, 0xb3, 0x0b, 0x7a, 0xbe, 0x69, 0x50, 0x30, 0xbe,
  0x05, 0x82, 0xe4, 0xbd, 0xf8, 0x41, 0x0a, 0xbe, 0x9f, 0x33, 0x44, 0x3d,
  0x69, 0x58, 0x3f, 0x3c, 0x39, 0xe4, 0x6a, 0xbd, 0x61, 0x19, 0x5c, 0xbe,
  0xcc, 0xf2, 0x3a, 0xbe, 0x95, 0x20, 0xc1, 0xbd, 0x04, 0x59, 0xba, 0x3d,
  0x61, 0x34, 0x0e, 0x3e, 0x64, 0xa6, 0x82, 0x3e, 0x12, 0x5e, 0x82, 0xbd,
  0x8c, 0xa0, 0xf1, 0x3c, 0xf3, 0x0b, 0x0f, 0xbe, 0xb2, 0x46, 0xab, 0x39,
  0x84, 0x63, 0x68, 0xbd, 0xcf, 0x04, 0x46, 0x3d, 0x22, 0x8e, 0x96, 0x3d,
  0x01, 0xf0, 0x82, 0x3e, 0x75, 0xcf, 0x48, 0x3d, 0xc7, 0x78, 0x67, 0xbd,
  0x89, 0x32, 0x90, 0xbc, 0xc2, 0x03, 0xef, 0xbd, 0xc1, 0x58, 0x9b, 0x3d,
  0xa5, 0x71, 0xd7, 0xbd, 0xc2, 0x46, 0x19, 0x3e, 0xb0, 0xb4, 0x1d, 0x3e,
  0x65, 0x35, 0x90, 0xbc, 0x5e, 0xde, 0x20, 0x3d, 0x90, 0x18, 0x2d, 0xbe,
  0x28, 0x7a, 0xe1, 0x3b, 0x5f, 0x9d, 0x60, 0x3c, 0xe5, 0x10, 0x61, 0x3d,
  0x40, 0x2c, 0xb3, 0x3d, 0x10, 0x60, 0x3b, 0x3e, 0x37, 0x78, 0x21, 0xbd,
  0x1b, 0x02, 0xa6, 0xba, 0xa6, 0x51, 0x29, 0xbc, 0x0e, 0xf9, 0xa6, 0x3d,
  0xf6, 0x10, 0x05, 0x3e, 0x7a, 0xc1, 0xd2, 0xbc, 0xf8, 0xb5, 0x9b, 0x3a,
  0x22, 0x11, 0xd5, 0x3e, 0x00, 0xab, 0x84, 0x3d, 0x40, 0xfd, 0x1e, 0x3e,
  0x12, 0x02, 0x3e, 0x3b, 0xee, 0x82, 0x14, 0x3e, 0xc4, 0x14, 0xe3, 0x3c,
  0x4e, 0x30, 0xba, 0x3d, 0x18, 0x72, 0x03, 0xbc, 0xa7, 0x0b, 0x35, 0x3e,
  0x00, 0xb7, 0xe6, 0x3d, 0x41, 0x3c, 0x65, 0x3e, 0x80, 0x79, 0x06, 0xbd,
  0x1b, 0xad, 0xa7, 0x3d, 0x54, 0x0d, 0x15, 0xbd, 0x44, 0xc1, 0x71, 0x3d,
  0xaa, 0xea, 0x3c, 0x3d, 0x10, 0xbd, 0x0b, 0x3f, 0x81, 0x48, 0x02, 0x3e,
  0x81, 0x4c, 0xa2, 0x3e, 0x82, 0x40, 0x98, 0xbc, 0x01, 0xd7, 0x7f, 0x3e,
  0x8b, 0xee, 0x99, 0x3e, 0x04, 0x81, 0x8b, 0x3e, 0x59, 0x1d, 0x46, 0x3e,
  0xd3, 0x71, 0xf7, 0x3e, 0xe9, 0x5a, 0xbc, 0x3d, 0x4c, 0x6d, 0xd5, 0x3e,
  0x4d, 0x45, 0x14, 0xbc, 0xbf, 0xc4, 0x81, 0x3e, 0xf7, 0x12, 0x76, 0x3e,
  0x65, 0x0b, 0xd0, 0x3e, 0x93, 0x36, 0x53, 0x3e, 0x53, 0x0b, 0xab, 0x3e,
  0x43, 0x58, 0x17, 0x3e, 0xd6, 0x05, 0x8d, 0x3e, 0xb7, 0x5a, 0xa4, 0xbd,
  0xf6, 0x52, 0x8a, 0x3d, 0x13, 0x3e, 0x84, 0x3e, 0xb0, 0x20, 0x32, 0x3e,
  0x09, 0x9b, 0x57, 0x3e, 0x08, 0xee, 0x14, 0x3e, 0x79, 0x15, 0xd1, 0xbe,
  0x5f, 0xbf, 0x94, 0xbe, 0x0d, 0x15, 0x35, 0xbf, 0xd6, 0x16, 0x8b, 0xbe,
  0x70, 0x0d, 0x27, 0xbe, 0x25, 0x45, 0x19, 0xbe, 0x15, 0xff, 0x88, 0xbe,
  0x11, 0xa9, 0x57, 0x3e, 0xbd, 0x94, 0x05, 0xbf, 0x24, 0x88, 0x94, 0xbe,
  0xfd, 0x14, 0xe2, 0xbe, 0xc2, 0x79, 0xf4, 0xbd, 0x69, 0x97, 0x64, 0xbe,
  0xc7, 0x7d, 0xa0, 0xbd, 0xee, 0x97, 0x93, 0xbe, 0xe8, 0xf7, 0x8b, 0x3d,
  0x4d, 0xe3, 0xfd, 0xbd, 0xc4, 0xcb, 0xa8, 0x3d, 0x7a, 0xa4, 0xd3, 0xbe,
  0x8f, 0x0d, 0x2a, 0xbc, 0xd8, 0xd1, 0x40, 0x3e, 0x57, 0x5c, 0xee, 0xbc,
  0x42, 0x90, 0x70, 0xbb, 0xdf, 0x0d, 0x64, 0x3e, 0xac, 0x6b, 0x69, 0x3e,
  0x3e, 0x44, 0x20, 0x3e, 0xb6, 0x87, 0x3f, 0x3e, 0x65, 0x88, 0xa2, 0x3e,
  0x3c, 0x05, 0x6d, 0x3e, 0x9b, 0x4e, 0x98, 0x3e, 0xac, 0x43, 0x8a, 0x3e,
  0xcb, 0xc5, 0xa6, 0x3e, 0x92, 0xf3, 0x9f, 0x3e, 0xd1, 0x5f, 0x78, 0x3e,
  0x95, 0x72, 0xff, 0x3d, 0x3c, 0x78, 0xe9, 0x3e, 0x07, 0x10, 0x37, 0x3e,
  0x9e, 0x14, 0x11, 0x3e, 0xb3, 0xe8, 0x9d, 0x3e, 0xb8, 0xd0, 0x9b, 0x3d,
  0xa7, 0x1b, 0x08, 0x3e, 0x9d, 0x76, 0xc2, 0xbd, 0xf4, 0xa0, 0x13, 0xbc,
  0x7d, 0xf0, 0x3b, 0xbe, 0x4b, 0x03, 0x49, 0x3d, 0xb4, 0x26, 0xfe, 0xbd,
  0xb7, 0xe3, 0x0c, 0x3e, 0x7f, 0xed, 0x86, 0x3e, 0x41, 0xd2, 0xcd, 0x3c,
  0x00, 0xce, 0x22, 0x3e, 0x1d, 0xfb, 0x19, 0xbd, 0x3d, 0xb0, 0x51, 0x3d,
  0x2d, 0x20, 0x1b, 0x3e, 0xfe, 0xbb, 0x83, 0x3e, 0x7e, 0xfa, 0x2b, 0x3e,
  0x26, 0x23, 0x55, 0x3e, 0xed, 0x1c, 0xfa, 0x3d, 0xe3, 0x02, 0xec, 0x3d,
  0xcf, 0x9d, 0xb6, 0xbd, 0x01, 0x0c, 0xcc, 0x3d, 0x22, 0xfb, 0x7e, 0x3e,
  0x68, 0x9d, 0x42, 0x3e, 0x84, 0xea, 0x72, 0x3e, 0x9d, 0x66, 0xb2, 0xbd,
  0x0f, 0x4e, 0x90, 0x3c, 0x89, 0x1c, 0x10, 0xbc, 0x28, 0x6c, 0xa0, 0xbd,
  0xd4, 0xf5, 0x45, 0xbe, 0x17, 0x6b, 0x1a, 0xbd, 0x13, 0x65, 0xe6, 0xbd,
  0x3c, 0xa5, 0xbf, 0xbc, 0x1d, 0x93, 0x33, 0x3e, 0x18, 0x7a, 0x34, 0x3e,
  0xae, 0xb6, 0x3a, 0x3c, 0xa9, 0xb2, 0xe8, 0x3d, 0x33, 0x1a, 0x92, 0x3d,
  0x62, 0x23, 0xcc, 0x3d, 0xc9, 0xec, 0xdd, 0x3d, 0x52, 0xdf, 0x9d, 0xbc,
  0xe6, 0x9b, 0x8e, 0x3e, 0x69, 0x3a, 0x53, 0x3d, 0xa4, 0xac, 0x34, 0x3e,
  0xda, 0x56, 0xe1, 0xbc, 0xdc, 0x80, 0x27, 0xbd, 0xac, 0xac, 0x20, 0x3e,
  0x7e, 0x75, 0x81, 0x3d, 0xce, 0x09, 0xdf, 0x3d, 0x50, 0x87, 0xbc, 0x3d,
  0xc7, 0x7d, 0xca, 0x3d, 0x9c, 0x21, 0xb2, 0xbd, 0x94, 0xe7, 0xbd, 0x3d,
  0x92, 0x92, 0xeb, 0xbd, 0xfa, 0x28, 0x2d, 0x3e, 0x62, 0x1c, 0xf4, 0xbd,
  0x51, 0xc0, 0x01, 0x3d, 0x14, 0x33, 0xb0, 0x3d, 0x0f, 0x17, 0xc8, 0x3a,
  0x98, 0x74, 0x3f, 0x3d, 0xb5, 0xde, 0x2b, 0xbe, 0xf7, 0x82, 0x18, 0xbd,
  0xde, 0xe7, 0x03, 0x3e, 0xe7, 0x3b, 0xef, 0xbb, 0xbd, 0x37, 0xd8, 0xbd,
  0x3b, 0x76, 0x09, 0xbd, 0xf5, 0x52, 0xf2, 0x3d, 0xd4, 0x23, 0x00, 0x3e,
  0xdd, 0x2d, 0xc2, 0xbd, 0x3b, 0x8c, 0xd9, 0xbc, 0xf1, 0x2d, 0xf5, 0xbc,
  0x82, 0x35, 0xcb, 0xbd, 0x62, 0xe1, 0x4b, 0xbd, 0x27, 0x53, 0xcf, 0x3a,
  0xa6, 0x98, 0x6b, 0xbc, 0x5e, 0x56, 0xd9, 0x3d, 0x7f, 0xea, 0x35, 0xbe,
  0x09, 0x04, 0x6e, 0xbc, 0x58, 0xfb, 0x8c, 0x3c, 0x08, 0x70, 0x3b, 0xbe,
  0x96, 0x0f, 0x5d, 0x3c, 0xdc, 0xee, 0x5b, 0x3e, 0xd7, 0x10, 0x2f, 0xbe,
  0xdc, 0xb1, 0x35, 0xbe, 0xd5, 0x58, 0x78, 0xbe, 0x40, 0x90, 0x8a, 0xbd,
  0x5e, 0x9c, 0x0e, 0x3c, 0x5b, 0x5f, 0xd3, 0xbc, 0x46, 0x70, 0x20, 0x3d,
  0xc2, 0x1c, 0x32, 0x3e, 0x77, 0x12, 0x47, 0xbc, 0x51, 0x4e, 0x29, 0x3c,
  0x76, 0xa1, 0x72, 0xbd, 0x14, 0xa0, 0x9b, 0xbe, 0x4c, 0x37, 0x14, 0xbe,
  0x1c, 0xdf, 0x09, 0xbe, 0x09, 0xb1, 0x0a, 0xbe, 0xbc, 0xe6, 0x28, 0x3e,
  0xf7, 0x35, 0xaa, 0x3d, 0x45, 0x72, 0x04, 0x3e, 0x14, 0x06, 0xc1, 0xbd,
  0xc7, 0xbb, 0x61, 0xbe, 0x2e, 0xc6, 0xe8, 0xbb, 0xcf, 0x9f, 0xe5, 0xbd,
  0x00, 0xa5, 0x04, 0x3d, 0x67, 0x0b, 0xba, 0x3d, 0x77, 0x14, 0x74, 0xbe,
  0x6a, 0xcb, 0x6b, 0xbd, 0x41, 0x21, 0x6e, 0xbe, 0x83, 0x71, 0x21, 0xbd,
  0x52, 0x4d, 0x3e, 0x3d, 0x8b, 0xd3, 0x70, 0xbe, 0x2c, 0x28, 0xf1, 0xbd,
  0x41, 0xb3, 0x34, 0xbd, 0x88, 0x54, 0x92, 0xbe, 0xa2, 0x2e, 0xca, 0xbd,
  0x61, 0x3f, 0x83, 0xbe, 0x21, 0x8a, 0x89, 0xbe, 0x0c, 0x5d, 0x85, 0xbe,
  0xb9, 0x8f, 0x9f, 0xbe, 0x56, 0xd3, 0xcb, 0xbd, 0x72, 0xbf, 0xd1, 0x3d,
  0x74, 0xff, 0x58, 0xbc, 0x2c, 0xc7, 0xa4, 0xbc, 0x89, 0x65, 0x4b, 0xbe,
  0x64, 0x3b, 0x17, 0xbe, 0xa8, 0x39, 0x13, 0xbd, 0x00, 0xcb, 0x04, 0xbe,
  0x0e, 0xf7, 0x52, 0x3d, 0xda, 0x5a, 0xce, 0xbd, 0x47, 0x89, 0x8b, 0xbe,
  0xca, 0xff, 0x85, 0xbe, 0x9d, 0xff, 0x28, 0xbe, 0x41, 0x20, 0xb8, 0xbe,
  0x3f, 0x21, 0x58, 0xbe, 0xd0, 0x80, 0x05, 0xbf, 0x44, 0xc5, 0xad, 0xbe,
  0x57, 0xc6, 0x01, 0x3e, 0x1f, 0xba, 0x93, 0xbe, 0x45, 0xad, 0xa5, 0xbd,
  0x97, 0x7d, 0x82, 0xbe, 0x4b, 0x58, 0x86, 0xbe, 0x50, 0xd2, 0x0a, 0xbe,
  0xae, 0xc9, 0xa2, 0xbe, 0xff, 0x20, 0x3a, 0xbe, 0x59, 0x68, 0x87, 0x3d,
  0xbf, 0x16, 0x62, 0xbe, 0x10, 0x48, 0xb8, 0xbd, 0x8c, 0x0c, 0x51, 0xbe,
  0xbe, 0x66, 0xc4, 0xbe, 0xb6, 0xcc, 0x80, 0xbe, 0xb4, 0x50, 0xd2, 0xbe,
  0xc8, 0x85, 0x1c, 0xbe, 0x5b, 0xda, 0x4c, 0x3d, 0xd6, 0x04, 0x95, 0x3d,
  0xb4, 0x73, 0x6c, 0x3d, 0xac, 0x3a, 0x1c, 0x3f, 0xe2, 0x89, 0x1a, 0x3d,
  0x17, 0xa6, 0x00, 0x3e, 0x7d, 0x4e, 0x3a, 0xbd, 0x4c, 0xf5, 0xaa, 0x3d,
  0x08, 0xf3, 0x5c, 0xbe, 0x13, 0x78, 0x29, 0x3e, 0xfe, 0x55, 0x49, 0x3e,
  0xf0, 0xdf, 0x1e, 0x3f, 0x69, 0x80, 0x5f, 0x3e, 0x58, 0x63, 0x6d, 0x3e,
  0xb7, 0x16, 0xb6, 0xbc, 0x25, 0x3a, 0x01, 0x3e, 0x66, 0x74, 0x38, 0x3d,
  0x78, 0x4d, 0x46, 0xbe, 0xd1, 0x32, 0x08, 0xbe, 0xf0, 0x60, 0x36, 0x3f,
  0xbc, 0xd1, 0x66, 0xbe, 0x44, 0x6f, 0x1d, 0xbe, 0x7d, 0xe6, 0x99, 0x3d,
  0xda, 0x48, 0xce, 0xbd, 0xec, 0x93, 0x72, 0xbe, 0x7c, 0x82, 0xa7, 0x3d,
  0xda, 0xcf, 0x7d, 0xbd, 0xbd, 0x1b, 0x14, 0x3e, 0x57, 0x6e, 0x83, 0xbe,
  0xa1, 0x51, 0x93, 0xbc, 0x5c, 0x4a, 0xe0, 0x3a, 0xbb, 0x23, 0xfe, 0xbb,
  0xf6, 0x27, 0x21, 0xbe, 0x2f, 0xc0, 0x8c, 0x3c, 0x72, 0xc8, 0x97, 0xbd,
  0x92, 0x3b, 0xc9, 0x3d, 0xa8, 0xbc, 0xd0, 0xbd, 0x66, 0x39, 0x9d, 0xbd,
  0x3a, 0x40, 0x55, 0x3c, 0x3c, 0xd8, 0x84, 0xbd, 0x3e, 0xa8, 0xf2, 0x3d,
  0x16, 0x16, 0xcd, 0xbc, 0xdd, 0x44, 0xcd, 0x3d, 0x5d, 0x28, 0xbb, 0x3e,
  0x16, 0x39, 0xb0, 0x3e, 0x08, 0x6d, 0x9c, 0x3d, 0x13, 0x53, 0x6b, 0x3e,
  0x7e, 0x44, 0x62, 0x3d, 0x24, 0xf7, 0xab, 0xbd, 0x1d, 0xde, 0x3a, 0x3d,
  0x59, 0x89, 0xdc, 0x3d, 0x61, 0xb1, 0x96, 0xbd, 0x9f, 0xd6, 0x35, 0xbe,
  0x5f, 0x6e, 0x0e, 0xbd, 0x22, 0x41, 0x10, 0xbe, 0x9a, 0x28, 0xdf, 0x3d,
  0xc6, 0xde, 0xe9, 0xbd, 0xfb, 0xf3, 0x82, 0x3d, 0x5b, 0x45, 0x90, 0xbc,
  0xc9, 0xc8, 0x95, 0x3e, 0x90, 0x17, 0xa5, 0xbd, 0x5a, 0x75, 0x1a, 0xbd,
  0x86, 0x06, 0x2b, 0xbe, 0xa5, 0xe8, 0x03, 0x3e, 0xc6, 0x10, 0x15, 0x3e,
  0x21, 0xea, 0x50, 0xbc, 0x1c, 0xba, 0x7c, 0x3c, 0x06, 0x11, 0x92, 0x3e,
  0x63, 0xfc, 0x6a, 0x3e, 0x9d, 0xb4, 0x3a, 0x3d, 0x26, 0xce, 0x8a, 0x3c,
  0x64, 0x13, 0xc4, 0x3d, 0x28, 0x36, 0x03, 0xbe, 0x57, 0x20, 0x0a, 0x3c,
  0x15, 0xc6, 0x2f, 0x3c, 0x1d, 0x0a, 0x74, 0x3c, 0x19, 0xbb, 0x96, 0xbd,
  0x9c, 0x64, 0x84, 0x3d, 0x44, 0xb7, 0x46, 0xbd, 0x55, 0xaf, 0x28, 0x3d,
  0xa9, 0xe3, 0x01, 0xbe, 0x3f, 0xe3, 0xeb, 0x3d, 0x8e, 0x8d, 0xff, 0xbc,
  0xf9, 0xb8, 0x28, 0x3e, 0xff, 0xcc, 0x4f, 0xbd, 0x7f, 0xda, 0xf6, 0xbc,
  0xe9, 0x7c, 0xb2, 0xbc, 0x51, 0x77, 0xd1, 0xbb, 0x7f, 0x89, 0x0f, 0xbd,
  0xc2, 0xde, 0xcb, 0xbd, 0x98, 0x33, 0x17, 0x3d, 0x3b, 0xb2, 0x8f, 0x3d,
  0x04, 0x78, 0x3a, 0x3e, 0xde, 0xe1, 0x07, 0x3e, 0xf9, 0xaa, 0xe6, 0x3d,
  0x37, 0x84, 0x44, 0xbd, 0xeb, 0xfd, 0x3b, 0xbe, 0xe5, 0x26, 0x81, 0x3d,
  0xde, 0x44, 0x88, 0x3c, 0x24, 0x57, 0x1e, 0x3e, 0xdf, 0x60, 0x21, 0xbe,
  0xb1, 0x0f, 0xc2, 0x3c, 0x2d, 0xb8, 0xd2, 0xbd, 0xb7, 0x3b, 0xea, 0x3c,
  0x6c, 0xbf, 0x33, 0xbe, 0x7e, 0x9c, 0xcc, 0x3d, 0xbc, 0xd1, 0xb2, 0xbd,
  0x24, 0xe8, 0x71, 0x3d, 0x5d, 0x5e, 0x4e, 0xbe, 0x9c, 0x6f, 0x93, 0x3c,
  0x0c, 0x26, 0xa3, 0xbc, 0x36, 0x4d, 0x63, 0x39, 0x06, 0x2f, 0xa3, 0x3d,
  0x3d, 0xa8, 0x94, 0xbc, 0x57, 0x87, 0xfc, 0xbd, 0x5c, 0xaf, 0x28, 0x3e,
  0xe4, 0x2e, 0x21, 0xbe, 0xc1, 0x6f, 0xdd, 0xbd, 0xa3, 0xce, 0x40, 0xbd,
  0x58, 0xff, 0x05, 0x3d, 0x5f, 0xfc, 0x32, 0xbe, 0x0b, 0x5b, 0xf1, 0x3d,
  0x70, 0xbe, 0x0e, 0x3d, 0xb5, 0x5b, 0xde, 0x3d, 0x5e, 0xf4, 0x8d, 0xbe,
  0xa9, 0x2e, 0x56, 0xbd, 0x2d, 0xc9, 0x1b, 0xbe, 0x33, 0x58, 0xaa, 0x3d,
  0xf4, 0x65, 0x3c, 0xbe, 0x76, 0xe0, 0x41, 0xbd, 0xf1, 0xe8, 0xad, 0xbd,
  0xf5, 0xd7, 0x94, 0x3e, 0x47, 0xbd, 0xa9, 0xbd, 0xfc, 0x3d, 0xef, 0x3d,
  0xd7, 0x2d, 0xf9, 0xbd, 0xd4, 0x53, 0x83, 0x3d, 0x6a, 0xd5, 0xc5, 0xbb,
  0xf7, 0x24, 0x65, 0xbc, 0x1d, 0xc7, 0x79, 0x3c, 0xe4, 0x39, 0x31, 0x3e,
  0xdd, 0x82, 0xad, 0x3d, 0x23, 0xf5, 0x96, 0x3d, 0xe9, 0x12, 0x49, 0xbe,
  0xbf, 0xbd, 0x04, 0xbe, 0x63, 0xed, 0x1f, 0xbe, 0x28, 0x9d, 0x00, 0x3e,
  0x4f, 0x64, 0x76, 0x3d, 0x19, 0x26, 0xec, 0xbd, 0x4c, 0x42, 0xb2, 0xbe,
  0xde, 0xa0, 0xfe, 0x3d, 0x2e, 0xe8, 0x8d, 0xbe, 0xa2, 0x10, 0x6e, 0xbc,
  0xe2, 0x01, 0x49, 0xbe, 0x3e, 0xaa, 0xf4, 0xbc, 0x4b, 0x97, 0xa9, 0x3c,
  0x81, 0x8f, 0x37, 0x3c, 0x23, 0x66, 0x62, 0xbe, 0xd8, 0xce, 0x91, 0x3d,
  0x43, 0x6d, 0x20, 0xbe, 0x11, 0x81, 0xa2, 0xbc, 0x67, 0x30, 0xe5, 0xbd,
  0xe5, 0x4b, 0x71, 0x3d, 0x43, 0xea, 0x02, 0x3d, 0xab, 0xb3, 0x9c, 0x3e,
  0x82, 0x6d, 0xe2, 0xbd, 0x2a, 0xbe, 0xd7, 0x3d, 0xc9, 0x53, 0x81, 0xbc,
  0x32, 0xb4, 0x3b, 0x3d, 0xfd, 0x6c, 0x12, 0xbe, 0x62, 0xa6, 0x9c, 0x3d,
  0x3c, 0x4c, 0xde, 0xbd, 0x4a, 0xbd, 0x47, 0xbe, 0xdb, 0xb4, 0xef, 0xbe,
  0xc6, 0xca, 0x0d, 0x3e, 0x27, 0x86, 0x4e, 0xbe, 0xc3, 0x93, 0xa5, 0xbc,
  0x48, 0x47, 0x37, 0xbe, 0xcd, 0xe8, 0x50, 0x3d, 0x56, 0x38, 0xda, 0xbc,
  0x15, 0xb9, 0xea, 0xbd, 0xc1, 0x32, 0xc7, 0xbe, 0xdf, 0x74, 0xbd, 0x3d,
  0xb5, 0xef, 0xea, 0xbd, 0x52, 0x47, 0x5b, 0x3d, 0x8f, 0x84, 0x2c, 0xbd,
  0xc5, 0x84, 0x2d, 0x3d, 0xcb, 0x66, 0x44, 0x3d, 0x57, 0xe5, 0x46, 0x3e,
  0xf0, 0xb5, 0x38, 0x3d, 0x8f, 0x02, 0x31, 0x3e, 0xda, 0xd7, 0x35, 0x3e,
  0x20, 0x95, 0xc5, 0x3d, 0x38, 0x51, 0x36, 0xbd, 0x1b, 0x74, 0x84, 0x3e,
  0xb5, 0x20, 0xa5, 0x3d, 0x3e, 0x47, 0x3a, 0x3f, 0xaa, 0x31, 0x20, 0x3e,
  0xed, 0x84, 0x2c, 0xbd, 0xc1, 0x89, 0xf1, 0x3d, 0xde, 0xc8, 0x61, 0x3e,
  0x6f, 0x85, 0x31, 0x3c, 0x9c, 0x45, 0x47, 0x3e, 0xe8, 0x9e, 0x1d, 0x3e,
  0xae, 0x5d, 0x11, 0x3f, 0x78, 0x00, 0x50, 0xbd, 0xff, 0xb4, 0x6d, 0x3e,
  0x1b, 0xd9, 0xa2, 0x3b, 0x04, 0x1d, 0x5b, 0x3e, 0x24, 0x8e, 0x92, 0xbc,
  0x07, 0xcf, 0x06, 0x3e, 0x3e, 0x0f, 0x90, 0x3d, 0x95, 0x8b, 0x18, 0x3f,
  0xac, 0xd6, 0x09, 0x3e, 0xee, 0x3e, 0x23, 0x3d, 0xc6, 0x8a, 0x46, 0xbd,
  0xcd, 0xc1, 0xc3, 0x3d, 0xc4, 0x9e, 0x5c, 0xbd, 0xbc, 0x8c, 0xb2, 0xbc,
  0xd9, 0x7c, 0x81, 0x3d, 0x30, 0xde, 0xda, 0x3e, 0x38, 0xdf, 0x96, 0xb8,
  0x7d, 0x9c, 0x88, 0xbd, 0xf0, 0x81, 0xaa, 0xbc, 0x4c, 0xdd, 0x36, 0xbd,
  0xfc, 0x25, 0xda, 0xbd, 0xc8, 0x3c, 0xd5, 0xba, 0x91, 0x05, 0x2c, 0x3d,
  0x0b, 0x7a, 0x8a, 0x3e, 0x15, 0x3a, 0xf0, 0x3d, 0x9f, 0x13, 0x01, 0xbe,
  0xf0, 0xbd, 0x36, 0xbd, 0xf1, 0x17, 0xeb, 0xbd, 0x91, 0xd7, 0x8b, 0x3d,
  0x98, 0xd7, 0x88, 0x3d, 0xfa, 0x1b, 0x8c, 0xbd, 0x8b, 0xc3, 0xb0, 0x3e,
  0x06, 0x46, 0x80, 0x3c, 0xbc, 0x99, 0xa9, 0xbd, 0x24, 0x79, 0xc9, 0xbc,
  0xa4, 0x07, 0x3f, 0x3c, 0xaf, 0x9f, 0xed, 0xbd, 0x15, 0x16, 0xdf, 0x3d,
  0x58, 0x57, 0xc6, 0xbc, 0x91, 0x98, 0xc8, 0x3e, 0x0c, 0xb2, 0x01, 0x3d,
  0x0c, 0x9e, 0x91, 0xbd, 0x3c, 0x81, 0xc7, 0x3b, 0x5e, 0x0c, 0x2f, 0xbd,
  0x25, 0x16, 0x30, 0xbd, 0xe2, 0xc2, 0x3d, 0xbd, 0x2a, 0xc9, 0x3b, 0xbd,
  0x91, 0xa4, 0x67, 0x3e, 0x2a, 0xb3, 0xa0, 0xbd, 0x70, 0xa8, 0x34, 0x3d,
  0xa9, 0x0d, 0x71, 0xbd, 0x10, 0xb4, 0xc6, 0xbd, 0x47, 0x26, 0x17, 0xbd,
  0x5d, 0x34, 0x46, 0xbd, 0xc8, 0xdc, 0xa3, 0xbd, 0x4e, 0x28, 0xf0, 0x3e,
  0xb1, 0xd9, 0x8a, 0x3d, 0x39, 0xef, 0x31, 0xbd, 0x3c, 0xeb, 0x13, 0xbc,
  0xd7, 0x18, 0xc2, 0xbd, 0x73, 0xa6, 0x1b, 0xbe, 0x24, 0x34, 0xf8, 0x3d,
  0x7a, 0xd9, 0x05, 0xbe, 0xf1, 0xf6, 0x69, 0x3e, 0x12, 0x48, 0x24, 0x3e,
  0x63, 0xd5, 0xd1, 0x3c, 0x73, 0x4d, 0x6c, 0x3d, 0x5b, 0x9d, 0xc4, 0xbd,
  0xc4, 0x23, 0x1e, 0x3d, 0xac, 0x18, 0x7c, 0x3d, 0x5c, 0x77, 0x34, 0xbe,
  0xe3, 0xa2, 0x96, 0x3e, 0x97, 0xd9, 0x25, 0xbd, 0x86, 0x2a, 0x61, 0x3d,
  0xad, 0xdf, 0xf6, 0xbd, 0xc0, 0xfa, 0x23, 0xbd, 0xbf, 0x6e, 0x72, 0x3d,
  0x63, 0x2f, 0xca, 0x3c, 0xc6, 0x61, 0x11, 0xbd, 0x0f, 0x83, 0xd4, 0x3e,
  0x06, 0x40, 0xb0, 0xbc, 0x2e, 0x20, 0x3f, 0xbd, 0x91, 0x8e, 0xc8, 0xbd,
  0x59, 0x63, 0x00, 0xbc, 0x95, 0x68, 0x49, 0xbd, 0x48, 0xfe, 0x10, 0x3e,
  0xc7, 0xbc, 0x1b, 0xbd, 0x3b, 0xce, 0x2e, 0x3e, 0xd1, 0x62, 0xf1, 0x3d,
  0x7d, 0xa7, 0x9d, 0xbd, 0xb7, 0xe9, 0xa1, 0xbd, 0x3e, 0xfb, 0x48, 0xbe,
  0xb6, 0x63, 0xf7, 0xbd, 0xfa, 0x37, 0x9a, 0x3d, 0xaf, 0x5e, 0x9d, 0xbd,
  0xdf, 0xd5, 0x5b, 0x3e, 0x82, 0x89, 0x6f, 0x3d, 0x42, 0x33, 0xd0, 0x3c,
  0xc8, 0x2d, 0x3b, 0xbe, 0x7e, 0xdd, 0x88, 0x3c, 0x30, 0x8b, 0x1e, 0xbd,
  0x3e, 0xd9, 0xcc, 0x3d, 0x57, 0x1d, 0x83, 0xbd, 0x07, 0xe3, 0xdb, 0x3e,
  0x3f, 0xd2, 0x2a, 0xbe, 0xd8, 0x7e, 0x10, 0x3c, 0x8a, 0xff, 0x39, 0x3d,
  0x50, 0x60, 0x96, 0x3d, 0x4a, 0xe1, 0x6f, 0xbe, 0x1e, 0xe5, 0x4b, 0x3e,
  0x90, 0xf7, 0xa8, 0xbc, 0x2e, 0xdb, 0x9a, 0x3e, 0xb2, 0xd4, 0x20, 0x3d,
  0x93, 0x9c, 0xa2, 0xbc, 0x13, 0x3c, 0x20, 0xbe, 0x08, 0x6e, 0x80, 0x3b,
  0xe8, 0xd4, 0xbe, 0xbc, 0x03, 0x12, 0xe4, 0x3d, 0x2d, 0x49, 0xa1, 0xbd,
  0xec, 0x70, 0x8c, 0x3e, 0xa6, 0xd8, 0x99, 0x3d, 0x37, 0x04, 0xff, 0x3c,
  0xad, 0x75, 0x20, 0xbd, 0xf2, 0x24, 0x41, 0x3d, 0x53, 0x5f, 0x55, 0x3d,
  0xf2, 0xfc, 0xe6, 0x3c, 0x93, 0xfe, 0x82, 0xbd, 0x79, 0x8e, 0x66, 0x3e,
  0x40, 0xc1, 0x21, 0x3e, 0x17, 0xa3, 0x18, 0xbe, 0x7e, 0xf3, 0x3c, 0xbb,
  0xaf, 0x38, 0x86, 0xbd, 0x0a, 0xe3, 0xb5, 0xbd, 0xf6, 0x56, 0x27, 0x3d,
  0x7c, 0x2d, 0x60, 0xbe, 0x23, 0xaa, 0x40, 0x3e, 0xcb, 0x5d, 0xd9, 0x3d,
  0x51, 0x31, 0x10, 0x3d, 0x8b, 0x5b, 0x84, 0x3d, 0x09, 0x6d, 0x44, 0xbe,
  0xbc, 0x99, 0xb9, 0xbd, 0x42, 0x28, 0xf5, 0x3d, 0xa5, 0xae, 0xa9, 0x3c,
  0x50, 0x7e, 0xb1, 0x3e, 0x08, 0x63, 0x66, 0x3d, 0x66, 0x80, 0x75, 0xbd,
  0xd1, 0xa3, 0xf9, 0xbd, 0x43, 0x6c, 0xb2, 0xbd, 0xe9, 0xd2, 0xa8, 0xbd,
  0xb3, 0x3f, 0x92, 0xbd, 0xef, 0x62, 0x86, 0xbd, 0x27, 0x4c, 0x85, 0x3e,
  0xf3, 0x87, 0x18, 0x3c, 0x0f, 0xdf, 0x5c, 0xbd, 0xfe, 0x5e, 0xf4, 0x3b,
  0x50, 0x92, 0x0f, 0xbd, 0xa3, 0xd7, 0x05, 0xbe, 0x15, 0xc5, 0x2a, 0x3e,
  0x14, 0xb3, 0x3d, 0xbe, 0xc5, 0x9c, 0x92, 0x3e, 0xfc, 0x13, 0x7d, 0xbc,
  0xb5, 0x91, 0x09, 0xbe, 0xa7, 0x0e, 0x4a, 0xbd, 0x23, 0x12, 0x58, 0xbd,
  0xe9, 0x5d, 0xc1, 0xbd, 0xa5, 0xcf, 0x37, 0xbd, 0x5b, 0x8f, 0x31, 0xbe,
  0x65, 0x48, 0x88, 0x3e, 0x47, 0x18, 0xbf, 0x3d, 0x47, 0x94, 0x84, 0xbd,
  0x53, 0x7e, 0x4d, 0xbd, 0x96, 0xda, 0x41, 0xbe, 0x99, 0x63, 0x47, 0x3d,
  0x80, 0xc9, 0xfd, 0xbc, 0x40, 0xbc, 0x3b, 0xbe, 0xe5, 0x5c, 0xd4, 0x3e,
  0x3f, 0x92, 0x32, 0xbd, 0xa0, 0x20, 0x01, 0xbe, 0xa1, 0x4a, 0xfb, 0xbd,
  0x0d, 0xa4, 0x13, 0xbe, 0xa0, 0x3a, 0x05, 0xbe, 0xf4, 0x2d, 0xee, 0x3e,
  0x54, 0xcd, 0x3a, 0x3e, 0x9a, 0xc9, 0x4f, 0xbe, 0x60, 0xae, 0xf3, 0x3d,
  0xb3, 0xb7, 0xfa, 0x3e, 0x8a, 0x07, 0x10, 0x3d, 0x59, 0x98, 0x8b, 0x3e,
  0x09, 0x0b, 0xc5, 0xbd, 0x28, 0x1c, 0xef, 0x3e, 0xf2, 0x40, 0xa7, 0x3e,
  0x17, 0x96, 0xfc, 0xbe, 0xd6, 0xb9, 0x99, 0x3e, 0x3f, 0xa8, 0x26, 0x3f,
  0x71, 0xcf, 0x7c, 0x3d, 0x5e, 0x0f, 0xca, 0x3e, 0xdc, 0xac, 0xa2, 0xbe,
  0x3d, 0x92, 0x4c, 0x3f, 0x8c, 0x29, 0x37, 0x3e, 0x93, 0xab, 0x46, 0xbf,
  0xe4, 0x2a, 0xe3, 0xbd, 0xa1, 0x84, 0x1b, 0x3f, 0x57, 0xf2, 0x16, 0xbe,
  0x3e, 0x96, 0x5e, 0x3e, 0x2b, 0xd0, 0x9f, 0x3d, 0x9f, 0xc0, 0xc7, 0x3d,
  0xe8, 0x87, 0x3a, 0x3b, 0x85, 0x7f, 0x6f, 0xbe, 0x88, 0x40, 0x70, 0x3d,
  0xbd, 0xa1, 0x1b, 0xbb, 0x08, 0x7f, 0xd1, 0xbc, 0x88, 0x7f, 0x86, 0xbc,
  0x30, 0xf5, 0xae, 0x3b, 0x3e, 0xd7, 0x0f, 0x3c, 0xbd, 0x9d, 0xd5, 0x3d,
  0xab, 0x7b, 0x82, 0xbe, 0xdd, 0xd4, 0xed, 0xbd, 0xdb, 0x85, 0xcd, 0x3d,
  0x77, 0xb0, 0x67, 0x3d, 0x5b, 0x6d, 0x98, 0x3c, 0x08, 0x7f, 0xea, 0xbd,
  0x76, 0xc6, 0x4e, 0xbd, 0x73, 0xa1, 0xbb, 0xbd, 0xb0, 0x6d, 0x21, 0xbf,
  0xa4, 0xd0, 0xc0, 0xbe, 0x8b, 0x8c, 0x32, 0x3c, 0xe2, 0x26, 0x9e, 0xbe,
  0x3b, 0x64, 0x37, 0xbc, 0x98, 0x05, 0x23, 0xbe, 0x7e, 0xa9, 0x90, 0x3c,
  0x08, 0x73, 0xaf, 0x3d, 0x4c, 0xee, 0x13, 0x3e, 0x80, 0xd4, 0x00, 0x3d,
  0xe6, 0xd4, 0x7d, 0x3b, 0x9d, 0x8c, 0xac, 0x3d, 0xe4, 0x15, 0x2f, 0x3d,
  0xa8, 0xb1, 0xcc, 0xbd, 0x29, 0x26, 0xa0, 0x3d, 0x9d, 0x4e, 0x4d, 0x3e,
  0x06, 0x3e, 0x8c, 0xbe, 0xff, 0xb9, 0x44, 0x3e, 0x4a, 0x12, 0x47, 0x3c,
  0x71, 0x20, 0x9b, 0x3d, 0x56, 0x27, 0x39, 0xbc, 0x28, 0x85, 0x65, 0xbe,
  0xfa, 0x48, 0x25, 0xbd, 0x42, 0xcc, 0xba, 0x3c, 0x8a, 0x45, 0x84, 0xbe,
  0x8b, 0x63, 0x23, 0xbe, 0x18, 0x96, 0xa3, 0x3d, 0x88, 0x7d, 0x0b, 0xbe,
  0xf1, 0x51, 0xba, 0x3d, 0xb0, 0x2a, 0xf8, 0xbd, 0xcb, 0x99, 0x1f, 0x3e,
  0xea, 0xad, 0xde, 0xbd, 0xd8, 0x9e, 0x87, 0xbd, 0xc5, 0xc4, 0xdf, 0x3c,
  0x16, 0xe4, 0xc5, 0xbd, 0x82, 0x70, 0xc4, 0x3d, 0x4e, 0x3e, 0x9a, 0xbd,
  0x73, 0x40, 0x1f, 0x3d, 0x6b, 0xd0, 0x11, 0x3e, 0xbf, 0x83, 0x9a, 0x3c,
  0xdb, 0x19, 0x20, 0xbe, 0x49, 0xa9, 0xba, 0xbd, 0x9f, 0x71, 0xd6, 0x3d,
  0x3c, 0xd0, 0x8c, 0x3d, 0xfa, 0xdb, 0xdb, 0x3d, 0x9d, 0xaa, 0x37, 0x3d,
  0x4c, 0x84, 0x28, 0x3d, 0x7b, 0x8c, 0xc6, 0x3d, 0x28, 0x9a, 0x3d, 0xbe,
  0xd3, 0x2b, 0xc4, 0xbc, 0x3a, 0xd9, 0x71, 0xbd, 0xc4, 0x52, 0xdb, 0xbc,
  0x3c, 0x25, 0x4f, 0x3d, 0xea, 0x09, 0x14, 0xbd, 0x19, 0x7f, 0xdd, 0xbd,
  0x1a, 0xf4, 0xf8, 0x3d, 0xa0, 0x8e, 0xc1, 0x3d, 0xf3, 0xa0, 0xc1, 0xbc,
  0xe8, 0xdb, 0xe4, 0xbd, 0x7a, 0x86, 0x65, 0x3d, 0x96, 0xc9, 0x6f, 0xbd,
  0x90, 0x23, 0x40, 0x3c, 0xe8, 0x20, 0x00, 0xbd, 0x10, 0x11, 0x4c, 0x3c,
  0x9c, 0x7c, 0x03, 0xbc, 0x99, 0x60, 0x2c, 0x3d, 0x59, 0x45, 0xcb, 0x3d,
  0x8b, 0x29, 0x1d, 0xbe, 0x10, 0xbc, 0xf8, 0xbc, 0x36, 0xd7, 0x86, 0x3c,
  0x7a, 0x29, 0xaa, 0xbc, 0xc9, 0xb3, 0x55, 0x3c, 0xfd, 0x9b, 0x5b, 0xbe,
  0xeb, 0x7b, 0x0f, 0xbd, 0x61, 0xbf, 0xdf, 0x3d, 0xaf, 0x19, 0x0a, 0xbe,
  0xf5, 0x9f, 0xc2, 0x3d, 0xeb, 0xcd, 0xbf, 0xbc, 0xa4, 0x4a, 0xda, 0xbc,
  0x25, 0xe1, 0xc8, 0x3b, 0xc8, 0x47, 0xa1, 0x3c, 0xdc, 0x46, 0x1b, 0x3d,
  0xd4, 0x94, 0x27, 0xbe, 0xee, 0x99, 0x00, 0x3d, 0x01, 0xd3, 0x91, 0xbd,
  0x80, 0x03, 0xef, 0x3d, 0x87, 0x7c, 0x20, 0x3d, 0x76, 0x72, 0x28, 0x3e,
  0x91, 0x37, 0x09, 0x3e, 0xf1, 0x03, 0x9e, 0xbd, 0x49, 0x59, 0x38, 0x3d,
  0xd9, 0x1a, 0xa0, 0x3d, 0xb0, 0x1c, 0xee, 0x3d, 0xfd, 0x52, 0xc4, 0xbc,
  0x06, 0xfa, 0x1c, 0xbd, 0x6a, 0x75, 0xdf, 0xbb, 0x6e, 0xc7, 0x08, 0xbe,
  0xc9, 0xbf, 0x05, 0x3d, 0x78, 0xeb, 0x29, 0x3d, 0x0b, 0x9e, 0x33, 0xbc,
  0xe2, 0x9a, 0x56, 0xbc, 0x52, 0x3e, 0x82, 0x3d, 0x8c, 0x10, 0xb3, 0xbd,
  0xa1, 0x6b, 0x5c, 0x3d, 0xff, 0x48, 0x27, 0x3e, 0xbe, 0x1e, 0xaf, 0x3d,
  0x37, 0x40, 0x04, 0xbe, 0x18, 0xdf, 0x59, 0xbd, 0xa9, 0x63, 0xb5, 0xbd,
  0x47, 0xdc, 0x45, 0x3d, 0x3c, 0xb9, 0xba, 0xbd, 0x9e, 0x4a, 0x09, 0x3e,
  0x62, 0x32, 0x05, 0x3e, 0x7e, 0xc2, 0xaa, 0x3c, 0xa3, 0x35, 0x96, 0xbd,
  0xfd, 0x8d, 0x84, 0x3c, 0x2f, 0xfe, 0xb5, 0xbc, 0x9d, 0xb0, 0xd7, 0x3d,
  0x63, 0x0f, 0xc6, 0xbd, 0x73, 0x76, 0x91, 0x3d, 0x30, 0x4a, 0xab, 0xbd,
  0xd2, 0x2f, 0xcd, 0xbc, 0xbe, 0xd8, 0x90, 0x3d, 0x9b, 0x96, 0x17, 0xbd,
  0x58, 0xd8, 0x73, 0x3d, 0x2d, 0x58, 0xa7, 0x3c, 0xc5, 0xd2, 0x5a, 0xbd,
  0x12, 0xf7, 0x1b, 0x3e, 0xc4, 0x36, 0x30, 0x3d, 0x7f, 0xbc, 0x2c, 0x3e,
  0xc1, 0x92, 0x01, 0xbe, 0xb7, 0x1c, 0xf0, 0xbb, 0x9c, 0xa2, 0xc4, 0x3c,
  0x2f, 0xb0, 0x1c, 0x3b, 0x70, 0xc7, 0xc3, 0xbc, 0xf7, 0x77, 0xd7, 0x3d,
  0xf8, 0x95, 0xa4, 0x3d, 0xd2, 0x6e, 0x99, 0x3c, 0x5b, 0x51, 0x61, 0x3d,
  0x63, 0x39, 0x19, 0xbe, 0x56, 0x2e, 0x0b, 0x3e, 0xb3, 0x2d, 0xa8, 0xbb,
  0x03, 0x9b, 0xd4, 0xbd, 0xed, 0xb8, 0x1e, 0xbd, 0xc0, 0xb5, 0xe1, 0xbd,
  0x6f, 0xcb, 0x85, 0xbc, 0xa6, 0x20, 0x70, 0xbc, 0xdd, 0x5a, 0x07, 0xbe,
  0x59, 0x89, 0x3a, 0xbd, 0xa2, 0x65, 0xd7, 0x3c, 0x40, 0x8f, 0xca, 0x3e,
  0xc0, 0xb8, 0x78, 0x3e, 0x13, 0xca, 0x4b, 0xbf, 0x88, 0xc0, 0xbc, 0xbe,
  0x39, 0x84, 0xf6, 0x3e, 0x52, 0x82, 0x3d, 0x3d, 0x4e, 0xa7, 0xa2, 0x3e,
  0x3a, 0x03, 0x9b, 0xbd, 0xec, 0x32, 0x9b, 0x3e, 0x42, 0x73, 0x8b, 0x3d,
  0xb6, 0xac, 0x58, 0xbf, 0x45, 0xc4, 0xaa, 0xbe, 0x69, 0x06, 0xc8, 0x3e,
  0x30, 0xad, 0xc8, 0xbd, 0x9e, 0xf8, 0x6c, 0x3e, 0xed, 0xc9, 0x69, 0xbe,
  0xbe, 0x85, 0x11, 0x3f, 0x45, 0x0d, 0x41, 0x3e, 0xbc, 0xe1, 0x9b, 0xbf,
  0x1e, 0x29, 0x03, 0xbe, 0x36, 0x4f, 0xfc, 0x3e, 0x58, 0x6a, 0xa8, 0xbe,
  0x67, 0xcc, 0x86, 0x3e, 0x1b, 0xd7, 0xbf, 0x3d, 0x42, 0xe2, 0x64, 0x3d,
  0x8a, 0x87, 0x29, 0x3d, 0x58, 0x5f, 0x66, 0xbe, 0x3b, 0x07, 0x88, 0xbd,
  0x3f, 0x0d, 0x95, 0x3c, 0xc4, 0x1b, 0x84, 0xbd, 0xd9, 0x46, 0xbd, 0x3d,
  0x76, 0xa7, 0x53, 0x3e, 0x62, 0x26, 0x41, 0xbd, 0xb8, 0x88, 0x2a, 0x3b,
  0x60, 0xd8, 0x01, 0xbf, 0xf3, 0x63, 0xd3, 0xbd, 0xef, 0x55, 0x4b, 0x3e,
  0xd7, 0x3f, 0xa7, 0x3b, 0x59, 0x1a, 0x09, 0x3d, 0x30, 0xc7, 0x00, 0xbe,
  0x1b, 0x27, 0x3a, 0xbe, 0xfe, 0x15, 0x0f, 0xbe, 0x83, 0xe8, 0x60, 0xbf,
  0x95, 0x3e, 0x18, 0xbf, 0xd2, 0xe4, 0x6b, 0x3c, 0xf0, 0x6a, 0x0d, 0xbf,
  0x53, 0x35, 0x25, 0x3d, 0x2b, 0x47, 0x89, 0xbc, 0xde, 0x8d, 0x2a, 0x3e,
  0x46, 0x22, 0x1f, 0x3e, 0x63, 0x94, 0xdf, 0xbd, 0xb2, 0x69, 0xf4, 0x3d,
  0x3a, 0xd9, 0x88, 0x3d, 0xde, 0x40, 0x26, 0xbd, 0x1e, 0x85, 0xf2, 0x3c,
  0x38, 0xf1, 0x15, 0x3e, 0x77, 0x57, 0x3a, 0xbd, 0x40, 0x2c, 0xeb, 0xbc,
  0x84, 0x63, 0x2a, 0xbe, 0x74, 0x0e, 0x45, 0x3e, 0xac, 0x50, 0x11, 0x3e,
  0x3b, 0x47, 0x5e, 0xbc, 0xf5, 0x8c, 0xea, 0x3d, 0xe9, 0x69, 0x22, 0x3b,
  0x19, 0x4f, 0x22, 0x3d, 0x2c, 0x01, 0x0b, 0xbd, 0xac, 0xa5, 0xd1, 0xbe,
  0x5f, 0x9d, 0xe8, 0xbe, 0x0e, 0x3f, 0x98, 0x3d, 0x87, 0xa8, 0x8e, 0xbe,
  0x4b, 0x2d, 0x3d, 0x3d, 0xd4, 0xbf, 0xbf, 0x3d, 0x85, 0xc0, 0xe1, 0x3c,
  0x89, 0x69, 0xe8, 0x3d, 0xaf, 0x27, 0x89, 0xbb, 0x40, 0x65, 0xf7, 0x3a,
  0xed, 0x9c, 0xa1, 0x3d, 0xe6, 0xa8, 0xae, 0xbc, 0x2d, 0x51, 0x23, 0x3d,
  0x4d, 0x12, 0xd0, 0x3d, 0x56, 0x87, 0x1f, 0x3d, 0x5f, 0xa3, 0xe4, 0x3d,
  0x67, 0xf7, 0x4f, 0xbe, 0xd2, 0x24, 0x3f, 0x3d, 0x5b, 0x91, 0x88, 0x3d,
  0x4e, 0x36, 0x2b, 0x3d, 0x30, 0x72, 0xf6, 0x3c, 0xee, 0xdf, 0x35, 0xbc,
  0x07, 0x82, 0xcd, 0xbc, 0xaf, 0xde, 0xa3, 0xbd, 0x76, 0x6d, 0x9b, 0xbe,
  0xc5, 0x68, 0x82, 0xbe, 0xc4, 0x8f, 0xa8, 0x3d, 0x2d, 0x80, 0x5f, 0xbe,
  0xc4, 0x3c, 0x40, 0x3d, 0xdd, 0x6f, 0x38, 0x3e, 0x41, 0x63, 0x5d, 0xbb,
  0x2d, 0x33, 0x73, 0xbc, 0x82, 0x92, 0x22, 0x3d, 0xe2, 0x56, 0xe9, 0x3b,
  0xb2, 0xa1, 0xe6, 0x3d, 0xe5, 0xea, 0x76, 0xbd, 0x0e, 0x99, 0xf5, 0xbb,
  0xe4, 0xa0, 0xaf, 0xbd, 0x88, 0xe5, 0x3d, 0x3d, 0x45, 0xdf, 0x84, 0x3d,
  0x21, 0x91, 0x39, 0xbe, 0xf5, 0xf7, 0xde, 0xbd, 0xac, 0xcc, 0x7a, 0xbd,
  0xe9, 0x1f, 0x4b, 0x3d, 0xd4, 0xc2, 0xf7, 0x3d, 0x50, 0xd6, 0xf8, 0x3c,
  0x14, 0x23, 0x5c, 0xbc, 0x8d, 0x4a, 0xcf, 0x3d, 0xb5, 0xf6, 0xd3, 0xbe,
  0x43, 0x1e, 0x1b, 0xbe, 0x92, 0xcb, 0x1b, 0x3d, 0xaf, 0x2d, 0x71, 0xbd,
  0x67, 0xe5, 0x3c, 0x3d, 0x2a, 0xe6, 0x83, 0x3e, 0x3c, 0xc8, 0x36, 0x3c,
  0x1e, 0x3f, 0xf6, 0x3d, 0xb4, 0xc7, 0x2e, 0x3c, 0x61, 0xc1, 0x66, 0xbc,
  0x89, 0xc7, 0xd8, 0x3d, 0xd9, 0x4b, 0x58, 0xbc, 0xfd, 0x77, 0xb8, 0x3d,
  0xfe, 0x0f, 0x0d, 0x3e, 0x30, 0x30, 0xb2, 0x3d, 0x22, 0xb7, 0xa4, 0xbd,
  0x85, 0x78, 0x94, 0x3d, 0xed, 0x4e, 0x57, 0x3d, 0xe2, 0xab, 0xa6, 0xbd,
  0x09, 0xb4, 0x37, 0xbe, 0x41, 0x4d, 0xd7, 0xbd, 0x60, 0x56, 0xc0, 0x3d,
  0x0c, 0x30, 0xd1, 0x3c, 0x44, 0x7a, 0x0a, 0xbc, 0x17, 0xa8, 0x88, 0xbe,
  0x3a, 0xc2, 0x9b, 0xbd, 0x8d, 0x52, 0x74, 0x3d, 0xfc, 0x8b, 0xcd, 0xbd,
  0xdf, 0x35, 0xc4, 0x3c, 0xcd, 0x4a, 0x5a, 0x3d, 0x92, 0xfc, 0x8d, 0xbd,
  0x60, 0x3a, 0x2f, 0x3e, 0xa3, 0xf7, 0x3b, 0xbd, 0x84, 0x22, 0xf5, 0x3c,
  0x35, 0x12, 0x4c, 0x3c, 0x5a, 0xf9, 0xb5, 0xbd, 0x7e, 0x2b, 0xd5, 0x3c,
  0x97, 0xc8, 0xc1, 0x3e, 0xad, 0xb2, 0x0b, 0xbd, 0x6a, 0x8b, 0xc6, 0xbc,
  0xd1, 0x7c, 0x5d, 0xbc, 0x06, 0x10, 0xcd, 0x3d, 0x38, 0x0c, 0x05, 0x3c,
  0xd2, 0x7a, 0xc2, 0xbc, 0x08, 0xdb, 0x96, 0x3d, 0x2b, 0xf5, 0x0d, 0x3e,
  0x2e, 0xb7, 0xfe, 0xbc, 0xae, 0x5e, 0xe1, 0x3d, 0x68, 0x59, 0xb3, 0xbe,
  0xef, 0x78, 0x8c, 0xbc, 0xcd, 0x48, 0xca, 0xbc, 0xd3, 0x0a, 0xb9, 0xbd,
  0x5a, 0x4e, 0x38, 0x3d, 0x54, 0x32, 0xc7, 0x3c, 0xcd, 0xd9, 0xb1, 0x3c,
  0x77, 0x14, 0x10, 0x3d, 0xcf, 0x3b, 0x39, 0x3e, 0xca, 0xfe, 0x0b, 0x3d,
  0x9a, 0x9b, 0x0f, 0x3b, 0xfc, 0xef, 0xc5, 0xbc, 0x83, 0x20, 0x16, 0x3d,
  0xfc, 0x82, 0x11, 0x3e, 0x68, 0xad, 0x12, 0xbd, 0xf0, 0x4f, 0x6e, 0x3c,
  0x2f, 0xd5, 0x82, 0x3e, 0x6d, 0x5a, 0x23, 0x3e, 0xe0, 0x3a, 0x27, 0xbe,
  0x61, 0x64, 0x2e, 0xbe, 0x76, 0x43, 0x5d, 0xbd, 0x1c, 0xd8, 0x26, 0x3c,
  0x0d, 0x7f, 0x7b, 0xbd, 0xac, 0x46, 0x85, 0xbd, 0x11, 0x93, 0x7f, 0xbe,
  0x26, 0xaa, 0xa8, 0xbd, 0xfc, 0x40, 0xe9, 0xbc, 0xbb, 0x33, 0x2d, 0xbe,
  0x92, 0x98, 0x82, 0x3c, 0xd9, 0xab, 0x1f, 0xbe, 0x33, 0x47, 0x0c, 0x3f,
  0x77, 0x5c, 0x65, 0x3e, 0x34, 0x39, 0xe3, 0x3e, 0x6b, 0x1b, 0xed, 0x3e,
  0x45, 0x91, 0x21, 0x3e, 0x34, 0xfe, 0x83, 0x3d, 0xbf, 0x63, 0xaf, 0x3e,
  0xdb, 0x27, 0x04, 0xbe, 0x40, 0x69, 0x9e, 0x3e, 0x29, 0xca, 0x20, 0x3e,
  0xf6, 0x6a, 0x01, 0x3f, 0xec, 0xcb, 0x08, 0x3e, 0xc2, 0x6f, 0x85, 0x3e,
  0xcb, 0x37, 0x67, 0x3e, 0x6d, 0x67, 0x9e, 0x3e, 0xe7, 0x61, 0x28, 0xbe,
  0x5e, 0xfb, 0x59, 0x3e, 0x32, 0xf1, 0x0a, 0x3e, 0x03, 0x3a, 0xa1, 0x3e,
  0x97, 0xbb, 0x00, 0x3e, 0x2e, 0xe3, 0xb4, 0x3d, 0x75, 0x3d, 0xa1, 0xbc,
  0x6a, 0xee, 0x18, 0x3e, 0xf6, 0xf1, 0x0f, 0xbc, 0xe4, 0x9a, 0x91, 0xbc,
  0x64, 0x90, 0x26, 0x3e, 0xdf, 0xed, 0xcd, 0x3e, 0xf4, 0x9d, 0x1d, 0x3e,
  0x4c, 0x3c, 0xf5, 0xbd, 0x0f, 0x0f, 0x6b, 0x3d, 0x28, 0x4a, 0xe6, 0x3d,
  0x4e, 0xa1, 0xd5, 0xbc, 0xe4, 0x0c, 0x93, 0xbd, 0x3e, 0x1f, 0xe9, 0x3d,
  0x56, 0xb3, 0x7c, 0x3e, 0x40, 0xfd, 0x8b, 0x3e, 0xa0, 0xb8, 0x92, 0x3d,
  0x03, 0xd1, 0xa9, 0xbc, 0xe4, 0xfd, 0x9d, 0xbd, 0x43, 0x10, 0x09, 0xbe,
  0x23, 0x64, 0x16, 0x3c, 0x4f, 0x0a, 0x4a, 0xbd, 0x96, 0xa9, 0x9d, 0xbc,
  0x84, 0x8b, 0xc9, 0xbd, 0x40, 0xa9, 0xb6, 0xbc, 0x3d, 0x18, 0x0e, 0xbd,
  0xe4, 0x5c, 0xeb, 0xbb, 0x3d, 0xee, 0x89, 0xbe, 0x53, 0x1d, 0xdd, 0xbd,
  0x33, 0x69, 0x85, 0xbd, 0x7d, 0xaf, 0xca, 0x3e, 0x88, 0xa2, 0x34, 0x3e,
  0xd6, 0x66, 0x00, 0xbe, 0x31, 0xa4, 0x37, 0x3e, 0x77, 0x97, 0x0b, 0xbe,
  0x06, 0x1d, 0x7d, 0x3c, 0x43, 0xaf, 0x95, 0x3c, 0xce, 0x16, 0x9f, 0x3d,
  0x49, 0x98, 0x8d, 0x3e, 0x1e, 0xf3, 0x82, 0x3e, 0xe8, 0x94, 0xe3, 0xbc,
  0xf5, 0xef, 0xdc, 0x3d, 0x18, 0x98, 0xa9, 0xbc, 0x72, 0xf2, 0x0b, 0xbc,
  0x78, 0x09, 0xe6, 0x3b, 0xab, 0x6d, 0xe9, 0x3c, 0x3a, 0x2e, 0xda, 0x3d,
  0xd9, 0x27, 0x8e, 0x3c, 0x8d, 0x60, 0xaa, 0x3d, 0x32, 0x55, 0x10, 0xbd,
  0xb3, 0xff, 0x7d, 0x3d, 0xd6, 0x82, 0x67, 0x3d, 0x8c, 0xa2, 0xa0, 0xbd,
  0xb6, 0xc9, 0x3d, 0x3b, 0x57, 0xfa, 0xdc, 0x3b, 0x00, 0x69, 0x29, 0x3d,
  0xab, 0x2c, 0x39, 0xbe, 0x6f, 0xb0, 0xc6, 0x3d, 0xb2, 0x31, 0xb0, 0xbc,
  0x94, 0x21, 0x1e, 0xbd, 0x3d, 0x84, 0x94, 0x3d, 0x8e, 0xc7, 0x8d, 0x3d,
  0x22, 0x72, 0x84, 0x3e, 0x61, 0x69, 0x00, 0x3e, 0xc1, 0xa0, 0xe4, 0xbd,
  0x88, 0xd9, 0x7a, 0x3d, 0xe4, 0xce, 0x41, 0x3d, 0x37, 0x60, 0xcb, 0xbd,
  0x7d, 0x65, 0x01, 0x3d, 0x8b, 0x45, 0xcb, 0x3d, 0x6b, 0x8d, 0xd2, 0x3d,
  0xfa, 0x2b, 0xcb, 0x3d, 0x25, 0xa4, 0xaf, 0xbc, 0x18, 0xc8, 0x0f, 0x3e,
  0xe9, 0x5c, 0xba, 0x3d, 0xe5, 0x34, 0x28, 0xbe, 0x7d, 0x8e, 0x04, 0xbe,
  0x93, 0x16, 0x4e, 0xbd, 0xd6, 0x59, 0x09, 0x3e, 0x88, 0x5f, 0x22, 0xbc,
  0x79, 0x01, 0x5d, 0xbd, 0xd2, 0x7a, 0xc6, 0xbd, 0x4d, 0xbc, 0xfc, 0xbd,
  0xf5, 0x86, 0x15, 0xbe, 0xe9, 0x90, 0x71, 0xbd, 0x2e, 0x27, 0x88, 0x3d,
  0xaa, 0x89, 0x4f, 0x3e, 0x1f, 0xf3, 0x4a, 0x3e, 0xa2, 0x4e, 0x05, 0xbe,
  0x9e, 0x50, 0xfd, 0x3d, 0x4d, 0xbf, 0x8a, 0x3d, 0xbf, 0xa8, 0x28, 0x3c,
  0x44, 0xf1, 0xaf, 0x3d, 0xfe, 0x8e, 0x86, 0x3d, 0x44, 0xf8, 0xf8, 0x3d,
  0x52, 0xbf, 0x3f, 0x3d, 0x5c, 0xb5, 0xf6, 0xbc, 0xa2, 0x1b, 0x11, 0x3c,
  0xbc, 0x18, 0xae, 0x3d, 0x60, 0x4a, 0x5a, 0xbd, 0x34, 0xc3, 0x24, 0xbe,
  0x9b, 0x2a, 0x68, 0xbe, 0xe6, 0x91, 0x62, 0x3e, 0xdd, 0x04, 0x2e, 0x3d,
  0x98, 0x04, 0x70, 0xbe, 0x10, 0x9d, 0xd4, 0x3d, 0x26, 0x95, 0x5f, 0xbe,
  0xb5, 0xba, 0x23, 0xbe, 0x18, 0xc5, 0x5c, 0x3d, 0xa7, 0x21, 0x46, 0xbd,
  0x8b, 0xdf, 0x6e, 0x3e, 0x8a, 0x01, 0xf3, 0xbc, 0x7c, 0x92, 0x57, 0xbd,
  0xa2, 0x3c, 0x53, 0x3e, 0xe4, 0x79, 0x40, 0xbe, 0x31, 0xaa, 0xb5, 0xbd,
  0x7c, 0x69, 0x38, 0x3d, 0x05, 0xdc, 0x01, 0x3d, 0x74, 0x15, 0x0e, 0x3e,
  0x39, 0x1a, 0xa9, 0x3d, 0x46, 0xca, 0x76, 0x3d, 0x0a, 0x19, 0x92, 0x3d,
  0xde, 0x75, 0xa7, 0x3d, 0xf2, 0xd4, 0x27, 0xbe, 0x40, 0xb0, 0x61, 0xbd,
  0x55, 0x54, 0x33, 0xbe, 0xd5, 0x3b, 0x39, 0x3e, 0x0f, 0x0f, 0x62, 0xbc,
  0x14, 0x7a, 0x38, 0xbe, 0x79, 0x26, 0x8e, 0x3d, 0x4f, 0x43, 0x9e, 0xbe,
  0x4d, 0x53, 0x87, 0xbd, 0x1e, 0x9d, 0xf9, 0xbd, 0xc4, 0x9f, 0x13, 0xbd,
  0x44, 0xc2, 0x61, 0x3d, 0xbb, 0x24, 0x6e, 0x3e, 0x6d, 0x3a, 0x12, 0xbe,
  0xf7, 0xde, 0x9a, 0xbd, 0x61, 0xad, 0x2d, 0xbd, 0x2e, 0x89, 0xc0, 0xbd,
  0x7b, 0x58, 0x0f, 0xbd, 0x45, 0x59, 0x17, 0x3e, 0x9d, 0xba, 0xc1, 0x3d,
  0xb8, 0x8d, 0xef, 0x3d, 0x3c, 0xd9, 0x4e, 0x3c, 0x3d, 0x71, 0x25, 0x3e,
  0x41, 0x56, 0xd5, 0x3c, 0x55, 0xe5, 0x77, 0xbe, 0x2f, 0xa8, 0x1b, 0xbe,
  0x1e, 0x50, 0xd4, 0xbe, 0x02, 0x03, 0xc4, 0x3e, 0x26, 0x79, 0x8f, 0x3d,
  0x5f, 0x0a, 0x9b, 0xbe, 0xe8, 0x3a, 0xf2, 0xbd, 0xc2, 0xb7, 0xb3, 0xbe,
  0x85, 0x99, 0x8d, 0xbe, 0xb1, 0xd3, 0x48, 0xbe, 0xbe, 0x41, 0x2c, 0xbe,
  0xd7, 0xc9, 0x8e, 0x3e, 0xe1, 0xe6, 0x06, 0x3e, 0xcf, 0x96, 0x98, 0xbe,
  0xcf, 0xa7, 0x68, 0xbd, 0xa5, 0xe3, 0x53, 0xbe, 0x2c, 0xca, 0xd7, 0xbd,
  0x54, 0xdd, 0x54, 0xbd, 0xe0, 0x8e, 0x6d, 0x3d, 0xeb, 0xd7, 0x2e, 0x3e,
  0x14, 0x0c, 0x67, 0x3d, 0xeb, 0xde, 0x3f, 0x3d, 0x71, 0xd3, 0x51, 0x3d,
  0x03, 0xa6, 0x47, 0xbd, 0xe2, 0xfc, 0xff, 0xff, 0x04, 0x00, 0x00, 0x00,
  0x08, 0x00, 0x00, 0x00, 0xff, 0xff, 0xff, 0xff, 0xc0, 0x00, 0x00, 0x00,
  0xf6, 0xfc, 0xff, 0xff, 0x04, 0x00, 0x00, 0x00, 0x40, 0x00, 0x00, 0x00,
  0x95, 0xf6, 0xb2, 0x3e, 0xeb, 0x84, 0x9d, 0x3e, 0xa4, 0xfd, 0x1d, 0x3d,
  0x9b, 0x89, 0xed, 0x3d, 0x99, 0x25, 0x9c, 0xbd, 0x3e, 0x64, 0x2a, 0x3e,
  0x2a, 0xc5, 0x09, 0x3e, 0x1d, 0x86, 0x35, 0x3d, 0x02, 0x1e, 0x11, 0xbe,
  0xe3, 0x1b, 0x97, 0x3e, 0xa6, 0x77, 0x1c, 0x3e, 0xcd, 0x01, 0x31, 0x3d,
  0xd8, 0x86, 0xdf, 0x3d, 0x15, 0x21, 0x02, 0xbe, 0xd3, 0xa0, 0xf1, 0xbc,
  0xfa, 0x16, 0x3d, 0xbd, 0x42, 0xfd, 0xff, 0xff, 0x04, 0x00, 0x00, 0x00,
  0x0c, 0x00, 0x00, 0x00, 0xc1, 0xad, 0x4a, 0x3e, 0x5d, 0xcc, 0x51, 0xbd,
  0xf5, 0x02, 0xad, 0xbd, 0x5a, 0xfd, 0xff, 0xff, 0x04, 0x00, 0x00, 0x00,
  0x80, 0x01, 0x00, 0x00, 0x25, 0xf2, 0xf6, 0xbe, 0x26, 0xbe, 0x9c, 0xbe,
  0x9f, 0x9b, 0x45, 0x3e, 0xcc, 0x42, 0xc5, 0xbe, 0x71, 0xa4, 0xa5, 0x3e,
  0x71, 0xba, 0x2a, 0x3d, 0x75, 0x30, 0x18, 0xbf, 0xb4, 0x08, 0x34, 0xbe,
  0xa6, 0x06, 0x62, 0x3e, 0x4b, 0x77, 0xa0, 0xbe, 0x05, 0xf9, 0x18, 0x3f,
  0x13, 0xd6, 0x21, 0xbe, 0xd1, 0xf9, 0x44, 0xbd, 0x32, 0xc0, 0xe4, 0x3e,
  0xf2, 0x97, 0x5a, 0x3f, 0xb0, 0x8f, 0xd2, 0x3e, 0x05, 0xbf, 0x10, 0xbf,
  0x01, 0xea, 0x1d, 0x3f, 0xf8, 0x30, 0xcc, 0xbd, 0xe3, 0x33, 0x0a, 0xbd,
  0xd8, 0x6b, 0x73, 0xbe, 0x24, 0x8f, 0xc0, 0x3d, 0x72, 0xee, 0x8a, 0xbd,
  0x9a, 0xe9, 0x1e, 0x3d, 0x52, 0x0e, 0x59, 0x3f, 0x41, 0x98, 0xab, 0xbd,
  0x88, 0x6a, 0x97, 0x3d, 0xed, 0x5f, 0xaa, 0x3e, 0xfc, 0xee, 0x7b, 0xbe,
  0x83, 0x8f, 0x5a, 0xbe, 0xa2, 0x14, 0x7d, 0x3e, 0xf8, 0xf7, 0x37, 0xbe,
  0x8b, 0x90, 0x0c, 0xbf, 0x2b, 0x85, 0x02, 0xbf, 0x34, 0x71, 0x8d, 0x3e,
  0x2d, 0xdb, 0x86, 0x3e, 0xb3, 0x2e, 0x0b, 0x3f, 0x95, 0xd4, 0x43, 0x3f,
  0xf8, 0x8c, 0xcc, 0xbe, 0x03, 0xf0, 0x6c, 0xbe, 0x5c, 0x22, 0xc6, 0x3e,
  0x58, 0xd6, 0xa0, 0x3e, 0xa1, 0x70, 0x9d, 0xbe, 0xf1, 0xb0, 0xbf, 0xbe,
  0x05, 0xbe, 0x2c, 0x3e, 0x7d, 0x4d, 0xa1, 0x3e, 0x8c, 0x3d, 0x2e, 0xbe,
  0x89, 0xdd, 0x92, 0xbe, 0xa5, 0xe9, 0x89, 0x3e, 0x31, 0xc0, 0xcf, 0xbd,
  0xae, 0x41, 0x1f, 0x3e, 0x54, 0xfb, 0xc1, 0x3e, 0xde, 0x49, 0x27, 0x3f,
  0x32, 0xf9, 0x98, 0xbd, 0x1f, 0x56, 0x3b, 0xbe, 0x60, 0x1c, 0x63, 0x3e,
  0x90, 0xa6, 0x15, 0x3f, 0x4a, 0x43, 0xbb, 0x3e, 0x10, 0xe2, 0x0d, 0xbe,
  0xd5, 0xf7, 0xe6, 0xbd, 0x4e, 0xc7, 0xb7, 0xbd, 0x3b, 0x08, 0x2f, 0xbd,
  0xb2, 0xd1, 0xc1, 0x3d, 0x84, 0x3e, 0x52, 0x3f, 0x46, 0x73, 0xfd, 0xbe,
  0x79, 0x17, 0x9f, 0x3e, 0x95, 0xb4, 0x81, 0x3e, 0x7e, 0xa3, 0x0c, 0x3e,
  0x4e, 0x2d, 0x8f, 0x3d, 0x2f, 0x26, 0x9f, 0xbd, 0xe1, 0x1a, 0xac, 0x3d,
  0xfa, 0x7f, 0x06, 0xbe, 0xa2, 0xd7, 0xc8, 0x3e, 0xdd, 0xb8, 0x78, 0x3e,
  0x96, 0xca, 0x17, 0x3f, 0xe4, 0x8f, 0x33, 0xbd, 0xbf, 0xd7, 0xa7, 0x3e,
  0x77, 0xdb, 0x92, 0x3d, 0xb6, 0x0d, 0x9b, 0xbb, 0x08, 0x8b, 0xfb, 0x3b,
  0xfd, 0x51, 0xaa, 0x3e, 0xf8, 0x94, 0xe2, 0x3e, 0x29, 0xde, 0x5d, 0x3e,
  0xf6, 0x6d, 0x06, 0x3f, 0xfe, 0x84, 0x02, 0x3f, 0x81, 0x9b, 0x69, 0x3e,
  0x1f, 0x45, 0xca, 0x3e, 0xf4, 0xda, 0xa2, 0xbb, 0x0e, 0xd5, 0x0c, 0xbe,
  0x59, 0xa9, 0xdb, 0xbe, 0x61, 0xc0, 0x75, 0xbc, 0x44, 0x6d, 0x02, 0x3f,
  0x8e, 0xea, 0x46, 0xbe, 0x1d, 0xa1, 0xd6, 0x3d, 0x79, 0xff, 0x9f, 0x3e,
  0xa3, 0xdc, 0xbc, 0xbd, 0xe6, 0xfe, 0xff, 0xff, 0x04, 0x00, 0x00, 0x00,
  0x30, 0x00, 0x00, 0x00, 0x27, 0x42, 0x0a, 0x3f, 0xf5, 0xba, 0x6c, 0x3f,
  0x59, 0x81, 0x24, 0x3f, 0xd3, 0x7b, 0x2f, 0x3f, 0xcf, 0x9a, 0x39, 0x3c,
  0x9c, 0x1a, 0xf8, 0x3e, 0x11, 0xd8, 0xc2, 0x3e, 0x88, 0x40, 0x29, 0xbe,
  0xfb, 0xb1, 0x86, 0xbf, 0xae, 0x75, 0x3e, 0xbf, 0x0e, 0x17, 0x0f, 0xbf,
  0x9e, 0xb5, 0x4b, 0x3f, 0x22, 0xff, 0xff, 0xff, 0x04, 0x00, 0x00, 0x00,
  0x20, 0x00, 0x00, 0x00, 0x5c, 0x62, 0x07, 0x3e, 0xff, 0xf1, 0x93, 0xbd,
  0x51, 0x7c, 0x83, 0xbc, 0x74, 0x2f, 0xbe, 0x3d, 0x80, 0x10, 0xab, 0xbe,
  0x15, 0x8f, 0x12, 0xbc, 0x80, 0x06, 0xff, 0xbe, 0xf5, 0x08, 0x90, 0xba,
  0x4e, 0xff, 0xff, 0xff, 0x04, 0x00, 0x00, 0x00, 0x10, 0x00, 0x00, 0x00,
  0x2b, 0x43, 0xfa, 0xbd, 0x2f, 0xea, 0x98, 0xbd, 0xdb, 0x1e, 0xa5, 0xbb,
  0x4d, 0x67, 0x11, 0xbb, 0x50, 0xf5, 0xff, 0xff, 0x54, 0xf5, 0xff, 0xff,
  0x0f, 0x00, 0x00, 0x00, 0x4d, 0x4c, 0x49, 0x52, 0x20, 0x43, 0x6f, 0x6e,
  0x76, 0x65, 0x72, 0x74, 0x65, 0x64, 0x2e, 0x00, 0x01, 0x00, 0x00, 0x00,
  0x14, 0x00, 0x00, 0x00, 0x00, 0x00, 0x0e, 0x00, 0x18, 0x00, 0x14, 0x00,
  0x10, 0x00, 0x0c, 0x00, 0x08, 0x00, 0x04, 0x00, 0x0e, 0x00, 0x00, 0x00,
  0x14, 0x00, 0x00, 0x00, 0x1c, 0x00, 0x00, 0x00, 0x54, 0x02, 0x00, 0x00,
  0x58, 0x02, 0x00, 0x00, 0x5c, 0x02, 0x00, 0x00, 0x04, 0x00, 0x00, 0x00,
  0x6d, 0x61, 0x69, 0x6e, 0x00, 0x00, 0x00, 0x00, 0x08, 0x00, 0x00, 0x00,
  0xec, 0x01, 0x00, 0x00, 0x88, 0x01, 0x00, 0x00, 0x34, 0x01, 0x00, 0x00,
  0xf0, 0x00, 0x00, 0x00, 0xc8, 0x00, 0x00, 0x00, 0x78, 0x00, 0x00, 0x00,
  0x40, 0x00, 0x00, 0x00, 0x04, 0x00, 0x00, 0x00, 0xa2, 0xfe, 0xff, 0xff,
  0x1c, 0x00, 0x00, 0x00, 0x00, 0x00, 0x00, 0x09, 0x1c, 0x00, 0x00, 0x00,
  0x20, 0x00, 0x00, 0x00, 0x04, 0x00, 0x00, 0x00, 0x00, 0x00, 0x06, 0x00,
  0x08, 0x00, 0x04, 0x00, 0x06, 0x00, 0x00, 0x00, 0x00, 0x00, 0x80, 0x3f,
  0x01, 0x00, 0x00, 0x00, 0x11, 0x00, 0x00, 0x00, 0x01, 0x00, 0x00, 0x00,
  0x10, 0x00, 0x00, 0x00, 0xda, 0xfe, 0xff, 0xff, 0x14, 0x00, 0x00, 0x00,
  0x00, 0x00, 0x00, 0x08, 0x10, 0x00, 0x00, 0x00, 0x14, 0x00, 0x00, 0x00,
  0x03, 0x00, 0x00, 0x00, 0x1c, 0xf6, 0xff, 0xff, 0x01, 0x00, 0x00, 0x00,
  0x10, 0x00, 0x00, 0x00, 0x03, 0x00, 0x00, 0x00, 0x0f, 0x00, 0x00, 0x00,
  0x09, 0x00, 0x00, 0x00, 0x05, 0x00, 0x00, 0x00, 0x0e, 0xff, 0xff, 0xff,
  0x1c, 0x00, 0x00, 0x00, 0x00, 0x00, 0x00, 0x08, 0x1c, 0x00, 0x00, 0x00,
  0x20, 0x00, 0x00, 0x00, 0x03, 0x00, 0x00, 0x00, 0x00, 0x00, 0x06, 0x00,
  0x08, 0x00, 0x07, 0x00, 0x06, 0x00, 0x00, 0x00, 0x00, 0x00, 0x00, 0x01,
  0x01, 0x00, 0x00, 0x00, 0x0f, 0x00, 0x00, 0x00, 0x03, 0x00, 0x00, 0x00,
  0x0e, 0x00, 0x00, 0x00, 0x08, 0x00, 0x00, 0x00, 0x06, 0x00, 0x00, 0x00,
  0x00, 0x00, 0x0a, 0x00, 0x10, 0x00, 0x0c, 0x00, 0x08, 0x00, 0x04, 0x00,
  0x0a, 0x00, 0x00, 0x00, 0x0c, 0x00, 0x00, 0x00, 0x10, 0x00, 0x00, 0x00,
  0x02, 0x00, 0x00, 0x00, 0x01, 0x00, 0x00, 0x00, 0x0e, 0x00, 0x00, 0x00,
  0x02, 0x00, 0x00, 0x00, 0x0d, 0x00, 0x00, 0x00, 0x07, 0x00, 0x00, 0x00,
  0x7e, 0xff, 0xff, 0xff, 0x14, 0x00, 0x00, 0x00, 0x00, 0x00, 0x00, 0x05,
  0x24, 0x00, 0x00, 0x00, 0x28, 0x00, 0x00, 0x00, 0x01, 0x00, 0x00, 0x00,
  0x6e, 0xff, 0xff, 0xff, 0x03, 0x00, 0x00, 0x00, 0x01, 0x00, 0x00, 0x00,
  0x03, 0x00, 0x00, 0x00, 0x01, 0x00, 0x00, 0x00, 0x00, 0x00, 0x00, 0x01,
  0x01, 0x00, 0x00, 0x00, 0x0d, 0x00, 0x00, 0x00, 0x01, 0x00, 0x00, 0x00,
  0x0c, 0x00, 0x00, 0x00, 0x5e, 0xff, 0xff, 0xff, 0x10, 0x00, 0x00, 0x00,
  0x00, 0x00, 0x00, 0x01, 0x1c, 0x00, 0x00, 0x00, 0x20, 0x00, 0x00, 0x00,
  0x50, 0xff, 0xff, 0xff, 0x00, 0x00, 0x00, 0x01, 0x01, 0x00, 0x00, 0x00,
  0x01, 0x00, 0x00, 0x00, 0x00, 0x00, 0x00, 0x01, 0x01, 0x00, 0x00, 0x00,
  0x0c, 0x00, 0x00, 0x00, 0x03, 0x00, 0x00, 0x00, 0x0b, 0x00, 0x00, 0x00,
  0x04, 0x00, 0x00, 0x00, 0x02, 0x00, 0x00, 0x00, 0x00, 0x00, 0x0e, 0x00,
  0x1a, 0x00, 0x14, 0x00, 0x10, 0x00, 0x0c, 0x00, 0x0b, 0x00, 0x04, 0x00,
  0x0e, 0x00, 0x00, 0x00, 0x24, 0x00, 0x00, 0x00, 0x00, 0x00, 0x00, 0x05,
  0x34, 0x00, 0x00, 0x00, 0x38, 0x00, 0x00, 0x00, 0x01, 0x00, 0x00, 0x00,
  0x00, 0x00, 0x0e, 0x00, 0x18, 0x00, 0x17, 0x00, 0x10, 0x00, 0x0c, 0x00,
  0x08, 0x00, 0x04, 0x00, 0x0e, 0x00, 0x00, 0x00, 0x03, 0x00, 0x00, 0x00,
  0x01, 0x00, 0x00, 0x00, 0x03, 0x00, 0x00, 0x00, 0x01, 0x00, 0x00, 0x00,
  0x00, 0x00, 0x00, 0x01, 0x01, 0x00, 0x00, 0x00, 0x0b, 0x00, 0x00, 0x00,
  0x01, 0x00, 0x00, 0x00, 0x0a, 0x00, 0x00, 0x00, 0x00, 0x00, 0x0e, 0x00,
  0x14, 0x00, 0x00, 0x00, 0x10, 0x00, 0x0c, 0x00, 0x0b, 0x00, 0x04, 0x00,
  0x0e, 0x00, 0x00, 0x00, 0x1c, 0x00, 0x00, 0x00, 0x00, 0x00, 0x00, 0x01,
  0x28, 0x00, 0x00, 0x00, 0x2c, 0x00, 0x00, 0x00, 0x0c, 0x00, 0x14, 0x00,
  0x13, 0x00, 0x0c, 0x00, 0x08, 0x00, 0x07, 0x00, 0x0c, 0x00, 0x00, 0x00,
  0x00, 0x00, 0x00, 0x01, 0x01, 0x00, 0x00, 0x00, 0x01, 0x00, 0x00, 0x00,
  0x00, 0x00, 0x00, 0x01, 0x01, 0x00, 0x00, 0x00, 0x0a, 0x00, 0x00, 0x00,
  0x03, 0x00, 0x00, 0x00, 0x00, 0x00, 0x00, 0x00, 0x03, 0x00, 0x00, 0x00,
  0x01, 0x00, 0x00, 0x00, 0x01, 0x00, 0x00, 0x00, 0x11, 0x00, 0x00, 0x00,
  0x01, 0x00, 0x00, 0x00, 0x00, 0x00, 0x00, 0x00, 0x12, 0x00, 0x00, 0x00,
  0xd8, 0x07, 0x00, 0x00, 0x64, 0x07, 0x00, 0x00, 0xf0, 0x06, 0x00, 0x00,
  0x98, 0x06, 0x00, 0x00, 0x40, 0x06, 0x00, 0x00, 0xe4, 0x05, 0x00, 0x00,
  0x88, 0x05, 0x00, 0x00, 0x38, 0x05, 0x00, 0x00, 0xd0, 0x04, 0x00, 0x00,
  0x80, 0x04, 0x00, 0x00, 0xa8, 0x03, 0x00, 0x00, 0x30, 0x03, 0x00, 0x00,
  0x58, 0x02, 0x00, 0x00, 0xe0, 0x01, 0x00, 0x00, 0x7c, 0x01, 0x00, 0x00,
  0xe0, 0x00, 0x00, 0x00, 0x60, 0x00, 0x00, 0x00, 0x04, 0x00, 0x00, 0x00,
  0x86, 0xf8, 0xff, 0xff, 0x00, 0x00, 0x00, 0x01, 0x14, 0x00, 0x00, 0x00,
  0x1c, 0x00, 0x00, 0x00, 0x1c, 0x00, 0x00, 0x00, 0x12, 0x00, 0x00, 0x00,
  0x34, 0x00, 0x00, 0x00, 0x02, 0x00, 0x00, 0x00, 0xff, 0xff, 0xff, 0xff,
  0x03, 0x00, 0x00, 0x00, 0x68, 0xf8, 0xff, 0xff, 0x19, 0x00, 0x00, 0x00,
  0x53, 0x74, 0x61, 0x74, 0x65, 0x66, 0x75, 0x6c, 0x50, 0x61, 0x72, 0x74,
  0x69, 0x74, 0x69, 0x6f, 0x6e, 0x65, 0x64, 0x43, 0x61, 0x6c, 0x6c, 0x3a,
  0x30, 0x00, 0x00, 0x00, 0x02, 0x00, 0x00, 0x00, 0x01, 0x00, 0x00, 0x00,
  0x03, 0x00, 0x00, 0x00, 0xde, 0xf8, 0xff, 0xff, 0x00, 0x00, 0x00, 0x01,
  0x14, 0x00, 0x00, 0x00, 0x1c, 0x00, 0x00, 0x00, 0x1c, 0x00, 0x00, 0x00,
  0x11, 0x00, 0x00, 0x00, 0x58, 0x00, 0x00, 0x00, 0x02, 0x00, 0x00, 0x00,
  0xff, 0xff, 0xff, 0xff, 0x03, 0x00, 0x00, 0x00, 0xc0, 0xf8, 0xff, 0xff,
  0x3c, 0x00, 0x00, 0x00, 0x73, 0x65, 0x71, 0x75, 0x65, 0x6e, 0x74, 0x69,
  0x61, 0x6c, 0x5f, 0x31, 0x33, 0x2f, 0x64, 0x65, 0x6e, 0x73, 0x65, 0x5f,
  0x34, 0x30, 0x2f, 0x4d, 0x61, 0x74, 0x4d, 0x75, 0x6c, 0x3b, 0x73, 0x65,
  0x71, 0x75, 0x65, 0x6e, 0x74, 0x69, 0x61, 0x6c, 0x5f, 0x31, 0x33, 0x2f,
  0x64, 0x65, 0x6e, 0x73, 0x65, 0x5f, 0x34, 0x30, 0x2f, 0x42, 0x69, 0x61,
  0x73, 0x41, 0x64, 0x64, 0x00, 0x00, 0x00, 0x00, 0x02, 0x00, 0x00, 0x00,
  0x01, 0x00, 0x00, 0x00, 0x03, 0x00, 0x00, 0x00, 0x5a, 0xf9, 0xff, 0xff,
  0x00, 0x00, 0x00, 0x01, 0x14, 0x00, 0x00, 0x00, 0x1c, 0x00, 0x00, 0x00,
  0x1c, 0x00, 0x00, 0x00, 0x10, 0x00, 0x00, 0x00, 0x74, 0x00, 0x00, 0x00,
  0x02, 0x00, 0x00, 0x00, 0xff, 0xff, 0xff, 0xff, 0x10, 0x00, 0x00, 0x00,
  0x3c, 0xf9, 0xff, 0xff, 0x58, 0x00, 0x00, 0x00, 0x73, 0x65, 0x71, 0x75,
  0x65, 0x6e, 0x74, 0x69, 0x61, 0x6c, 0x5f, 0x31, 0x33, 0x2f, 0x64, 0x65,
  0x6e, 0x73, 0x65, 0x5f, 0x33, 0x39, 0x2f, 0x4d, 0x61, 0x74, 0x4d, 0x75,
  0x6c, 0x3b, 0x73, 0x65, 0x71, 0x75, 0x65, 0x6e, 0x74, 0x69, 0x61, 0x6c,
  0x5f, 0x31, 0x33, 0x2f, 0x64, 0x65, 0x6e, 0x73, 0x65, 0x5f, 0x33, 0x39,
  0x2f, 0x52, 0x65, 0x6c, 0x75, 0x3b, 0x73, 0x65, 0x71, 0x75, 0x65, 0x6e,
  0x74, 0x69, 0x61, 0x6c, 0x5f, 0x31, 0x33, 0x2f, 0x64, 0x65, 0x6e, 0x73,
  0x65, 0x5f, 0x33, 0x39, 0x2f, 0x42, 0x69, 0x61, 0x73, 0x41, 0x64, 0x64,
  0x00, 0x00, 0x00, 0x00, 0x02, 0x00, 0x00, 0x00, 0x01, 0x00, 0x00, 0x00,
  0x10, 0x00, 0x00, 0x00, 0xf2, 0xf9, 0xff, 0xff, 0x00, 0x00, 0x00, 0x01,
  0x14, 0x00, 0x00, 0x00, 0x1c, 0x00, 0x00, 0x00, 0x1c, 0x00, 0x00, 0x00,
  0x0f, 0x00, 0x00, 0x00, 0x3c, 0x00, 0x00, 0x00, 0x02, 0x00, 0x00, 0x00,
  0xff, 0xff, 0xff, 0xff, 0xc0, 0x00, 0x00, 0x00, 0xd4, 0xf9, 0xff, 0xff,
  0x20, 0x00, 0x00, 0x00, 0x73, 0x65, 0x71, 0x75, 0x65, 0x6e, 0x74, 0x69,
  0x61, 0x6c, 0x5f, 0x31, 0x33, 0x2f, 0x66, 0x6c, 0x61, 0x74, 0x74, 0x65,
  0x6e, 0x5f, 0x31, 0x33, 0x2f, 0x52, 0x65, 0x73, 0x68, 0x61, 0x70, 0x65,
  0x00, 0x00, 0x00, 0x00, 0x02, 0x00, 0x00, 0x00, 0x01, 0x00, 0x00, 0x00,
  0xc0, 0x00, 0x00, 0x00, 0x52, 0xfa, 0xff, 0xff, 0x00, 0x00, 0x00, 0x01,
  0x14, 0x00, 0x00, 0x00, 0x24, 0x00, 0x00, 0x00, 0x24, 0x00, 0x00, 0x00,
  0x0e, 0x00, 0x00, 0x00, 0x48, 0x00, 0x00, 0x00, 0x04, 0x00, 0x00, 0x00,
  0xff, 0xff, 0xff, 0xff, 0x08, 0x00, 0x00, 0x00, 0x03, 0x00, 0x00, 0x00,
  0x08, 0x00, 0x00, 0x00, 0x3c, 0xfa, 0xff, 0xff, 0x25, 0x00, 0x00, 0x00,
  0x73, 0x65, 0x71, 0x75, 0x65, 0x6e, 0x74, 0x69, 0x61, 0x6c, 0x5f, 0x31,
  0x33, 0x2f, 0x6d, 0x61, 0x78, 0x5f, 0x70, 0x6f, 0x6f, 0x6c, 0x69, 0x6e,
  0x67, 0x32, 0x64, 0x5f, 0x37, 0x2f, 0x4d, 0x61, 0x78, 0x50, 0x6f, 0x6f,
  0x6c, 0x00, 0x00, 0x00, 0x04, 0x00, 0x00, 0x00, 0x01, 0x00, 0x00, 0x00,
  0x08, 0x00, 0x00, 0x00, 0x03, 0x00, 0x00, 0x00, 0x08, 0x00, 0x00, 0x00,
  0xc6, 0xfa, 0xff, 0xff, 0x00, 0x00, 0x00, 0x01, 0x14, 0x00, 0x00, 0x00,
  0x24, 0x00, 0x00, 0x00, 0x24, 0x00, 0x00, 0x00, 0x0d, 0x00, 0x00, 0x00,
  0xa8, 0x00, 0x00, 0x00, 0x04, 0x00, 0x00, 0x00, 0xff, 0xff, 0xff, 0xff,
  0x18, 0x00, 0x00, 0x00, 0x03, 0x00, 0x00, 0x00, 0x08, 0x00, 0x00, 0x00,
  0xb0, 0xfa, 0xff, 0xff, 0x86, 0x00, 0x00, 0x00, 0x73, 0x65, 0x71, 0x75,
  0x65, 0x6e, 0x74, 0x69, 0x61, 0x6c, 0x5f, 0x31, 0x33, 0x2f, 0x63, 0x6f,
  0x6e, 0x76, 0x32, 0x64, 0x5f, 0x37, 0x2f, 0x52, 0x65, 0x6c, 0x75, 0x3b,
  0x73, 0x65, 0x71, 0x75, 0x65, 0x6e, 0x74, 0x69, 0x61, 0x6c, 0x5f, 0x31,
  0x33, 0x2f, 0x63, 0x6f, 0x6e, 0x76, 0x32, 0x64, 0x5f, 0x37, 0x2f, 0x42,
  0x69, 0x61, 0x73, 0x41, 0x64, 0x64, 0x3b, 0x73, 0x65, 0x71, 0x75, 0x65,
  0x6e, 0x74, 0x69, 0x61, 0x6c, 0x5f, 0x31, 0x33, 0x2f, 0x63, 0x6f, 0x6e,
  0x76, 0x32, 0x64, 0x5f, 0x37, 0x2f, 0x43, 0x6f, 0x6e, 0x76, 0x32, 0x44,
  0x3b, 0x73, 0x65, 0x71, 0x75, 0x65, 0x6e, 0x74, 0x69, 0x61, 0x6c, 0x5f,
  0x31, 0x33, 0x2f, 0x63, 0x6f, 0x6e, 0x76, 0x32, 0x64, 0x5f, 0x37, 0x2f,
  0x42, 0x69, 0x61, 0x73, 0x41, 0x64, 0x64, 0x2f, 0x52, 0x65, 0x61, 0x64,
  0x56, 0x61, 0x72, 0x69, 0x61, 0x62, 0x6c, 0x65, 0x4f, 0x70, 0x00, 0x00,
  0x04, 0x00, 0x00, 0x00, 0x01, 0x00, 0x00, 0x00, 0x18, 0x00, 0x00, 0x00,
  0x03, 0x00, 0x00, 0x00, 0x08, 0x00, 0x00, 0x00, 0x9a, 0xfb, 0xff, 0xff,
  0x00, 0x00, 0x00, 0x01, 0x14, 0x00, 0x00, 0x00, 0x24, 0x00, 0x00, 0x00,
  0x24, 0x00, 0x00, 0x00, 0x0c, 0x00, 0x00, 0x00, 0x48, 0x00, 0x00, 0x00,
  0x04, 0x00, 0x00, 0x00, 0xff, 0xff, 0xff, 0xff, 0x1a, 0x00, 0x00, 0x00,
  0x03, 0x00, 0x00, 0x00, 0x04, 0x00, 0x00, 0x00, 0x84, 0xfb, 0xff, 0xff,
  0x25, 0x00, 0x00, 0x00, 0x73, 0x65, 0x71, 0x75, 0x65, 0x6e, 0x74, 0x69,
  0x61, 0x6c, 0x5f, 0x31, 0x33, 0x2f, 0x6d, 0x61, 0x78, 0x5f, 0x70, 0x6f,
  0x6f, 0x6c, 0x69, 0x6e, 0x67, 0x32, 0x64, 0x5f, 0x36, 0x2f, 0x4d, 0x61,
  0x78, 0x50, 0x6f, 0x6f, 0x6c, 0x00, 0x00, 0x00, 0x04, 0x00, 0x00, 0x00,
  0x01, 0x00, 0x00, 0x00, 0x1a, 0x00, 0x00, 0x00, 0x03, 0x00, 0x00, 0x00,
  0x04, 0x00, 0x00, 0x00, 0x0e, 0xfc, 0xff, 0xff, 0x00, 0x00, 0x00, 0x01,
  0x14, 0x00, 0x00, 0x00, 0x24, 0x00, 0x00, 0x00, 0x24, 0x00, 0x00, 0x00,
  0x0b, 0x00, 0x00, 0x00, 0xa8, 0x00, 0x00, 0x00, 0x04, 0x00, 0x00, 0x00,
  0xff, 0xff, 0xff, 0xff, 0x4e, 0x00, 0x00, 0x00, 0x03, 0x00, 0x00, 0x00,
  0x04, 0x00, 0x00, 0x00, 0xf8, 0xfb, 0xff, 0xff, 0x86, 0x00, 0x00, 0x00,
  0x73, 0x65, 0x71, 0x75, 0x65, 0x6e, 0x74, 0x69, 0x61, 0x6c, 0x5f, 0x31,
  0x33, 0x2f, 0x63, 0x6f, 0x6e, 0x76, 0x32, 0x64, 0x5f, 0x36, 0x2f, 0x52,
  0x65, 0x6c, 0x75, 0x3b, 0x73, 0x65, 0x71, 0x75, 0x65, 0x6e, 0x74, 0x69,
  0x61, 0x6c, 0x5f, 0x31, 0x33, 0x2f, 0x63, 0x6f, 0x6e, 0x76, 0x32, 0x64,
  0x5f, 0x36, 0x2f, 0x42, 0x69, 0x61, 0x73, 0x41, 0x64, 0x64, 0x3b, 0x73,
  0x65, 0x71, 0x75, 0x65, 0x6e, 0x74, 0x69, 0x61, 0x6c, 0x5f, 0x31, 0x33,
  0x2f, 0x63, 0x6f, 0x6e, 0x76, 0x32, 0x64, 0x5f, 0x36, 0x2f, 0x43, 0x6f,
  0x6e, 0x76, 0x32, 0x44, 0x3b, 0x73, 0x65, 0x71, 0x75, 0x65, 0x6e, 0x74,
  0x69, 0x61, 0x6c, 0x5f, 0x31, 0x33, 0x2f, 0x63, 0x6f, 0x6e, 0x76, 0x32,
  0x64, 0x5f, 0x36, 0x2f, 0x42, 0x69, 0x61, 0x73, 0x41, 0x64, 0x64, 0x2f,
  0x52, 0x65, 0x61, 0x64, 0x56, 0x61, 0x72, 0x69, 0x61, 0x62, 0x6c, 0x65,
  0x4f, 0x70, 0x00, 0x00, 0x04, 0x00, 0x00, 0x00, 0x01, 0x00, 0x00, 0x00,
  0x4e, 0x00, 0x00, 0x00, 0x03, 0x00, 0x00, 0x00, 0x04, 0x00, 0x00, 0x00,
  0x52, 0xfd, 0xff, 0xff, 0x00, 0x00, 0x00, 0x01, 0x10, 0x00, 0x00, 0x00,
  0x10, 0x00, 0x00, 0x00, 0x0a, 0x00, 0x00, 0x00, 0x2c, 0x00, 0x00, 0x00,
  0xb4, 0xfc, 0xff, 0xff, 0x1d, 0x00, 0x00, 0x00, 0x73, 0x65, 0x71, 0x75,
  0x65, 0x6e, 0x74, 0x69, 0x61, 0x6c, 0x5f, 0x31, 0x33, 0x2f, 0x64, 0x65,
  0x6e, 0x73, 0x65, 0x5f, 0x34, 0x30, 0x2f, 0x4d, 0x61, 0x74, 0x4d, 0x75,
  0x6c, 0x00, 0x00, 0x00, 0x02, 0x00, 0x00, 0x00, 0x03, 0x00, 0x00, 0x00,
  0x10, 0x00, 0x00, 0x00, 0x9e, 0xfd, 0xff, 0xff, 0x00, 0x00, 0x00, 0x01,
  0x10, 0x00, 0x00, 0x00, 0x10, 0x00, 0x00, 0x00, 0x09, 0x00, 0x00, 0x00,
  0x2c, 0x00, 0x00, 0x00, 0x00, 0xfd, 0xff, 0xff, 0x1d, 0x00, 0x00, 0x00,
  0x73, 0x65, 0x71, 0x75, 0x65, 0x6e, 0x74, 0x69, 0x61, 0x6c, 0x5f, 0x31,
  0x33, 0x2f, 0x64, 0x65, 0x6e, 0x73, 0x65, 0x5f, 0x33, 0x39, 0x2f, 0x4d,
  0x61, 0x74, 0x4d, 0x75, 0x6c, 0x00, 0x00, 0x00, 0x02, 0x00, 0x00, 0x00,
  0x10, 0x00, 0x00, 0x00, 0xc0, 0x00, 0x00, 0x00, 0x00, 0x00, 0x16, 0x00,
  0x1c, 0x00, 0x18, 0x00, 0x17, 0x00, 0x10, 0x00, 0x0c, 0x00, 0x08, 0x00,
  0x00, 0x00, 0x00, 0x00, 0x00, 0x00, 0x07, 0x00, 0x16, 0x00, 0x00, 0x00,
  0x00, 0x00, 0x00, 0x01, 0x14, 0x00, 0x00, 0x00, 0x14, 0x00, 0x00, 0x00,
  0x08, 0x00, 0x00, 0x00, 0x00, 0x00, 0x00, 0x02, 0x2c, 0x00, 0x00, 0x00,
  0x68, 0xfd, 0xff, 0xff, 0x1e, 0x00, 0x00, 0x00, 0x73, 0x65, 0x71, 0x75,
  0x65, 0x6e, 0x74, 0x69, 0x61, 0x6c, 0x5f, 0x31, 0x33, 0x2f, 0x66, 0x6c,
  0x61, 0x74, 0x74, 0x65, 0x6e, 0x5f, 0x31, 0x33, 0x2f, 0x43, 0x6f, 0x6e,
  0x73, 0x74, 0x00, 0x00, 0x01, 0x00, 0x00, 0x00, 0x02, 0x00, 0x00, 0x00,
  0x4e, 0xfe, 0xff, 0xff, 0x00, 0x00, 0x00, 0x01, 0x10, 0x00, 0x00, 0x00,
  0x10, 0x00, 0x00, 0x00, 0x07, 0x00, 0x00, 0x00, 0x3c, 0x00, 0x00, 0x00,
  0xb0, 0xfd, 0xff, 0xff, 0x2d, 0x00, 0x00, 0x00, 0x73, 0x65, 0x71, 0x75,
  0x65, 0x6e, 0x74, 0x69, 0x61, 0x6c, 0x5f, 0x31, 0x33, 0x2f, 0x64, 0x65,
  0x6e, 0x73, 0x65, 0x5f, 0x33, 0x39, 0x2f, 0x42, 0x69, 0x61, 0x73, 0x41,
  0x64, 0x64, 0x2f, 0x52, 0x65, 0x61, 0x64, 0x56, 0x61, 0x72, 0x69, 0x61,
  0x62, 0x6c, 0x65, 0x4f, 0x70, 0x00, 0x00, 0x00, 0x01, 0x00, 0x00, 0x00,
  0x10, 0x00, 0x00, 0x00, 0xa6, 0xfe, 0xff, 0xff, 0x00, 0x00, 0x00, 0x01,
  0x10, 0x00, 0x00, 0x00, 0x10, 0x00, 0x00, 0x00, 0x06, 0x00, 0x00, 0x00,
  0x3c, 0x00, 0x00, 0x00, 0x08, 0xfe, 0xff, 0xff, 0x2d, 0x00, 0x00, 0x00,
  0x73, 0x65, 0x71, 0x75, 0x65, 0x6e, 0x74, 0x69, 0x61, 0x6c, 0x5f, 0x31,
  0x33, 0x2f, 0x64, 0x65, 0x6e, 0x73, 0x65, 0x5f, 0x34, 0x30, 0x2f, 0x42,
  0x69, 0x61, 0x73, 0x41, 0x64, 0x64, 0x2f, 0x52, 0x65, 0x61, 0x64, 0x56,
  0x61, 0x72, 0x69, 0x61, 0x62, 0x6c, 0x65, 0x4f, 0x70, 0x00, 0x00, 0x00,
  0x01, 0x00, 0x00, 0x00, 0x03, 0x00, 0x00, 0x00, 0xfe, 0xfe, 0xff, 0xff,
  0x00, 0x00, 0x00, 0x01, 0x10, 0x00, 0x00, 0x00, 0x10, 0x00, 0x00, 0x00,
  0x05, 0x00, 0x00, 0x00, 0x2c, 0x00, 0x00, 0x00, 0x60, 0xfe, 0xff, 0xff,
  0x1d, 0x00, 0x00, 0x00, 0x73, 0x65, 0x71, 0x75, 0x65, 0x6e, 0x74, 0x69,
  0x61, 0x6c, 0x5f, 0x31, 0x33, 0x2f, 0x63, 0x6f, 0x6e, 0x76, 0x32, 0x64,
  0x5f, 0x37, 0x2f, 0x43, 0x6f, 0x6e, 0x76, 0x32, 0x44, 0x00, 0x00, 0x00,
  0x04, 0x00, 0x00, 0x00, 0x08, 0x00, 0x00, 0x00, 0x03, 0x00, 0x00, 0x00,
  0x01, 0x00, 0x00, 0x00, 0x04, 0x00, 0x00, 0x00, 0x52, 0xff, 0xff, 0xff,
  0x00, 0x00, 0x00, 0x01, 0x10, 0x00, 0x00, 0x00, 0x10, 0x00, 0x00, 0x00,
  0x04, 0x00, 0x00, 0x00, 0x2c, 0x00, 0x00, 0x00, 0xb4, 0xfe, 0xff, 0xff,
  0x1d, 0x00, 0x00, 0x00, 0x73, 0x65, 0x71, 0x75, 0x65, 0x6e, 0x74, 0x69,
  0x61, 0x6c, 0x5f, 0x31, 0x33, 0x2f, 0x63, 0x6f, 0x6e, 0x76, 0x32, 0x64,
  0x5f, 0x36, 0x2f, 0x43, 0x6f, 0x6e, 0x76, 0x32, 0x44, 0x00, 0x00, 0x00,
  0x04, 0x00, 0x00, 0x00, 0x04, 0x00, 0x00, 0x00, 0x03, 0x00, 0x00, 0x00,
  0x01, 0x00, 0x00, 0x00, 0x01, 0x00, 0x00, 0x00, 0xa6, 0xff, 0xff, 0xff,
  0x00, 0x00, 0x00, 0x01, 0x10, 0x00, 0x00, 0x00, 0x10, 0x00, 0x00, 0x00,
  0x03, 0x00, 0x00, 0x00, 0x3c, 0x00, 0x00, 0x00, 0x08, 0xff, 0xff, 0xff,
  0x2d, 0x00, 0x00, 0x00, 0x73, 0x65, 0x71, 0x75, 0x65, 0x6e, 0x74, 0x69,
  0x61, 0x6c, 0x5f, 0x31, 0x33, 0x2f, 0x63, 0x6f, 0x6e, 0x76, 0x32, 0x64,
  0x5f, 0x37, 0x2f, 0x42, 0x69, 0x61, 0x73, 0x41, 0x64, 0x64, 0x2f, 0x52,
  0x65, 0x61, 0x64, 0x56, 0x61, 0x72, 0x69, 0x61, 0x62, 0x6c, 0x65, 0x4f,
