const unsigned char model[] __attribute__((aligned(4))) = {
  0x1c, 0x00, 0x00, 0x00, 0x54, 0x46, 0x4c, 0x33, 0x14, 0x00, 0x20, 0x00,
  0x1c, 0x00, 0x18, 0x00, 0x14, 0x00, 0x10, 0x00, 0x0c, 0x00, 0x00, 0x00,
  0x08, 0x00, 0x04, 0x00, 0x14, 0x00, 0x00, 0x00, 0x1c, 0x00, 0x00, 0x00,
  0x88, 0x00, 0x00, 0x00, 0xe0, 0x00, 0x00, 0x00, 0x68, 0x1c, 0x00, 0x00,
  0x78, 0x1c, 0x00, 0x00, 0x64, 0x27, 0x00, 0x00, 0x03, 0x00, 0x00, 0x00,
  0x01, 0x00, 0x00, 0x00, 0x04, 0x00, 0x00, 0x00, 0x8e, 0xe2, 0xff, 0xff,
  0x0c, 0x00, 0x00, 0x00, 0x1c, 0x00, 0x00, 0x00, 0x3c, 0x00, 0x00, 0x00,
  0x0f, 0x00, 0x00, 0x00, 0x73, 0x65, 0x72, 0x76, 0x69, 0x6e, 0x67, 0x5f,
  0x64, 0x65, 0x66, 0x61, 0x75, 0x6c, 0x74, 0x00, 0x01, 0x00, 0x00, 0x00,
  0x04, 0x00, 0x00, 0x00, 0x94, 0xff, 0xff, 0xff, 0x11, 0x00, 0x00, 0x00,
  0x04, 0x00, 0x00, 0x00, 0x08, 0x00, 0x00, 0x00, 0x64, 0x65, 0x6e, 0x73,
  0x65, 0x5f, 0x33, 0x38, 0x00, 0x00, 0x00, 0x00, 0x01, 0x00, 0x00, 0x00,
  0x04, 0x00, 0x00, 0x00, 0x72, 0xe3, 0xff, 0xff, 0x04, 0x00, 0x00, 0x00,
  0x08, 0x00, 0x00, 0x00, 0x69, 0x6e, 0x70, 0x75, 0x74, 0x5f, 0x31, 0x33,
  0x00, 0x00, 0x00, 0x00, 0x02, 0x00, 0x00, 0x00, 0x34, 0x00, 0x00, 0x00,
  0x04, 0x00, 0x00, 0x00, 0xdc, 0xff, 0xff, 0xff, 0x14, 0x00, 0x00, 0x00,
  0x04, 0x00, 0x00, 0x00, 0x13, 0x00, 0x00, 0x00, 0x43, 0x4f, 0x4e, 0x56,
  0x45, 0x52, 0x53, 0x49, 0x4f, 0x4e, 0x5f, 0x4d, 0x45, 0x54, 0x41, 0x44,
  0x41, 0x54, 0x41, 0x00, 0x08, 0x00, 0x0c, 0x00, 0x08, 0x00, 0x04, 0x00,
  0x08, 0x00, 0x00, 0x00, 0x13, 0x00, 0x00, 0x00, 0x04, 0x00, 0x00, 0x00,
  0x13, 0x00, 0x00, 0x00, 0x6d, 0x69, 0x6e, 0x5f, 0x72, 0x75, 0x6e, 0x74,
  0x69, 0x6d, 0x65, 0x5f, 0x76, 0x65, 0x72, 0x73, 0x69, 0x6f, 0x6e, 0x00,
  0x15, 0x00, 0x00, 0x00, 0x84, 0x1b, 0x00, 0x00, 0x7c, 0x1b, 0x00, 0x00,
  0x5c, 0x1b, 0x00, 0x00, 0x3c, 0x1b, 0x00, 0x00, 0xfc, 0x1a, 0x00, 0x00,
  0x2c, 0x1a, 0x00, 0x00, 0x10, 0x1a, 0x00, 0x00, 0xc0, 0x19, 0x00, 0x00,
  0xa8, 0x19, 0x00, 0x00, 0x98, 0x01, 0x00, 0x00, 0xc8, 0x00, 0x00, 0x00,
  0xc0, 0x00, 0x00, 0x00, 0xb8, 0x00, 0x00, 0x00, 0xb0, 0x00, 0x00, 0x00,
  0xa8, 0x00, 0x00, 0x00, 0xa0, 0x00, 0x00, 0x00, 0x98, 0x00, 0x00, 0x00,
  0x90, 0x00, 0x00, 0x00, 0x88, 0x00, 0x00, 0x00, 0x68, 0x00, 0x00, 0x00,
  0x04, 0x00, 0x00, 0x00, 0x3e, 0xe4, 0xff, 0xff, 0x04, 0x00, 0x00, 0x00,
  0x54, 0x00, 0x00, 0x00, 0x0c, 0x00, 0x00, 0x00, 0x08, 0x00, 0x0e, 0x00,
  0x08, 0x00, 0x04, 0x00, 0x08, 0x00, 0x00, 0x00, 0x10, 0x00, 0x00, 0x00,
  0x24, 0x00, 0x00, 0x00, 0x00, 0x00, 0x06, 0x00, 0x08, 0x00, 0x04, 0x00,
  0x06, 0x00, 0x00, 0x00, 0x04, 0x00, 0x00, 0x00, 0x00, 0x00, 0x00, 0x00,
  0x00, 0x00, 0x0a, 0x00, 0x10, 0x00, 0x0c, 0x00, 0x08, 0x00, 0x04, 0x00,
  0x0a, 0x00, 0x00, 0x00, 0x02, 0x00, 0x00, 0x00, 0x02, 0x00, 0x00, 0x00,
  0x04, 0x00, 0x00, 0x00, 0x06, 0x00, 0x00, 0x00, 0x32, 0x2e, 0x31, 0x30,
  0x2e, 0x30, 0x00, 0x00, 0x9e, 0xe4, 0xff, 0xff, 0x04, 0x00, 0x00, 0x00,
  0x10, 0x00, 0x00, 0x00, 0x31, 0x2e, 0x35, 0x2e, 0x30, 0x00, 0x00, 0x00,
  0x00, 0x00, 0x00, 0x00, 0x00, 0x00, 0x00, 0x00, 0x80, 0xda, 0xff, 0xff,
  0x84, 0xda, 0xff, 0xff, 0x88, 0xda, 0xff, 0xff, 0x8c, 0xda, 0xff, 0xff,
  0x90, 0xda, 0xff, 0xff, 0x94, 0xda, 0xff, 0xff, 0x98, 0xda, 0xff, 0xff,
  0x9c, 0xda, 0xff, 0xff, 0xda, 0xe4, 0xff, 0xff, 0x04, 0x00, 0x00, 0x00,
  0xc0, 0x00, 0x00, 0x00, 0x02, 0xdf, 0xc7, 0x3e, 0x60, 0x27, 0x63, 0xbf,
  0xd7, 0x98, 0x9a, 0x3e, 0x90, 0x8b, 0xb2, 0xbf, 0x5e, 0xba, 0x51, 0xbd,
  0xee, 0x5b, 0xc2, 0x3e, 0x2b, 0xd2, 0x06, 0x3e, 0x58, 0x5a, 0x62, 0x3e,
  0x5a, 0xfa, 0x42, 0xbf, 0x1b, 0xdb, 0x56, 0xbf, 0xe9, 0x76, 0xef, 0x3e,
  0xe4, 0x05, 0x39, 0xbf, 0xb0, 0xaf, 0xc8, 0xbe, 0xd8, 0x62, 0x53, 0x3f,
  0x3d, 0x02, 0x95, 0x3f, 0x50, 0xf3, 0xd9, 0x3e, 0x79, 0x16, 0x14, 0x3f,
  0xe0, 0x66, 0x94, 0xbe, 0xff, 0x78, 0x16, 0xbf, 0x69, 0x90, 0x27, 0x3d,
  0xd2, 0x4e, 0xa9, 0x3d, 0x6f, 0xd2, 0xb0, 0x3e, 0x93, 0x7e, 0x0f, 0x3f,
  0x60, 0xcd, 0x03, 0xbf, 0xce, 0x5d, 0xc1, 0x3e, 0xce, 0x23, 0x36, 0xbf,
  0x72, 0x8e, 0xdf, 0x3e, 0x1f, 0xe8, 0xfe, 0xbc, 0xc5, 0x8a, 0x3e, 0x3f,
  0xe3, 0x2d, 0x72, 0xbe, 0xa4, 0x2d, 0x07, 0xbf, 0xdf, 0x71, 0x58, 0xbf,
  0x54, 0xf5, 0x51, 0xbf, 0xa1, 0x81, 0xac, 0x3d, 0x32, 0xae, 0x84, 0xbf,
  0xca, 0x97, 0xbd, 0x3d, 0x4f, 0xe0, 0x85, 0xbf, 0x46, 0xab, 0x47, 0xbf,
  0x34, 0xf0, 0x22, 0x3f, 0xa9, 0xbd, 0x32, 0x3f, 0xc3, 0x57, 0xc7, 0x3e,
  0xfa, 0x9d, 0xd5, 0xbd, 0xc2, 0xdd, 0x13, 0xbf, 0xde, 0x8a, 0xe8, 0x3e,
  0x5c, 0x45, 0x2a, 0xbf, 0xf4, 0xdb, 0x29, 0xbf, 0xdb, 0xf3, 0xfe, 0xbe,
  0xeb, 0x71, 0xa3, 0x3d, 0xa6, 0xe5, 0xff, 0xff, 0x04, 0x00, 0x00, 0x00,
  0x00, 0x18, 0x00, 0x00, 0x6a, 0x0b, 0xca, 0xbe, 0x60, 0x8c, 0x4f, 0xbf,
  0x36, 0xa2, 0x23, 0xbf, 0xdb, 0x12, 0x3f, 0xbf, 0x27, 0xc2, 0xa1, 0xbe,
  0x8c, 0x49, 0x31, 0xbf, 0xbc, 0x00, 0x0a, 0xbf, 0x36, 0xbc, 0x29, 0xbf,
  0x68, 0xfe, 0xfe, 0x3d, 0xba, 0x17, 0xe5, 0xbe, 0x0c, 0x09, 0x17, 0x3d,
  0x5a, 0x04, 0x40, 0xbe, 0xd6, 0xc7, 0xa5, 0xbd, 0x19, 0xf9, 0x48, 0xbe,
  0x9b, 0x41, 0x32, 0x3e, 0x54, 0x57, 0x40, 0xbd, 0x04, 0x8a, 0x07, 0x3d,
  0x99, 0x9d, 0x47, 0xbd, 0x33, 0x0e, 0x89, 0x3d, 0x02, 0xa1, 0x67, 0x3d,
  0x0d, 0x8e, 0x2c, 0x3e, 0x0a, 0x18, 0x74, 0xbe, 0x35, 0x99, 0x0d, 0x3e,
  0xde, 0x70, 0x8c, 0x3c, 0x24, 0x33, 0x20, 0x3e, 0xad, 0xab, 0x00, 0x3d,
  0xff, 0x98, 0xbc, 0x3d, 0x23, 0x64, 0x33, 0xbc, 0x17, 0x96, 0x6b, 0x3d,
  0xdc, 0xdd, 0x85, 0x3d, 0x5b, 0x30, 0x44, 0x3e, 0x41, 0x4d, 0x85, 0x3d,
  0xc9, 0xda, 0xa9, 0x3d, 0x96, 0x62, 0xb4, 0xbe, 0x37, 0xb5, 0xf0, 0x3d,
  0xcb, 0x2a, 0x0c, 0xbe, 0xdd, 0x3b, 0x46, 0x3d, 0x31, 0x66, 0x2c, 0xbe,
  0x65, 0x92, 0x5b, 0x3e, 0xa8, 0x9a, 0x1b, 0x3d, 0x3b, 0xa2, 0x36, 0xbd,
  0x70, 0x15, 0x57, 0xbd, 0x47, 0x28, 0x5d, 0x3e, 0x57, 0x67, 0x37, 0x3d,
  0x22, 0x37, 0x6e, 0x3e, 0xf9, 0xc4, 0xb9, 0xbe, 0x01, 0xb2, 0x08, 0x3d,
  0x87, 0xd0, 0x68, 0xbe, 0x03, 0x76, 0x07, 0x3d, 0xcc, 0x8a, 0x49, 0xbd,
  0xaa, 0x98, 0x0c, 0x3d, 0xd1, 0xb2, 0xf6, 0x3d, 0xf7, 0x7f, 0xda, 0x3d,
  0xe1, 0x36, 0x6c, 0xbd, 0xd0, 0x58, 0xdf, 0x3d, 0x6b, 0xb4, 0xaa, 0xbd,
  0xc4, 0x39, 0x84, 0x3d, 0xb4, 0xfb, 0x7c, 0xbe, 0xe0, 0x7b, 0xd6, 0x3d,
  0x8c, 0x41, 0x31, 0xbe, 0xab, 0x47, 0x45, 0xbd, 0xfe, 0x75, 0xba, 0xbd,
  0x7e, 0x1b, 0xe6, 0x3d, 0xba, 0xb7, 0x1a, 0x3e, 0xa5, 0xf8, 0xcd, 0xbd,
  0x39, 0x80, 0xe2, 0xbd, 0x33, 0xfd, 0x60, 0xbd, 0x3b, 0x0d, 0x84, 0xbd,
  0x48, 0xa2, 0x19, 0xbd, 0x6b, 0xea, 0x20, 0xbe, 0xbe, 0xf5, 0xaa, 0xbb,
  0x6e, 0x5d, 0x49, 0xbe, 0xa4, 0x53, 0xa7, 0xbd, 0x51, 0x4a, 0xd3, 0x3b,
  0x6c, 0xb6, 0x7b, 0x3e, 0x6e, 0xb8, 0x5f, 0x3c, 0x4c, 0x24, 0x52, 0xbc,
  0xcc, 0x2e, 0x0c, 0xbe, 0x2e, 0xf3, 0x6c, 0x3e, 0xb2, 0x21, 0xd4, 0xbd,
  0x32, 0x37, 0xf9, 0xbd, 0xc6, 0xa2, 0x9c, 0xbe, 0x3a, 0x4e, 0xb6, 0x3b,
  0x97, 0x13, 0xa6, 0xbe, 0x90, 0xd4, 0xd3, 0xbc, 0x11, 0x1a, 0xc4, 0x3d,
  0x69, 0x73, 0x63, 0x3d, 0xf7, 0x8c, 0x96, 0xbd, 0x83, 0x0b, 0x12, 0xbe,
  0xc7, 0x6d, 0x5c, 0xbd, 0xe5, 0x72, 0xba, 0x3e, 0x31, 0xf8, 0x40, 0x3d,
  0x08, 0x73, 0x82, 0xbe, 0x09, 0x9f, 0x8e, 0xbe, 0x40, 0x55, 0x95, 0xbd,
  0x68, 0x67, 0x93, 0xbe, 0xab, 0xf9, 0x87, 0x3e, 0x5d, 0xdc, 0x1e, 0x3f,
  0x54, 0x3e, 0xb4, 0x3e, 0x20, 0x17, 0x03, 0x3f, 0x0c, 0x25, 0x82, 0x3e,
  0xff, 0x6c, 0xd1, 0x3e, 0xbf, 0xeb, 0x89, 0x3e, 0xa3, 0x0c, 0xa8, 0x3e,
  0x19, 0x57, 0x8f, 0x3e, 0xe0, 0x39, 0x98, 0x3e, 0xa7, 0x16, 0x82, 0x3d,
  0xdd, 0xe5, 0xbe, 0x3e, 0xb0, 0x24, 0x9c, 0x3c, 0xed, 0xaf, 0xc6, 0x3e,
  0xfb, 0xae, 0x8b, 0x3d, 0xbe, 0xf8, 0xc7, 0xbd, 0x7a, 0x47, 0x8f, 0x3d,
  0xdf, 0x66, 0x83, 0x3d, 0xd8, 0xf5, 0x9a, 0xbd, 0x1f, 0x3c, 0x3a, 0xbd,
  0x7e, 0xe0, 0xde, 0x3c, 0x31, 0x58, 0x0f, 0x3e, 0xc0, 0xe4, 0xbe, 0xbc,
  0xcb, 0x24, 0x6c, 0xbd, 0x7b, 0xfa, 0xdb, 0xbd, 0x4b, 0x38, 0x64, 0x3e,
  0x77, 0x44, 0xc7, 0xbd, 0x01, 0xc9, 0xbc, 0x3c, 0xdb, 0x35, 0xbb, 0xbd,
  0xc1, 0x3b, 0xa0, 0x3e, 0x3c, 0x0e, 0x42, 0x3d, 0xeb, 0x8a, 0xbe, 0x3d,
  0xcc, 0xd0, 0x2d, 0x3c, 0x55, 0x31, 0x87, 0x3e, 0x29, 0x33, 0x80, 0x3d,
  0xd2, 0x67, 0x91, 0xbc, 0x3f, 0x86, 0x0b, 0xbe, 0xb6, 0x3d, 0x76, 0x3e,
  0xce, 0x16, 0xd0, 0xbd, 0x89, 0xd0, 0x43, 0x3d, 0xd4, 0x9d, 0x2f, 0x3e,
  0xe2, 0x8c, 0x75, 0x3e, 0xd6, 0x4a, 0xd8, 0x3d, 0x0c, 0x0f, 0x15, 0x3d,
  0xee, 0x5a, 0x1c, 0x3d, 0xeb, 0xec, 0x15, 0x3e, 0xa5, 0x2c, 0xad, 0xbc,
  0xd3, 0x4a, 0x16, 0x3e, 0x64, 0x14, 0x50, 0xbe, 0x80, 0x5b, 0xa1, 0x3e,
  0xc5, 0xd4, 0xe9, 0xbd, 0x34, 0x85, 0x41, 0x3e, 0x78, 0xd4, 0xeb, 0x3c,
  0xed, 0x62, 0xfc, 0x3d, 0xb3, 0x61, 0xf3, 0xbd, 0x85, 0x19, 0xdf, 0x3d,
  0xb0, 0x80, 0xbd, 0xbc, 0x36, 0x11, 0x5f, 0x3e, 0x0a, 0x2d, 0xaa, 0x3c,
  0x45, 0xc4, 0x86, 0x3d, 0x2f, 0xfa, 0x3c, 0xbe, 0xfd, 0x31, 0x91, 0x3e,
  0x11, 0xa9, 0x52, 0xbe, 0x90, 0xc5, 0x3e, 0x3e, 0x07, 0xbb, 0xd2, 0xbd,
  0x91, 0xcd, 0x9f, 0x3d, 0xcd, 0xd8, 0x35, 0xbe, 0xef, 0xa0, 0x1a, 0x3e,
  0xec, 0x43, 0xb9, 0x3d, 0xff, 0x64, 0x43, 0x3e, 0xbd, 0x59, 0xba, 0x3d,
  0x2f, 0xc5, 0xea, 0x3d, 0x85, 0xe6, 0x4a, 0xbe, 0x3e, 0x24, 0xd5, 0xba,
  0x56, 0x46, 0xbd, 0xbc, 0x44, 0x7c, 0xd1, 0xbd, 0x54, 0x17, 0xbd, 0x3d,
  0x3d, 0x23, 0x2e, 0x3e, 0xd7, 0x00, 0xec, 0x3d, 0x0a, 0x0a, 0xeb, 0x3d,
  0x1d, 0xb1, 0x20, 0xbc, 0xb1, 0x7f, 0xe7, 0x3d, 0xc9, 0x1c, 0x14, 0xbd,
  0xed, 0x18, 0x30, 0x3e, 0x4e, 0xcb, 0x79, 0xbe, 0x9d, 0xb2, 0x5f, 0x3d,
  0x60, 0x0e, 0x18, 0xbe, 0xcb, 0x76, 0x36, 0xbd, 0x72, 0x94, 0xba, 0xbd,
  0xf5, 0xd5, 0xde, 0x3d, 0x5f, 0xd7, 0x13, 0xbe, 0x39, 0x97, 0x30, 0xbd,
  0xf4, 0x8c, 0x78, 0x3b, 0x3d, 0xec, 0x0f, 0x3e, 0xe8, 0xd0, 0x10, 0x3d,
  0x35, 0xd7, 0x84, 0x3d, 0x7c, 0xcc, 0x89, 0x3e, 0xb3, 0x2a, 0xd5, 0x3e,
  0x1f, 0x11, 0x92, 0x3e, 0xea, 0xfd, 0x9b, 0x3e, 0xa3, 0xe1, 0xe8, 0x3c,
  0x45, 0xa5, 0xd1, 0x3e, 0x0c, 0xcd, 0xd2, 0x3e, 0x83, 0x4f, 0xc4, 0x3d,
  0xbb, 0x86, 0xd4, 0xbd, 0x9b, 0x71, 0xfd, 0x3d, 0xfd, 0xff, 0x7c, 0xbe,
  0x6c, 0xf7, 0xda, 0xbe, 0x5b, 0xbc, 0x9f, 0xbe, 0xf9, 0x62, 0x03, 0x3e,
  0x37, 0x67, 0x88, 0xbd, 0x82, 0x5e, 0x16, 0xbe, 0x6d, 0x87, 0x32, 0xbf,
  0x1a, 0x52, 0x75, 0x3e, 0x58, 0x8f, 0x07, 0xbe, 0xf6, 0x7a, 0xb2, 0xbe,
  0x96, 0xf2, 0x65, 0xbf, 0xd7, 0x98, 0x3a, 0xbe, 0x5c, 0x12, 0x60, 0xbf,
  0x04, 0xba, 0x3e, 0xbf, 0xb9, 0x9e, 0x1d, 0xbf, 0x05, 0xab, 0x43, 0x3d,
  0x73, 0x4c, 0xb6, 0xbd, 0x87, 0xf0, 0x7a, 0xbe, 0x42, 0xd9, 0xbc, 0xbe,
  0xc9, 0x24, 0xc2, 0xbd, 0x39, 0x1c, 0xbc, 0xbd, 0x65, 0x5e, 0x73, 0xbe,
  0xf4, 0xf7, 0x29, 0xbf, 0xc7, 0x89, 0x53, 0xbe, 0x34, 0x2d, 0x63, 0xbe,
  0x19, 0x1b, 0x72, 0xbe, 0x59, 0xc7, 0xea, 0xbd, 0xa4, 0xae, 0x18, 0x3e,
  0x71, 0xc1, 0x46, 0xbd, 0xf2, 0xfa, 0x20, 0x3d, 0x8a, 0x36, 0x9e, 0xbe,
  0x1c, 0x27, 0x10, 0xba, 0xfd, 0x4b, 0xd4, 0x3c, 0x56, 0xaa, 0x08, 0xbe,
  0xc9, 0x42, 0x4e, 0xbd, 0x5e, 0x89, 0xe8, 0x3d, 0xa0, 0xc0, 0x3a, 0x3e,
  0xf6, 0x07, 0xed, 0x3e, 0xaa, 0x2f, 0xba, 0x3d, 0x2b, 0xb3, 0x19, 0xbe,
  0x37, 0x9e, 0xb4, 0xbd, 0xec, 0x78, 0x96, 0xbc, 0x43, 0xb4, 0x02, 0x3d,
  0xe8, 0x56, 0x6f, 0xbe, 0xb4, 0xf6, 0xdd, 0xbd, 0x42, 0xbd, 0xbf, 0xbd,
  0xbd, 0xb3, 0xec, 0x3d, 0x7f, 0xfa, 0xb0, 0x3d, 0x15, 0x81, 0x97, 0x3e,
  0xf1, 0x4d, 0x99, 0x3e, 0xb9, 0x4c, 0x9d, 0xbd, 0xe6, 0x61, 0x24, 0xbe,
  0x72, 0xdf, 0xdb, 0xbb, 0x76, 0x4c, 0xd5, 0xbc, 0xbf, 0x16, 0xcd, 0x3d,
  0x4d, 0x94, 0x8a, 0xbe, 0x7c, 0x46, 0xae, 0xbd, 0xee, 0xde, 0x0f, 0xbe,
  0x84, 0x02, 0x40, 0x3d, 0x73, 0x4f, 0xa7, 0x3e, 0x79, 0x51, 0x00, 0x3e,
  0x8a, 0x3f, 0xf3, 0x3d, 0xe8, 0x81, 0xed, 0x3c, 0xc6, 0x98, 0xac, 0xbc,
  0x1a, 0xa3, 0x2a, 0xbc, 0xc7, 0x03, 0xbc, 0xbb, 0x79, 0x66, 0xf8, 0x3c,
  0x2c, 0xaa, 0x38, 0xbe, 0x16, 0xf9, 0xca, 0x3c, 0x54, 0x7f, 0xd7, 0xbd,
  0xce, 0x20, 0xe2, 0x3c, 0x96, 0x95, 0xae, 0x3c, 0x12, 0xd2, 0x04, 0x3e,
  0x77, 0xd2, 0x49, 0x3e, 0xe4, 0x66, 0xad, 0x3d, 0x93, 0xa8, 0x15, 0xbd,
  0x57, 0x9d, 0xc1, 0xbb, 0xfb, 0x05, 0xc6, 0xbd, 0xae, 0xa5, 0xa3, 0x3d,
  0x1f, 0xb7, 0x95, 0xbe, 0x3d, 0xf3, 0x27, 0xbd, 0x7e, 0x8c, 0x20, 0xbc,
  0x12, 0x68, 0xda, 0x3d, 0xf4, 0xc9, 0x41, 0x3e, 0x93, 0xbf, 0xac, 0x3d,
  0x56, 0x95, 0x8b, 0x3e, 0x2c, 0x6d, 0xa6, 0x3e, 0x33, 0xb4, 0x53, 0x3e,
  0xdb, 0x16, 0x50, 0x3e, 0xd3, 0x71, 0x0c, 0x3e, 0x85, 0xa8, 0x95, 0x3d,
  0xaa, 0x4c, 0x14, 0x3e, 0x7a, 0x91, 0x91, 0x3e, 0x25, 0xb9, 0xb4, 0xbd,
  0xa9, 0x21, 0x3e, 0x3e, 0x50, 0xed, 0x4a, 0x3c, 0xe8, 0xc7, 0x5f, 0x3e,
  0x6a, 0x99, 0x40, 0x3e, 0x63, 0xd5, 0xca, 0xbc, 0xe2, 0xcc, 0xf8, 0x3e,
  0xaa, 0x9b, 0x13, 0xbd, 0x11, 0xfe, 0x0b, 0x3e, 0x3a, 0x50, 0x68, 0xbd,
  0x19, 0xad, 0x41, 0xbb, 0xb2, 0x58, 0x69, 0xbe, 0x57, 0xbd, 0x6a, 0xbd,
  0x05, 0x66, 0x62, 0xbd, 0x26, 0xd2, 0xe9, 0xbd, 0x8b, 0x64, 0xfe, 0xbb,
  0x5d, 0xd9, 0xc7, 0xbc, 0x56, 0x6a, 0xf1, 0x3d, 0x1a, 0xf2, 0x98, 0x3e,
  0xbf, 0xd5, 0xeb, 0xbd, 0x0b, 0x9a, 0x24, 0x3e, 0xb7, 0xad, 0xe3, 0xbd,
  0x77, 0x15, 0x8e, 0x3e, 0x44, 0x0e, 0x18, 0xbf, 0xa0, 0x5d, 0x6f, 0xbe,
  0x81, 0x64, 0x3b, 0x3d, 0xe7, 0xab, 0x4b, 0xbc, 0x03, 0xb9, 0xf3, 0x3c,
  0xdb, 0x13, 0x02, 0x3e, 0x91, 0x4a, 0x69, 0x3c, 0xab, 0x55, 0x65, 0x3e,
  0xcb, 0x32, 0x00, 0xbe, 0xb3, 0xad, 0x11, 0x3e, 0x3d, 0x15, 0x54, 0xbd,
  0x01, 0xc2, 0x99, 0x3e, 0xee, 0x54, 0xe8, 0xbe, 0xfc, 0x62, 0x96, 0xbe,
  0x5f, 0xd6, 0xb7, 0x3d, 0x25, 0xce, 0x3d, 0x3e, 0x5a, 0x17, 0xcc, 0x3d,
  0xc3, 0xc3, 0x4b, 0x3d, 0x0d, 0x05, 0xc7, 0xbc, 0x11, 0x7f, 0xd1, 0x3d,
  0x6f, 0x33, 0x06, 0xbe, 0xe0, 0xb9, 0x3e, 0x3e, 0xa0, 0xe9, 0xb6, 0xbe,
  0x3d, 0xb5, 0x07, 0x3e, 0x41, 0x0a, 0x4a, 0xbf, 0xbe, 0x8f, 0x67, 0xbe,
  0xba, 0xe7, 0xff, 0x3a, 0xf3, 0xf0, 0xda, 0x3d, 0x4a, 0x57, 0x17, 0x3e,
  0xfc, 0x57, 0xec, 0x3d, 0xd1, 0x43, 0xea, 0x3d, 0x0c, 0x3b, 0xd7, 0x3d,
  0x2a, 0xc0, 0x21, 0xbe, 0xd5, 0xa2, 0xc4, 0x3d, 0x05, 0x74, 0x80, 0xbe,
  0x95, 0xde, 0xea, 0xbc, 0x25, 0xd5, 0x24, 0xbf, 0x24, 0x64, 0x8e, 0xbe,
  0x08, 0xd6, 0x26, 0x3d, 0x71, 0x85, 0x99, 0x3e, 0x63, 0xb7, 0xf2, 0x3d,
  0x01, 0xc5, 0x22, 0x3e, 0x42, 0x0e, 0x1c, 0x3d, 0x06, 0xcc, 0x39, 0x3e,
  0x73, 0xd5, 0x00, 0xbe, 0xa0, 0x34, 0x37, 0x3d, 0x15, 0x82, 0xb5, 0xbe,
  0x30, 0xd3, 0x9f, 0x3c, 0xc3, 0xba, 0x6e, 0xbf, 0x17, 0x12, 0x9d, 0xbe,
  0xe7, 0xff, 0xaa, 0x3d, 0xcb, 0x5e, 0x2e, 0x3e, 0xca, 0xc3, 0x3e, 0x3e,
  0x4e, 0x01, 0xc9, 0x3d, 0x89, 0x82, 0xf6, 0xbd, 0xfa, 0x0d, 0x81, 0x3d,
  0x97, 0x1a, 0x41, 0xbe, 0x0c, 0x2e, 0xc4, 0x3d, 0xc7, 0xa6, 0x27, 0xbf,
  0x45, 0xaa, 0x0e, 0xbe, 0xb5, 0x7c, 0x7c, 0xbf, 0x5a, 0xdc, 0x25, 0xbf,
  0x4e, 0x04, 0xcc, 0x3d, 0x47, 0xef, 0x69, 0xbc, 0x5d, 0x6c, 0x88, 0x3d,
  0x76, 0xd3, 0x71, 0x3d, 0x24, 0xc4, 0x11, 0x3e, 0xb5, 0xba, 0x19, 0xbf,
  0xd2, 0x19, 0x46, 0x3e, 0x08, 0xbe, 0x3e, 0xb9, 0x8c, 0x9a, 0xcd, 0x3c,
  0x5f, 0x20, 0x15, 0xbf, 0x06, 0x26, 0xb7, 0x3d, 0xac, 0x37, 0xbc, 0x3d,
  0x57, 0x4a, 0x2d, 0x3e, 0x32, 0x93, 0x6d, 0xbe, 0x6c, 0xd4, 0x88, 0x3e,
  0x7c, 0x23, 0xd6, 0x3d, 0x07, 0x34, 0x13, 0xbe, 0x67, 0xb6, 0x54, 0xbf,
  0x6a, 0x57, 0x63, 0xbe, 0x37, 0xdf, 0xcb, 0xbe, 0xc9, 0x8e, 0xf2, 0xbb,
  0x24, 0xaf, 0x2a, 0xbf, 0x81, 0x7a, 0x80, 0xbe, 0xea, 0x79, 0xab, 0xbe,
  0xab, 0xdd, 0x89, 0x3d, 0x59, 0x9a, 0x8f, 0xbe, 0x3a, 0x38, 0x0b, 0x3d,
  0x7d, 0xde, 0xe3, 0xbc, 0xb1, 0xca, 0x7c, 0xbe, 0x31, 0xa5, 0x6d, 0xbf,
  0x57, 0x09, 0x11, 0xbe, 0x4d, 0x06, 0xe6, 0xbe, 0xcd, 0x12, 0x80, 0xbe,
  0x40, 0x62, 0xcc, 0xbe, 0x65, 0xfe, 0x33, 0xbe, 0x30, 0x5e, 0x15, 0xbf,
  0xae, 0xf9, 0xac, 0x3d, 0xd1, 0x5a, 0x47, 0xbf, 0x0b, 0x64, 0xd3, 0xbd,
  0x72, 0x71, 0x52, 0xbe, 0x83, 0x4b, 0x83, 0xbe, 0xf2, 0x10, 0xfe, 0xbe,
  0xce, 0x0e, 0x82, 0xbd, 0xff, 0x6a, 0xac, 0xbe, 0xd4, 0xbc, 0x91, 0xbe,
  0xe1, 0xf9, 0xbf, 0xbe, 0xe3, 0x40, 0x8f, 0xbe, 0x4c, 0x46, 0xaf, 0xbe,
  0x5e, 0xde, 0xda, 0xbd, 0xf2, 0xfc, 0xed, 0xbe, 0x34, 0x40, 0x74, 0xbe,
  0xa4, 0xda, 0x8c, 0xbe, 0xae, 0x03, 0x8f, 0xbe, 0x82, 0xa9, 0x3f, 0xbe,
  0x22, 0x39, 0x66, 0x3e, 0x42, 0x74, 0x78, 0xbe, 0x3e, 0xae, 0x06, 0xbe,
  0x19, 0x81, 0x25, 0xbe, 0x08, 0x6d, 0x2f, 0x3b, 0x11, 0xf2, 0xa6, 0x3d,
  0x05, 0x37, 0x78, 0xbd, 0xea, 0x56, 0xdd, 0xbe, 0x1a, 0x01, 0x13, 0xbe,
  0x2c, 0x16, 0x9a, 0xbe, 0x27, 0x58, 0xe7, 0x3d, 0x9d, 0xdd, 0x5b, 0x3c,
  0xd8, 0x4c, 0x20, 0x3e, 0x92, 0x1e, 0xb9, 0xbc, 0x3c, 0xe2, 0x11, 0xbd,
  0x5a, 0xef, 0x39, 0x3d, 0x6c, 0x46, 0xee, 0x3d, 0xbd, 0x9a, 0x98, 0x3c,
  0xac, 0x5d, 0x31, 0xbc, 0x26, 0x15, 0x4f, 0xbe, 0xd0, 0x75, 0x02, 0x3e,
  0x04, 0xb0, 0xfd, 0xb9, 0x86, 0xc7, 0xa6, 0x3d, 0xb7, 0xea, 0xa2, 0x3d,
  0x52, 0x32, 0x26, 0x3e, 0xb8, 0xcf, 0x0a, 0xbd, 0x69, 0x71, 0x89, 0xbc,
  0xbe, 0x8b, 0x27, 0x3e, 0x3a, 0x3d, 0x4b, 0x3e, 0x80, 0x4d, 0x1f, 0x3e,
  0x9d, 0xe0, 0xfb, 0xbd, 0x3d, 0x50, 0x93, 0xbe, 0x0c, 0x8a, 0xcf, 0x3d,
  0x7f, 0xff, 0x84, 0xbd, 0xc7, 0x1e, 0x26, 0x3e, 0xdc, 0x69, 0xa4, 0x3e,
  0xa9, 0x4f, 0xcb, 0x3e, 0x50, 0xa3, 0x01, 0x3f, 0x20, 0xa7, 0x67, 0x3e,
  0xce, 0x89, 0xfb, 0x3e, 0x0b, 0xde, 0xe3, 0x3e, 0x6f, 0xa3, 0xd3, 0x3e,
  0x44, 0x1d, 0x6e, 0x3e, 0x76, 0x9f, 0x1c, 0xbe, 0xa9, 0xf0, 0xcf, 0x3e,
  0xe1, 0x5b, 0xf9, 0xbc, 0xe3, 0x17, 0x04, 0xbf, 0xf6, 0xd7, 0x0a, 0xbf,
  0xd3, 0xe7, 0xce, 0xbe, 0x36, 0x86, 0x38, 0xbf, 0x5b, 0x17, 0x10, 0xbf,
  0x21, 0x80, 0x0b, 0xbf, 0xd3, 0x16, 0xc6, 0xbe, 0x0f, 0x99, 0x61, 0xbf,
  0x41, 0x24, 0x4d, 0xbd, 0x2a, 0x11, 0x0c, 0xbf, 0x5c, 0x96, 0x3a, 0xbe,
  0x4d, 0x46, 0xbf, 0xbe, 0xb2, 0xab, 0xd3, 0xbe, 0xc5, 0xb5, 0xb2, 0xbe,
  0x7c, 0x94, 0x0e, 0xbf, 0xbc, 0x01, 0x37, 0xbf, 0x5c, 0x6b, 0xf0, 0xbe,
  0x79, 0xa9, 0x88, 0xbe, 0x1b, 0x3a, 0x8b, 0xbe, 0x7b, 0x05, 0x25, 0xbf,
  0xc1, 0xd7, 0xb7, 0xbd, 0x19, 0x91, 0xa5, 0xbe, 0xa1, 0x6f, 0xe4, 0xbc,
  0x55, 0x0f, 0xca, 0xbe, 0x5f, 0x34, 0xc8, 0xbd, 0x24, 0xe9, 0x59, 0xbd,
  0xc0, 0xd6, 0xd8, 0xbc, 0x5e, 0xfc, 0x2f, 0xbd, 0xb8, 0x71, 0x95, 0xbd,
  0xf6, 0x66, 0x06, 0xbd, 0x9a, 0x22, 0x1c, 0xbc, 0x70, 0x45, 0x9b, 0xbd,
  0x37, 0xf4, 0xb1, 0x3d, 0x55, 0x42, 0x23, 0xbd, 0x01, 0x10, 0x42, 0x3e,
  0xd4, 0x4b, 0xbc, 0xbc, 0xee, 0x9a, 0x59, 0x3d, 0xb2, 0x27, 0x0d, 0x3e,
  0xfd, 0xb5, 0x2b, 0x3e, 0x1d, 0x41, 0x7c, 0x3d, 0x8d, 0xf9, 0x50, 0x3e,
  0x34, 0xf5, 0x5b, 0x3e, 0x2d, 0xf7, 0x0e, 0x3e, 0x02, 0xa9, 0x3b, 0x3e,
  0x0c, 0xf5, 0xd5, 0x3c, 0xc0, 0xe5, 0xe9, 0xbd, 0xe3, 0x01, 0x71, 0x3e,
  0x9b, 0x1f, 0x3a, 0xbb, 0x3e, 0x92, 0x92, 0x3d, 0x15, 0x6a, 0x4a, 0x3d,
  0x5e, 0x13, 0x68, 0x3e, 0x5f, 0x5a, 0x60, 0x3e, 0x2e, 0x5b, 0xec, 0x3d,
  0xdb, 0x64, 0xc5, 0xbd, 0x6f, 0x7f, 0x42, 0x3e, 0x60, 0x2d, 0x2f, 0x3e,
  0x66, 0x94, 0xba, 0x3d, 0xb1, 0x7d, 0xce, 0xbd, 0xd5, 0x5e, 0xa4, 0x3d,
  0x19, 0x6c, 0x90, 0xbd, 0x08, 0x39, 0xd7, 0x3d, 0xc2, 0xa9, 0xf3, 0x3d,
  0x16, 0x61, 0x2b, 0x3e, 0xe0, 0x56, 0x01, 0xbd, 0x94, 0x2c, 0x00, 0x3e,
  0x5d, 0xf3, 0x35, 0x3e, 0x45, 0x2a, 0x18, 0x3e, 0xf5, 0xed, 0x14, 0x3e,
  0xce, 0xa9, 0xb3, 0x3c, 0x89, 0x73, 0xa1, 0xbc, 0xec, 0x1d, 0xae, 0xbc,
  0x4e, 0x55, 0x09, 0x3e, 0x1f, 0x20, 0xb4, 0x3d, 0xdb, 0x0a, 0x87, 0xbd,
  0xbb, 0x7d, 0xd1, 0x3d, 0xda, 0xcc, 0xa4, 0x3d, 0xbc, 0x5c, 0x5c, 0x3b,
  0x6e, 0x56, 0x04, 0x3e, 0xa8, 0x7a, 0x9d, 0x3e, 0x84, 0x70, 0x0c, 0x3e,
  0xb2, 0x3d, 0xe3, 0xbc, 0xd4, 0x12, 0xe8, 0xbc, 0xff, 0x75, 0xe0, 0xbd,
  0x3e, 0xc4, 0x82, 0xbd, 0x42, 0x75, 0x6c, 0x3c, 0x12, 0x76, 0x12, 0x3b,
  0x32, 0xf5, 0xb3, 0x3d, 0x1a, 0x7d, 0x3e, 0x3e, 0xca, 0xff, 0x08, 0xbd,
  0x87, 0x5b, 0x0b, 0xbe, 0x2f, 0x5f, 0x35, 0xbe, 0x32, 0xe0, 0x08, 0xbd,
  0x36, 0x42, 0x27, 0x3e, 0x34, 0xaf, 0xdd, 0xbc, 0x3e, 0x02, 0x21, 0xbd,
  0xd3, 0x91, 0x93, 0x3d, 0x85, 0xed, 0x15, 0x3f, 0xcf, 0x50, 0x3d, 0x3e,
  0xf7, 0x56, 0x29, 0x3f, 0xa2, 0xe3, 0x02, 0x3f, 0x2a, 0xbb, 0x0d, 0x3f,
  0xe4, 0x81, 0x9b, 0x3e, 0x89, 0x21, 0x17, 0x3f, 0xa7, 0xb4, 0xd1, 0x3e,
  0xa9, 0x3b, 0xff, 0x3d, 0xab, 0x52, 0xbc, 0xbd, 0x90, 0x49, 0x0a, 0x3f,
  0xcc, 0xc0, 0x21, 0x3e, 0xc0, 0x26, 0xb5, 0x3e, 0x69, 0x5a, 0x58, 0xbd,
  0x02, 0xd0, 0x8e, 0x3e, 0x13, 0xcb, 0x1c, 0xbe, 0x70, 0xc5, 0x95, 0xbc,
  0x4d, 0x5d, 0xd1, 0x3c, 0xe0, 0x3a, 0x86, 0x3d, 0x28, 0x4e, 0xbc, 0xbd,
  0x34, 0x94, 0x8c, 0x3c, 0xa6, 0xfa, 0xf3, 0xbe, 0xfa, 0xde, 0x05, 0xbe,
  0x8e, 0x7e, 0xff, 0xbe, 0x2a, 0x98, 0x64, 0x3e, 0x48, 0x7c, 0xbc, 0x3d,
  0x79, 0x37, 0x61, 0x3e, 0x66, 0x91, 0x92, 0x3c, 0x06, 0x65, 0x37, 0xbd,
  0xe1, 0xdb, 0x0b, 0x3e, 0x47, 0x97, 0xe0, 0x3d, 0x99, 0x8d, 0xc3, 0x3c,
  0xe1, 0xbf, 0x38, 0xbd, 0x5a, 0x10, 0x45, 0xba, 0x44, 0x48, 0x22, 0x3c,
  0x9a, 0x56, 0x62, 0xbe, 0x49, 0x53, 0xe0, 0x3c, 0xd5, 0x83, 0x33, 0x3e,
  0x0c, 0x54, 0x0e, 0x3e, 0xf6, 0x36, 0x0b, 0x3e, 0xf4, 0x27, 0xb3, 0xb9,
  0xd9, 0xcf, 0x85, 0x3e, 0x58, 0x87, 0xc3, 0xbd, 0xf4, 0x24, 0x78, 0x3c,
  0x26, 0x8f, 0x91, 0x3d, 0xed, 0x95, 0x5c, 0xbe, 0x3b, 0x18, 0xe4, 0x3a,
  0x42, 0x5e, 0x63, 0xbe, 0x07, 0x73, 0xf5, 0x3d, 0x8e, 0x10, 0x2a, 0x3e,
  0xae, 0x9d, 0xfe, 0xbd, 0x5d, 0x2b, 0xd9, 0x3d, 0x3b, 0xe4, 0xb3, 0x3d,
  0xf4, 0x39, 0x20, 0x3d, 0x8a, 0x78, 0xf6, 0x3d, 0x8e, 0x11, 0xbc, 0xbb,
  0x20, 0x12, 0x99, 0xbd, 0x20, 0x7a, 0x13, 0xbe, 0x52, 0x9c, 0xd3, 0xbc,
  0xc1, 0x41, 0x0c, 0xbe, 0x13, 0xdf, 0x54, 0x3d, 0xb7, 0x59, 0xa4, 0x3e,
  0x88, 0x6c, 0x28, 0x3d, 0x4b, 0x91, 0x86, 0x3d, 0x68, 0xe5, 0x4a, 0xbd,
  0xea, 0x56, 0x81, 0x3e, 0x7a, 0x75, 0x25, 0x3e, 0xe5, 0x77, 0xa2, 0xbd,
  0xd2, 0x68, 0x0e, 0xbe, 0xd4, 0xe1, 0x45, 0xbe, 0x2c, 0x69, 0xa6, 0x3c,
  0x97, 0xbd, 0x38, 0xbe, 0x59, 0x12, 0x21, 0x3e, 0xc0, 0xd6, 0xca, 0x3e,
  0x82, 0xbf, 0x2a, 0x3d, 0xee, 0xf8, 0x7b, 0x3d, 0xd0, 0x4b, 0x5c, 0x3d,
  0x24, 0xb2, 0xc5, 0x3e, 0x4c, 0xf3, 0x1b, 0x3e, 0x67, 0x86, 0x9d, 0xbc,
  0x3c, 0xf3, 0x7c, 0xbe, 0x7d, 0x4b, 0xbf, 0xbd, 0xa1, 0xeb, 0x0a, 0x3d,
  0x7b, 0x0a, 0x58, 0xbe, 0x5f, 0x79, 0x57, 0x3e, 0x49, 0x40, 0xd2, 0x3d,
  0x61, 0x32, 0x82, 0x3e, 0x66, 0xf9, 0x9a, 0x3a, 0x52, 0x78, 0x73, 0xbb,
  0xd3, 0x38, 0x0c, 0x3e, 0x0b, 0xf5, 0x97, 0xbd, 0x6f, 0x25, 0x0f, 0x3e,
  0xb4, 0x5b, 0x08, 0xbd, 0x4c, 0x94, 0x51, 0xbd, 0xa3, 0x55, 0xa6, 0x3b,
  0xa9, 0xc5, 0xb0, 0xbd, 0x8c, 0xeb, 0x37, 0x3e, 0x99, 0xbe, 0x3b, 0x3f,
  0x4e, 0xa0, 0x45, 0xbc, 0x9a, 0xb0, 0x4d, 0x3e, 0xa5, 0xde, 0x49, 0x3e,
  0x39, 0x70, 0x76, 0x3f, 0x80, 0x05, 0x93, 0x3e, 0x33, 0x43, 0x75, 0x3e,
  0xca, 0xb1, 0x5a, 0x3e, 0xcf, 0xd7, 0x45, 0x3f, 0xd7, 0xcd, 0x04, 0xbe,
  0x61, 0xf1, 0x04, 0x3d, 0xc2, 0xa9, 0xbd, 0xbd, 0xf9, 0x79, 0xd4, 0x3e,
  0x04, 0x1e, 0x69, 0xbe, 0xd8, 0x19, 0x78, 0xbd, 0xbc, 0x1b, 0xa6, 0x3d,
  0x26, 0x0b, 0x99, 0x3e, 0x3e, 0x2f, 0x36, 0xbe, 0xcb, 0x90, 0xf3, 0xbd,
  0x22, 0x6f, 0x16, 0xbd, 0xdc, 0xe0, 0x4f, 0x3f, 0x5d, 0x66, 0x9d, 0xbd,
  0x0b, 0x94, 0xb2, 0xbd, 0xba, 0xdd, 0xd0, 0x3c, 0x4c, 0xfd, 0xbb, 0x3e,
  0x32, 0x23, 0x28, 0xbe, 0xe5, 0xa4, 0x6d, 0x3d, 0x98, 0x6e, 0x00, 0x3e,
  0x5e, 0xf2, 0x90, 0x3e, 0xb1, 0x2d, 0x12, 0xbe, 0xce, 0xf4, 0x45, 0xbe,
  0xe3, 0xe2, 0x3c, 0x3d, 0x97, 0x4f, 0x0c, 0x3f, 0xb0, 0xc7, 0x45, 0xbd,
  0xaa, 0xef, 0x03, 0xbc, 0x57, 0x13, 0x2b, 0x3e, 0x6c, 0x2c, 0xc0, 0x3e,
  0xfd, 0xd5, 0x1c, 0x3c, 0x26, 0xfe, 0x22, 0xbe, 0xa4, 0xdd, 0x6f, 0x3e,
  0xc6, 0x3a, 0x1d, 0x3e, 0xa0, 0x32, 0xe3, 0xbd, 0xda, 0xac, 0x00, 0xbe,
  0xc8, 0xc2, 0x08, 0x3e, 0xef, 0x09, 0x22, 0x3f, 0x36, 0x0e, 0xb6, 0x3d,
  0xce, 0xba, 0x6c, 0x3c, 0x46, 0x73, 0x41, 0x3e, 0xa8, 0xe6, 0x8e, 0x3e,
  0xd0, 0x08, 0x92, 0xbd, 0x39, 0xe5, 0x1c, 0xbe, 0x6d, 0x4c, 0x5e, 0x3e,
  0x19, 0x34, 0xeb, 0x3e, 0x22, 0xf8, 0x27, 0xbe, 0x22, 0xc6, 0x31, 0xbe,
  0x81, 0x84, 0xa3, 0x3d, 0x90, 0x1f, 0x00, 0x3f, 0x53, 0x06, 0x41, 0xbe,
  0xa0, 0x31, 0xe5, 0xbd, 0xb1, 0x94, 0x8d, 0x3e, 0x9a, 0x5e, 0xb6, 0x3d,
  0x74, 0x53, 0xab, 0xbd, 0x9f, 0x42, 0x76, 0xbe, 0x13, 0x58, 0x0f, 0x3d,
  0x4a, 0xa4, 0x4c, 0x3d, 0x63, 0xe2, 0x53, 0xbd, 0x5b, 0xaa, 0x2b, 0xbe,
  0xcc, 0x63, 0x44, 0x3e, 0xb2, 0x35, 0xe1, 0x3e, 0xbe, 0xf9, 0x43, 0xbe,
  0x6a, 0x79, 0x2e, 0x3c, 0x39, 0x87, 0x0f, 0x3e, 0xca, 0x0c, 0x9f, 0x3e,
  0xf4, 0xef, 0x16, 0xbe, 0xee, 0xd4, 0x0e, 0xbe, 0xcc, 0x2a, 0xb3, 0x3d,
  0xb6, 0x88, 0x92, 0x3e, 0x21, 0xbd, 0xf3, 0xbd, 0xe7, 0x87, 0x1d, 0xbe,
  0x80, 0x48, 0xf0, 0x3c, 0xa5, 0xdf, 0xd5, 0x3e, 0x81, 0x0d, 0x23, 0xbe,
  0xf5, 0x3f, 0xe6, 0xbd, 0x07, 0x47, 0x6e, 0x3e, 0xcf, 0x0a, 0x28, 0x3e,
  0xa3, 0x72, 0x65, 0xbe, 0x72, 0xa3, 0x9d, 0xbe, 0x9e, 0xd7, 0x72, 0x3d,
  0x78, 0x72, 0xf1, 0xbd, 0x90, 0xe2, 0x7b, 0xbe, 0xbb, 0x7d, 0x94, 0xbe,
  0xad, 0xb1, 0xba, 0x3e, 0xc9, 0xf4, 0x7e, 0x3e, 0x05, 0x4a, 0xc6, 0x3d,
  0x61, 0x0c, 0x89, 0xbd, 0x19, 0x86, 0x06, 0x3f, 0xcb, 0x5c, 0x25, 0xbe,
  0xa1, 0x0a, 0x4d, 0x3f, 0x73, 0x67, 0x8a, 0x3d, 0x7c, 0x71, 0xfb, 0x3e,
  0x15, 0x80, 0xeb, 0xbe, 0x6e, 0x23, 0x49, 0x3f, 0x68, 0xa5, 0x4d, 0x3e,
  0x6e, 0x40, 0x12, 0x3f, 0x8a, 0x31, 0xde, 0xbe, 0xcd, 0x79, 0x40, 0x3f,
  0x82, 0x1d, 0x91, 0x3c, 0xb3, 0x31, 0xe6, 0x3d, 0x24, 0x45, 0x92, 0xbe,
  0xd8, 0x5c, 0xdb, 0x3d, 0x4f, 0x2b, 0x04, 0xbe, 0x6c, 0x98, 0x2c, 0x3e,
  0x5c, 0xea, 0xf0, 0x3b, 0x8b, 0x92, 0x3e, 0x3e, 0xe8, 0x02, 0x36, 0xbe,
  0x2c, 0x2b, 0xe6, 0xbc, 0xa9, 0x68, 0x38, 0xbf, 0xfe, 0x4d, 0x82, 0xbe,
  0x05, 0xee, 0xde, 0xbe, 0x4a, 0x3d, 0x0b, 0xbd, 0x77, 0x42, 0x07, 0xbe,
  0xdc, 0x97, 0xe1, 0x3d, 0x5b, 0x94, 0xee, 0xbc, 0x86, 0x23, 0xef, 0x3d,
  0x83, 0x23, 0x12, 0xbe, 0xb5, 0xc9, 0xc3, 0x3d, 0xf6, 0x1e, 0x00, 0x3d,
  0xde, 0xf3, 0xc2, 0x3d, 0xbc, 0xfb, 0x07, 0xbf, 0x6c, 0x7f, 0x14, 0xbd,
  0x0b, 0x78, 0xdd, 0xbd, 0x3b, 0x28, 0xed, 0x3d, 0x65, 0xc1, 0x9a, 0x3d,
  0x62, 0xe9, 0xe4, 0x3d, 0xb6, 0x36, 0xa9, 0xbd, 0xf6, 0x9d, 0x10, 0xb9,
  0x66, 0xff, 0x0f, 0xbe, 0x05, 0x89, 0x88, 0x3d, 0x8a, 0x3c, 0xae, 0x3d,
  0xa5, 0x0b, 0xa3, 0xba, 0xf6, 0xac, 0x88, 0xbe, 0x3d, 0x44, 0x17, 0xbc,
  0x47, 0x7a, 0xa0, 0xbd, 0xd8, 0x8d, 0xcc, 0x3d, 0x53, 0x6f, 0xfe, 0x3d,
  0x17, 0x0f, 0x18, 0x3d, 0xda, 0x27, 0x99, 0xbd, 0x8f, 0x7a, 0x75, 0xbd,
  0x09, 0xa8, 0xbd, 0x3d, 0x65, 0xf1, 0xe8, 0x3c, 0x6e, 0x9c, 0x0c, 0xbd,
  0x25, 0xa7, 0xbb, 0x3d, 0xb3, 0x5c, 0xe2, 0xbe, 0x2b, 0xd6, 0xbf, 0x3d,
  0x04, 0x3e, 0x41, 0xbd, 0x20, 0xe2, 0x08, 0xbe, 0x64, 0xe6, 0x30, 0x3d,
  0x52, 0x9e, 0x37, 0x3d, 0xa0, 0x0f, 0x2b, 0x3c, 0x86, 0x7e, 0x63, 0xbd,
  0xf5, 0x62, 0x4d, 0xbc, 0xd8, 0xa5, 0xfe, 0x3d, 0x9a, 0x7d, 0x4d, 0xbc,
  0x11, 0xc0, 0x1a, 0xbe, 0xab, 0x18, 0xc3, 0xbe, 0xb0, 0xcc, 0xab, 0x3d,
  0xb7, 0xc1, 0x57, 0x3c, 0xc0, 0x6b, 0x20, 0xbe, 0xa0, 0xba, 0x2d, 0x3e,
  0x53, 0xab, 0x52, 0x3d, 0x38, 0x61, 0x82, 0x3d, 0xe0, 0xf6, 0xcc, 0xbd,
  0xeb, 0xea, 0x22, 0x3e, 0xaf, 0xfc, 0x04, 0x3d, 0xbf, 0xbb, 0x84, 0x3c,
  0x80, 0x10, 0x1a, 0xbe, 0x50, 0x40, 0x83, 0xbe, 0x70, 0x97, 0x82, 0x3d,
  0xd5, 0x66, 0x66, 0x3b, 0x78, 0xba, 0xaf, 0xbd, 0xc9, 0x81, 0xf5, 0x3d,
  0x2a, 0xe3, 0x86, 0x3d, 0x82, 0x19, 0xf9, 0xbc, 0x24, 0xa6, 0x57, 0xbe,
  0x61, 0x6c, 0x62, 0x3e, 0x0b, 0xe1, 0xa8, 0x3d, 0x60, 0x12, 0xf6, 0xbb,
  0x57, 0xb7, 0x0d, 0xbe, 0xb6, 0x72, 0x0d, 0xbe, 0x08, 0x85, 0x74, 0x3c,
  0x79, 0x43, 0xb7, 0xbd, 0x32, 0x35, 0x3a, 0x3e, 0x4c, 0xef, 0x23, 0x3f,
  0x2f, 0xd7, 0x4b, 0x3d, 0x7a, 0xbb, 0xe5, 0x3e, 0x50, 0x2c, 0x00, 0x3f,
  0x8e, 0x0b, 0x3e, 0x3f, 0x28, 0xc3, 0xb8, 0x3e, 0x75, 0x79, 0x50, 0x3e,
  0xb5, 0xc8, 0x32, 0x3e, 0x0c, 0x42, 0xba, 0x3e, 0xba, 0xd2, 0x75, 0x3e,
  0x0d, 0x12, 0xa2, 0x3d, 0x69, 0x38, 0xd9, 0x3c, 0x16, 0x19, 0x40, 0x3e,
  0x79, 0x86, 0x55, 0xbe, 0x59, 0x06, 0xb2, 0xbd, 0x41, 0xd0, 0x66, 0x3e,
  0xde, 0xc3, 0xd5, 0x3e, 0xa5, 0xb7, 0x24, 0xbd, 0x44, 0x06, 0x67, 0xbe,
  0xd5, 0xcd, 0x32, 0x3e, 0xf7, 0x7f, 0x55, 0x3e, 0x31, 0xbb, 0x89, 0xbe,
  0x73, 0x11, 0x15, 0x3d, 0x79, 0x8c, 0xa4, 0xbd, 0x27, 0x7a, 0x63, 0x3e,
  0x5c, 0x99, 0xe3, 0xbd, 0xa5, 0x0d, 0xbc, 0x3d, 0x33, 0xc2, 0x8f, 0xbd,
  0xa7, 0xf9, 0x9e, 0x3e, 0x10, 0x31, 0xdd, 0xbd, 0xd4, 0x7a, 0xd1, 0x3d,
  0x62, 0xea, 0x9e, 0x3d, 0x71, 0x5f, 0xf3, 0x3e, 0x82, 0x74, 0x76, 0xbd,
  0xfd, 0xb9, 0x4d, 0xbb, 0x23, 0x7a, 0x89, 0x3e, 0x5f, 0xcf, 0xb2, 0x3e,
  0xfd, 0xc7, 0xb9, 0xbe, 0x27, 0x56, 0x38, 0x3d, 0xef, 0x21, 0xbc, 0x3c,
  0xae, 0x7e, 0xd0, 0x3e, 0x73, 0x3d, 0x3a, 0xbe, 0x8f, 0x3a, 0x9a, 0xbb,
  0x40, 0x60, 0x99, 0xb9, 0x1e, 0xfe, 0x96, 0x3e, 0x57, 0xf7, 0x07, 0xbe,
  0x98, 0x94, 0x55, 0x3d, 0xfa, 0x23, 0x92, 0x3e, 0xd0, 0x3e, 0xda, 0x3e,
  0x7d, 0x7e, 0x8a, 0xbe, 0xef, 0xec, 0x99, 0xbd, 0xd3, 0x01, 0x1a, 0x3e,
  0x4d, 0xbd, 0x5f, 0x3e, 0xe2, 0x52, 0x02, 0x3e, 0x3c, 0x1a, 0xed, 0xbd,
  0xc6, 0xee, 0x7a, 0x3e, 0x99, 0xc7, 0x08, 0x3f, 0x33, 0x4d, 0x8b, 0xbd,
  0xe6, 0x66, 0x73, 0xbd, 0xbd, 0x92, 0x1a, 0x3e, 0x4e, 0xaa, 0x61, 0x3e,
  0x1e, 0xb9, 0x6a, 0xbe, 0x10, 0xbc, 0x57, 0xbe, 0x25, 0x5b, 0xaa, 0x3e,
  0xf2, 0x1d, 0x06, 0x3e, 0x7d, 0xd8, 0xd6, 0x3c, 0xdf, 0x10, 0x2b, 0xbb,
  0x9f, 0x5e, 0x2f, 0x3c, 0xaa, 0xd4, 0xe4, 0x3e, 0xde, 0xc5, 0x5a, 0xbd,
  0x26, 0x9a, 0x6a, 0x3d, 0xb5, 0xd1, 0x22, 0x3e, 0xb3, 0x50, 0x6a, 0x3e,
  0x64, 0x28, 0xcd, 0xbe, 0x8e, 0x11, 0x4a, 0x3e, 0x04, 0x24, 0x5c, 0x3e,
  0x09, 0x4a, 0xa5, 0x3e, 0x66, 0x41, 0x4c, 0xbc, 0xc3, 0x1f, 0x13, 0xbd,
  0xe7, 0xf5, 0x0b, 0x3a, 0xfc, 0x57, 0xd7, 0x3e, 0xef, 0x10, 0x08, 0x3c,
  0x72, 0x31, 0xb7, 0x3d, 0x3f, 0x4b, 0x91, 0x3d, 0xd2, 0x7b, 0x2e, 0xbc,
  0x99, 0xf5, 0x6a, 0xbe, 0x10, 0x6e, 0x2b, 0xbe, 0x1b, 0x7b, 0xf4, 0x3d,
  0x5d, 0xd0, 0x2b, 0xbd, 0xf6, 0xf0, 0x98, 0xbe, 0x0c, 0xc0, 0xbd, 0xbd,
  0xd4, 0x70, 0x94, 0x3d, 0xdc, 0xaf, 0x70, 0x3e, 0x2d, 0x4c, 0xb3, 0xbd,
  0x35, 0x27, 0x91, 0x3a, 0x84, 0x3f, 0x6b, 0xbe, 0x85, 0x73, 0xa3, 0xbe,
  0xa2, 0x61, 0x2a, 0xbe, 0xba, 0xa2, 0x8e, 0xbe, 0x48, 0xc4, 0xbc, 0xbe,
  0xfc, 0x86, 0xe6, 0xbe, 0xbb, 0xfe, 0x7a, 0xbe, 0x18, 0xdd, 0x1e, 0xbf,
  0x6b, 0x2a, 0x4f, 0xbe, 0x4d, 0x08, 0x0b, 0xbf, 0x67, 0xd0, 0xbf, 0xbe,
  0x0c, 0x99, 0xe3, 0xbe, 0xdf, 0x4e, 0x05, 0xbf, 0x37, 0x1f, 0x12, 0xbf,
  0x7c, 0x5a, 0x3d, 0xbe, 0x54, 0x42, 0x14, 0xbf, 0x90, 0x4b, 0x97, 0xbe,
  0xb4, 0xb0, 0x53, 0xbe, 0x44, 0xf2, 0xf9, 0xbe, 0x0e, 0xef, 0x11, 0xbf,
  0xc9, 0x6c, 0x83, 0xbe, 0x93, 0x4a, 0xe9, 0xbe, 0xcd, 0x74, 0xd9, 0xbe,
  0xea, 0x50, 0x02, 0xbf, 0xc2, 0xa4, 0xc5, 0xbe, 0xcc, 0x55, 0x7b, 0xbe,
  0xcb, 0x97, 0xa8, 0x3a, 0x59, 0xb4, 0x70, 0xbe, 0xc3, 0xca, 0xbd, 0xbe,
  0x37, 0x42, 0x31, 0xbe, 0x0c, 0x48, 0x98, 0xbe, 0x29, 0x93, 0x42, 0xbe,
  0x8a, 0x75, 0x75, 0x3d, 0xdc, 0x3c, 0xdb, 0xbd, 0x93, 0xf5, 0x33, 0xbd,
  0x81, 0x6d, 0xd6, 0xbd, 0x0e, 0xe8, 0x27, 0xbe, 0x66, 0x89, 0x49, 0x3d,
  0x9e, 0x60, 0x9c, 0xbd, 0xc9, 0x1c, 0x5d, 0x3d, 0x17, 0x72, 0x80, 0x3d,
  0xc3, 0x7d, 0x86, 0xbd, 0x0e, 0x8b, 0xbb, 0xbb, 0xd3, 0x7c, 0xc7, 0xbd,
  0x57, 0x6f, 0x02, 0x3e, 0xab, 0xe5, 0x8d, 0xbd, 0x25, 0xa8, 0xfc, 0x3d,
  0xde, 0x35, 0x96, 0xbc, 0x6b, 0x11, 0x40, 0x3e, 0x4a, 0x3f, 0x22, 0x3c,
  0xa9, 0x97, 0x0e, 0x3e, 0x95, 0x79, 0x02, 0x3e, 0x4f, 0x56, 0x1c, 0x3d,
  0xdd, 0xbe, 0x8c, 0x3d, 0x60, 0x86, 0x57, 0x3e, 0x7d, 0x34, 0x82, 0x3d,
  0x8e, 0x39, 0xa9, 0x3d, 0xea, 0xef, 0xe3, 0xbd, 0x8d, 0x51, 0xce, 0x3c,
  0x4b, 0x89, 0x10, 0x3e, 0x00, 0x5f, 0x36, 0xbb, 0x42, 0x35, 0x23, 0xbd,
  0xef, 0x49, 0xc5, 0xbc, 0xa3, 0xa7, 0x8c, 0x3e, 0xf2, 0x6d, 0x6d, 0x3e,
  0x0e, 0xbe, 0x8b, 0x3d, 0x77, 0x27, 0x8b, 0x3e, 0x39, 0x58, 0x05, 0x3e,
  0xf9, 0xfc, 0x4e, 0x3e, 0xaf, 0x0e, 0xa8, 0xbd, 0x98, 0x00, 0x4f, 0x3e,
  0x90, 0x1d, 0x82, 0xbe, 0x07, 0x3e, 0xc0, 0x3d, 0x45, 0xef, 0xd0, 0xbb,
  0xed, 0x4c, 0x43, 0x3d, 0x27, 0xf9, 0xa3, 0x3d, 0x90, 0x60, 0x16, 0x3e,
  0xd9, 0x7c, 0xff, 0x3d, 0xe9, 0x52, 0xa9, 0xbc, 0xd1, 0x6e, 0xa8, 0xbd,
  0x60, 0x02, 0x13, 0x3e, 0x2c, 0x75, 0xc5, 0xbd, 0x61, 0x6d, 0x77, 0x3e,
  0xe4, 0x6e, 0xc9, 0x3d, 0xae, 0x6f, 0x3d, 0x3e, 0xba, 0x6a, 0x0e, 0xbe,
  0x71, 0x1c, 0xb9, 0x3e, 0xd9, 0x02, 0xf1, 0xbc, 0x9b, 0x2c, 0x1d, 0x3e,
  0x66, 0x65, 0x79, 0x3d, 0xfa, 0xa6, 0xbc, 0x3e, 0x87, 0x1c, 0xd6, 0x3d,
  0xa6, 0xf9, 0x99, 0x3d, 0x28, 0xa1, 0x5e, 0x3d, 0x13, 0xbf, 0x60, 0x3e,
  0x22, 0xbf, 0xfe, 0x3d, 0xf1, 0x18, 0xe6, 0x3e, 0x0c, 0xa6, 0xc6, 0x3e,
  0xfa, 0xc1, 0xc4, 0x3e, 0xfb, 0x50, 0x15, 0x3e, 0xc3, 0xb8, 0xa0, 0x3e,
  0x22, 0x72, 0x8d, 0x3e, 0x84, 0x7d, 0x15, 0x3e, 0xee, 0xd8, 0xb8, 0x3e,
  0xb8, 0x34, 0x5b, 0x3d, 0x0f, 0x4e, 0xae, 0x3e, 0x74, 0xcc, 0x25, 0x3e,
  0xc3, 0x3e, 0xd0, 0x3d, 0x58, 0x4c, 0x5b, 0x3e, 0x13, 0x88, 0x33, 0x3e,
  0x1e, 0x2f, 0x95, 0xbd, 0xb4, 0xe9, 0xc5, 0xbd, 0xd2, 0x5d, 0xcf, 0x3d,
  0x3f, 0xf4, 0x06, 0x3e, 0x81, 0x96, 0x0e, 0xbe, 0x7f, 0x55, 0xbf, 0x3c,
  0x8a, 0x8b, 0xa5, 0xbd, 0xee, 0x5e, 0x48, 0x3e, 0xf2, 0xa9, 0x1c, 0xbc,
  0xb5, 0x97, 0x39, 0xbe, 0x98, 0x3e, 0x27, 0x3e, 0x6a, 0xa1, 0x70, 0x3e,
  0x7b, 0x2e, 0x14, 0xbe, 0xb9, 0xe0, 0x07, 0xbe, 0x51, 0x47, 0x15, 0x3d,
  0x44, 0xa3, 0x0d, 0x3e, 0x95, 0x18, 0x38, 0xbe, 0x1e, 0x36, 0x20, 0xbe,
  0x6b, 0x86, 0x3d, 0xbd, 0xa6, 0x90, 0x15, 0x3e, 0x6d, 0x06, 0x33, 0x3a,
  0x1e, 0xe6, 0xd7, 0xbd, 0x67, 0x46, 0x95, 0x3d, 0xc3, 0x9f, 0x2f, 0x3e,
  0x41, 0x59, 0xc4, 0x3d, 0xdd, 0xa1, 0x3d, 0x3e, 0x89, 0xeb, 0x4d, 0x3e,
  0x9e, 0x2b, 0xb0, 0x3e, 0x2c, 0xfd, 0xdc, 0xbc, 0xf7, 0x70, 0x0f, 0x3d,
  0x05, 0x0e, 0x0a, 0xbe, 0x00, 0xa6, 0x2c, 0x3d, 0xf4, 0x06, 0xf1, 0xbd,
  0xec, 0x1e, 0x86, 0xbc, 0xd4, 0xa7, 0x83, 0x3b, 0xc3, 0x92, 0x80, 0x3d,
  0xe6, 0x08, 0x40, 0xbb, 0x7a, 0x61, 0x1f, 0x3c, 0x17, 0x06, 0x2a, 0xbd,
  0xd2, 0xdf, 0x99, 0x3e, 0x61, 0x36, 0xa9, 0x3d, 0x50, 0x66, 0x8c, 0x3d,
  0xc7, 0x5f, 0x40, 0xbe, 0xa5, 0x09, 0x8d, 0x3e, 0x45, 0x16, 0x22, 0x3d,
  0x29, 0xca, 0x00, 0xbd, 0xd4, 0x16, 0x6d, 0x3d, 0xa3, 0x4a, 0x7e, 0x3e,
  0xa2, 0xa4, 0x81, 0x3d, 0x91, 0xec, 0x03, 0x3e, 0x40, 0x11, 0x49, 0x3e,
  0xaf, 0xb6, 0xaa, 0x3e, 0x95, 0x99, 0xcd, 0xbd, 0x98, 0x2d, 0x2a, 0x3e,
  0x65, 0xf2, 0x3e, 0xbd, 0x6c, 0x74, 0x2b, 0x3e, 0x68, 0xa6, 0xd4, 0x3d,
  0x87, 0xf7, 0x47, 0x3d, 0x94, 0xbc, 0x09, 0x3e, 0x7c, 0x55, 0xba, 0x3d,
  0x8c, 0xfd, 0xbc, 0x3d, 0x2e, 0x2d, 0xa1, 0xbd, 0xe2, 0x25, 0x39, 0x3d,
  0xdd, 0x47, 0x87, 0x3e, 0x86, 0x2d, 0x01, 0xbe, 0xa5, 0x15, 0xec, 0xbd,
  0x7d, 0x56, 0xdf, 0xbc, 0x8e, 0x56, 0x4a, 0x3e, 0x63, 0x24, 0xc4, 0x3d,
  0x5e, 0x80, 0x32, 0x3d, 0x11, 0xa8, 0xdb, 0xbc, 0xd2, 0x0a, 0x81, 0x3d,
  0x25, 0x63, 0x10, 0xbe, 0x14, 0xf3, 0xf4, 0xbd, 0x31, 0x0e, 0xd8, 0x3c,
  0x9d, 0x46, 0x4b, 0x3d, 0x59, 0x6f, 0xa2, 0xbd, 0x33, 0xd7, 0x1c, 0xbe,
  0xb2, 0x0a, 0xea, 0xbd, 0xe0, 0xae, 0x48, 0x3e, 0x30, 0xa3, 0x0d, 0x3d,
  0xff, 0x9f, 0x57, 0xbd, 0xf3, 0x68, 0xa2, 0x3c, 0x45, 0x59, 0x12, 0xbf,
  0x6a, 0xc2, 0x4c, 0xbe, 0xb9, 0x65, 0x9a, 0xbe, 0x99, 0x61, 0xd5, 0xbd,
  0xb5, 0x55, 0xee, 0xbe, 0x9c, 0x4c, 0xdc, 0xbd, 0xa7, 0xa8, 0x38, 0xbe,
  0x72, 0x68, 0x47, 0x3e, 0x5d, 0x7d, 0x27, 0xbf, 0x55, 0x72, 0xd8, 0x3d,
  0xbb, 0x9a, 0x84, 0xbe, 0x28, 0x01, 0x6b, 0x3d, 0x79, 0xec, 0x3a, 0x3e,
  0xa4, 0x5f, 0x17, 0x3e, 0x9a, 0x4c, 0x67, 0x3e, 0x6a, 0xed, 0x26, 0x3e,
  0xb2, 0x77, 0x79, 0x3e, 0x26, 0x5c, 0x8e, 0x3e, 0xd0, 0x9c, 0x37, 0x3e,
  0x78, 0x0d, 0x4d, 0x3c, 0x69, 0x28, 0x2f, 0xbf, 0xfa, 0x09, 0x94, 0xbe,
  0x58, 0x86, 0xd9, 0xbe, 0xd7, 0xcd, 0x3e, 0x3d, 0xb7, 0x06, 0x41, 0x3e,
  0xf7, 0x69, 0xbd, 0x3d, 0xb1, 0x4b, 0x7e, 0x3e, 0xb1, 0x9e, 0xa5, 0x3d,
  0x66, 0xa2, 0xb4, 0x3e, 0x45, 0x87, 0x6a, 0x3e, 0xc4, 0x9e, 0x6e, 0x3e,
  0x9c, 0xa7, 0xb6, 0x3c, 0x64, 0x75, 0xc6, 0xbe, 0x4f, 0xae, 0x0e, 0xbe,
  0x44, 0xed, 0x73, 0xbe, 0x57, 0x73, 0x9f, 0x3d, 0xf0, 0xbe, 0x10, 0x3e,
  0xe1, 0xbc, 0x6d, 0x3c, 0x90, 0xb1, 0xca, 0x3d, 0x05, 0x65, 0xb7, 0x3d,
  0x76, 0xa5, 0x93, 0x3e, 0xe1, 0xeb, 0x15, 0x3d, 0x6b, 0xe7, 0x6c, 0x3e,
  0xd5, 0xa1, 0xc2, 0xbd, 0x02, 0x78, 0x77, 0xbe, 0xfe, 0x2a, 0x83, 0xbd,
  0xa0, 0xdc, 0x7b, 0xbd, 0xd2, 0x27, 0xc3, 0x3d, 0x98, 0x02, 0xa1, 0xbd,
  0xf8, 0xbe, 0xf7, 0x3c, 0x85, 0x1f, 0xe9, 0x3b, 0x58, 0xf3, 0xe1, 0x3d,
  0x30, 0xd4, 0xca, 0x3d, 0x6c, 0xda, 0xf4, 0x3d, 0x5c, 0xe5, 0x2c, 0x3d,
  0xb5, 0x0a, 0x16, 0xbc, 0x29, 0xf9, 0x91, 0x3d, 0x8a, 0xc1, 0x0f, 0x3e,
  0x0d, 0xdf, 0xc4, 0xbd, 0x21, 0x73, 0xc1, 0xbd, 0xf8, 0xa6, 0x97, 0xbd,
  0x45, 0xb1, 0xea, 0x3d, 0x72, 0x93, 0xd0, 0xbd, 0xb5, 0x9e, 0x87, 0xbd,
  0x19, 0x42, 0x04, 0xbd, 0x1e, 0x9c, 0x44, 0xbd, 0x95, 0x25, 0xeb, 0x3c,
  0x80, 0xa5, 0x99, 0x3d, 0x7c, 0x79, 0x49, 0x3c, 0x9c, 0x99, 0x4e, 0x3e,
  0xd0, 0x30, 0x5b, 0x3d, 0x88, 0x84, 0xd9, 0xbd, 0x0d, 0x83, 0x74, 0xbd,
  0x43, 0xfa, 0xda, 0xbd, 0x6d, 0xac, 0xe9, 0xbd, 0x5b, 0x63, 0x3d, 0xbe,
  0xaa, 0xb0, 0xc6, 0xbd, 0x70, 0x1d, 0x85, 0xbe, 0xe8, 0xae, 0x53, 0xbe,
  0xf2, 0x85, 0x2d, 0x3b, 0x4c, 0xed, 0x87, 0x3e, 0x9d, 0xfe, 0x5e, 0x3e,
  0x46, 0x80, 0x3e, 0x3d, 0x18, 0xcd, 0x9c, 0xbe, 0xea, 0x2f, 0x9f, 0xbe,
  0x5e, 0xd7, 0x62, 0xbe, 0xbe, 0x7b, 0xc2, 0xbe, 0xc3, 0x75, 0xf2, 0xbe,
  0xf0, 0x81, 0xad, 0xbe, 0x02, 0xcc, 0xcc, 0xbe, 0x13, 0x10, 0xbd, 0xbe,
  0x2e, 0x04, 0x8d, 0xbc, 0x82, 0x23, 0x34, 0x3c, 0xa7, 0x1e, 0x04, 0x3e,
  0x74, 0x2a, 0x51, 0x3c, 0x84, 0x9e, 0x3c, 0xbf, 0x6e, 0x93, 0x01, 0x3c,
  0xc0, 0x8f, 0x69, 0xbf, 0x21, 0xb7, 0x60, 0xbf, 0xc5, 0xf8, 0x91, 0xbf,
  0x85, 0x07, 0xee, 0xbe, 0xd9, 0x4c, 0x8d, 0xbf, 0xde, 0x8a, 0x91, 0xbf,
  0xa5, 0x5e, 0x54, 0xbf, 0x67, 0x7b, 0x60, 0xbd, 0x48, 0xa7, 0x8b, 0xbf,
  0xa2, 0xb0, 0x36, 0xbf, 0x89, 0x05, 0x0f, 0xbe, 0xb7, 0x54, 0x9e, 0x3c,
  0xa0, 0x63, 0x3b, 0x3d, 0xfa, 0x05, 0x6c, 0x3d, 0xc8, 0xd9, 0x2c, 0x3d,
  0x87, 0x79, 0x00, 0xbd, 0xb4, 0x52, 0x09, 0xbe, 0x3a, 0x2d, 0x5b, 0xbe,
  0x0a, 0xa1, 0x80, 0x3d, 0xc8, 0x38, 0xd2, 0x3e, 0xf9, 0xdd, 0x0d, 0x3e,
  0x42, 0xc2, 0x05, 0x3f, 0xfa, 0x6b, 0x30, 0x3e, 0xce, 0xe8, 0x54, 0xbe,
  0x0c, 0xe5, 0xec, 0xbc, 0xde, 0x29, 0x89, 0xbd, 0xe7, 0x29, 0x12, 0x3e,
  0x82, 0xba, 0x62, 0xbe, 0xa1, 0x49, 0x23, 0x3d, 0xe9, 0x04, 0x89, 0xbd,
  0x88, 0xbf, 0x3d, 0x3e, 0x5c, 0xcb, 0x8a, 0x3e, 0x90, 0xfd, 0xfd, 0x3d,
  0x1f, 0x7c, 0xab, 0x3e, 0x82, 0x73, 0x25, 0x3e, 0x3a, 0x72, 0xd8, 0xbc,
  0xc0, 0xa4, 0x28, 0x3e, 0xe3, 0x98, 0x7b, 0x3d, 0x33, 0xfb, 0x1a, 0x3e,
  0x88, 0x62, 0x24, 0xbe, 0xf0, 0xd5, 0xbb, 0x3b, 0x88, 0xdb, 0x03, 0x3d,
  0xf5, 0x3f, 0x5c, 0x3d, 0xc7, 0x58, 0x41, 0x3e, 0x45, 0xbb, 0x7c, 0xbd,
  0xfa, 0x14, 0x5f, 0x3e, 0xdb, 0xdc, 0xd5, 0x3d, 0x91, 0x44, 0xf9, 0x3c,
  0xc7, 0xff, 0x8a, 0xbc, 0x26, 0x38, 0xc3, 0xbd, 0xcf, 0x9c, 0x0a, 0x3c,
  0x1a, 0x52, 0x20, 0xbe, 0x4b, 0x34, 0x84, 0x3d, 0x7e, 0x3c, 0x5f, 0xbd,
  0xd0, 0x68, 0xde, 0xbd, 0xdd, 0xf8, 0x10, 0x3e, 0x3d, 0x3b, 0xbb, 0xbc,
  0x3c, 0xc1, 0x14, 0xbd, 0x41, 0x7f, 0x16, 0x3a, 0x3f, 0xd3, 0xac, 0x3d,
  0x4d, 0xeb, 0xa2, 0x3d, 0x76, 0x5a, 0x5a, 0xbd, 0xc9, 0xfc, 0x27, 0xbd,
  0xad, 0xea, 0x1c, 0xb9, 0x17, 0x6e, 0x6e, 0x3d, 0xbb, 0x04, 0x11, 0xbd,
  0x64, 0xc0, 0x28, 0xbd, 0xbf, 0xf9, 0x0a, 0xbe, 0x07, 0xef, 0x0c, 0x3e,
  0x1f, 0x07, 0x79, 0x3e, 0x90, 0xfa, 0x72, 0x3d, 0x74, 0xbe, 0x73, 0x3d,
  0x40, 0x64, 0xc2, 0x3d, 0x32, 0x99, 0x9e, 0xbd, 0x70, 0xa7, 0x66, 0x3c,
  0xaa, 0xf4, 0x0c, 0x3c, 0xf4, 0x75, 0x8f, 0x3d, 0xe5, 0xfb, 0x91, 0xbd,
  0xca, 0xe3, 0x17, 0xbe, 0x7c, 0xc0, 0xc6, 0xbc, 0xf4, 0xac, 0x97, 0xbd,
  0xa7, 0x75, 0xc1, 0x3d, 0xe6, 0x15, 0x3f, 0xbc, 0x6c, 0x77, 0xee, 0xbd,
  0x76, 0x96, 0xfc, 0x3c, 0x38, 0x0c, 0x96, 0xbd, 0x87, 0x10, 0x2f, 0x3c,
  0x6c, 0x49, 0xab, 0xba, 0x65, 0xa7, 0x3d, 0xbc, 0x4e, 0xc5, 0xfc, 0xbc,
  0x88, 0x00, 0x1e, 0x3e, 0x54, 0x7d, 0xec, 0x3d, 0xe7, 0xef, 0x01, 0x3e,
  0x9f, 0xfe, 0xeb, 0xbd, 0x76, 0x44, 0x7f, 0x3e, 0x59, 0xf2, 0xbd, 0x3e,
  0x7d, 0x2f, 0x13, 0x3f, 0x6e, 0xea, 0x42, 0x3e, 0x72, 0xdd, 0x13, 0x3f,
  0x87, 0x49, 0x9b, 0x3e, 0x83, 0x7b, 0x25, 0x3f, 0xd9, 0x16, 0x60, 0x3e,
  0x62, 0xcb, 0x0f, 0x3f, 0x44, 0x5e, 0xc9, 0x3e, 0xd0, 0x3f, 0xbf, 0x3e,
  0x86, 0x3c, 0x23, 0x3e, 0x5b, 0x19, 0x53, 0xbe, 0xe1, 0x9f, 0x11, 0x3e,
  0x39, 0xc7, 0xce, 0x3d, 0xf1, 0x85, 0xb3, 0xbe, 0xd2, 0x04, 0x9a, 0xbe,
  0x3c, 0xb6, 0xa7, 0x3e, 0x55, 0xb8, 0xb8, 0x3d, 0x20, 0x3f, 0x4c, 0xbe,
  0x7f, 0x73, 0xca, 0xbe, 0xc6, 0xa0, 0x18, 0x3e, 0x8e, 0x61, 0xbd, 0xbe,
  0xcc, 0xb9, 0xe3, 0xbe, 0x98, 0x96, 0xd9, 0xbe, 0x96, 0x43, 0x96, 0x3e,
  0x1a, 0x9e, 0x69, 0x3d, 0x7b, 0x32, 0x9c, 0xbe, 0x95, 0xa9, 0xd0, 0xbe,
  0x10, 0x23, 0x23, 0x3e, 0xf6, 0xfe, 0x2a, 0x3e, 0xb5, 0x30, 0x52, 0xbe,
  0xa0, 0xd9, 0x22, 0xbf, 0x3c, 0xa9, 0x29, 0x3e, 0x10, 0x3c, 0xf3, 0xbe,
  0x06, 0xa1, 0x40, 0xbf, 0x93, 0x31, 0x2c, 0xbf, 0x3d, 0x31, 0x2a, 0x3e,
  0xca, 0x5c, 0x21, 0xbe, 0xd6, 0xdd, 0x63, 0xbe, 0xbd, 0x15, 0xb5, 0xbe,
  0x90, 0x47, 0xdf, 0x3a, 0xff, 0x75, 0x47, 0xbe, 0x7d, 0x85, 0xaf, 0xbe,
  0x88, 0xf2, 0x4c, 0xbf, 0x8a, 0x87, 0xeb, 0x3d, 0x7d, 0x29, 0x22, 0xbf,
  0x9e, 0x5d, 0x1b, 0xbf, 0x88, 0x02, 0xc4, 0xbd, 0x0b, 0xa9, 0x35, 0xbe,
  0x88, 0x88, 0xa6, 0xbc, 0x1d, 0xaf, 0x18, 0xbe, 0x28, 0x78, 0xc6, 0xbe,
  0x67, 0x96, 0x3c, 0x3d, 0xc4, 0xfb, 0xc3, 0x3c, 0xc9, 0xe3, 0x49, 0xbe,
  0xb3, 0x52, 0xe3, 0xbd, 0x1a, 0xa0, 0xea, 0x3e, 0x16, 0x48, 0xba, 0xbc,
  0xeb, 0x8f, 0x3e, 0x3e, 0x05, 0xa1, 0x28, 0xbd, 0x80, 0xd6, 0x52, 0x3b,
  0x1d, 0xa3, 0x6a, 0xbd, 0x95, 0xdd, 0x12, 0xbd, 0x92, 0x5d, 0xab, 0xbd,
  0x38, 0x66, 0xfb, 0xbd, 0x67, 0x00, 0x5d, 0xbd, 0x21, 0x64, 0x06, 0xbc,
  0x14, 0x50, 0xd4, 0xbb, 0x5a, 0x44, 0x8b, 0x3e, 0xa9, 0xbd, 0xe4, 0x3d,
  0xf7, 0x8c, 0x5b, 0x3e, 0xa8, 0x10, 0x13, 0xbd, 0x12, 0x96, 0x45, 0x3d,
  0x70, 0x82, 0xe9, 0xba, 0xff, 0x84, 0xb5, 0xbd, 0xaf, 0xfa, 0x97, 0x3c,
  0xad, 0x1c, 0x6c, 0xbe, 0x4a, 0x1e, 0xad, 0xbd, 0x6d, 0x7d, 0xa4, 0xbd,
  0x53, 0x43, 0xe2, 0x3d, 0xbd, 0x57, 0x7c, 0x3e, 0xc3, 0x82, 0x2f, 0x3e,
  0x2f, 0xc4, 0x72, 0x3d, 0xae, 0xd7, 0x5d, 0x3d, 0xb9, 0xf6, 0xa2, 0xbd,
  0x78, 0x06, 0xfc, 0xbc, 0xa8, 0x37, 0xbc, 0xbd, 0x3c, 0x1d, 0xe0, 0x3d,
  0x65, 0x23, 0x40, 0xbd, 0x20, 0xf0, 0xb7, 0xbd, 0xc3, 0x53, 0x12, 0xbe,
  0x91, 0x7f, 0x1b, 0x3e, 0xe8, 0x6d, 0x5e, 0x3e, 0xef, 0xde, 0x06, 0x3e,
  0x9a, 0xd0, 0xf0, 0x3d, 0x19, 0x06, 0x21, 0x3e, 0x40, 0x01, 0x2e, 0x3f,
  0x13, 0x17, 0xe5, 0xbd, 0x1a, 0xfe, 0x86, 0x3d, 0x0a, 0x40, 0xe7, 0x3d,
  0x4e, 0xd6, 0xe1, 0x3e, 0xf6, 0x46, 0xc0, 0xbd, 0x5e, 0x62, 0x64, 0x3d,
  0xa9, 0x6b, 0x2c, 0xbf, 0xa2, 0xb1, 0x16, 0x3e, 0x22, 0x15, 0x85, 0xbf,
  0xc2, 0xcb, 0xda, 0xbe, 0xd8, 0x40, 0xc9, 0x3d, 0x77, 0xe5, 0xaf, 0x3e,
  0xfd, 0x49, 0xa0, 0xbe, 0x86, 0xfe, 0xd4, 0x3d, 0x4b, 0xd4, 0xe7, 0x3d,
  0x6d, 0xee, 0xa8, 0x3d, 0x25, 0xe9, 0xa6, 0xbd, 0x67, 0x1e, 0xdc, 0xbd,
  0xbc, 0x81, 0x51, 0xbf, 0x9a, 0x33, 0xce, 0xbd, 0x23, 0x10, 0x5c, 0xbf,
  0xa7, 0x7d, 0x09, 0xbf, 0x17, 0x45, 0x1b, 0x3d, 0x34, 0xf9, 0xca, 0x3e,
  0xd6, 0xa7, 0xb4, 0x3c, 0x6f, 0xd9, 0x04, 0x3e, 0x20, 0x57, 0x4d, 0x3d,
  0x76, 0x9a, 0xd2, 0x3e, 0xe5, 0x6a, 0xb8, 0x3d, 0x81, 0x5b, 0x37, 0x3d,
  0xf5, 0xed, 0x49, 0xbf, 0xf2, 0x78, 0xf5, 0xbe, 0x2c, 0x1f, 0x54, 0xbf,
  0x9c, 0x17, 0x4c, 0xbf, 0x44, 0x96, 0x4a, 0xbd, 0xc1, 0x15, 0x84, 0x3e,
  0xd1, 0x7d, 0xb3, 0xbd, 0xbe, 0x5d, 0x82, 0x3d, 0x97, 0x54, 0xf9, 0xbd,
  0x30, 0x1d, 0xb4, 0x3e, 0x1c, 0xe3, 0xf7, 0xbd, 0xcc, 0xdc, 0x6b, 0x3d,
  0x91, 0x78, 0x91, 0x3d, 0xe3, 0x48, 0xc1, 0x3e, 0x0f, 0xe9, 0x81, 0xbd,
  0xad, 0xe5, 0x9c, 0x3d, 0x85, 0xf1, 0xcd, 0x3d, 0x2b, 0xeb, 0xa6, 0x3d,
  0x5e, 0xdf, 0xe7, 0xba, 0xcd, 0x00, 0xb3, 0x3d, 0xee, 0xc8, 0xc0, 0x3d,
  0xf2, 0xae, 0x90, 0x3d, 0xad, 0x46, 0x46, 0x3d, 0xb6, 0x1b, 0x1e, 0xbd,
  0xdc, 0x98, 0x41, 0x3e, 0x1d, 0x1f, 0x20, 0xbd, 0x07, 0x91, 0xe9, 0x3d,
  0xf3, 0xa6, 0xf6, 0x3e, 0x79, 0xd7, 0xdb, 0xbc, 0x61, 0x42, 0xe6, 0x3d,
  0x38, 0x28, 0x12, 0xbd, 0x85, 0x78, 0x06, 0x3e, 0xe0, 0x37, 0xe3, 0x3d,
  0xb1, 0x78, 0x27, 0x3e, 0x00, 0x9f, 0x54, 0xbd, 0x37, 0x94, 0xae, 0xbc,
  0x10, 0xbb, 0x72, 0xbe, 0xc7, 0xc5, 0xa4, 0xbe, 0x93, 0x19, 0xc4, 0xbe,
  0x05, 0x08, 0x1e, 0xbe, 0xd1, 0x64, 0xbf, 0x3c, 0xc9, 0x6d, 0x2d, 0x3e,
  0xca, 0x26, 0x39, 0x3c, 0x29, 0xd3, 0xfe, 0x3d, 0xab, 0x8a, 0x91, 0x3d,
  0xf5, 0x7e, 0xb5, 0x3d, 0x6a, 0x6c, 0x00, 0x3c, 0x54, 0x62, 0x7f, 0x3d,
  0x18, 0xe3, 0xb6, 0xbe, 0x00, 0xc5, 0x6e, 0xbe, 0x09, 0x90, 0x02, 0xbf,
  0x98, 0x8a, 0x41, 0xbe, 0x87, 0x8b, 0x0b, 0x3e, 0x1d, 0x6e, 0xde, 0x3d,
  0xfa, 0xf8, 0x2f, 0x3d, 0xda, 0x9a, 0xaa, 0x3d, 0xdf, 0x8c, 0xbd, 0x3b,
  0xd9, 0x72, 0x0b, 0x3e, 0x13, 0x14, 0x0a, 0x3d, 0x75, 0xdd, 0x11, 0x3e,
  0x1c, 0x92, 0x97, 0xbe, 0x2c, 0xae, 0x36, 0xbd, 0xa2, 0x32, 0x3d, 0xbf,
  0x21, 0x38, 0x0d, 0xbf, 0xb2, 0xfd, 0xff, 0xff, 0x04, 0x00, 0x00, 0x00,
  0x08, 0x00, 0x00, 0x00, 0xff, 0xff, 0xff, 0xff, 0x60, 0x00, 0x00, 0x00,
  0xc6, 0xfd, 0xff, 0xff, 0x04, 0x00, 0x00, 0x00, 0x40, 0x00, 0x00, 0x00,
  0xfb, 0x2d, 0x44, 0x3e, 0xef, 0xd3, 0x82, 0xbe, 0x0e, 0x0f, 0xd6, 0x3e,
  0xd9, 0x17, 0x11, 0xbe, 0xbb, 0x41, 0x9f, 0x3e, 0xf2, 0x7d, 0xed, 0x3e,
  0xad, 0x58, 0x29, 0xbe, 0x67, 0x91, 0x80, 0x3e, 0xb9, 0xf8, 0x36, 0xbe,
  0x07, 0x83, 0x87, 0xbe, 0x5f, 0x9e, 0xd3, 0x3e, 0xec, 0x72, 0xd2, 0xbd,
  0xfd, 0x69, 0xdd, 0x3c, 0x06, 0x95, 0x19, 0x3e, 0x06, 0xf6, 0xcb, 0x3e,
  0xc8, 0x02, 0x9d, 0x3d, 0x12, 0xfe, 0xff, 0xff, 0x04, 0x00, 0x00, 0x00,
  0x0c, 0x00, 0x00, 0x00, 0x03, 0x42, 0x32, 0x3e, 0xaa, 0xcc, 0x3a, 0xbd,
  0xfa, 0xb0, 0xfe, 0xbc, 0x2a, 0xfe, 0xff, 0xff, 0x04, 0x00, 0x00, 0x00,
  0xc0, 0x00, 0x00, 0x00, 0x49, 0xcd, 0x26, 0xbe, 0xc9, 0x76, 0x96, 0x3e,
  0x3b, 0xd7, 0xe0, 0x3d, 0x64, 0xd4, 0xf2, 0x3e, 0x84, 0xd3, 0x0e, 0xbf,
  0x02, 0x38, 0x0f, 0x3e, 0x36, 0x29, 0xaa, 0xbd, 0xf5, 0x60, 0x25, 0x3f,
  0xf8, 0x21, 0xae, 0xbe, 0xec, 0x7f, 0xe9, 0x3c, 0xb2, 0x30, 0x04, 0x3e,
  0x60, 0x50, 0xf8, 0x3e, 0xea, 0x0a, 0x35, 0x3f, 0xbf, 0xd4, 0xb8, 0xbe,
  0xe2, 0x7f, 0x19, 0xbf, 0x1c, 0xa3, 0x35, 0x3d, 0xbd, 0xe0, 0x2c, 0x3f,
  0x09, 0x7b, 0xe9, 0xbe, 0xc2, 0x73, 0xe3, 0xbe, 0x0c, 0x63, 0xc0, 0x3d,
  0xc1, 0x2c, 0xa7, 0x3e, 0x05, 0x22, 0x50, 0xbe, 0xfd, 0x61, 0x98, 0xbd,
  0x9c, 0x74, 0x6e, 0xbc, 0x57, 0x3f, 0x3f, 0x3d, 0xe5, 0x7b, 0x64, 0x3f,
  0x46, 0x24, 0x06, 0x3f, 0x38, 0x45, 0xcb, 0xbc, 0xf0, 0x03, 0x2c, 0x3f,
  0x1e, 0xb5, 0xcf, 0xbd, 0xa9, 0xf1, 0x09, 0x3e, 0xa1, 0xfc, 0x0e, 0xbe,
  0xfc, 0xa3, 0x4f, 0xbe, 0xba, 0xdf, 0x86, 0x3d, 0xd2, 0xec, 0xd3, 0x3d,
  0x08, 0xab, 0xf9, 0xbd, 0xf5, 0xbe, 0x83, 0x3f, 0x6d, 0x18, 0x5f, 0x3f,
  0x56, 0x55, 0x02, 0x3e, 0x51, 0xb2, 0xba, 0x3e, 0x40, 0x90, 0xa5, 0xbe,
  0x7f, 0x2c, 0xf5, 0x3e, 0xf2, 0xab, 0xbe, 0x3d, 0x36, 0xbc, 0xcd, 0x3d,
  0xd8, 0xf4, 0xa1, 0x3e, 0x6c, 0x73, 0x54, 0x3e, 0x9b, 0xac, 0xf0, 0x3d,
  0x42, 0x41, 0x1b, 0x3e, 0xf6, 0xfe, 0xff, 0xff, 0x04, 0x00, 0x00, 0x00,
  0x30, 0x00, 0x00, 0x00, 0xc7, 0xf7, 0xff, 0xbe, 0x8a, 0xd4, 0x97, 0xbf,
  0xad, 0xc9, 0x66, 0xbf, 0xc4, 0xfc, 0x87, 0xbe, 0xbd, 0xbf, 0x08, 0x3f,
  0x22, 0x0d, 0x60, 0x3f, 0x56, 0x4c, 0x34, 0xbe, 0x44, 0x9f, 0x23, 0x3f,
  0xc5, 0x7e, 0x7b, 0x3f, 0x97, 0x73, 0x13, 0xbf, 0x54, 0x45, 0x5d, 0x3f,
  0x75, 0x17, 0x1a, 0xbf, 0x32, 0xff, 0xff, 0xff, 0x04, 0x00, 0x00, 0x00,
  0x10, 0x00, 0x00, 0x00, 0x04, 0x08, 0x47, 0xbc, 0x45, 0x32, 0x88, 0xbd,
  0x80, 0x50, 0x3b, 0xbd, 0x13, 0x5c, 0x2a, 0xbf, 0x4e, 0xff, 0xff, 0xff,
  0x04, 0x00, 0x00, 0x00, 0x10, 0x00, 0x00, 0x00, 0x02, 0x94, 0xc1, 0xbd,
  0x32, 0x5a, 0x18, 0xbc, 0xd1, 0x11, 0x33, 0x3d, 0x85, 0xb9, 0x9d, 0xbd,
  0x30, 0xf5, 0xff, 0xff, 0x34, 0xf5, 0xff, 0xff, 0x0f, 0x00, 0x00, 0x00,
  0x4d, 0x4c, 0x49, 0x52, 0x20, 0x43, 0x6f, 0x6e, 0x76, 0x65, 0x72, 0x74,
  0x65, 0x64, 0x2e, 0x00, 0x01, 0x00, 0x00, 0x00, 0x14, 0x00, 0x00, 0x00,
  0x00, 0x00, 0x0e, 0x00, 0x18, 0x00, 0x14, 0x00, 0x10, 0x00, 0x0c, 0x00,
  0x08, 0x00, 0x04, 0x00, 0x0e, 0x00, 0x00, 0x00, 0x14, 0x00, 0x00, 0x00,
  0x1c, 0x00, 0x00, 0x00, 0x54, 0x02, 0x00, 0x00, 0x58, 0x02, 0x00, 0x00,
  0x5c, 0x02, 0x00, 0x00, 0x04, 0x00, 0x00, 0x00, 0x6d, 0x61, 0x69, 0x6e,
  0x00, 0x00, 0x00, 0x00, 0x08, 0x00, 0x00, 0x00, 0xec, 0x01, 0x00, 0x00,
  0x88, 0x01, 0x00, 0x00, 0x34, 0x01, 0x00, 0x00, 0xf0, 0x00, 0x00, 0x00,
  0xc8, 0x00, 0x00, 0x00, 0x78, 0x00, 0x00, 0x00, 0x40, 0x00, 0x00, 0x00,
  0x04, 0x00, 0x00, 0x00, 0xa2, 0xfe, 0xff, 0xff, 0x1c, 0x00, 0x00, 0x00,
  0x00, 0x00, 0x00, 0x09, 0x1c, 0x00, 0x00, 0x00, 0x20, 0x00, 0x00, 0x00,
  0x04, 0x00, 0x00, 0x00, 0x00, 0x00, 0x06, 0x00, 0x08, 0x00, 0x04, 0x00,
  0x06, 0x00, 0x00, 0x00, 0x00, 0x00, 0x80, 0x3f, 0x01, 0x00, 0x00, 0x00,
  0x11, 0x00, 0x00, 0x00, 0x01, 0x00, 0x00, 0x00, 0x10, 0x00, 0x00, 0x00,
  0xda, 0xfe, 0xff, 0xff, 0x14, 0x00, 0x00, 0x00, 0x00, 0x00, 0x00, 0x08,
  0x10, 0x00, 0x00, 0x00, 0x14, 0x00, 0x00, 0x00, 0x03, 0x00, 0x00, 0x00,
  0xfc, 0xf5, 0xff, 0xff, 0x01, 0x00, 0x00, 0x00, 0x10, 0x00, 0x00, 0x00,
  0x03, 0x00, 0x00, 0x00, 0x0f, 0x00, 0x00, 0x00, 0x09, 0x00, 0x00, 0x00,
  0x05, 0x00, 0x00, 0x00, 0x0e, 0xff, 0xff, 0xff, 0x1c, 0x00, 0x00, 0x00,
  0x00, 0x00, 0x00, 0x08, 0x1c, 0x00, 0x00, 0x00, 0x20, 0x00, 0x00, 0x00,
  0x03, 0x00, 0x00, 0x00, 0x00, 0x00, 0x06, 0x00, 0x08, 0x00, 0x07, 0x00,
  0x06, 0x00, 0x00, 0x00, 0x00, 0x00, 0x00, 0x01, 0x01, 0x00, 0x00, 0x00,
  0x0f, 0x00, 0x00, 0x00, 0x03, 0x00, 0x00, 0x00, 0x0e, 0x00, 0x00, 0x00,
  0x08, 0x00, 0x00, 0x00, 0x06, 0x00, 0x00, 0x00, 0x00, 0x00, 0x0a, 0x00,
  0x10, 0x00, 0x0c, 0x00, 0x08, 0x00, 0x04, 0x00, 0x0a, 0x00, 0x00, 0x00,
  0x0c, 0x00, 0x00, 0x00, 0x10, 0x00, 0x00, 0x00, 0x02, 0x00, 0x00, 0x00,
  0x01, 0x00, 0x00, 0x00, 0x0e, 0x00, 0x00, 0x00, 0x02, 0x00, 0x00, 0x00,
  0x0d, 0x00, 0x00, 0x00, 0x07, 0x00, 0x00, 0x00, 0x7e, 0xff, 0xff, 0xff,
  0x14, 0x00, 0x00, 0x00, 0x00, 0x00, 0x00, 0x05, 0x24, 0x00, 0x00, 0x00,
  0x28, 0x00, 0x00, 0x00, 0x01, 0x00, 0x00, 0x00, 0x6e, 0xff, 0xff, 0xff,
  0x03, 0x00, 0x00, 0x00, 0x01, 0x00, 0x00, 0x00, 0x03, 0x00, 0x00, 0x00,
  0x01, 0x00, 0x00, 0x00, 0x00, 0x00, 0x00, 0x01, 0x01, 0x00, 0x00, 0x00,
  0x0d, 0x00, 0x00, 0x00, 0x01, 0x00, 0x00, 0x00, 0x0c, 0x00, 0x00, 0x00,
  0x5e, 0xff, 0xff, 0xff, 0x10, 0x00, 0x00, 0x00, 0x00, 0x00, 0x00, 0x01,
  0x1c, 0x00, 0x00, 0x00, 0x20, 0x00, 0x00, 0x00, 0x50, 0xff, 0xff, 0xff,
  0x00, 0x00, 0x00, 0x01, 0x01, 0x00, 0x00, 0x00, 0x01, 0x00, 0x00, 0x00,
  0x00, 0x00, 0x00, 0x01, 0x01, 0x00, 0x00, 0x00, 0x0c, 0x00, 0x00, 0x00,
  0x03, 0x00, 0x00, 0x00, 0x0b, 0x00, 0x00, 0x00, 0x04, 0x00, 0x00, 0x00,
  0x02, 0x00, 0x00, 0x00, 0x00, 0x00, 0x0e, 0x00, 0x1a, 0x00, 0x14, 0x00,
  0x10, 0x00, 0x0c, 0x00, 0x0b, 0x00, 0x04, 0x00, 0x0e, 0x00, 0x00, 0x00,
  0x24, 0x00, 0x00, 0x00, 0x00, 0x00, 0x00, 0x05, 0x34, 0x00, 0x00, 0x00,
  0x38, 0x00, 0x00, 0x00, 0x01, 0x00, 0x00, 0x00, 0x00, 0x00, 0x0e, 0x00,
  0x18, 0x00, 0x17, 0x00, 0x10, 0x00, 0x0c, 0x00, 0x08, 0x00, 0x04, 0x00,
  0x0e, 0x00, 0x00, 0x00, 0x03, 0x00, 0x00, 0x00, 0x01, 0x00, 0x00, 0x00,
  0x03, 0x00, 0x00, 0x00, 0x01, 0x00, 0x00, 0x00, 0x00, 0x00, 0x00, 0x01,
  0x01, 0x00, 0x00, 0x00, 0x0b, 0x00, 0x00, 0x00, 0x01, 0x00, 0x00, 0x00,
  0x0a, 0x00, 0x00, 0x00, 0x00, 0x00, 0x0e, 0x00, 0x14, 0x00, 0x00, 0x00,
  0x10, 0x00, 0x0c, 0x00, 0x0b, 0x00, 0x04, 0x00, 0x0e, 0x00, 0x00, 0x00,
  0x1c, 0x00, 0x00, 0x00, 0x00, 0x00, 0x00, 0x01, 0x28, 0x00, 0x00, 0x00,
  0x2c, 0x00, 0x00, 0x00, 0x0c, 0x00, 0x14, 0x00, 0x13, 0x00, 0x0c, 0x00,
  0x08, 0x00, 0x07, 0x00, 0x0c, 0x00, 0x00, 0x00, 0x00, 0x00, 0x00, 0x01,
  0x01, 0x00, 0x00, 0x00, 0x01, 0x00, 0x00, 0x00, 0x00, 0x00, 0x00, 0x01,
  0x01, 0x00, 0x00, 0x00, 0x0a, 0x00, 0x00, 0x00, 0x03, 0x00, 0x00, 0x00,
  0x00, 0x00, 0x00, 0x00, 0x03, 0x00, 0x00, 0x00, 0x01, 0x00, 0x00, 0x00,
  0x01, 0x00, 0x00, 0x00, 0x11, 0x00, 0x00, 0x00, 0x01, 0x00, 0x00, 0x00,
  0x00, 0x00, 0x00, 0x00, 0x12, 0x00, 0x00, 0x00, 0xf8, 0x07, 0x00, 0x00,
  0x84, 0x07, 0x00, 0x00, 0x10, 0x07, 0x00, 0x00, 0xb8, 0x06, 0x00, 0x00,
  0x60, 0x06, 0x00, 0x00, 0x04, 0x06, 0x00, 0x00, 0xa8, 0x05, 0x00, 0x00,
  0x58, 0x05, 0x00, 0x00, 0xf0, 0x04, 0x00, 0x00, 0xa0, 0x04, 0x00, 0x00,
  0xa8, 0x03, 0x00, 0x00, 0x30, 0x03, 0x00, 0x00, 0x58, 0x02, 0x00, 0x00,
  0xe0, 0x01, 0x00, 0x00, 0x7c, 0x01, 0x00, 0x00, 0xe0, 0x00, 0x00, 0x00,
  0x60, 0x00, 0x00, 0x00, 0x04, 0x00, 0x00, 0x00, 0x66, 0xf8, 0xff, 0xff,
  0x00, 0x00, 0x00, 0x01, 0x14, 0x00, 0x00, 0x00, 0x1c, 0x00, 0x00, 0x00,
  0x1c, 0x00, 0x00, 0x00, 0x12, 0x00, 0x00, 0x00, 0x34, 0x00, 0x00, 0x00,
  0x02, 0x00, 0x00, 0x00, 0xff, 0xff, 0xff, 0xff, 0x03, 0x00, 0x00, 0x00,
  0x48, 0xf8, 0xff, 0xff, 0x19, 0x00, 0x00, 0x00, 0x53, 0x74, 0x61, 0x74,
  0x65, 0x66, 0x75, 0x6c, 0x50, 0x61, 0x72, 0x74, 0x69, 0x74, 0x69, 0x6f,
  0x6e, 0x65, 0x64, 0x43, 0x61, 0x6c, 0x6c, 0x3a, 0x30, 0x00, 0x00, 0x00,
  0x02, 0x00, 0x00, 0x00, 0x01, 0x00, 0x00, 0x00, 0x03, 0x00, 0x00, 0x00,
  0xbe, 0xf8, 0xff, 0xff, 0x00, 0x00, 0x00, 0x01, 0x14, 0x00, 0x00, 0x00,
  0x1c, 0x00, 0x00, 0x00, 0x1c, 0x00, 0x00, 0x00, 0x11, 0x00, 0x00, 0x00,
  0x58, 0x00, 0x00, 0x00, 0x02, 0x00, 0x00, 0x00, 0xff, 0xff, 0xff, 0xff,
  0x03, 0x00, 0x00, 0x00, 0xa0, 0xf8, 0xff, 0xff, 0x3c, 0x00, 0x00, 0x00,
  0x73, 0x65, 0x71, 0x75, 0x65, 0x6e, 0x74, 0x69, 0x61, 0x6c, 0x5f, 0x31,
  0x32, 0x2f, 0x64, 0x65, 0x6e, 0x73, 0x65, 0x5f, 0x33, 0x38, 0x2f, 0x4d,
  0x61, 0x74, 0x4d, 0x75, 0x6c, 0x3b, 0x73, 0x65, 0x71, 0x75, 0x65, 0x6e,
  0x74, 0x69, 0x61, 0x6c, 0x5f, 0x31, 0x32, 0x2f, 0x64, 0x65, 0x6e, 0x73,
  0x65, 0x5f, 0x33, 0x38, 0x2f, 0x42, 0x69, 0x61, 0x73, 0x41, 0x64, 0x64,
  0x00, 0x00, 0x00, 0x00, 0x02, 0x00, 0x00, 0x00, 0x01, 0x00, 0x00, 0x00,
  0x03, 0x00, 0x00, 0x00, 0x3a, 0xf9, 0xff, 0xff, 0x00, 0x00, 0x00, 0x01,
  0x14, 0x00, 0x00, 0x00, 0x1c, 0x00, 0x00, 0x00, 0x1c, 0x00, 0x00, 0x00,
  0x10, 0x00, 0x00, 0x00, 0x74, 0x00, 0x00, 0x00, 0x02, 0x00, 0x00, 0x00,
  0xff, 0xff, 0xff, 0xff, 0x10, 0x00, 0x00, 0x00, 0x1c, 0xf9, 0xff, 0xff,
  0x58, 0x00, 0x00, 0x00, 0x73, 0x65, 0x71, 0x75, 0x65, 0x6e, 0x74, 0x69,
  0x61, 0x6c, 0x5f, 0x31, 0x32, 0x2f, 0x64, 0x65, 0x6e, 0x73, 0x65, 0x5f,
  0x33, 0x37, 0x2f, 0x4d, 0x61, 0x74, 0x4d, 0x75, 0x6c, 0x3b, 0x73, 0x65,
  0x71, 0x75, 0x65, 0x6e, 0x74, 0x69, 0x61, 0x6c, 0x5f, 0x31, 0x32, 0x2f,
  0x64, 0x65, 0x6e, 0x73, 0x65, 0x5f, 0x33, 0x37, 0x2f, 0x52, 0x65, 0x6c,
  0x75, 0x3b, 0x73, 0x65, 0x71, 0x75, 0x65, 0x6e, 0x74, 0x69, 0x61, 0x6c,
  0x5f, 0x31, 0x32, 0x2f, 0x64, 0x65, 0x6e, 0x73, 0x65, 0x5f, 0x33, 0x37,
  0x2f, 0x42, 0x69, 0x61, 0x73, 0x41, 0x64, 0x64, 0x00, 0x00, 0x00, 0x00,
  0x02, 0x00, 0x00, 0x00, 0x01, 0x00, 0x00, 0x00, 0x10, 0x00, 0x00, 0x00,
  0xd2, 0xf9, 0xff, 0xff, 0x00, 0x00, 0x00, 0x01, 0x14, 0x00, 0x00, 0x00,
  0x1c, 0x00, 0x00, 0x00, 0x1c, 0x00, 0x00, 0x00, 0x0f, 0x00, 0x00, 0x00,
  0x3c, 0x00, 0x00, 0x00, 0x02, 0x00, 0x00, 0x00, 0xff, 0xff, 0xff, 0xff,
  0x60, 0x00, 0x00, 0x00, 0xb4, 0xf9, 0xff, 0xff, 0x20, 0x00, 0x00, 0x00,
  0x73, 0x65, 0x71, 0x75, 0x65, 0x6e, 0x74, 0x69, 0x61, 0x6c, 0x5f, 0x31,
  0x32, 0x2f, 0x66, 0x6c, 0x61, 0x74, 0x74, 0x65, 0x6e, 0x5f, 0x31, 0x32,
  0x2f, 0x52, 0x65, 0x73, 0x68, 0x61, 0x70, 0x65, 0x00, 0x00, 0x00, 0x00,
  0x02, 0x00, 0x00, 0x00, 0x01, 0x00, 0x00, 0x00, 0x60, 0x00, 0x00, 0x00,
  0x32, 0xfa, 0xff, 0xff, 0x00, 0x00, 0x00, 0x01, 0x14, 0x00, 0x00, 0x00,
  0x24, 0x00, 0x00, 0x00, 0x24, 0x00, 0x00, 0x00, 0x0e, 0x00, 0x00, 0x00,
  0x48, 0x00, 0x00, 0x00, 0x04, 0x00, 0x00, 0x00, 0xff, 0xff, 0xff, 0xff,
  0x08, 0x00, 0x00, 0x00, 0x03, 0x00, 0x00, 0x00, 0x04, 0x00, 0x00, 0x00,
  0x1c, 0xfa, 0xff, 0xff, 0x25, 0x00, 0x00, 0x00, 0x73, 0x65, 0x71, 0x75,
  0x65, 0x6e, 0x74, 0x69, 0x61, 0x6c, 0x5f, 0x31, 0x32, 0x2f, 0x6d, 0x61,
  0x78, 0x5f, 0x70, 0x6f, 0x6f, 0x6c, 0x69, 0x6e, 0x67, 0x32, 0x64, 0x5f,
  0x35, 0x2f, 0x4d, 0x61, 0x78, 0x50, 0x6f, 0x6f, 0x6c, 0x00, 0x00, 0x00,
  0x04, 0x00, 0x00, 0x00, 0x01, 0x00, 0x00, 0x00, 0x08, 0x00, 0x00, 0x00,
  0x03, 0x00, 0x00, 0x00, 0x04, 0x00, 0x00, 0x00, 0xa6, 0xfa, 0xff, 0xff,
  0x00, 0x00, 0x00, 0x01, 0x14, 0x00, 0x00, 0x00, 0x24, 0x00, 0x00, 0x00,
  0x24, 0x00, 0x00, 0x00, 0x0d, 0x00, 0x00, 0x00, 0xa8, 0x00, 0x00, 0x00,
  0x04, 0x00, 0x00, 0x00, 0xff, 0xff, 0xff, 0xff, 0x18, 0x00, 0x00, 0x00,
  0x03, 0x00, 0x00, 0x00, 0x04, 0x00, 0x00, 0x00, 0x90, 0xfa, 0xff, 0xff,
  0x86, 0x00, 0x00, 0x00, 0x73, 0x65, 0x71, 0x75, 0x65, 0x6e, 0x74, 0x69,
  0x61, 0x6c, 0x5f, 0x31, 0x32, 0x2f, 0x63, 0x6f, 0x6e, 0x76, 0x32, 0x64,
  0x5f, 0x35, 0x2f, 0x52, 0x65, 0x6c, 0x75, 0x3b, 0x73, 0x65, 0x71, 0x75,
  0x65, 0x6e, 0x74, 0x69, 0x61, 0x6c, 0x5f, 0x31, 0x32, 0x2f, 0x63, 0x6f,
  0x6e, 0x76, 0x32, 0x64, 0x5f, 0x35, 0x2f, 0x42, 0x69, 0x61, 0x73, 0x41,
  0x64, 0x64, 0x3b, 0x73, 0x65, 0x71, 0x75, 0x65, 0x6e, 0x74, 0x69, 0x61,
  0x6c, 0x5f, 0x31, 0x32, 0x2f, 0x63, 0x6f, 0x6e, 0x76, 0x32, 0x64, 0x5f,
  0x35, 0x2f, 0x43, 0x6f, 0x6e, 0x76, 0x32, 0x44, 0x3b, 0x73, 0x65, 0x71,
  0x75, 0x65, 0x6e, 0x74, 0x69, 0x61, 0x6c, 0x5f, 0x31, 0x32, 0x2f, 0x63,
  0x6f, 0x6e, 0x76, 0x32, 0x64, 0x5f, 0x35, 0x2f, 0x42, 0x69, 0x61, 0x73,
  0x41, 0x64, 0x64, 0x2f, 0x52, 0x65, 0x61, 0x64, 0x56, 0x61, 0x72, 0x69,
  0x61, 0x62, 0x6c, 0x65, 0x4f, 0x70, 0x00, 0x00, 0x04, 0x00, 0x00, 0x00,
  0x01, 0x00, 0x00, 0x00, 0x18, 0x00, 0x00, 0x00, 0x03, 0x00, 0x00, 0x00,
  0x04, 0x00, 0x00, 0x00, 0x7a, 0xfb, 0xff, 0xff, 0x00, 0x00, 0x00, 0x01,
  0x14, 0x00, 0x00, 0x00, 0x24, 0x00, 0x00, 0x00, 0x24, 0x00, 0x00, 0x00,
  0x0c, 0x00, 0x00, 0x00, 0x48, 0x00, 0x00, 0x00, 0x04, 0x00, 0x00, 0x00,
  0xff, 0xff, 0xff, 0xff, 0x1a, 0x00, 0x00, 0x00, 0x03, 0x00, 0x00, 0x00,
  0x04, 0x00, 0x00, 0x00, 0x64, 0xfb, 0xff, 0xff, 0x25, 0x00, 0x00, 0x00,
  0x73, 0x65, 0x71, 0x75, 0x65, 0x6e, 0x74, 0x69, 0x61, 0x6c, 0x5f, 0x31,
  0x32, 0x2f, 0x6d, 0x61, 0x78, 0x5f, 0x70, 0x6f, 0x6f, 0x6c, 0x69, 0x6e,
  0x67, 0x32, 0x64, 0x5f, 0x34, 0x2f, 0x4d, 0x61, 0x78, 0x50, 0x6f, 0x6f,
  0x6c, 0x00, 0x00, 0x00, 0x04, 0x00, 0x00, 0x00, 0x01, 0x00, 0x00, 0x00,
  0x1a, 0x00, 0x00, 0x00, 0x03, 0x00, 0x00, 0x00, 0x04, 0x00, 0x00, 0x00,
  0xee, 0xfb, 0xff, 0xff, 0x00, 0x00, 0x00, 0x01, 0x14, 0x00, 0x00, 0x00,
  0x24, 0x00, 0x00, 0x00, 0x24, 0x00, 0x00, 0x00, 0x0b, 0x00, 0x00, 0x00,
  0xc8, 0x00, 0x00, 0x00, 0x04, 0x00, 0x00, 0x00, 0xff, 0xff, 0xff, 0xff,
  0x4e, 0x00, 0x00, 0x00, 0x03, 0x00, 0x00, 0x00, 0x04, 0x00, 0x00, 0x00,
  0xd8, 0xfb, 0xff, 0xff, 0xa4, 0x00, 0x00, 0x00, 0x73, 0x65, 0x71, 0x75,
  0x65, 0x6e, 0x74, 0x69, 0x61, 0x6c, 0x5f, 0x31, 0x32, 0x2f, 0x63, 0x6f,
  0x6e, 0x76, 0x32, 0x64, 0x5f, 0x34, 0x2f, 0x52, 0x65, 0x6c, 0x75, 0x3b,
  0x73, 0x65, 0x71, 0x75, 0x65, 0x6e, 0x74, 0x69, 0x61, 0x6c, 0x5f, 0x31,
  0x32, 0x2f, 0x63, 0x6f, 0x6e, 0x76, 0x32, 0x64, 0x5f, 0x34, 0x2f, 0x42,
  0x69, 0x61, 0x73, 0x41, 0x64, 0x64, 0x3b, 0x73, 0x65, 0x71, 0x75, 0x65,
  0x6e, 0x74, 0x69, 0x61, 0x6c, 0x5f, 0x31, 0x32, 0x2f, 0x63, 0x6f, 0x6e,
  0x76, 0x32, 0x64, 0x5f, 0x35, 0x2f, 0x43, 0x6f, 0x6e, 0x76, 0x32, 0x44,
  0x3b, 0x73, 0x65, 0x71, 0x75, 0x65, 0x6e, 0x74, 0x69, 0x61, 0x6c, 0x5f,
  0x31, 0x32, 0x2f, 0x63, 0x6f, 0x6e, 0x76, 0x32, 0x64, 0x5f, 0x34, 0x2f,
  0x43, 0x6f, 0x6e, 0x76, 0x32, 0x44, 0x3b, 0x73, 0x65, 0x71, 0x75, 0x65,
  0x6e, 0x74, 0x69, 0x61, 0x6c, 0x5f, 0x31, 0x32, 0x2f, 0x63, 0x6f, 0x6e,
  0x76, 0x32, 0x64, 0x5f, 0x34, 0x2f, 0x42, 0x69, 0x61, 0x73, 0x41, 0x64,
  0x64, 0x2f, 0x52, 0x65, 0x61, 0x64, 0x56, 0x61, 0x72, 0x69, 0x61, 0x62,
  0x6c, 0x65, 0x4f, 0x70, 0x00, 0x00, 0x00, 0x00, 0x04, 0x00, 0x00, 0x00,
  0x01, 0x00, 0x00, 0x00, 0x4e, 0x00, 0x00, 0x00, 0x03, 0x00, 0x00, 0x00,
  0x04, 0x00, 0x00, 0x00, 0x52, 0xfd, 0xff, 0xff, 0x00, 0x00, 0x00, 0x01,
  0x10, 0x00, 0x00, 0x00, 0x10, 0x00, 0x00, 0x00, 0x0a, 0x00, 0x00, 0x00,
  0x2c, 0x00, 0x00, 0x00, 0xb4, 0xfc, 0xff, 0xff, 0x1d, 0x00, 0x00, 0x00,
  0x73, 0x65, 0x71, 0x75, 0x65, 0x6e, 0x74, 0x69, 0x61, 0x6c, 0x5f, 0x31,
  0x32, 0x2f, 0x64, 0x65, 0x6e, 0x73, 0x65, 0x5f, 0x33, 0x38, 0x2f, 0x4d,
  0x61, 0x74, 0x4d, 0x75, 0x6c, 0x00, 0x00, 0x00, 0x02, 0x00, 0x00, 0x00,
  0x03, 0x00, 0x00, 0x00, 0x10, 0x00, 0x00, 0x00, 0x9e, 0xfd, 0xff, 0xff,
  0x00, 0x00, 0x00, 0x01, 0x10, 0x00, 0x00, 0x00, 0x10, 0x00, 0x00, 0x00,
  0x09, 0x00, 0x00, 0x00, 0x2c, 0x00, 0x00, 0x00, 0x00, 0xfd, 0xff, 0xff,
  0x1d, 0x00, 0x00, 0x00, 0x73, 0x65, 0x71, 0x75, 0x65, 0x6e, 0x74, 0x69,
  0x61, 0x6c, 0x5f, 0x31, 0x32, 0x2f, 0x64, 0x65, 0x6e, 0x73, 0x65, 0x5f,
  0x33, 0x37, 0x2f, 0x4d, 0x61, 0x74, 0x4d, 0x75, 0x6c, 0x00, 0x00, 0x00,
  0x02, 0x00, 0x00, 0x00, 0x10, 0x00, 0x00, 0x00, 0x60, 0x00, 0x00, 0x00,
  0x00, 0x00, 0x16, 0x00, 0x1c, 0x00, 0x18, 0x00, 0x17, 0x00, 0x10, 0x00,
  0x0c, 0x00, 0x08, 0x00, 0x00, 0x00, 0x00, 0x00, 0x00, 0x00, 0x07, 0x00,
  0x16, 0x00, 0x00, 0x00, 0x00, 0x00, 0x00, 0x01, 0x14, 0x00, 0x00, 0x00,
  0x14, 0x00, 0x00, 0x00, 0x08, 0x00, 0x00, 0x00, 0x00, 0x00, 0x00, 0x02,
  0x2c, 0x00, 0x00, 0x00, 0x68, 0xfd, 0xff, 0xff, 0x1e, 0x00, 0x00, 0x00,
  0x73, 0x65, 0x71, 0x75, 0x65, 0x6e, 0x74, 0x69, 0x61, 0x6c, 0x5f, 0x31,
  0x32, 0x2f, 0x66, 0x6c, 0x61, 0x74, 0x74, 0x65, 0x6e, 0x5f, 0x31, 0x32,
  0x2f, 0x43, 0x6f, 0x6e, 0x73, 0x74, 0x00, 0x00, 0x01, 0x00, 0x00, 0x00,
  0x02, 0x00, 0x00, 0x00, 0x4e, 0xfe, 0xff, 0xff, 0x00, 0x00, 0x00, 0x01,
  0x10, 0x00, 0x00, 0x00, 0x10, 0x00, 0x00, 0x00, 0x07, 0x00, 0x00, 0x00,
  0x3c, 0x00, 0x00, 0x00, 0xb0, 0xfd, 0xff, 0xff, 0x2d, 0x00, 0x00, 0x00,
  0x73, 0x65, 0x71, 0x75, 0x65, 0x6e, 0x74, 0x69, 0x61, 0x6c, 0x5f, 0x31,
  0x32, 0x2f, 0x64, 0x65, 0x6e, 0x73, 0x65, 0x5f, 0x33, 0x37, 0x2f, 0x42,
  0x69, 0x61, 0x73, 0x41, 0x64, 0x64, 0x2f, 0x52, 0x65, 0x61, 0x64, 0x56,
  0x61, 0x72, 0x69, 0x61, 0x62, 0x6c, 0x65, 0x4f, 0x70, 0x00, 0x00, 0x00,
  0x01, 0x00, 0x00, 0x00, 0x10, 0x00, 0x00, 0x00, 0xa6, 0xfe, 0xff, 0xff,
  0x00, 0x00, 0x00, 0x01, 0x10, 0x00, 0x00, 0x00, 0x10, 0x00, 0x00, 0x00,
  0x06, 0x00, 0x00, 0x00, 0x3c, 0x00, 0x00, 0x00, 0x08, 0xfe, 0xff, 0xff,
  0x2d, 0x00, 0x00, 0x00, 0x73, 0x65, 0x71, 0x75, 0x65, 0x6e, 0x74, 0x69,
  0x61, 0x6c, 0x5f, 0x31, 0x32, 0x2f, 0x64, 0x65, 0x6e, 0x73, 0x65, 0x5f,
  0x33, 0x38, 0x2f, 0x42, 0x69, 0x61, 0x73, 0x41, 0x64, 0x64, 0x2f, 0x52,
  0x65, 0x61, 0x64, 0x56, 0x61, 0x72, 0x69, 0x61, 0x62, 0x6c, 0x65, 0x4f,
  0x70, 0x00, 0x00, 0x00, 0x01, 0x00, 0x00, 0x00, 0x03, 0x00, 0x00, 0x00,
  0xfe, 0xfe, 0xff, 0xff, 0x00, 0x00, 0x00, 0x01, 0x10, 0x00, 0x00, 0x00,
  0x10, 0x00, 0x00, 0x00, 0x05, 0x00, 0x00, 0x00, 0x2c, 0x00, 0x00, 0x00,
  0x60, 0xfe, 0xff, 0xff, 0x1d, 0x00, 0x00, 0x00, 0x73, 0x65, 0x71, 0x75,
  0x65, 0x6e, 0x74, 0x69, 0x61, 0x6c, 0x5f, 0x31, 0x32, 0x2f, 0x63, 0x6f,
  0x6e, 0x76, 0x32, 0x64, 0x5f, 0x35, 0x2f, 0x43, 0x6f, 0x6e, 0x76, 0x32,
  0x44, 0x00, 0x00, 0x00, 0x04, 0x00, 0x00, 0x00, 0x04, 0x00, 0x00, 0x00,
  0x03, 0x00, 0x00, 0x00, 0x01, 0x00, 0x00, 0x00, 0x04, 0x00, 0x00, 0x00,
  0x52, 0xff, 0xff, 0xff, 0x00, 0x00, 0x00, 0x01, 0x10, 0x00, 0x00, 0x00,
  0x10, 0x00, 0x00, 0x00, 0x04, 0x00, 0x00, 0x00, 0x2c, 0x00, 0x00, 0x00,
  0xb4, 0xfe, 0xff, 0xff, 0x1d, 0x00, 0x00, 0x00, 0x73, 0x65, 0x71, 0x75,
  0x65, 0x6e, 0x74, 0x69, 0x61, 0x6c, 0x5f, 0x31, 0x32, 0x2f, 0x63, 0x6f,
  0x6e, 0x76, 0x32, 0x64, 0x5f, 0x34, 0x2f, 0x43, 0x6f, 0x6e, 0x76, 0x32,
  0x44, 0x00, 0x00, 0x00, 0x04, 0x00, 0x00, 0x00, 0x04, 0x00, 0x00, 0x00,
  0x03, 0x00, 0x00, 0x00, 0x01, 0x00, 0x00, 0x00, 0x01, 0x00, 0x00, 0x00,
  0xa6, 0xff, 0xff, 0xff, 0x00, 0x00, 0x00, 0x01, 0x10, 0x00, 0x00, 0x00,
  0x10, 0x00, 0x00, 0x00, 0x03, 0x00, 0x00, 0x00, 0x3c, 0x00, 0x00, 0x00,
  0x08, 0xff, 0xff, 0xff, 0x2d, 0x00, 0x00, 0x00, 0x73, 0x65, 0x71, 0x75,
  0x65, 0x6e, 0x74, 0x69, 0x61, 0x6c, 0x5f, 0x31, 0x32, 0x2f, 0x63, 0x6f,
  0x6e, 0x76, 0x32, 0x64, 0x5f, 0x35, 0x2f, 0x42, 0x69, 0x61, 0x73, 0x41,
  0x64, 0x64, 0x2f, 0x52, 0x65, 0x61, 0x64, 0x56, 0x61, 0x72, 0x69, 0x61,
  0x62, 0x6c, 0x65, 0x4f, 0x70, 0x00, 0x00, 0x00, 0x01, 0x00, 0x00, 0x00,
  0x04, 0x00, 0x00, 0x00, 0x00, 0x00, 0x16, 0x00, 0x18, 0x00, 0x14, 0x00,
  0x00, 0x00, 0x10, 0x00, 0x0c, 0x00, 0x08, 0x00, 0x00, 0x00, 0x00, 0x00,
  0x00, 0x00, 0x07, 0x00, 0x16, 0x00, 0x00, 0x00, 0x00, 0x00, 0x00, 0x01,
  0x10, 0x00, 0x00, 0x00, 0x10, 0x00, 0x00, 0x00, 0x02, 0x00, 0x00, 0x00,
  0x3c, 0x00, 0x00, 0x00, 0x78, 0xff, 0xff, 0xff, 0x2d, 0x00, 0x00, 0x00,
  0x73, 0x65, 0x71, 0x75, 0x65, 0x6e, 0x74, 0x69, 0x61, 0x6c, 0x5f, 0x31,
  0x32, 0x2f, 0x63, 0x6f, 0x6e, 0x76, 0x32, 0x64, 0x5f, 0x34, 0x2f, 0x42,
  0x69, 0x61, 0x73, 0x41, 0x64, 0x64, 0x2f, 0x52, 0x65, 0x61, 0x64, 0x56,
  0x61, 0x72, 0x69, 0x61, 0x62, 0x6c, 0x65, 0x4f, 0x70, 0x00, 0x00, 0x00,
  0x01, 0x00, 0x00, 0x00, 0x04, 0x00, 0x00, 0x00, 0x00, 0x00, 0x16, 0x00,
  0x1c, 0x00, 0x18, 0x00, 0x00, 0x00, 0x14, 0x00, 0x10, 0x00, 0x0c, 0x00,
  0x00, 0x00, 0x00, 0x00, 0x08, 0x00, 0x07, 0x00, 0x16, 0x00, 0x00, 0x00,
  0x00, 0x00, 0x00, 0x01, 0x14, 0x00, 0x00, 0x00, 0x28, 0x00, 0x00, 0x00,
  0x28, 0x00, 0x00, 0x00, 0x01, 0x00, 0x00, 0x00, 0x40, 0x00, 0x00, 0x00,
  0x04, 0x00, 0x00, 0x00, 0xff, 0xff, 0xff, 0xff, 0x50, 0x00, 0x00, 0x00,
  0x03, 0x00, 0x00, 0x00, 0x01, 0x00, 0x00, 0x00, 0x04, 0x00, 0x04, 0x00,
  0x04, 0x00, 0x00, 0x00, 0x1a, 0x00, 0x00, 0x00, 0x73, 0x65, 0x72, 0x76,
  0x69, 0x6e, 0x67, 0x5f, 0x64, 0x65, 0x66, 0x61, 0x75, 0x6c, 0x74, 0x5f,
  0x69, 0x6e, 0x70, 0x75, 0x74, 0x5f, 0x31, 0x33, 0x3a, 0x30, 0x00, 0x00,
  0x04, 0x00, 0x00, 0x00, 0x01, 0x00, 0x00, 0x00, 0x50, 0x00, 0x00, 0x00,
  0x03, 0x00, 0x00, 0x00, 0x01, 0x00, 0x00, 0x00, 0x05, 0x00, 0x00, 0x00,
  0x50, 0x00, 0x00, 0x00, 0x34, 0x00, 0x00, 0x00, 0x24, 0x00, 0x00, 0x00,
  0x14, 0x00, 0x00, 0x00, 0x04, 0x00, 0x00, 0x00, 0xd0, 0xff, 0xff, 0xff,
  0x19, 0x00, 0x00, 0x00, 0x00, 0x00, 0x00, 0x19, 0xdc, 0xff, 0xff, 0xff,
  0x09, 0x00, 0x00, 0x00, 0x00, 0x00, 0x00, 0x09, 0xe8, 0xff, 0xff, 0xff,
  0x16, 0x00, 0x00, 0x00, 0x00, 0x00, 0x00, 0x16, 0xf4, 0xff, 0xff, 0xff,
  0x11, 0x00, 0x00, 0x00, 0x00, 0x00, 0x00, 0x11, 0x0c, 0x00, 0x0c, 0x00,
  0x0b, 0x00, 0x00, 0x00, 0x00, 0x00, 0x04, 0x00, 0x0c, 0x00, 0x00, 0x00,
  0x03, 0x00, 0x00, 0x00, 0x00, 0x00, 0x00, 0x03
};
