const unsigned char model[] __attribute__((aligned(4))) = {
  0x1c, 0x00, 0x00, 0x00, 0x54, 0x46, 0x4c, 0x33, 0x14, 0x00, 0x20, 0x00,
  0x1c, 0x00, 0x18, 0x00, 0x14, 0x00, 0x10, 0x00, 0x0c, 0x00, 0x00, 0x00,
  0x08, 0x00, 0x04, 0x00, 0x14, 0x00, 0x00, 0x00, 0x1c, 0x00, 0x00, 0x00,
  0x88, 0x00, 0x00, 0x00, 0xe0, 0x00, 0x00, 0x00, 0x08, 0x35, 0x00, 0x00,
  0x18, 0x35, 0x00, 0x00, 0xbc, 0x42, 0x00, 0x00, 0x03, 0x00, 0x00, 0x00,
  0x01, 0x00, 0x00, 0x00, 0x04, 0x00, 0x00, 0x00, 0xe6, 0xc9, 0xff, 0xff,
  0x0c, 0x00, 0x00, 0x00, 0x1c, 0x00, 0x00, 0x00, 0x3c, 0x00, 0x00, 0x00,
  0x0f, 0x00, 0x00, 0x00, 0x73, 0x65, 0x72, 0x76, 0x69, 0x6e, 0x67, 0x5f,
  0x64, 0x65, 0x66, 0x61, 0x75, 0x6c, 0x74, 0x00, 0x01, 0x00, 0x00, 0x00,
  0x04, 0x00, 0x00, 0x00, 0x94, 0xff, 0xff, 0xff, 0x15, 0x00, 0x00, 0x00,
  0x04, 0x00, 0x00, 0x00, 0x08, 0x00, 0x00, 0x00, 0x64, 0x65, 0x6e, 0x73,
  0x65, 0x5f, 0x36, 0x36, 0x00, 0x00, 0x00, 0x00, 0x01, 0x00, 0x00, 0x00,
  0x04, 0x00, 0x00, 0x00, 0xca, 0xca, 0xff, 0xff, 0x04, 0x00, 0x00, 0x00,
  0x08, 0x00, 0x00, 0x00, 0x69, 0x6e, 0x70, 0x75, 0x74, 0x5f, 0x32, 0x37,
  0x00, 0x00, 0x00, 0x00, 0x02, 0x00, 0x00, 0x00, 0x34, 0x00, 0x00, 0x00,
  0x04, 0x00, 0x00, 0x00, 0xdc, 0xff, 0xff, 0xff, 0x18, 0x00, 0x00, 0x00,
  0x04, 0x00, 0x00, 0x00, 0x13, 0x00, 0x00, 0x00, 0x43, 0x4f, 0x4e, 0x56,
  0x45, 0x52, 0x53, 0x49, 0x4f, 0x4e, 0x5f, 0x4d, 0x45, 0x54, 0x41, 0x44,
  0x41, 0x54, 0x41, 0x00, 0x08, 0x00, 0x0c, 0x00, 0x08, 0x00, 0x04, 0x00,
  0x08, 0x00, 0x00, 0x00, 0x17, 0x00, 0x00, 0x00, 0x04, 0x00, 0x00, 0x00,
  0x13, 0x00, 0x00, 0x00, 0x6d, 0x69, 0x6e, 0x5f, 0x72, 0x75, 0x6e, 0x74,
  0x69, 0x6d, 0x65, 0x5f, 0x76, 0x65, 0x72, 0x73, 0x69, 0x6f, 0x6e, 0x00,
  0x19, 0x00, 0x00, 0x00, 0x24, 0x34, 0x00, 0x00, 0x1c, 0x34, 0x00, 0x00,
  0xcc, 0x33, 0x00, 0x00, 0x7c, 0x33, 0x00, 0x00, 0x2c, 0x33, 0x00, 0x00,
  0x5c, 0x32, 0x00, 0x00, 0x4c, 0x26, 0x00, 0x00, 0x3c, 0x1a, 0x00, 0x00,
  0x20, 0x1a, 0x00, 0x00, 0xd0, 0x19, 0x00, 0x00, 0xb8, 0x19, 0x00, 0x00,
  0xa8, 0x01, 0x00, 0x00, 0xd8, 0x00, 0x00, 0x00, 0xd0, 0x00, 0x00, 0x00,
  0xc8, 0x00, 0x00, 0x00, 0xc0, 0x00, 0x00, 0x00, 0xb8, 0x00, 0x00, 0x00,
  0xb0, 0x00, 0x00, 0x00, 0xa8, 0x00, 0x00, 0x00, 0xa0, 0x00, 0x00, 0x00,
  0x98, 0x00, 0x00, 0x00, 0x90, 0x00, 0x00, 0x00, 0x88, 0x00, 0x00, 0x00,
  0x68, 0x00, 0x00, 0x00, 0x04, 0x00, 0x00, 0x00, 0xa6, 0xcb, 0xff, 0xff,
  0x04, 0x00, 0x00, 0x00, 0x54, 0x00, 0x00, 0x00, 0x0c, 0x00, 0x00, 0x00,
  0x08, 0x00, 0x0e, 0x00, 0x08, 0x00, 0x04, 0x00, 0x08, 0x00, 0x00, 0x00,
  0x10, 0x00, 0x00, 0x00, 0x24, 0x00, 0x00, 0x00, 0x00, 0x00, 0x06, 0x00,
  0x08, 0x00, 0x04, 0x00, 0x06, 0x00, 0x00, 0x00, 0x04, 0x00, 0x00, 0x00,
  0x00, 0x00, 0x00, 0x00, 0x00, 0x00, 0x0a, 0x00, 0x10, 0x00, 0x0c, 0x00,
  0x08, 0x00, 0x04, 0x00, 0x0a, 0x00, 0x00, 0x00, 0x02, 0x00, 0x00, 0x00,
  0x02, 0x00, 0x00, 0x00, 0x04, 0x00, 0x00, 0x00, 0x06, 0x00, 0x00, 0x00,
  0x32, 0x2e, 0x31, 0x30, 0x2e, 0x30, 0x00, 0x00, 0x06, 0xcc, 0xff, 0xff,
  0x04, 0x00, 0x00, 0x00, 0x10, 0x00, 0x00, 0x00, 0x31, 0x2e, 0x35, 0x2e,
  0x30, 0x00, 0x00, 0x00, 0x00, 0x00, 0x00, 0x00, 0x00, 0x00, 0x00, 0x00,
  0x38, 0xbf, 0xff, 0xff, 0x3c, 0xbf, 0xff, 0xff, 0x40, 0xbf, 0xff, 0xff,
  0x44, 0xbf, 0xff, 0xff, 0x48, 0xbf, 0xff, 0xff, 0x4c, 0xbf, 0xff, 0xff,
  0x50, 0xbf, 0xff, 0xff, 0x54, 0xbf, 0xff, 0xff, 0x58, 0xbf, 0xff, 0xff,
  0x5c, 0xbf, 0xff, 0xff, 0x4a, 0xcc, 0xff, 0xff, 0x04, 0x00, 0x00, 0x00,
  0xc0, 0x00, 0x00, 0x00, 0xb0, 0x9b, 0x30, 0xbf, 0x69, 0xa7, 0x29, 0x3f,
  0x88, 0x7f, 0xb6, 0x3e, 0x4b, 0xa7, 0xf4, 0xbe, 0x0f, 0xaf, 0x40, 0x3d,
  0xea, 0x0d, 0x3f, 0xbf, 0x59, 0xfc, 0x75, 0xbe, 0x94, 0xf6, 0x26, 0xbf,
  0x0f, 0xdb, 0xd4, 0x3e, 0xa8, 0x16, 0x0b, 0xbf, 0xaa, 0xde, 0x85, 0xbf,
  0xbd, 0x26, 0xfc, 0xbe, 0x8f, 0x4a, 0x74, 0x3f, 0x64, 0x2c, 0xc6, 0xbe,
  0xc3, 0x46, 0xe2, 0x3e, 0xa3, 0xdf, 0x8a, 0x3e, 0x38, 0xc1, 0x42, 0xbf,
  0xf5, 0x13, 0x0c, 0xbf, 0x46, 0xf6, 0x58, 0x3e, 0x36, 0x52, 0x18, 0xbf,
  0x24, 0x0f, 0x46, 0xbf, 0x4b, 0x08, 0x5a, 0x3e, 0x25, 0x1c, 0x07, 0x3f,
  0xba, 0x19, 0x84, 0xbe, 0xa0, 0xa7, 0x3e, 0x3e, 0x59, 0xab, 0x8c, 0x3e,
  0xa5, 0x79, 0x19, 0x3e, 0xcc, 0xd0, 0x5f, 0x3e, 0x26, 0xd8, 0x09, 0xbf,
  0x0d, 0x78, 0xfd, 0x3e, 0xed, 0xa3, 0xc5, 0x3e, 0x95, 0x2b, 0x46, 0x3f,
  0xa3, 0x8d, 0xb0, 0x3e, 0x19, 0xb6, 0x23, 0x3e, 0xcb, 0xf9, 0x31, 0xbf,
  0xc9, 0x50, 0x0d, 0x3f, 0x5c, 0xde, 0xce, 0x3e, 0xd7, 0x82, 0x15, 0x3f,
  0xae, 0x31, 0x5c, 0xbf, 0x79, 0xb9, 0x1d, 0x3f, 0x60, 0x88, 0x67, 0xbf,
  0xdd, 0xe3, 0xc0, 0xbd, 0xb4, 0x9b, 0x76, 0x3e, 0xa3, 0x46, 0x9b, 0x3e,
  0x00, 0xc1, 0x41, 0xbd, 0xd8, 0xce, 0x94, 0x3e, 0x8b, 0xb5, 0x26, 0xbf,
  0xf3, 0x30, 0xab, 0xbd, 0x16, 0xcd, 0xff, 0xff, 0x04, 0x00, 0x00, 0x00,
  0x00, 0x18, 0x00, 0x00, 0xbb, 0x2a, 0x09, 0xbe, 0xc7, 0x3b, 0xf3, 0xbd,
  0x45, 0x96, 0x04, 0x3c, 0xb8, 0xa3, 0xaf, 0x3d, 0xc5, 0x7f, 0x08, 0x3e,
  0xc5, 0xe2, 0x43, 0x3e, 0x87, 0x3a, 0xe6, 0xbe, 0x56, 0x3a, 0x68, 0x3e,
  0xa2, 0x33, 0xcb, 0xbe, 0xfe, 0xd9, 0x97, 0x3e, 0xdc, 0x27, 0xe2, 0x3d,
  0x75, 0x16, 0xd5, 0xbe, 0xc8, 0x4b, 0x10, 0xbf, 0x73, 0x1e, 0x79, 0x3e,
  0x5e, 0xb4, 0x21, 0x3c, 0xc0, 0x8f, 0x11, 0xbf, 0x31, 0x11, 0xa3, 0xbe,
  0x07, 0x65, 0xbf, 0xbd, 0xbc, 0xb5, 0xf6, 0x3d, 0x84, 0x0c, 0xcc, 0xbd,
  0x2f, 0xb2, 0x56, 0x3d, 0xcf, 0x5b, 0x0d, 0x3e, 0x59, 0x61, 0xfc, 0xbe,
  0xfd, 0xb5, 0xa9, 0xbc, 0x2f, 0xfc, 0x11, 0xbe, 0x83, 0x87, 0x10, 0x3e,
  0x72, 0x62, 0x92, 0xbd, 0x08, 0x98, 0x9c, 0xbe, 0x3b, 0x6e, 0xa2, 0xbe,
  0x99, 0x62, 0x77, 0xbe, 0xd6, 0xb5, 0x8f, 0x3d, 0x39, 0x69, 0xca, 0xbe,
  0x82, 0xc1, 0x01, 0xbe, 0xcf, 0x2e, 0x2f, 0xbe, 0xb2, 0x23, 0xde, 0xbd,
  0xff, 0xec, 0xd8, 0x3d, 0xdb, 0x65, 0x94, 0x3e, 0x1a, 0x13, 0x29, 0xbe,
  0x8f, 0x1a, 0x94, 0x3b, 0xc1, 0x9e, 0x9d, 0xbd, 0x7b, 0xff, 0xea, 0xbd,
  0x55, 0x1e, 0xa3, 0x3d, 0x50, 0xe0, 0x0f, 0x3e, 0x19, 0x89, 0x47, 0xbe,
  0xa5, 0x43, 0x81, 0xbe, 0x66, 0x81, 0xdf, 0x3d, 0xfe, 0x52, 0xd6, 0xbd,
  0xee, 0x1e, 0x05, 0xbf, 0x65, 0xf2, 0xcf, 0xbd, 0x29, 0x78, 0x17, 0xbe,
  0x85, 0xbe, 0x9e, 0x3e, 0xee, 0x48, 0xc1, 0x3c, 0x08, 0x91, 0xed, 0x3c,
  0xc8, 0x21, 0x85, 0x3e, 0xf5, 0xb1, 0x8c, 0xbe, 0xe5, 0xae, 0x93, 0xbd,
  0x9e, 0xb3, 0x88, 0xbe, 0xfd, 0x1f, 0x78, 0x3e, 0x6e, 0x4d, 0x0f, 0xbe,
  0x4a, 0x91, 0xcd, 0x3d, 0x7e, 0x90, 0xb7, 0xbe, 0x30, 0xd0, 0x88, 0x3d,
  0x97, 0xf3, 0x6f, 0x3e, 0x10, 0x54, 0xdd, 0xbd, 0x4d, 0x39, 0x79, 0xbe,
  0xcf, 0x4f, 0xe7, 0xba, 0x61, 0x70, 0xa1, 0xbc, 0xe9, 0xbd, 0x86, 0xbd,
  0xaf, 0xf3, 0xfd, 0x3d, 0xaa, 0xeb, 0x53, 0x3e, 0x80, 0xb3, 0x2e, 0xbe,
  0x78, 0x3d, 0xc3, 0x3d, 0xb3, 0xad, 0xbf, 0xbe, 0x83, 0xab, 0x2d, 0x3e,
  0x34, 0x5e, 0x07, 0x3d, 0x91, 0x07, 0xa9, 0xbd, 0x30, 0xe3, 0x0b, 0xbf,
  0x84, 0xeb, 0xf8, 0xbd, 0xea, 0x89, 0x8c, 0x3e, 0x81, 0x9f, 0x60, 0xbe,
  0xdc, 0xd7, 0x32, 0xbe, 0x18, 0xa4, 0x7c, 0x3d, 0xae, 0x09, 0x2a, 0x3b,
  0xd0, 0x37, 0xab, 0x3d, 0xc6, 0xe9, 0x7f, 0x3d, 0x12, 0xc4, 0xe7, 0xbc,
  0x74, 0xae, 0x25, 0xbe, 0xc1, 0x90, 0x00, 0x3e, 0x30, 0xd5, 0x16, 0xbd,
  0x2b, 0x2b, 0x08, 0x3e, 0xd1, 0x71, 0x0d, 0xbe, 0x52, 0x32, 0x05, 0xbe,
  0x26, 0x14, 0x3d, 0xbe, 0xe0, 0x30, 0xe5, 0x3d, 0xfe, 0x73, 0x8c, 0x3d,
  0xed, 0xa4, 0x4b, 0xbd, 0xd0, 0xf6, 0x27, 0xbc, 0xb8, 0x0f, 0x5a, 0xbe,
  0xcb, 0xd2, 0x01, 0xbe, 0xfb, 0xe1, 0x10, 0xbd, 0xa4, 0xc7, 0x27, 0x3e,
  0xcb, 0x46, 0x57, 0x3d, 0x8f, 0xbc, 0xb9, 0x3d, 0x2d, 0xce, 0xa6, 0xbb,
  0xcb, 0x4a, 0x05, 0x3d, 0x4e, 0x92, 0x71, 0xbd, 0x1a, 0xe9, 0x3f, 0xbd,
  0xea, 0x5a, 0xdd, 0x3b, 0xfa, 0x53, 0xd4, 0xbd, 0x88, 0xc8, 0xcf, 0xbe,
  0x4b, 0x61, 0xc4, 0xbd, 0x91, 0xf5, 0x30, 0x3e, 0x1d, 0x1d, 0xa5, 0x3c,
  0x34, 0xa7, 0x42, 0xbe, 0x18, 0x34, 0x59, 0x3d, 0x57, 0x10, 0x97, 0xbe,
  0x16, 0x97, 0x7a, 0x3e, 0x4f, 0x6a, 0x02, 0x3e, 0xdc, 0x83, 0x1b, 0x3e,
  0xb9, 0x9f, 0x9d, 0x3c, 0x84, 0x36, 0xb5, 0x3d, 0x43, 0x47, 0xe4, 0xbd,
  0x88, 0xb9, 0x03, 0xbe, 0xf2, 0x68, 0xd0, 0x3c, 0x75, 0x61, 0x1b, 0xbe,
  0x74, 0x72, 0xbe, 0xbe, 0x57, 0x65, 0x21, 0xbe, 0x41, 0xc4, 0x55, 0x3e,
  0x62, 0xb1, 0xa2, 0x3d, 0xd6, 0x33, 0x0f, 0x3d, 0x11, 0x1a, 0xf6, 0x3d,
  0x5f, 0x86, 0x2d, 0x3e, 0xc7, 0x27, 0x39, 0x3f, 0x5b, 0x46, 0x04, 0x3e,
  0x79, 0xc9, 0x63, 0x3e, 0xd8, 0xe5, 0x85, 0x3e, 0xe0, 0x2d, 0xac, 0x3d,
  0xce, 0x53, 0x9b, 0x3e, 0x35, 0xc6, 0x13, 0x3e, 0xc8, 0x23, 0x06, 0x3e,
  0x8f, 0xa4, 0xa4, 0x3d, 0x65, 0x0c, 0x5d, 0x3e, 0x0d, 0x9a, 0x97, 0x3e,
  0xa5, 0x32, 0x02, 0x3f, 0xd2, 0x05, 0x91, 0xbd, 0xa0, 0xe1, 0xe4, 0xbd,
  0x5a, 0x77, 0x6d, 0xbe, 0x71, 0x9f, 0x47, 0xbe, 0x62, 0x3e, 0xae, 0xbe,
  0x5c, 0xbd, 0x59, 0x3e, 0xc4, 0x26, 0x34, 0x3d, 0x4b, 0x90, 0x95, 0xbd,
  0xd4, 0x64, 0x1a, 0xbc, 0xa6, 0xc4, 0x63, 0xbe, 0xf5, 0xeb, 0x38, 0xbe,
  0xb4, 0x5e, 0x2b, 0xbe, 0xc9, 0xca, 0x3a, 0xbe, 0xcd, 0x9a, 0x44, 0xbf,
  0x9b, 0x18, 0x8b, 0x3c, 0x10, 0xc1, 0x15, 0x3e, 0xbd, 0xca, 0x69, 0xbd,
  0xa2, 0xa3, 0xe4, 0xbd, 0xd5, 0x29, 0x9f, 0xbe, 0xf5, 0x4a, 0x54, 0xbe,
  0x1f, 0x9c, 0x78, 0xbe, 0xac, 0xd8, 0x68, 0x3e, 0xc9, 0x9e, 0x88, 0x3d,
  0x0f, 0x8e, 0xb9, 0xbc, 0x42, 0x92, 0x07, 0xbe, 0x53, 0x09, 0x7b, 0xbe,
  0x8c, 0xff, 0x0d, 0xbe, 0x42, 0x02, 0x14, 0xbd, 0x5f, 0xfd, 0x62, 0xbe,
  0x9f, 0xc2, 0x92, 0xbf, 0xea, 0x81, 0xe2, 0xbd, 0xd5, 0xb6, 0xae, 0xbd,
  0x03, 0xf0, 0x14, 0x3e, 0x67, 0x16, 0xda, 0xbd, 0xc0, 0xa4, 0x30, 0xbe,
  0x5e, 0x0c, 0xef, 0x3d, 0x59, 0xe0, 0xa4, 0x3d, 0x48, 0x36, 0x69, 0x3e,
  0x61, 0xdf, 0xcb, 0x3e, 0x7b, 0x56, 0x57, 0x3e, 0x60, 0x12, 0x9d, 0x3c,
  0x5b, 0xca, 0x5a, 0x3d, 0x71, 0xcc, 0xc6, 0x3d, 0xf7, 0x58, 0x02, 0x3d,
  0x02, 0x3e, 0x79, 0x3e, 0x68, 0x0e, 0x15, 0x3f, 0x57, 0xe3, 0xa7, 0x3e,
  0xfd, 0x24, 0xc0, 0x3e, 0x8c, 0xb9, 0xe2, 0x3e, 0xb8, 0x8a, 0xf2, 0xbe,
  0x6a, 0xfd, 0xda, 0xbe, 0xb5, 0xde, 0xf1, 0xbe, 0x57, 0xfa, 0x58, 0x3d,
  0xe9, 0x2c, 0xac, 0xbe, 0x39, 0x5b, 0xaa, 0x3e, 0x48, 0x4b, 0x6b, 0x3d,
  0x8a, 0x04, 0xb9, 0x3e, 0x17, 0x10, 0x1f, 0xbf, 0xa7, 0x3f, 0x6b, 0xbe,
  0x5e, 0xd7, 0xbb, 0x3d, 0xb8, 0xf0, 0x2b, 0x3e, 0x50, 0x6c, 0xc3, 0x3e,
  0x8c, 0x6f, 0x67, 0xbe, 0x6b, 0x9c, 0xc1, 0x3e, 0x7b, 0xcb, 0x8b, 0x3e,
  0x3c, 0x02, 0x17, 0xbf, 0xdd, 0xcc, 0xd9, 0xbe, 0xc7, 0x21, 0xcd, 0xbe,
  0x42, 0xa6, 0x62, 0x3e, 0x25, 0x40, 0x4f, 0xbd, 0x42, 0x22, 0xfb, 0x3e,
  0xb1, 0x01, 0xd8, 0xbd, 0xf2, 0x6d, 0x41, 0x3e, 0x35, 0x7f, 0x0d, 0xbf,
  0x6c, 0x04, 0x32, 0xbe, 0xba, 0xcb, 0x18, 0x3e, 0x19, 0x9b, 0x39, 0x3c,
  0xb3, 0x01, 0x97, 0x3e, 0xd8, 0x2c, 0xbf, 0xbd, 0xce, 0x75, 0xd5, 0x3d,
  0x43, 0x6f, 0xbc, 0x3e, 0x60, 0x30, 0x5b, 0xbb, 0x15, 0x90, 0xcb, 0xbe,
  0xdf, 0x27, 0x90, 0xbd, 0x90, 0x4c, 0x77, 0xbd, 0x30, 0x65, 0x52, 0x3d,
  0x9f, 0xd0, 0x30, 0x3f, 0xae, 0xb4, 0x96, 0x3d, 0x54, 0x76, 0x37, 0x3e,
  0x1d, 0x4c, 0xed, 0xbd, 0x1b, 0x8c, 0x6f, 0xbe, 0xd8, 0x1b, 0x9e, 0x3e,
  0x0d, 0x3d, 0x8d, 0x3d, 0xb0, 0xda, 0xd3, 0x3e, 0x3e, 0x65, 0x04, 0xbe,
  0x47, 0x4b, 0x15, 0x3f, 0xab, 0x48, 0x80, 0x3b, 0x7e, 0xa7, 0x76, 0xbd,
  0x15, 0x76, 0x41, 0xbe, 0xe3, 0x56, 0x37, 0x3e, 0x16, 0x2e, 0x79, 0xbe,
  0x5c, 0x25, 0x2f, 0xbe, 0x39, 0x6a, 0x84, 0x3e, 0x2b, 0x0b, 0xae, 0x3e,
  0xf5, 0x6c, 0x94, 0x3d, 0xa4, 0x49, 0x4b, 0xbd, 0x8e, 0x20, 0xf5, 0xbd,
  0x3b, 0x4e, 0xce, 0x3d, 0x1a, 0x50, 0x0d, 0xbe, 0xbb, 0xfd, 0x56, 0xbe,
  0xf3, 0x7b, 0xa0, 0xbb, 0xe7, 0x5b, 0x5f, 0xbc, 0x70, 0xea, 0x89, 0x3d,
  0x59, 0x97, 0x24, 0xbe, 0xa7, 0x8d, 0xd3, 0xbd, 0x6a, 0xad, 0x5a, 0x3c,
  0xfc, 0xf4, 0x8d, 0xbe, 0xc1, 0xd2, 0x8a, 0x3d, 0x72, 0x24, 0x15, 0x3e,
  0x50, 0xbf, 0x2e, 0x3e, 0x49, 0xa3, 0x01, 0x3e, 0xab, 0x17, 0x3e, 0x3d,
  0x00, 0x01, 0x27, 0x3e, 0x26, 0x55, 0xb9, 0x3d, 0xda, 0xff, 0x39, 0x3c,
  0x04, 0x89, 0x17, 0xbe, 0x84, 0xea, 0xf0, 0x3d, 0xfa, 0xfc, 0xc8, 0xbc,
  0xaf, 0x21, 0x7e, 0x3e, 0x01, 0x07, 0x49, 0x3d, 0x30, 0x2d, 0x92, 0xbc,
  0xb1, 0xbc, 0x27, 0x3e, 0x07, 0xa7, 0x0d, 0x3d, 0x45, 0x6f, 0x69, 0xbe,
  0xde, 0xe3, 0xb1, 0x3e, 0xea, 0x10, 0x11, 0x3e, 0x84, 0x56, 0x64, 0x3e,
  0x2b, 0x66, 0x85, 0xbc, 0x92, 0x02, 0xb6, 0x3d, 0xa8, 0x8a, 0x8b, 0xbc,
  0x45, 0x8b, 0x39, 0x3d, 0xd0, 0x1c, 0x09, 0x3f, 0x64, 0xef, 0x41, 0x3d,
  0xbb, 0x01, 0x34, 0x3e, 0xa4, 0x8a, 0xc9, 0xbe, 0xee, 0x8d, 0xd4, 0xbd,
  0x07, 0xe0, 0x93, 0x3e, 0x95, 0x92, 0x1d, 0xbe, 0x52, 0x53, 0x4c, 0x3e,
  0x01, 0x3b, 0xa7, 0x3d, 0xec, 0xc6, 0xc8, 0xbe, 0xc1, 0xe8, 0x41, 0x3e,
  0xad, 0x11, 0xb3, 0xbe, 0x7c, 0xaa, 0xae, 0x3d, 0xdd, 0xf3, 0xda, 0x3d,
  0x78, 0x69, 0x28, 0xbe, 0x3a, 0x88, 0x6b, 0xbe, 0xb0, 0x8e, 0xca, 0x3e,
  0x25, 0x70, 0x5f, 0x3d, 0x90, 0x7f, 0x8e, 0xbe, 0x68, 0x26, 0x57, 0xbe,
  0xb8, 0xf7, 0x29, 0xbe, 0x3a, 0xd9, 0xa7, 0xbd, 0x0b, 0x27, 0x98, 0x3b,
  0x36, 0xc2, 0x90, 0x3e, 0x5b, 0x2a, 0x62, 0x3e, 0x92, 0xc6, 0x42, 0xbe,
  0x26, 0xed, 0x9d, 0x3c, 0xa5, 0x70, 0x98, 0xbe, 0x08, 0x6f, 0x5c, 0x3e,
  0x6b, 0xb9, 0x02, 0x3e, 0x65, 0xa0, 0x15, 0xbe, 0x24, 0x37, 0x95, 0xbe,
  0x19, 0x53, 0x11, 0x3e, 0x8a, 0xca, 0x21, 0x3e, 0x34, 0x50, 0xc5, 0xbe,
  0x17, 0xf5, 0xc7, 0xbe, 0xab, 0x9c, 0x35, 0xbd, 0xc0, 0x35, 0x2d, 0x3e,
  0x6f, 0xa3, 0xfd, 0xbd, 0xa1, 0x13, 0xa9, 0x3e, 0x17, 0x67, 0x8f, 0x3e,
  0x65, 0x9c, 0x95, 0xbc, 0x18, 0xbb, 0x23, 0xb9, 0x96, 0x3e, 0x9c, 0xbe,
  0xbb, 0xf7, 0x86, 0xbc, 0xd1, 0xe1, 0xf8, 0x3d, 0x94, 0x54, 0x95, 0xbe,
  0x19, 0xd5, 0xef, 0xbc, 0x7b, 0xd5, 0x24, 0x3d, 0x7d, 0xcc, 0x58, 0x3e,
  0x95, 0x28, 0x2d, 0xbe, 0x23, 0x4b, 0xaa, 0xbe, 0x9d, 0x37, 0xf6, 0xbd,
  0x84, 0x8b, 0x53, 0xbc, 0x64, 0x3f, 0x5d, 0xbd, 0x32, 0x65, 0xf3, 0x3d,
  0x6a, 0x3a, 0x61, 0x3e, 0x0b, 0xa6, 0x97, 0xbe, 0x6a, 0xa8, 0xf0, 0x3d,
  0x69, 0x74, 0xfb, 0xbe, 0xba, 0xfd, 0x02, 0x3e, 0x46, 0x99, 0xc9, 0xbd,
  0x26, 0x75, 0xff, 0xbd, 0x26, 0x7f, 0xb6, 0xbe, 0xb6, 0x2f, 0x99, 0x3c,
  0x9d, 0xdd, 0x20, 0x3e, 0x8d, 0x45, 0x87, 0x3d, 0x78, 0xd2, 0x2a, 0xbe,
  0x45, 0x19, 0xa6, 0xbd, 0xf9, 0x45, 0x91, 0x3d, 0xb0, 0xaf, 0x29, 0xbd,
  0xfe, 0x12, 0x13, 0x3e, 0xd3, 0x01, 0x6c, 0x3e, 0xac, 0xd1, 0xa8, 0xbe,
  0xf5, 0xb7, 0xdb, 0x3c, 0x6f, 0xc5, 0xb2, 0xbe, 0xc2, 0x6d, 0x74, 0x3d,
  0x51, 0x6d, 0x5a, 0xbe, 0xcc, 0x00, 0x10, 0x3e, 0x46, 0xfa, 0xb8, 0xbe,
  0x0e, 0xa8, 0x19, 0xbd, 0x2d, 0x3d, 0x5a, 0x3d, 0xdc, 0x76, 0xb7, 0x3c,
  0xe8, 0x47, 0x15, 0xbe, 0xe4, 0xf6, 0x64, 0xbe, 0xb5, 0x57, 0x1a, 0x3e,
  0x27, 0x6c, 0x8e, 0x3a, 0x15, 0xa7, 0xa3, 0x3e, 0x87, 0xfb, 0x84, 0x3e,
  0xbe, 0x10, 0x8c, 0xbd, 0x70, 0x5b, 0x78, 0xbd, 0x81, 0xa0, 0x99, 0xbe,
  0x92, 0x69, 0x9a, 0xbd, 0xa9, 0xd5, 0x98, 0xbd, 0xe7, 0x88, 0x4e, 0x3d,
  0xf1, 0x40, 0xdb, 0xbe, 0x4b, 0x96, 0xb6, 0x3d, 0xd0, 0x69, 0xf6, 0x3d,
  0x40, 0xc7, 0x15, 0xbe, 0x3f, 0x07, 0x87, 0xbc, 0x50, 0x55, 0x36, 0xbd,
  0x80, 0xa5, 0x71, 0x3d, 0xda, 0x48, 0x99, 0xbd, 0xad, 0xe5, 0x17, 0x3e,
  0xa2, 0xb8, 0x2c, 0x3e, 0xb1, 0x54, 0x51, 0x3e, 0xaa, 0x59, 0x40, 0x3e,
  0xdc, 0x14, 0x82, 0xbd, 0x4c, 0xe4, 0x2b, 0x3e, 0x79, 0xc1, 0x5d, 0xbd,
  0x57, 0x7b, 0x8c, 0x3d, 0xc6, 0xef, 0xba, 0x3d, 0x92, 0x2a, 0xb1, 0x3e,
  0xd1, 0x74, 0x08, 0x3e, 0xe6, 0xf6, 0x54, 0x3d, 0x21, 0x5d, 0xda, 0xbc,
  0xbe, 0x94, 0x73, 0xbd, 0x02, 0x44, 0x56, 0x3d, 0xb1, 0x60, 0xef, 0x3d,
  0xab, 0xb5, 0x3d, 0x3e, 0x68, 0x82, 0xb9, 0x3e, 0x6f, 0x3c, 0xef, 0x3d,
  0x0c, 0xba, 0xdb, 0x3d, 0x65, 0xe3, 0xb0, 0x3a, 0x1a, 0xdd, 0x38, 0x3e,
  0xb5, 0xbc, 0xc1, 0xbd, 0xb6, 0xc6, 0x8b, 0xbd, 0x47, 0x45, 0x26, 0xbc,
  0xfa, 0x73, 0x7a, 0x3e, 0xf7, 0x6b, 0x10, 0xba, 0xd0, 0xba, 0x3b, 0xbb,
  0x6d, 0xca, 0x43, 0xbe, 0x33, 0x9e, 0x57, 0xbe, 0xf8, 0x27, 0xd5, 0xbe,
  0x61, 0xa2, 0x2c, 0xbf, 0x33, 0xdf, 0x23, 0xbe, 0x67, 0x1b, 0xd4, 0xbd,
  0x2a, 0x94, 0xfb, 0xbe, 0xee, 0xae, 0xa6, 0xbe, 0xf8, 0xcb, 0xc0, 0xbe,
  0x28, 0xa2, 0x0d, 0xbd, 0x69, 0xfb, 0x16, 0xbf, 0xd8, 0x28, 0x9d, 0xbe,
  0x49, 0x5d, 0xe4, 0xbe, 0x43, 0x12, 0xb1, 0xbd, 0xad, 0x62, 0xf2, 0xbe,
  0x20, 0x65, 0xbb, 0xbe, 0x35, 0x05, 0x88, 0x3d, 0x35, 0xee, 0x82, 0xbd,
  0x71, 0x21, 0x72, 0xbd, 0xc8, 0xaa, 0x9d, 0x3d, 0x2d, 0x06, 0x0e, 0xbd,
  0x35, 0xfd, 0x7a, 0x3e, 0xf4, 0x84, 0x87, 0x3d, 0xcc, 0x38, 0x06, 0x3e,
  0xf7, 0x5b, 0xd7, 0xbd, 0xd3, 0xd4, 0x93, 0x3d, 0xb9, 0x7a, 0x91, 0xbc,
  0xf3, 0x48, 0x10, 0xbd, 0x90, 0x1e, 0xa6, 0xbc, 0x89, 0x9b, 0xfa, 0x3d,
  0xb6, 0x2a, 0x8e, 0x3d, 0xe0, 0x88, 0xe6, 0x3d, 0x02, 0x6b, 0x47, 0x3c,
  0xaf, 0x41, 0x9d, 0xbd, 0xc6, 0x14, 0x29, 0x3d, 0x3b, 0xe3, 0x10, 0x3e,
  0x0a, 0x62, 0xde, 0x3d, 0xce, 0xe9, 0x27, 0x3e, 0x43, 0x80, 0x88, 0xbd,
  0x8b, 0xa3, 0x40, 0x3d, 0x6f, 0x09, 0x2a, 0xbd, 0x4c, 0x60, 0x94, 0x3d,
  0x6b, 0xee, 0x52, 0xbb, 0x82, 0x2a, 0x05, 0x3e, 0xcf, 0x49, 0x8d, 0xbd,
  0x1f, 0x3e, 0x61, 0x3e, 0x2d, 0x04, 0xc4, 0x3d, 0xf9, 0xf5, 0x4b, 0x3d,
  0xae, 0xe1, 0xb3, 0xbe, 0x75, 0x00, 0x0e, 0xbf, 0xab, 0x4c, 0x2b, 0xbd,
  0x4b, 0xec, 0xae, 0xbe, 0x6b, 0x65, 0x74, 0xbd, 0x13, 0x40, 0x65, 0xbe,
  0x51, 0xbf, 0x08, 0xbf, 0xba, 0xb6, 0x08, 0xbf, 0xb0, 0x8b, 0xb6, 0xbe,
  0x36, 0x05, 0xbc, 0xbe, 0xba, 0x2f, 0x05, 0xbf, 0xb0, 0x01, 0x76, 0xbe,
  0x9b, 0x68, 0xf0, 0xbe, 0x7c, 0x42, 0x7e, 0x3c, 0x8f, 0x49, 0xd6, 0xbe,
  0xf4, 0x44, 0x98, 0xbe, 0x3f, 0x03, 0xe2, 0xbe, 0xf4, 0x34, 0xb7, 0x3e,
  0x5a, 0x6d, 0x05, 0xbd, 0x1a, 0x30, 0x7c, 0x3d, 0x94, 0xf0, 0xfe, 0x3c,
  0xb9, 0xd6, 0x0c, 0xbd, 0xcd, 0x7d, 0x05, 0xbf, 0x10, 0xd1, 0x18, 0x3d,
  0x3e, 0x38, 0xfa, 0xbe, 0xbb, 0x86, 0x4a, 0x3e, 0x69, 0x2c, 0x0f, 0x3d,
  0x23, 0x1a, 0x0b, 0xbe, 0xe8, 0xb7, 0xb8, 0xbe, 0x92, 0xae, 0x73, 0x3e,
  0x38, 0x69, 0xa3, 0x3d, 0x1e, 0xf6, 0x45, 0xbf, 0x10, 0x03, 0x2f, 0xbf,
  0x66, 0xdf, 0xa4, 0x3e, 0xa1, 0x72, 0x31, 0x3e, 0x0a, 0x7a, 0x1f, 0xbe,
  0xfa, 0x49, 0xa5, 0xbd, 0x4c, 0xdb, 0x76, 0x3d, 0xc3, 0xf1, 0x68, 0xbe,
  0xd4, 0x27, 0xa8, 0x3d, 0xfd, 0xaf, 0x92, 0xbe, 0x22, 0x08, 0xf4, 0x3d,
  0x00, 0xd9, 0x67, 0x3e, 0x86, 0x7d, 0xba, 0xbe, 0x45, 0x0d, 0xa9, 0xbd,
  0x20, 0xe7, 0x96, 0x3e, 0xda, 0xc8, 0x21, 0x3e, 0x8b, 0x9f, 0x1f, 0xbf,
  0xd9, 0xac, 0xc6, 0xbd, 0xc1, 0xcd, 0xb9, 0x3d, 0x5d, 0x13, 0xd9, 0x3d,
  0xc5, 0x4b, 0xb7, 0x3d, 0xf6, 0xb6, 0x8a, 0xbd, 0x97, 0x32, 0xe4, 0x3d,
  0x0d, 0x48, 0xac, 0xbe, 0x74, 0x22, 0x4d, 0x3e, 0x47, 0xe6, 0x08, 0xbe,
  0xf3, 0x17, 0xc8, 0xbb, 0x80, 0x89, 0x12, 0x3e, 0x8d, 0xb2, 0x4e, 0xbd,
  0x8d, 0x3b, 0xd6, 0xbc, 0x4a, 0x8c, 0x34, 0x3d, 0x61, 0x7f, 0x23, 0x3e,
  0x65, 0xa8, 0x28, 0xbe, 0x5e, 0x3c, 0x05, 0xbd, 0x1f, 0x2b, 0xfb, 0x3d,
  0x00, 0x44, 0x0d, 0x3d, 0x32, 0x86, 0x93, 0x3e, 0x12, 0x2f, 0x10, 0x3e,
  0x3a, 0x1d, 0xba, 0x3c, 0x1a, 0xb9, 0xb9, 0xbe, 0x3e, 0x70, 0x19, 0x3e,
  0xed, 0x1a, 0x30, 0xbe, 0xf3, 0x1c, 0x93, 0xbd, 0x5d, 0xbd, 0xb4, 0x3d,
  0xfd, 0x1c, 0x20, 0x3e, 0x8a, 0xd4, 0x58, 0xbe, 0xa3, 0xf7, 0x4a, 0x3e,
  0x6a, 0xef, 0xb9, 0xbd, 0xee, 0x09, 0x99, 0x3c, 0x3c, 0xc4, 0x86, 0xbd,
  0xb1, 0x6a, 0x80, 0x3d, 0x89, 0x21, 0x3a, 0x3e, 0x54, 0xe9, 0xbe, 0xbc,
  0x8f, 0x3b, 0x9c, 0x3e, 0x91, 0x3d, 0x0a, 0x3d, 0x79, 0xa9, 0xbf, 0xbe,
  0xb1, 0x4f, 0x83, 0x3c, 0xaa, 0x7c, 0xa3, 0x3c, 0x32, 0x3f, 0x4d, 0xbc,
  0x99, 0x0c, 0x2b, 0xbe, 0xc4, 0x66, 0x1b, 0x3e, 0x46, 0x81, 0x1e, 0xbe,
  0x9a, 0xd7, 0x22, 0x3e, 0xb8, 0xca, 0x47, 0x3d, 0xbd, 0x25, 0xa4, 0xbd,
  0xd2, 0x11, 0x93, 0xbd, 0x98, 0x86, 0xb1, 0x3d, 0x60, 0x0a, 0x8c, 0x3d,
  0x67, 0x8d, 0x67, 0x3e, 0xe1, 0xdc, 0x3c, 0x3e, 0xc8, 0x9e, 0x08, 0x3e,
  0xce, 0xed, 0x1c, 0xbe, 0x27, 0x4c, 0xdd, 0x3d, 0xd1, 0xe5, 0xef, 0x3d,
  0x4a, 0xd2, 0xbe, 0xbd, 0x54, 0x28, 0x3a, 0x3e, 0xbd, 0x32, 0x05, 0xbd,
  0x99, 0x25, 0x1a, 0xbd, 0x2e, 0xbf, 0x0d, 0x3e, 0xd3, 0x2e, 0x4b, 0x3b,
  0xca, 0xde, 0xf9, 0xbd, 0x0b, 0xfa, 0x50, 0x3e, 0x8a, 0x8b, 0x54, 0xbe,
  0x4d, 0xe2, 0x2d, 0xbe, 0x04, 0x78, 0x15, 0xbd, 0xd0, 0xd2, 0x1c, 0xbf,
  0xb3, 0x6f, 0x02, 0xbe, 0x3a, 0x7f, 0xc0, 0x3d, 0x0b, 0xed, 0x16, 0xba,
  0x52, 0xc2, 0x0f, 0x3e, 0xb0, 0x0f, 0x91, 0x3c, 0x20, 0x8b, 0x53, 0x3c,
  0x93, 0x34, 0x26, 0x3e, 0x1f, 0xea, 0xd4, 0xbc, 0xda, 0x1d, 0x3a, 0xbf,
  0xbd, 0xcf, 0x26, 0xbe, 0x5c, 0xdf, 0x75, 0xbd, 0xb8, 0x5b, 0x5a, 0xbc,
  0x9a, 0x8c, 0x96, 0xbc, 0xbd, 0xa7, 0x28, 0x3c, 0x24, 0xe0, 0x32, 0xbe,
  0x3a, 0x69, 0xe1, 0xbe, 0x7c, 0x3b, 0x0b, 0xbe, 0xf2, 0xa9, 0xcd, 0xbd,
  0xa2, 0xf9, 0xa7, 0xbd, 0x07, 0x22, 0x53, 0x3e, 0x4c, 0x21, 0x0b, 0xbc,
  0x8f, 0xcc, 0x1c, 0x3e, 0x13, 0x04, 0xb0, 0x3d, 0x3e, 0x07, 0xca, 0x3d,
  0x27, 0x7b, 0x81, 0xbe, 0x8f, 0xfc, 0x1f, 0xbe, 0xd5, 0xd7, 0x1d, 0xbd,
  0x89, 0xdc, 0x6d, 0xbe, 0x89, 0xbe, 0x83, 0xbd, 0x44, 0x8d, 0x3c, 0x3e,
  0xa0, 0x6a, 0x1d, 0xbe, 0x49, 0x38, 0x0d, 0xbf, 0xce, 0x67, 0x24, 0x3e,
  0x04, 0xe2, 0x9e, 0xbd, 0x1b, 0x00, 0x86, 0x3d, 0xde, 0xb5, 0x97, 0xbd,
  0x3c, 0xe2, 0xcb, 0x3d, 0xe7, 0xd0, 0x5c, 0xbd, 0x6e, 0xf1, 0x5a, 0xbd,
  0xa6, 0xfd, 0x2f, 0x3e, 0x69, 0x02, 0xf6, 0xbe, 0xd6, 0xf2, 0x52, 0x3c,
  0x5a, 0x29, 0x10, 0xbf, 0x1a, 0x01, 0xbb, 0x3d, 0xad, 0x47, 0xa1, 0xbd,
  0xf9, 0xe6, 0x6c, 0xbd, 0x8d, 0x7d, 0xf4, 0x3c, 0xb2, 0xe1, 0xce, 0xbd,
  0x48, 0xb8, 0x1f, 0xbe, 0x91, 0x43, 0x02, 0xbe, 0xf7, 0xda, 0x00, 0x3e,
  0xb1, 0xf2, 0xe9, 0x3d, 0x5d, 0x4b, 0x58, 0xbb, 0x8a, 0xc3, 0x69, 0x3e,
  0x54, 0x9e, 0xbf, 0xbc, 0xfc, 0xbb, 0xa3, 0x3e, 0xaf, 0x86, 0x34, 0xbe,
  0x56, 0x47, 0xac, 0x3b, 0xf8, 0x52, 0x6e, 0x3d, 0xa5, 0x55, 0xff, 0xbc,
  0xf0, 0x28, 0x19, 0xbe, 0x58, 0x6d, 0x51, 0xbd, 0xd9, 0x3f, 0x74, 0xbe,
  0x4f, 0xe0, 0x99, 0x3d, 0x32, 0x2a, 0xfc, 0xbd, 0x21, 0xd2, 0x5f, 0x3e,
  0x47, 0x3d, 0x0e, 0x3e, 0x36, 0x9e, 0xb3, 0xbd, 0x9a, 0xf2, 0xf0, 0xbc,
  0x20, 0x36, 0x2d, 0x3d, 0x3e, 0xe3, 0xc7, 0x3d, 0x98, 0xb8, 0xaf, 0x3e,
  0x45, 0x20, 0x4e, 0x3e, 0x66, 0x22, 0xf2, 0x3d, 0xfa, 0xf6, 0xc4, 0xbd,
  0x90, 0xff, 0x4f, 0xbd, 0x06, 0x35, 0x36, 0xbc, 0xad, 0x57, 0xab, 0xbd,
  0x5c, 0x65, 0x01, 0xbe, 0x53, 0x6c, 0xaa, 0xbe, 0xe3, 0xc3, 0xbb, 0xbd,
  0xcc, 0x75, 0xce, 0x3d, 0x8d, 0x81, 0x0d, 0xbe, 0x0f, 0x1d, 0x62, 0xbd,
  0xc2, 0x79, 0x24, 0x3d, 0x8d, 0x04, 0x23, 0xbe, 0x83, 0x1d, 0x4f, 0x3d,
  0xdf, 0x42, 0x35, 0xbd, 0x7d, 0xa6, 0x50, 0xbf, 0x71, 0x37, 0x3f, 0xbe,
  0x19, 0x48, 0x7b, 0xbd, 0xfa, 0x69, 0x06, 0xbf, 0x53, 0xa9, 0xc2, 0x3d,
  0xbd, 0x40, 0x7d, 0x3e, 0x08, 0xcf, 0x04, 0xbe, 0xf4, 0x85, 0x0a, 0x3e,
  0x17, 0x69, 0xa1, 0x3e, 0xa6, 0x1b, 0xed, 0xbd, 0x8b, 0xad, 0xa3, 0xbc,
  0x94, 0x12, 0xd9, 0xbe, 0x1d, 0x84, 0x6c, 0x3d, 0xb8, 0x13, 0x13, 0x3e,
  0x34, 0xbb, 0x9f, 0xbe, 0xb1, 0x28, 0xbc, 0xbc, 0x75, 0xa2, 0xf5, 0x3b,
  0x13, 0x74, 0x7f, 0x3e, 0xcd, 0xb7, 0xa6, 0xbe, 0x56, 0x25, 0x09, 0xbf,
  0xb4, 0x15, 0xaf, 0x3d, 0xca, 0xfe, 0x31, 0x3e, 0xe7, 0xd1, 0x55, 0xbd,
  0x9b, 0x67, 0x80, 0x3e, 0x37, 0x5c, 0x53, 0x3e, 0x62, 0x90, 0xc4, 0xbe,
  0x09, 0x9c, 0xec, 0x3d, 0xd9, 0xd8, 0xd9, 0xbe, 0x8c, 0xc5, 0xb8, 0x3d,
  0x33, 0xf3, 0xb2, 0xbd, 0x6e, 0xb9, 0x84, 0xbe, 0x3a, 0xd7, 0x60, 0xbd,
  0x66, 0x25, 0xde, 0xbd, 0x85, 0x1c, 0xc8, 0x3d, 0xa6, 0x61, 0x17, 0xbf,
  0x5c, 0xd2, 0x06, 0xbf, 0x88, 0x09, 0xb1, 0x3d, 0x67, 0x90, 0x61, 0x3d,
  0x35, 0x62, 0x37, 0x3c, 0x1a, 0x2f, 0xad, 0x3e, 0x60, 0x8b, 0x13, 0x3e,
  0x89, 0xc9, 0x32, 0xbe, 0xd9, 0x0b, 0x55, 0x3e, 0x22, 0xc9, 0x3f, 0xbe,
  0xff, 0x62, 0x95, 0x3b, 0x28, 0x7a, 0x21, 0xbe, 0xe0, 0x2b, 0x3f, 0xbe,
  0x0e, 0x53, 0x4b, 0xbe, 0x1a, 0xf7, 0x68, 0x3e, 0x6b, 0x70, 0x12, 0x3e,
  0xb5, 0xd7, 0x9c, 0xbe, 0x75, 0x8b, 0x93, 0xbd, 0x23, 0xaf, 0x42, 0x3e,
  0xd3, 0x09, 0x9b, 0x3d, 0x10, 0xca, 0x33, 0xbb, 0x21, 0x22, 0x13, 0x3d,
  0x3c, 0xfc, 0xaa, 0x3e, 0x54, 0xe4, 0xbc, 0xbe, 0x7e, 0xb0, 0x84, 0xbd,
  0xd9, 0x48, 0x64, 0xbe, 0xd3, 0x30, 0x8c, 0xbd, 0x82, 0x07, 0xbf, 0x3d,
  0x3b, 0xa2, 0x45, 0x3c, 0x1f, 0x69, 0x9b, 0xbe, 0x62, 0xc6, 0x0d, 0x3e,
  0x78, 0x6d, 0xcb, 0xbd, 0x54, 0x80, 0x31, 0x3d, 0x90, 0x7c, 0x67, 0xbe,
  0x27, 0x62, 0x6b, 0xbc, 0x8e, 0x6d, 0x89, 0x3d, 0xb4, 0xa1, 0x50, 0x3e,
  0x5e, 0x1d, 0xb9, 0xbd, 0x78, 0x64, 0x0a, 0x3e, 0x6d, 0xba, 0xd8, 0xbe,
  0x5b, 0x10, 0x45, 0xbe, 0xf4, 0x78, 0x17, 0xbe, 0xc5, 0x08, 0x98, 0x3d,
  0xdf, 0x37, 0xaf, 0x3d, 0xef, 0x6f, 0xcc, 0xbc, 0x9a, 0xce, 0xcf, 0xbe,
  0xfe, 0x77, 0x97, 0x3d, 0x02, 0xce, 0x76, 0x3c, 0xe8, 0xa8, 0x48, 0x3d,
  0xef, 0xce, 0x28, 0xbe, 0xee, 0x4f, 0x70, 0x3c, 0xea, 0xc1, 0xc0, 0xbc,
  0x0e, 0x04, 0x75, 0x3d, 0x44, 0x7c, 0x4d, 0x3e, 0x80, 0x14, 0x0a, 0x3e,
  0x1e, 0xa8, 0xcd, 0xbe, 0x2c, 0x98, 0xa7, 0xbd, 0x54, 0x93, 0x24, 0xbe,
  0x3e, 0x2e, 0xaa, 0xbd, 0x2a, 0xd3, 0x83, 0x3d, 0x2d, 0x44, 0x2e, 0x3e,
  0x84, 0xe9, 0x24, 0xbe, 0x74, 0x23, 0x3c, 0x3e, 0x05, 0x91, 0x86, 0x3e,
  0xc5, 0xfd, 0x07, 0x3d, 0x4e, 0x2b, 0xb5, 0x3e, 0x80, 0xf9, 0xe3, 0x3d,
  0xf1, 0x18, 0xbc, 0x3c, 0x47, 0x7d, 0x1b, 0x3e, 0x90, 0xf6, 0x11, 0xbe,
  0x7d, 0x96, 0x6f, 0x3c, 0x5b, 0x76, 0x06, 0x3f, 0x05, 0x32, 0x53, 0x3e,
  0xb0, 0xf1, 0xf7, 0x3d, 0xb8, 0x5e, 0xe9, 0xbd, 0x48, 0x82, 0xc4, 0xbd,
  0x53, 0x85, 0x3c, 0x3e, 0xa4, 0x43, 0x93, 0x3c, 0xa2, 0x04, 0xe1, 0x3d,
  0x26, 0x14, 0xc9, 0x3d, 0x7e, 0x69, 0xf3, 0x3e, 0x83, 0xb8, 0xb1, 0x3e,
  0x5a, 0x1e, 0xcb, 0xbb, 0x45, 0x3d, 0x6e, 0x3d, 0x08, 0x72, 0x45, 0x3e,
  0x0f, 0xbe, 0x24, 0xbe, 0xa3, 0xa7, 0xcd, 0xbb, 0x76, 0x1d, 0xc4, 0x3e,
  0x7c, 0x76, 0x2d, 0x3e, 0x82, 0x44, 0x9d, 0x3e, 0x13, 0x77, 0x07, 0xbe,
  0x84, 0x0e, 0xf8, 0xbd, 0xbd, 0xc4, 0x3b, 0x3e, 0xaa, 0x63, 0x0d, 0xbe,
  0xf0, 0x74, 0x03, 0x3e, 0xb5, 0x7c, 0x4b, 0x3d, 0x93, 0xc2, 0xfa, 0x3e,
  0xfd, 0xcc, 0x88, 0x3e, 0x34, 0xe1, 0x24, 0xbe, 0x1d, 0xde, 0xd1, 0xbc,
  0x4f, 0xf5, 0xea, 0x3c, 0xd3, 0xbe, 0x16, 0xbe, 0xd9, 0x05, 0x69, 0x3d,
  0x11, 0x60, 0x9a, 0x3e, 0x13, 0x6b, 0x34, 0x3d, 0x59, 0xd9, 0x80, 0x3e,
  0x29, 0x50, 0x3b, 0xbd, 0x5d, 0xbb, 0x85, 0x3d, 0x9f, 0x7a, 0xae, 0x3d,
  0x5a, 0x24, 0x4b, 0xbd, 0x5a, 0x03, 0x8b, 0xbc, 0x28, 0x0a, 0x8c, 0xbb,
  0x77, 0x9e, 0xb6, 0x3e, 0xe1, 0xac, 0x1e, 0x3e, 0x86, 0xb2, 0x20, 0xbe,
  0x06, 0xdd, 0xab, 0xbe, 0xef, 0x39, 0x9a, 0xbe, 0x47, 0x19, 0x9a, 0xbe,
  0x1c, 0xfa, 0x9c, 0xbe, 0x15, 0x82, 0xe5, 0x3e, 0xce, 0x66, 0xe0, 0xbd,
  0x2a, 0x3e, 0x3f, 0xbd, 0x96, 0x62, 0x21, 0x3d, 0x0d, 0x20, 0x5f, 0xb9,
  0x50, 0x67, 0x8c, 0xbe, 0x91, 0x56, 0x01, 0x3e, 0x86, 0x0e, 0x46, 0x3e,
  0x39, 0x33, 0x38, 0xbe, 0x54, 0x69, 0x5c, 0x3e, 0xae, 0xef, 0x21, 0xbd,
  0x81, 0x90, 0xe2, 0x3a, 0x33, 0x0e, 0x52, 0xbe, 0x9d, 0x88, 0xba, 0xbe,
  0x65, 0x62, 0x0c, 0xbe, 0x0c, 0x60, 0x85, 0xbe, 0x0c, 0xa5, 0x9c, 0x3e,
  0xc9, 0x8c, 0x05, 0xbe, 0xf6, 0x26, 0xff, 0x3d, 0x91, 0x9b, 0x11, 0xbd,
  0xdd, 0xff, 0xdf, 0xbd, 0x3a, 0x96, 0x8d, 0xbe, 0xf2, 0xc2, 0xe7, 0x3d,
  0x5b, 0xcd, 0x6b, 0x3e, 0x25, 0x76, 0x3c, 0xbe, 0x22, 0x1e, 0xa6, 0x3e,
  0x3a, 0xc9, 0x7d, 0x3e, 0x63, 0x4f, 0x30, 0xbe, 0x64, 0x14, 0x27, 0xbe,
  0xd2, 0x90, 0x07, 0xbd, 0x9b, 0xb0, 0xe2, 0xbd, 0x4d, 0x82, 0xb1, 0x3b,
  0xb9, 0xdf, 0xd1, 0x3e, 0x60, 0x7b, 0xec, 0xbc, 0xd8, 0x42, 0x01, 0x3e,
  0x15, 0x0e, 0x42, 0xbe, 0x8a, 0xd2, 0x8b, 0xbc, 0xa8, 0xbd, 0x98, 0xbc,
  0x03, 0xcf, 0xf5, 0x3d, 0x32, 0xf7, 0x51, 0x3e, 0xfc, 0xfb, 0x65, 0xbd,
  0x4f, 0xa8, 0x83, 0x3e, 0x98, 0xaf, 0x24, 0x3d, 0x3a, 0x2c, 0xa0, 0xbc,
  0xc5, 0x47, 0x12, 0x3e, 0xfd, 0x52, 0xa4, 0x3e, 0x7a, 0xaf, 0x63, 0xbf,
  0xcd, 0xfd, 0xf9, 0xbe, 0xd5, 0x94, 0x64, 0xbd, 0x32, 0x96, 0x41, 0xbb,
  0xe6, 0x71, 0x9a, 0x3d, 0x98, 0x53, 0x84, 0x3e, 0x0f, 0x8b, 0xbe, 0xbd,
  0xcf, 0x72, 0x1f, 0x3e, 0x76, 0x44, 0x88, 0x3e, 0x43, 0xfe, 0x68, 0xbf,
  0x9f, 0xd0, 0x04, 0xbd, 0x85, 0xb7, 0x12, 0xbe, 0x5e, 0x6b, 0xd4, 0xbd,
  0x70, 0xf4, 0xbe, 0xbe, 0x8d, 0x17, 0x5f, 0xbe, 0x81, 0x9e, 0xe6, 0xbc,
  0x3a, 0x28, 0x28, 0x3d, 0xae, 0x92, 0xdb, 0xbd, 0x6e, 0x61, 0xe1, 0xbd,
  0xd9, 0x99, 0x02, 0xbd, 0x53, 0xee, 0x5f, 0xbd, 0x53, 0x85, 0xe9, 0xbd,
  0x45, 0xb7, 0x11, 0xbe, 0xf7, 0x5d, 0xd2, 0x3d, 0xe8, 0x34, 0x7e, 0x3e,
  0x40, 0xd4, 0xc9, 0x3e, 0xba, 0xef, 0xf3, 0xbd, 0x68, 0xc4, 0xf6, 0xbe,
  0xff, 0x75, 0xa4, 0xbb, 0x20, 0x82, 0x40, 0xbe, 0xa8, 0x17, 0x2f, 0x3d,
  0xfa, 0x8d, 0xa7, 0xbe, 0x71, 0xd4, 0xef, 0xbe, 0xd7, 0x18, 0x89, 0xbe,
  0xd1, 0x54, 0x09, 0xbe, 0x3c, 0xb6, 0x9d, 0xbd, 0xcd, 0xf4, 0x51, 0x3d,
  0x42, 0x25, 0x25, 0x3c, 0xf7, 0x9b, 0xcd, 0xbd, 0xd5, 0xcb, 0xc8, 0x3c,
  0x04, 0xe1, 0x42, 0x3d, 0x80, 0xa3, 0xb6, 0xbe, 0x72, 0xf7, 0x4f, 0xbe,
  0x10, 0x26, 0xb8, 0xbe, 0x3a, 0x90, 0xf0, 0x3c, 0x60, 0x30, 0xe6, 0x3d,
  0x3d, 0x1d, 0x45, 0x3e, 0x92, 0x57, 0x15, 0x3e, 0x36, 0xb8, 0xa3, 0xbe,
  0xdc, 0x8c, 0xa3, 0xbd, 0x79, 0x0d, 0x0c, 0x3d, 0xc3, 0x22, 0xe6, 0x3c,
  0x38, 0x9a, 0x02, 0x3d, 0x08, 0xba, 0x21, 0x3c, 0x57, 0x1b, 0xc8, 0x3d,
  0x21, 0xdf, 0x96, 0x3d, 0xd2, 0x25, 0x10, 0x3d, 0x78, 0x77, 0xf7, 0xbe,
  0x47, 0xe5, 0x25, 0x3d, 0xae, 0xe2, 0x63, 0x3d, 0x9e, 0x3f, 0x10, 0xbe,
  0x26, 0xa0, 0xc6, 0x3d, 0x3b, 0x94, 0x23, 0x3e, 0x2e, 0xb5, 0x1b, 0xbe,
  0xcc, 0x60, 0x85, 0x3e, 0x1e, 0xd2, 0x9e, 0x3e, 0x74, 0xd9, 0x05, 0xbe,
  0x4a, 0x74, 0xb5, 0x3d, 0x78, 0xa5, 0x26, 0xbe, 0xca, 0x46, 0xa3, 0xbc,
  0xd2, 0x2e, 0x3a, 0x3c, 0xed, 0x88, 0x48, 0x3c, 0x8f, 0x4e, 0x54, 0xbe,
  0xbf, 0x10, 0x90, 0x3e, 0x58, 0xe2, 0x79, 0x3d, 0x2c, 0xbf, 0xf3, 0x3d,
  0x13, 0xfe, 0x9a, 0x3d, 0xce, 0xb1, 0x88, 0xbd, 0x01, 0xa8, 0xfb, 0xbb,
  0x30, 0xde, 0x08, 0xbd, 0x6e, 0x9d, 0x00, 0xbe, 0x68, 0x3b, 0xb1, 0xbd,
  0x27, 0x79, 0xb2, 0x3d, 0x1c, 0x6f, 0xbe, 0x3d, 0xf3, 0xa6, 0xec, 0x3d,
  0x8b, 0xf6, 0xe6, 0xbd, 0x8f, 0x5d, 0x84, 0xbd, 0x3a, 0x7f, 0x93, 0xbd,
  0x73, 0x2b, 0x2c, 0x3e, 0x22, 0x7c, 0xa1, 0xbd, 0x3f, 0x86, 0x00, 0x3c,
  0x9b, 0x37, 0x85, 0xbc, 0x28, 0x1d, 0x64, 0xbe, 0x9d, 0xc2, 0x06, 0x3e,
  0xb9, 0x8f, 0xc3, 0x3d, 0xa3, 0x5b, 0x01, 0xbe, 0xe6, 0x4d, 0x05, 0xbf,
  0xd3, 0x9a, 0xed, 0xbc, 0xc3, 0xd8, 0xeb, 0xbe, 0xb5, 0xfc, 0xbf, 0x3e,
  0xb0, 0x0b, 0xaf, 0xbe, 0x1e, 0xae, 0x7a, 0x3e, 0xe2, 0xc8, 0xaa, 0x3e,
  0x1b, 0xe2, 0x0f, 0xbe, 0xe4, 0xf4, 0xd1, 0x3d, 0x67, 0x77, 0xaa, 0x3e,
  0xaa, 0xc0, 0x07, 0xbe, 0xb2, 0x12, 0x1f, 0xbf, 0xd9, 0xcc, 0xe4, 0xbe,
  0x11, 0x04, 0xcb, 0x3c, 0x93, 0x47, 0xaf, 0xbe, 0x71, 0x2e, 0x9e, 0xbd,
  0xab, 0xb2, 0xd1, 0xbe, 0xe6, 0x05, 0x9b, 0xbe, 0x68, 0xb4, 0xc3, 0xbd,
  0x19, 0xdb, 0x4e, 0x3e, 0xab, 0x11, 0x95, 0xbe, 0x19, 0xb3, 0xce, 0x3e,
  0x31, 0xb6, 0x51, 0x3e, 0xe4, 0xc1, 0x6d, 0x3b, 0xba, 0xb1, 0x09, 0x3e,
  0x21, 0xe3, 0x5a, 0x3c, 0x27, 0x13, 0x21, 0xbe, 0x8d, 0xdf, 0x41, 0xbf,
  0x00, 0xb6, 0xea, 0xbe, 0xfc, 0x7d, 0x9e, 0x3d, 0xdf, 0xa5, 0x8a, 0xbd,
  0x5a, 0xfe, 0xfb, 0xbc, 0x3b, 0xcd, 0x49, 0xbf, 0xc9, 0xba, 0x00, 0xbe,
  0x76, 0x8d, 0x0a, 0xbf, 0xe8, 0xe7, 0x9f, 0x3e, 0x84, 0xa1, 0x78, 0xbe,
  0x9a, 0x47, 0x3d, 0x3c, 0x74, 0x46, 0x0b, 0x3e, 0x9f, 0x3f, 0x9d, 0xbe,
  0x43, 0xaf, 0xd7, 0x3d, 0x73, 0x43, 0xf8, 0xbe, 0xfc, 0x2a, 0x16, 0xbc,
  0x3b, 0x42, 0x47, 0xbf, 0xf9, 0x85, 0xe2, 0xbd, 0x83, 0x58, 0xbc, 0xbd,
  0x01, 0x4d, 0xb1, 0x3c, 0x97, 0x86, 0x5c, 0x3e, 0xaf, 0xf0, 0x0b, 0x3e,
  0xcf, 0xd0, 0xe2, 0xbd, 0xc0, 0xc1, 0x03, 0xbe, 0xfd, 0xd9, 0x5e, 0x3e,
  0x50, 0xa9, 0xbd, 0xbd, 0x25, 0x66, 0x88, 0xbd, 0xd9, 0x02, 0x97, 0x3d,
  0x96, 0x48, 0xb9, 0x3b, 0x65, 0x42, 0x10, 0x3e, 0x32, 0xf4, 0x0c, 0x3f,
  0x3a, 0x6e, 0x68, 0x3d, 0xc9, 0xde, 0x31, 0xbe, 0xb5, 0xc3, 0x00, 0xbd,
  0x76, 0xdb, 0xf9, 0x3c, 0x8b, 0x61, 0xcf, 0x3c, 0x7b, 0x42, 0x37, 0x3e,
  0xe2, 0xfe, 0x4b, 0x3e, 0x9c, 0x81, 0x03, 0xbe, 0x53, 0xf7, 0x64, 0xbe,
  0x13, 0x1d, 0x21, 0x3e, 0x44, 0x23, 0xe2, 0xbc, 0x33, 0xcd, 0xb5, 0x3d,
  0xd6, 0xc7, 0x97, 0x3e, 0xee, 0x05, 0xd4, 0x3d, 0x04, 0x27, 0xb1, 0x3c,
  0x52, 0xa0, 0x0b, 0x3f, 0xc0, 0x10, 0xfd, 0x3c, 0xa9, 0xa6, 0xc2, 0xbc,
  0x9a, 0xc7, 0xba, 0xbd, 0xbf, 0xf9, 0x0f, 0xbe, 0xca, 0x25, 0x37, 0xbe,
  0x60, 0x35, 0x89, 0x3d, 0x8f, 0xa4, 0xa0, 0xbe, 0x67, 0x7b, 0x08, 0x3d,
  0xc4, 0x33, 0xe8, 0xbd, 0x6a, 0xad, 0x36, 0x3e, 0xf9, 0xcc, 0xff, 0xbc,
  0x56, 0xe2, 0x1e, 0x3e, 0x64, 0x59, 0xf1, 0x3d, 0x00, 0xca, 0x12, 0xbd,
  0x5c, 0x7b, 0xb7, 0xba, 0x1f, 0x9e, 0x12, 0xbe, 0x27, 0x5b, 0x61, 0xbe,
  0xf9, 0xa5, 0x85, 0x3d, 0x61, 0x92, 0x92, 0xbe, 0x70, 0x7e, 0xeb, 0x3e,
  0x10, 0xf4, 0x67, 0x3e, 0x6b, 0x7d, 0x84, 0x3e, 0x66, 0xdf, 0x86, 0x3e,
  0x39, 0xd3, 0xb5, 0xbd, 0xf1, 0xfd, 0x04, 0xbf, 0x1c, 0xc1, 0x81, 0x3e,
  0xa5, 0xb5, 0xc0, 0xbc, 0x74, 0x90, 0x22, 0x3e, 0x5b, 0x4b, 0xa1, 0x3e,
  0xd2, 0xf6, 0x78, 0x3d, 0xc2, 0xef, 0x19, 0x3e, 0xfb, 0x1a, 0x9a, 0x3e,
  0x5b, 0x6a, 0x7d, 0x3e, 0xa3, 0xef, 0x0b, 0xbf, 0x01, 0x79, 0x15, 0xbe,
  0xc8, 0xe8, 0xad, 0x3e, 0x47, 0x86, 0xe6, 0x3e, 0x66, 0xec, 0xa1, 0x3e,
  0x4d, 0x83, 0xa6, 0x3e, 0x18, 0x0a, 0x26, 0x3e, 0xbf, 0xe1, 0xfe, 0xbe,
  0xcb, 0x6d, 0x95, 0x3e, 0xb6, 0x03, 0xaa, 0xbd, 0x6b, 0x1a, 0x81, 0x3e,
  0x4c, 0x78, 0xae, 0x3e, 0x91, 0x38, 0x2f, 0x3e, 0x60, 0xfb, 0xb1, 0xbd,
  0x62, 0xd9, 0x1a, 0x3f, 0x6e, 0x6b, 0xfe, 0x3d, 0x8d, 0xbc, 0x0c, 0xbf,
  0xc6, 0x43, 0x9a, 0xbe, 0x43, 0x4b, 0x7f, 0x3c, 0x2f, 0xde, 0xa7, 0xbd,
  0x79, 0xa0, 0x84, 0xbd, 0x41, 0x6d, 0x10, 0xbc, 0xed, 0x7c, 0xd6, 0x3c,
  0x66, 0x2b, 0xc3, 0xbe, 0x51, 0xb3, 0x9e, 0x3c, 0x21, 0x2f, 0xa9, 0x3d,
  0x3b, 0xcb, 0xa7, 0xbd, 0x7e, 0x53, 0xf8, 0x3d, 0x86, 0x25, 0xa2, 0xbe,
  0x59, 0x2a, 0x97, 0x3e, 0x48, 0x42, 0xb9, 0xbe, 0xff, 0xd0, 0xca, 0x3c,
  0x00, 0xb3, 0x06, 0xbf, 0xec, 0xf1, 0x9c, 0xbe, 0x2e, 0x55, 0x8c, 0x3c,
  0x64, 0x52, 0xbd, 0xbd, 0xa3, 0x40, 0xf0, 0xbd, 0x80, 0xb2, 0x15, 0x3e,
  0x9d, 0xbe, 0xc4, 0xbb, 0xd9, 0x17, 0x0b, 0xbf, 0x01, 0x31, 0xbb, 0x3d,
  0x6d, 0xb0, 0xce, 0xbe, 0x06, 0xd7, 0xa1, 0x3c, 0x40, 0x7b, 0x17, 0xbe,
  0x4d, 0xe8, 0x1f, 0xbe, 0x69, 0x7c, 0xb5, 0xbe, 0xf1, 0x4e, 0x1c, 0x3f,
  0xc4, 0x46, 0xca, 0xbd, 0x61, 0x2f, 0x39, 0xbe, 0xf5, 0x24, 0x0b, 0xbf,
  0x83, 0x9a, 0x10, 0x3e, 0x11, 0x5f, 0x43, 0xbd, 0xd8, 0x1c, 0x28, 0xbd,
  0xa3, 0xcb, 0xf7, 0x3e, 0x48, 0xb9, 0xc4, 0x3c, 0xd5, 0xa3, 0xd6, 0xbe,
  0x3c, 0x6c, 0xf1, 0xbd, 0xa1, 0xb0, 0x03, 0xbf, 0xeb, 0x14, 0x3a, 0xbe,
  0x33, 0x5b, 0x89, 0x3d, 0x1f, 0x4a, 0xd2, 0xbd, 0x05, 0x86, 0x90, 0xbe,
  0xd8, 0x5d, 0x53, 0x3f, 0xf5, 0xf6, 0x3c, 0xbe, 0xa6, 0x85, 0x95, 0xbe,
  0x06, 0xae, 0xb7, 0x3d, 0xee, 0x92, 0x3a, 0x3e, 0x1f, 0x3c, 0x48, 0x3e,
  0x20, 0xe5, 0x0e, 0x3e, 0xd7, 0x3e, 0x63, 0x3e, 0x4e, 0x2a, 0x12, 0xbe,
  0xf4, 0x07, 0x5c, 0xbe, 0x47, 0xe6, 0xa6, 0x3d, 0x6c, 0x91, 0x09, 0xbe,
  0x96, 0xbb, 0xa5, 0x3d, 0xb4, 0xd7, 0x5e, 0x3e, 0x17, 0x7c, 0x5f, 0x3e,
  0xbf, 0x38, 0x35, 0x3d, 0x97, 0x44, 0x28, 0xbe, 0x89, 0x13, 0x1f, 0xb9,
  0xa8, 0x88, 0x05, 0xbe, 0x40, 0x83, 0xdf, 0xbe, 0xb7, 0x5d, 0xca, 0xbd,
  0x18, 0x31, 0x69, 0x3d, 0x16, 0xdb, 0xf3, 0xbd, 0xe6, 0xda, 0x80, 0x3e,
  0x41, 0xba, 0x83, 0x3e, 0x9f, 0x70, 0xfc, 0xbd, 0x04, 0x50, 0x97, 0xbe,
  0xec, 0x12, 0x7e, 0xbe, 0xab, 0x89, 0xa5, 0x3d, 0x8c, 0xba, 0x2e, 0xbe,
  0xaf, 0xb2, 0x2f, 0xbd, 0x72, 0xcd, 0x2c, 0xbe, 0x2a, 0x65, 0x6b, 0xbd,
  0x51, 0xab, 0xdb, 0x3d, 0x12, 0x21, 0xca, 0xbe, 0x16, 0x32, 0x07, 0xbf,
  0x70, 0x84, 0x67, 0x3d, 0x38, 0x74, 0x7e, 0x3d, 0xfe, 0xe9, 0x41, 0xbd,
  0xbd, 0x71, 0xb3, 0x3e, 0x02, 0x9e, 0x0c, 0x3e, 0x5e, 0x36, 0x8c, 0xbe,
  0x50, 0xa4, 0x5c, 0xbd, 0x1d, 0xac, 0x1e, 0xbe, 0x27, 0x84, 0xeb, 0x3d,
  0xfe, 0x17, 0xba, 0xbd, 0x95, 0x65, 0xe8, 0xbd, 0x74, 0xe2, 0x13, 0xbe,
  0x16, 0x6a, 0x94, 0xbd, 0xbf, 0x0d, 0xb6, 0x3c, 0x46, 0x71, 0x50, 0xbe,
  0xea, 0x8e, 0x21, 0xbf, 0x08, 0xf1, 0x14, 0xbf, 0xd8, 0x30, 0xc8, 0xbd,
  0xf1, 0xd8, 0x1f, 0xbf, 0x51, 0x9d, 0x10, 0x3f, 0x01, 0xaa, 0xc3, 0x3e,
  0x16, 0xc7, 0xff, 0xbc, 0xe3, 0x3e, 0x60, 0xbe, 0xf6, 0x21, 0xeb, 0xbe,
  0xf4, 0x58, 0x51, 0xbe, 0xfb, 0xb2, 0x7f, 0xbd, 0xca, 0xb4, 0x0b, 0xbf,
  0x53, 0xce, 0x27, 0xbd, 0x1f, 0x00, 0x47, 0x3c, 0x93, 0xd5, 0x7d, 0xbd,
  0xcd, 0xc1, 0xd7, 0xbe, 0x5f, 0xbb, 0x15, 0xbc, 0x1b, 0xf8, 0xba, 0xbd,
  0x06, 0xf1, 0x0a, 0xbe, 0xea, 0x08, 0x9c, 0xbc, 0xa9, 0x77, 0xac, 0x3e,
  0x1a, 0x0d, 0x32, 0x3e, 0x2a, 0x4f, 0x9b, 0x3d, 0x7e, 0xd0, 0x61, 0xbe,
  0xb5, 0x32, 0x3b, 0x3b, 0x04, 0x83, 0x84, 0xbe, 0xc2, 0xfc, 0x99, 0xbe,
  0x45, 0x6b, 0xdc, 0xbd, 0xe8, 0x68, 0xc7, 0x3c, 0xc9, 0xfb, 0x95, 0x3e,
  0x5e, 0xab, 0x93, 0xbd, 0xe3, 0xdd, 0x0a, 0x3e, 0x0d, 0xc1, 0x46, 0x3d,
  0x0f, 0xd7, 0xab, 0xbe, 0x83, 0xa5, 0x42, 0xbe, 0x31, 0x07, 0x7c, 0xbe,
  0xeb, 0x4a, 0xdc, 0x3e, 0xe5, 0x17, 0x09, 0x3e, 0xce, 0x82, 0xb1, 0x3d,
  0x9b, 0x8b, 0x34, 0xbe, 0x49, 0xae, 0x22, 0xbd, 0x24, 0x1a, 0x81, 0xbe,
  0x70, 0x54, 0x3f, 0xbe, 0x4f, 0xb7, 0xba, 0xbd, 0xfd, 0xf3, 0xc4, 0xbc,
  0xea, 0x71, 0x81, 0x3d, 0xab, 0xfe, 0xff, 0xbd, 0x60, 0x5d, 0x34, 0x3e,
  0x19, 0x7b, 0x34, 0x3e, 0xe2, 0x16, 0xba, 0xbd, 0x36, 0xe5, 0x32, 0x3b,
  0x21, 0xae, 0x93, 0x3d, 0x92, 0x45, 0xbe, 0x3e, 0x2e, 0x8c, 0x92, 0x3e,
  0xd6, 0xa2, 0x08, 0x3e, 0x54, 0x75, 0xa5, 0xbd, 0x5a, 0x12, 0x37, 0x3e,
  0xff, 0x2f, 0xc3, 0x3e, 0x3a, 0x27, 0x7a, 0xbd, 0x69, 0x52, 0x29, 0x3e,
  0xc1, 0x55, 0xa6, 0x3d, 0x01, 0x66, 0xa4, 0x3e, 0x40, 0x95, 0x1b, 0xbd,
  0xa5, 0x49, 0x6e, 0x3e, 0x10, 0x1b, 0x36, 0xbd, 0x09, 0xcd, 0x56, 0x3e,
  0xba, 0x45, 0x17, 0x3e, 0xaf, 0x0b, 0x6a, 0x3d, 0x74, 0x17, 0x10, 0xbf,
  0x3d, 0xab, 0x21, 0x3c, 0x01, 0x58, 0xee, 0xbd, 0x93, 0xab, 0xf3, 0x3d,
  0xfa, 0x1a, 0x0e, 0xbe, 0x3b, 0xe0, 0x94, 0x3e, 0x20, 0xaf, 0x22, 0x3c,
  0x48, 0x01, 0x9b, 0x3e, 0x08, 0x84, 0x6f, 0x3e, 0x5f, 0xa8, 0x32, 0xbd,
  0x89, 0xa4, 0x38, 0xbd, 0x6e, 0x37, 0xd7, 0xbd, 0xa7, 0x78, 0x66, 0x3e,
  0xcd, 0x48, 0x22, 0x3e, 0x3f, 0x29, 0x43, 0x3e, 0x1e, 0x7c, 0x7e, 0x3e,
  0x1e, 0x0b, 0x37, 0xbf, 0xd4, 0x19, 0x4b, 0xbe, 0x1e, 0x69, 0x97, 0xbd,
  0x7a, 0x9d, 0x71, 0x3e, 0x57, 0x4d, 0xe1, 0x3d, 0xd5, 0x4c, 0x52, 0x3e,
  0x80, 0xf1, 0x71, 0x3d, 0x70, 0x7d, 0x08, 0x3e, 0xce, 0xac, 0xed, 0xbc,
  0x3f, 0x73, 0x3d, 0xbf, 0x52, 0x5b, 0x64, 0x3d, 0x65, 0x90, 0x4f, 0xbe,
  0xa3, 0xa6, 0x6a, 0xbd, 0xea, 0x1c, 0xe4, 0xbe, 0x7c, 0x84, 0xfa, 0xbe,
  0x60, 0x9d, 0xf2, 0xbe, 0xdb, 0x07, 0x0c, 0xbf, 0x5d, 0x86, 0xe7, 0xbe,
  0x3b, 0x19, 0x20, 0xbe, 0x9c, 0x66, 0x1c, 0x3e, 0x23, 0x9b, 0xef, 0x3d,
  0x75, 0xc8, 0x31, 0x3d, 0xf6, 0x5a, 0x6d, 0xbe, 0xd5, 0x00, 0x1b, 0xbe,
  0x3e, 0x48, 0x56, 0x3e, 0x3e, 0x85, 0x29, 0xbf, 0x0b, 0xaf, 0xb3, 0xbe,
  0x6b, 0xdb, 0x3a, 0xbf, 0x40, 0xac, 0x8d, 0x3c, 0x97, 0x74, 0x1a, 0xbd,
  0xa0, 0xda, 0xcc, 0xbd, 0x7b, 0x0e, 0x9a, 0xbe, 0x2e, 0x35, 0x8e, 0x3e,
  0xf9, 0x1b, 0xf2, 0xbc, 0x71, 0xe8, 0x9a, 0x3d, 0x5d, 0x26, 0x6e, 0x3d,
  0x86, 0x1a, 0x78, 0x3d, 0x00, 0xf5, 0xb1, 0x3d, 0x67, 0x6e, 0x07, 0x3e,
  0xa4, 0x8f, 0x93, 0xbb, 0x47, 0x70, 0x92, 0xbd, 0xaa, 0xfb, 0xb4, 0x3e,
  0x5b, 0xe3, 0x25, 0xbe, 0xe8, 0x0e, 0x67, 0x3d, 0xd9, 0xc5, 0x9f, 0x3c,
  0xf9, 0xe4, 0xf9, 0x3a, 0x55, 0xf8, 0x7d, 0x3d, 0x3d, 0xcd, 0x58, 0xbd,
  0x58, 0xbb, 0xb8, 0xbd, 0x8e, 0xc4, 0x07, 0x3c, 0xc8, 0xe4, 0x85, 0x3d,
  0x74, 0x76, 0xdc, 0x3d, 0x52, 0x82, 0x90, 0x3d, 0xb0, 0x5e, 0x1d, 0x3e,
  0xac, 0x1f, 0x2d, 0x3d, 0xb0, 0x22, 0x83, 0x3d, 0xbb, 0xd3, 0x37, 0x3d,
  0xbc, 0x96, 0x8c, 0xbe, 0xa3, 0x28, 0x21, 0xbe, 0xd1, 0xa2, 0x5f, 0xbd,
  0x38, 0xb9, 0x99, 0x3c, 0x38, 0x97, 0x1f, 0x3d, 0x40, 0x93, 0xeb, 0x3d,
  0x89, 0xf1, 0x95, 0xbe, 0xaf, 0x2c, 0xf4, 0xbd, 0x8d, 0x80, 0x43, 0xbe,
  0xe3, 0x7b, 0x0f, 0x3d, 0xe0, 0x0c, 0x83, 0xbd, 0x7a, 0x51, 0x01, 0x3d,
  0x0d, 0x84, 0x6a, 0x3c, 0xbd, 0xc8, 0x53, 0x3c, 0xb0, 0xd0, 0x89, 0xbd,
  0x2d, 0xc6, 0x27, 0xbd, 0x3c, 0x90, 0xa6, 0xbe, 0xa3, 0x44, 0x4c, 0xbe,
  0xf4, 0x97, 0x82, 0x3c, 0x3d, 0x2c, 0xc8, 0x3d, 0xd4, 0x68, 0xed, 0xbe,
  0x9f, 0x25, 0xc6, 0xbe, 0x87, 0x50, 0xd0, 0xbe, 0x8d, 0x02, 0xc3, 0x3d,
  0x3b, 0xfa, 0xc1, 0xbd, 0xd9, 0x11, 0x02, 0x3f, 0x2a, 0x82, 0x32, 0xbe,
  0xca, 0x79, 0x81, 0x3e, 0x7a, 0xc7, 0xf8, 0xbe, 0x0e, 0x79, 0x3e, 0xbe,
  0x0b, 0xb1, 0xf5, 0x3b, 0x27, 0xd1, 0xce, 0x3e, 0xa3, 0x1b, 0xfa, 0x3d,
  0xda, 0x1c, 0xc3, 0xbe, 0x4f, 0x34, 0xe1, 0x3e, 0xc1, 0x9d, 0xf3, 0x3d,
  0x2a, 0x4c, 0x19, 0xbf, 0x0a, 0x80, 0xfb, 0xbe, 0xb5, 0xb9, 0xb9, 0xbe,
  0xbe, 0xe4, 0xac, 0x3d, 0x66, 0xc0, 0xfd, 0xbd, 0xd5, 0x84, 0x24, 0x3f,
  0x22, 0xcf, 0x5b, 0xbd, 0x08, 0xc9, 0x7d, 0x3e, 0x63, 0xb9, 0xb5, 0xbe,
  0x8f, 0xed, 0xe2, 0xbd, 0xf8, 0x22, 0xdb, 0x39, 0xa2, 0x14, 0xba, 0x3e,
  0x6c, 0x33, 0x4d, 0x3d, 0x81, 0xe5, 0xdd, 0xbd, 0xad, 0xcb, 0x80, 0x3e,
  0x53, 0x75, 0xc2, 0x3d, 0xd6, 0xde, 0xf6, 0xbe, 0xf5, 0x59, 0x8e, 0xbe,
  0x7a, 0xd3, 0xa7, 0xbe, 0x52, 0x6c, 0x6e, 0xbe, 0x9a, 0xd1, 0xff, 0xbc,
  0x12, 0xf0, 0xeb, 0x3e, 0x25, 0x33, 0x3b, 0x3d, 0xb8, 0x85, 0x94, 0x3e,
  0xd2, 0xa7, 0x6a, 0xbe, 0xd1, 0x5d, 0xeb, 0xbd, 0x72, 0xfb, 0x28, 0xbd,
  0x82, 0xba, 0x90, 0x3e, 0xac, 0x8a, 0x7d, 0x3e, 0x22, 0x1c, 0x73, 0xbe,
  0xa4, 0x61, 0xf1, 0x3e, 0xaf, 0xfd, 0xb6, 0x3d, 0x38, 0xb2, 0xc3, 0xbd,
  0xf9, 0xdf, 0xc6, 0xbd, 0x5c, 0x80, 0x45, 0x3e, 0x77, 0x4e, 0x75, 0xbe,
  0x93, 0x54, 0x7d, 0x3c, 0xe8, 0x97, 0xcc, 0x3e, 0x2e, 0x98, 0x84, 0x3e,
  0xca, 0xf6, 0x61, 0x3e, 0xc4, 0xd7, 0x8d, 0xbd, 0xc4, 0xda, 0x0f, 0x3e,
  0x77, 0x59, 0x24, 0x3e, 0x45, 0x86, 0xa2, 0x3e, 0x40, 0xeb, 0x7d, 0x3e,
  0x36, 0x04, 0x92, 0x3d, 0x44, 0xa0, 0x8d, 0xbc, 0x30, 0xd4, 0x92, 0x3e,
  0xba, 0x00, 0xef, 0xbd, 0x6c, 0xa0, 0xd8, 0xbd, 0xee, 0x7b, 0x1f, 0x3e,
  0x89, 0x6e, 0x41, 0xbd, 0x65, 0x2d, 0x05, 0xbe, 0xe3, 0x89, 0xe2, 0x3e,
  0x70, 0x2c, 0xf9, 0x3d, 0xdf, 0xf6, 0x84, 0x3e, 0x67, 0xb2, 0xe1, 0x3d,
  0x55, 0x72, 0x1e, 0x3e, 0x44, 0x7e, 0x84, 0x3e, 0x6b, 0x50, 0x70, 0x3e,
  0x1f, 0x16, 0xeb, 0x3c, 0xfa, 0xc7, 0x2b, 0x3e, 0xfd, 0x0b, 0x0a, 0xbe,
  0xbc, 0x44, 0xe4, 0x3d, 0xcc, 0x44, 0x67, 0xbd, 0xa9, 0x90, 0x12, 0xbe,
  0xf3, 0x0b, 0x7f, 0x3d, 0xec, 0x7a, 0xb3, 0xbe, 0xf7, 0x2d, 0x1a, 0x3d,
  0x6f, 0xec, 0xf1, 0x3e, 0x7e, 0x24, 0x89, 0x3e, 0x06, 0x52, 0x87, 0x3d,
  0x7b, 0x9b, 0xa3, 0x3d, 0xe2, 0x8b, 0xee, 0xbc, 0xe5, 0xab, 0xb0, 0x3d,
  0x17, 0x87, 0x2c, 0x3e, 0x09, 0x61, 0x80, 0xbc, 0x24, 0x76, 0x13, 0x3e,
  0x71, 0x53, 0xce, 0xbd, 0xa3, 0x70, 0x1f, 0x3e, 0xc2, 0x13, 0xd7, 0xbb,
  0xe5, 0x3f, 0x39, 0xbe, 0x98, 0xf9, 0x1b, 0x3d, 0x57, 0xea, 0x36, 0xbe,
  0xa1, 0x15, 0x17, 0xbe, 0xc9, 0x96, 0x07, 0x3c, 0x86, 0x09, 0x66, 0x3e,
  0xff, 0x2e, 0x21, 0x3e, 0xcf, 0x4a, 0xda, 0xbd, 0x19, 0x6f, 0x25, 0x3e,
  0x9a, 0x9d, 0xa7, 0x3e, 0xc1, 0xeb, 0x6f, 0x3d, 0xc8, 0xe1, 0xdb, 0xbd,
  0x9f, 0xc2, 0x0f, 0x3e, 0xef, 0x45, 0x8a, 0x3d, 0x58, 0x6f, 0x8f, 0x3e,
  0x47, 0x6e, 0x11, 0x3e, 0x81, 0xcb, 0x9c, 0xbd, 0x3e, 0xf3, 0x56, 0x3e,
  0x4b, 0x6a, 0x91, 0xbe, 0x2e, 0xf0, 0x7e, 0xbe, 0xdb, 0xdf, 0x96, 0x3d,
  0x44, 0x4e, 0x9f, 0x3c, 0xa7, 0xda, 0x60, 0x3e, 0x67, 0x5e, 0x46, 0xbd,
  0xb4, 0xc4, 0x01, 0xbc, 0x3c, 0x3f, 0xe9, 0x3e, 0x01, 0x4d, 0x40, 0x3c,
  0xb3, 0x77, 0xde, 0xbe, 0x05, 0x56, 0xc6, 0xbc, 0xdf, 0x68, 0x7c, 0x3d,
  0x94, 0x2e, 0x09, 0xbe, 0xc3, 0x8e, 0x4c, 0xbe, 0x5c, 0xa1, 0x9e, 0xbe,
  0x0a, 0x39, 0x60, 0xbe, 0x40, 0x23, 0xdb, 0xbe, 0xe0, 0x2b, 0xee, 0x3c,
  0x4b, 0x63, 0x30, 0xbd, 0xff, 0xe7, 0x01, 0x3d, 0x90, 0x25, 0x09, 0xbd,
  0x82, 0x51, 0xe2, 0xbd, 0x66, 0x74, 0x49, 0xbe, 0x7e, 0xe8, 0x66, 0xbe,
  0x2f, 0x9c, 0xeb, 0x3d, 0x31, 0xe8, 0xe3, 0xbe, 0xab, 0xbb, 0x8a, 0xbe,
  0xf6, 0xb7, 0xa1, 0xbe, 0x34, 0x30, 0x6a, 0x3d, 0x58, 0xe4, 0xe2, 0x3c,
  0xbb, 0x63, 0xbc, 0xbc, 0xfb, 0x2a, 0x09, 0xbe, 0x84, 0x9d, 0x0d, 0x3e,
  0x8a, 0x00, 0x00, 0x3d, 0x1a, 0x0d, 0x90, 0x3e, 0x5d, 0xdb, 0x98, 0x3d,
  0x96, 0x1d, 0x82, 0x3c, 0x60, 0x25, 0xc5, 0xbc, 0x8d, 0x20, 0x64, 0xbe,
  0x02, 0xa0, 0x07, 0x3e, 0x34, 0x91, 0x98, 0x3c, 0x62, 0xa4, 0xd9, 0x3d,
  0x4f, 0x47, 0x84, 0xbd, 0xdd, 0x0d, 0x00, 0xbc, 0xda, 0x2d, 0x4e, 0x3e,
  0xb5, 0xe3, 0x2d, 0x3d, 0x1a, 0x6f, 0xa8, 0x3c, 0x98, 0x45, 0x45, 0x3d,
  0x9c, 0x60, 0xce, 0xbc, 0xd5, 0x45, 0x12, 0xbd, 0x28, 0x6e, 0x0c, 0xbd,
  0x9a, 0x59, 0xe1, 0xbd, 0x4d, 0x3f, 0x83, 0x3e, 0x8b, 0x2c, 0x43, 0xbc,
  0xe0, 0x4f, 0xfc, 0x3d, 0xa6, 0xcd, 0x9e, 0x3d, 0xaa, 0xbc, 0x62, 0x3d,
  0x5b, 0x73, 0x9b, 0xbe, 0xcf, 0xde, 0x9a, 0xbe, 0xa1, 0xfe, 0x9d, 0xbd,
  0xa4, 0xec, 0xe0, 0x3d, 0x3a, 0x6d, 0xe2, 0xbc, 0x96, 0x42, 0xe0, 0xbb,
  0xe7, 0x1e, 0xc1, 0xbe, 0x36, 0x0e, 0xff, 0xbd, 0xb5, 0x1f, 0x76, 0xbe,
  0x6d, 0x80, 0xa7, 0xbd, 0x28, 0x93, 0xc9, 0xbd, 0x2f, 0xbd, 0xc0, 0x3c,
  0x46, 0x43, 0xcb, 0xbd, 0x5a, 0xf8, 0x1c, 0xbe, 0xa6, 0x65, 0x16, 0xbe,
  0x87, 0x66, 0x0e, 0x3d, 0xde, 0x49, 0x2c, 0xbf, 0xc3, 0xe2, 0x58, 0xbe,
  0x93, 0x3c, 0x21, 0x3b, 0x22, 0xe5, 0xff, 0xff, 0x04, 0x00, 0x00, 0x00,
  0x08, 0x00, 0x00, 0x00, 0xff, 0xff, 0xff, 0xff, 0x60, 0x00, 0x00, 0x00,
  0x36, 0xe5, 0xff, 0xff, 0x04, 0x00, 0x00, 0x00, 0x40, 0x00, 0x00, 0x00,
  0xce, 0xd6, 0xf0, 0x3e, 0x3d, 0x4f, 0xc4, 0xbd, 0x6c, 0xb0, 0xcd, 0x3d,
  0xe1, 0x2a, 0x97, 0x3e, 0xd2, 0xa5, 0xdd, 0x39, 0x63, 0x4c, 0xf8, 0x3d,
  0x6e, 0x32, 0xa6, 0x3e, 0xb8, 0x0c, 0x6d, 0x3e, 0x49, 0xf0, 0xc4, 0x3d,
  0x6f, 0x17, 0x8d, 0x3e, 0x1d, 0x5d, 0x19, 0x3f, 0x08, 0x72, 0x47, 0x3e,
  0x7e, 0xec, 0x14, 0xbe, 0x05, 0x59, 0x14, 0x3f, 0x66, 0x6f, 0x57, 0x3e,
  0x45, 0xc1, 0xbe, 0x3e, 0x82, 0xe5, 0xff, 0xff, 0x04, 0x00, 0x00, 0x00,
  0x0c, 0x00, 0x00, 0x00, 0x9a, 0x0b, 0x33, 0xbc, 0x64, 0xd7, 0x27, 0x3e,
  0xe9, 0x37, 0x29, 0xbe, 0x9a, 0xe5, 0xff, 0xff, 0x04, 0x00, 0x00, 0x00,
  0x00, 0x0c, 0x00, 0x00, 0xd7, 0xdf, 0x9b, 0x3d, 0x96, 0x10, 0xd6, 0xbe,
  0x76, 0x38, 0x19, 0xbe, 0xf2, 0x07, 0x99, 0xbd, 0xa8, 0x9c, 0xc2, 0xbe,
  0xd0, 0x02, 0xa3, 0xbe, 0xf2, 0x7c, 0xa0, 0xbe, 0xbb, 0x44, 0x22, 0xbf,
  0xbe, 0x1d, 0x45, 0xbd, 0xe3, 0x7b, 0xc4, 0xbe, 0xd6, 0x18, 0x93, 0xbe,
  0xe3, 0x71, 0x2e, 0xbe, 0x48, 0x9f, 0x28, 0x3e, 0x54, 0x35, 0x06, 0xbe,
  0x56, 0xf3, 0x11, 0xbf, 0xb0, 0x86, 0x3d, 0xbf, 0x70, 0xa2, 0xc9, 0x3d,
  0x83, 0x57, 0x5b, 0x3e, 0x17, 0x7e, 0x97, 0x3c, 0xb9, 0x21, 0xb1, 0x3e,
  0x37, 0x68, 0x9e, 0xbd, 0x44, 0x74, 0x69, 0xbd, 0xc6, 0x7d, 0x3a, 0x3c,
  0x75, 0x21, 0x9f, 0x3d, 0xf9, 0x12, 0x7c, 0xbe, 0x7a, 0xdf, 0x4a, 0xbd,
  0x08, 0x58, 0xb7, 0x3c, 0xbd, 0xaa, 0x3a, 0x3e, 0x65, 0x7a, 0x1e, 0x3e,
  0xc3, 0x08, 0x99, 0x3c, 0xee, 0x40, 0x58, 0x3e, 0x76, 0x53, 0x98, 0xbd,
  0x0e, 0x3e, 0x3f, 0xbd, 0x94, 0x9f, 0xe0, 0x3c, 0xba, 0x34, 0x36, 0xbd,
  0x4c, 0xa0, 0x87, 0x3e, 0xbf, 0x3f, 0x1c, 0x3e, 0x3b, 0x7a, 0xd6, 0x3d,
  0x4a, 0x52, 0x12, 0xbe, 0x3d, 0xd1, 0x16, 0xbe, 0xbf, 0x1f, 0xaf, 0xbe,
  0x5d, 0xaf, 0x83, 0x3e, 0x41, 0xd1, 0xc4, 0x3c, 0xf7, 0x4d, 0x7c, 0x3e,
  0x8b, 0x32, 0x7c, 0x3e, 0x39, 0x4a, 0x22, 0x3e, 0xc6, 0x44, 0x43, 0x3e,
  0x11, 0xc6, 0x4c, 0x3e, 0x3a, 0x83, 0x82, 0x3e, 0x6a, 0x39, 0x6a, 0x3e,
  0xd1, 0x9e, 0xce, 0x3d, 0x4c, 0xf8, 0xc1, 0x3e, 0x9d, 0xed, 0xbc, 0x3d,
  0xf8, 0xbf, 0x70, 0x3e, 0x59, 0x05, 0xa5, 0x3e, 0x2f, 0x05, 0x6e, 0x3e,
  0x85, 0x2b, 0xf3, 0xbd, 0x3b, 0xd8, 0x10, 0x3e, 0x64, 0x9b, 0x96, 0x3e,
  0x04, 0xa5, 0xae, 0xbd, 0x4d, 0x18, 0xac, 0xbe, 0x36, 0x8a, 0x3f, 0x3e,
  0x97, 0x72, 0xd7, 0x3d, 0x8c, 0x90, 0x0c, 0x3e, 0x07, 0x05, 0xa4, 0xbc,
  0xd7, 0x9e, 0x62, 0x3e, 0x70, 0xa5, 0x89, 0x3e, 0xaa, 0x00, 0x3e, 0x3e,
  0x59, 0x0b, 0x9f, 0xbd, 0xcd, 0xa9, 0x24, 0x3e, 0xb8, 0x1c, 0x25, 0x3e,
  0x02, 0x18, 0xc5, 0x3d, 0x83, 0x9b, 0xa4, 0xbd, 0x09, 0x65, 0x1d, 0x3e,
  0x52, 0x7a, 0x52, 0x3e, 0x48, 0x87, 0x36, 0xbc, 0x0d, 0x64, 0x9d, 0xbe,
  0x95, 0xcc, 0xb3, 0xbd, 0xb2, 0x43, 0x03, 0xbe, 0x1d, 0xb2, 0xa2, 0x3b,
  0xee, 0xc4, 0xb8, 0xbd, 0x69, 0xc6, 0x98, 0xbe, 0x0c, 0x31, 0x6f, 0xbe,
  0xa8, 0xe3, 0x80, 0xbd, 0x72, 0x17, 0xaa, 0xbe, 0x3b, 0x47, 0x6b, 0xbe,
  0x25, 0xe1, 0x2d, 0xbd, 0xf9, 0x64, 0x35, 0xbd, 0x56, 0x6f, 0x97, 0xbc,
  0xad, 0x96, 0x88, 0xbe, 0xda, 0x0c, 0xba, 0x3d, 0x56, 0x5e, 0x70, 0xbe,
  0xe4, 0x56, 0xcb, 0xbe, 0xd9, 0x5c, 0xad, 0xbe, 0x49, 0x15, 0x2b, 0xbe,
  0xc9, 0xa4, 0xaf, 0xbe, 0x62, 0xb3, 0xc9, 0x3c, 0x52, 0x70, 0x74, 0x3e,
  0x42, 0x9f, 0x04, 0x3f, 0xe9, 0x36, 0xca, 0x3e, 0x50, 0x67, 0xb3, 0x3d,
  0xea, 0x74, 0x87, 0xbc, 0x6a, 0xad, 0x03, 0xbe, 0x90, 0xb7, 0x7d, 0x3e,
  0x43, 0xc0, 0xc4, 0x3e, 0x6a, 0xd2, 0xcc, 0xba, 0x50, 0x8a, 0xf1, 0xbd,
  0x7e, 0xf6, 0x85, 0x3e, 0xbb, 0xe6, 0xdc, 0xbe, 0x40, 0xcd, 0x6c, 0x3d,
  0x95, 0x38, 0x83, 0x3d, 0xf1, 0x9f, 0x55, 0x3e, 0xa4, 0xe5, 0xc2, 0xbd,
  0x5b, 0x59, 0xe3, 0x3d, 0x7c, 0xe3, 0xa2, 0xbc, 0xad, 0xbe, 0x58, 0x3e,
  0x8c, 0x32, 0xe9, 0xbc, 0x27, 0x17, 0x80, 0xbd, 0xf9, 0x7a, 0x78, 0xbd,
  0xa8, 0xff, 0x23, 0x3d, 0x34, 0x80, 0xbb, 0x3d, 0x2e, 0xb6, 0x34, 0x3a,
  0x14, 0x97, 0x04, 0x3d, 0x6d, 0xd7, 0xd3, 0x3c, 0x5e, 0x66, 0xa9, 0xbe,
  0x93, 0x09, 0xff, 0x3d, 0xc4, 0xae, 0xf0, 0x3b, 0x9a, 0x8c, 0xa6, 0x3d,
  0x22, 0x36, 0x52, 0xbe, 0xca, 0xa5, 0x4a, 0x3d, 0x12, 0xcc, 0x6b, 0x3e,
  0x67, 0x85, 0x1a, 0xbd, 0x99, 0x6e, 0xb9, 0xbb, 0xe7, 0xfa, 0x61, 0x3c,
  0x5a, 0x41, 0x2c, 0xbe, 0xc7, 0x38, 0xcf, 0xbd, 0x98, 0xbe, 0x3f, 0x3e,
  0x76, 0xc2, 0x74, 0x3d, 0x9a, 0x4d, 0x2f, 0xbe, 0xe1, 0x41, 0x59, 0xbe,
  0xdf, 0x36, 0x54, 0xbe, 0x8f, 0x56, 0x4d, 0x3d, 0x82, 0x0d, 0x1a, 0xbe,
  0x6d, 0xeb, 0x15, 0xbe, 0x69, 0x52, 0x66, 0x3e, 0xb9, 0xfc, 0xc4, 0x3d,
  0xa7, 0xc9, 0x3a, 0x3e, 0x7f, 0x26, 0xd3, 0x3c, 0xff, 0xf6, 0xa8, 0x3d,
  0x43, 0xcb, 0x95, 0x3d, 0x72, 0xb0, 0x09, 0xbe, 0x07, 0xe9, 0x59, 0xbe,
  0x24, 0x0c, 0x78, 0xbd, 0x5f, 0x59, 0xd9, 0x3d, 0x9f, 0xdb, 0xd4, 0xbd,
  0xb8, 0x28, 0x8f, 0xbd, 0x18, 0xfe, 0x80, 0x3d, 0x31, 0x6f, 0xed, 0xbc,
  0xfe, 0x7c, 0x8f, 0xbd, 0xae, 0x86, 0xf8, 0x3c, 0x18, 0xe4, 0x6b, 0x3d,
  0xf5, 0x96, 0x00, 0x3e, 0x26, 0x56, 0x1f, 0x3e, 0x63, 0xd3, 0xb5, 0x3d,
  0x53, 0x02, 0x5f, 0x3e, 0x4a, 0xe8, 0x0d, 0x3e, 0x16, 0xa3, 0x51, 0xbc,
  0xb2, 0x11, 0x32, 0x3e, 0x0f, 0xd7, 0x42, 0x3e, 0x16, 0x36, 0xb1, 0x3c,
  0xa5, 0x09, 0x22, 0x3e, 0xb2, 0xba, 0x07, 0x3e, 0x9e, 0x84, 0x28, 0xbc,
  0x15, 0x5b, 0xeb, 0x3d, 0x6b, 0x0a, 0xc8, 0x3d, 0xb3, 0x6c, 0x8d, 0xbd,
  0xe7, 0x9b, 0x2c, 0x3d, 0x17, 0xe5, 0x05, 0x3e, 0xb7, 0x43, 0x8c, 0x3e,
  0xf2, 0x2c, 0x86, 0xbe, 0x24, 0xad, 0xe2, 0x3d, 0x04, 0x8a, 0xa3, 0x3d,
  0xf1, 0xea, 0xee, 0xbc, 0x06, 0x99, 0xe4, 0xbd, 0xbb, 0x2b, 0xe9, 0x3d,
  0xd7, 0x40, 0xce, 0x3c, 0x4c, 0xf2, 0x00, 0xbe, 0xa3, 0x60, 0xfc, 0xbc,
  0xd4, 0x82, 0x0e, 0xbf, 0x33, 0xb6, 0x76, 0xbd, 0x61, 0x42, 0x76, 0x3d,
  0x29, 0x6e, 0x5a, 0x3e, 0xb3, 0xb7, 0x60, 0xbe, 0x19, 0x9e, 0x87, 0xbc,
  0x89, 0xb3, 0x1b, 0x3f, 0xf9, 0x24, 0x06, 0x3f, 0x5c, 0xf8, 0x40, 0x3e,
  0x0c, 0xce, 0xdc, 0xbc, 0xec, 0x33, 0x8d, 0xbe, 0x0c, 0xec, 0xd8, 0x3d,
  0x0c, 0x36, 0x78, 0x3f, 0x08, 0x32, 0x1e, 0xbe, 0x2a, 0x3c, 0xf7, 0x3d,
  0xb1, 0x96, 0x33, 0xbe, 0xfc, 0xc8, 0x54, 0x3e, 0x52, 0xbe, 0x86, 0x3e,
  0x3e, 0xcf, 0x09, 0x3b, 0x1d, 0x0e, 0x2d, 0xbd, 0x23, 0x7b, 0x15, 0xbe,
  0x31, 0x96, 0x5e, 0xbe, 0x4e, 0x94, 0x35, 0x3f, 0xf1, 0x46, 0x33, 0x3e,
  0x69, 0xc6, 0x87, 0xbe, 0xc7, 0x6f, 0x43, 0x3d, 0x2f, 0x1b, 0x0d, 0xbd,
  0x9a, 0xaa, 0x3f, 0xbd, 0x1c, 0x7d, 0x4b, 0x3c, 0xe7, 0x79, 0x97, 0xbe,
  0x50, 0x73, 0x58, 0xbd, 0xd0, 0x55, 0x40, 0xbe, 0xaa, 0x06, 0x1b, 0x3e,
  0xb3, 0xad, 0x09, 0x3e, 0x3d, 0x19, 0x37, 0xbe, 0xbc, 0xa2, 0x2e, 0xbe,
  0x13, 0xe4, 0x7a, 0xbd, 0x1e, 0x2c, 0x8c, 0xbd, 0x1d, 0x16, 0xee, 0x3e,
  0x4d, 0x43, 0x9b, 0xba, 0x75, 0x1d, 0x1f, 0x3e, 0xb3, 0x22, 0xc1, 0x3d,
  0xe0, 0xb6, 0xa3, 0xbc, 0x56, 0x1c, 0x38, 0xbd, 0xce, 0x16, 0xcb, 0x3e,
  0x78, 0x76, 0x11, 0xbc, 0x05, 0xc8, 0x9b, 0x3d, 0x35, 0x2d, 0x80, 0xbc,
  0x72, 0x7e, 0xa0, 0xbd, 0x2c, 0xc9, 0x1c, 0x3e, 0xde, 0xf7, 0xaf, 0xbd,
  0x46, 0x10, 0xd2, 0x3c, 0x28, 0x63, 0xb9, 0xbd, 0xd2, 0xe0, 0x7f, 0xbe,
  0x78, 0x7f, 0xf4, 0x3e, 0xa0, 0xd2, 0x16, 0xbe, 0xf8, 0x04, 0x8e, 0x3e,
  0xc9, 0x80, 0x92, 0x3d, 0x14, 0x07, 0xf7, 0x3c, 0xf4, 0x0d, 0xbc, 0xbd,
  0x10, 0x40, 0xa8, 0x3e, 0x87, 0x41, 0x4a, 0x3d, 0xdd, 0x79, 0x34, 0x3d,
  0xdc, 0x64, 0xe9, 0xbd, 0x2c, 0x61, 0x11, 0xbe, 0xfb, 0xc9, 0x08, 0x3e,
  0xc6, 0x79, 0x3f, 0x3e, 0xca, 0x1e, 0x1d, 0x3e, 0xc2, 0xb9, 0xf5, 0xbd,
  0xf2, 0x8e, 0x78, 0x3e, 0x64, 0x14, 0x72, 0x3e, 0x94, 0x31, 0x18, 0xbe,
  0x11, 0x73, 0x8b, 0x3d, 0xcf, 0x65, 0x98, 0xbe, 0xe1, 0x22, 0x87, 0xbe,
  0x5b, 0xf6, 0x1f, 0x3e, 0x67, 0xac, 0xf2, 0x3e, 0xf0, 0x88, 0x8b, 0x3b,
  0x30, 0xfa, 0xb5, 0xbe, 0x35, 0x07, 0x18, 0x3e, 0x41, 0x3c, 0x55, 0xbe,
  0xdc, 0x6b, 0x46, 0x3e, 0xca, 0xf8, 0x77, 0xbe, 0x70, 0xcd, 0x22, 0x3e,
  0xa5, 0x62, 0xd2, 0x3c, 0x79, 0x81, 0x78, 0xbd, 0xd2, 0x08, 0x53, 0xbe,
  0xfc, 0x76, 0x2c, 0x3d, 0x67, 0x4a, 0x67, 0xbe, 0xd5, 0x34, 0xa8, 0xbe,
  0x56, 0xd1, 0x97, 0xbe, 0xf3, 0x3a, 0x00, 0xbc, 0x8d, 0x9e, 0xf7, 0x3e,
  0xd4, 0xf2, 0xfb, 0x3d, 0x77, 0x0b, 0x3d, 0xbe, 0x19, 0x04, 0xe8, 0x3d,
  0xc1, 0xb0, 0x0c, 0x3e, 0xc2, 0xb8, 0x5e, 0xbe, 0x53, 0xe0, 0x60, 0x3e,
  0x8c, 0x3f, 0x8a, 0x3e, 0x6e, 0x14, 0x28, 0xbf, 0x7f, 0xca, 0xe3, 0xbe,
  0x3f, 0x19, 0x92, 0x3e, 0x59, 0x0f, 0x72, 0x3e, 0x40, 0x9d, 0xf8, 0xbe,
  0x1b, 0x23, 0xb8, 0xbe, 0xf4, 0xb3, 0x6c, 0xbe, 0x8c, 0x3a, 0xbd, 0xbd,
  0x64, 0x3d, 0x3e, 0x3f, 0x0c, 0x37, 0x2b, 0xbf, 0x0c, 0x9a, 0xe6, 0xbe,
  0x72, 0x35, 0xf6, 0xbe, 0x13, 0xc4, 0x89, 0x3d, 0xd9, 0xa5, 0x19, 0x3e,
  0x2b, 0xf2, 0x0c, 0xbf, 0x96, 0x75, 0xd3, 0xbe, 0xaa, 0x37, 0x19, 0x3e,
  0x7e, 0x65, 0x53, 0xbe, 0xbc, 0x52, 0xcd, 0x3c, 0x15, 0x12, 0xe6, 0x3c,
  0xd0, 0x94, 0x35, 0xbe, 0xa3, 0x56, 0x29, 0x3c, 0x45, 0xb9, 0x2d, 0xbd,
  0xd6, 0xf4, 0x31, 0xbd, 0xfa, 0x37, 0x23, 0x3d, 0x40, 0x56, 0x4a, 0x3e,
  0x28, 0x1e, 0x70, 0x3d, 0x22, 0xd3, 0xc9, 0xbd, 0x5e, 0xdb, 0x6d, 0x3d,
  0x6a, 0x3e, 0x75, 0x3e, 0x93, 0xa0, 0x31, 0xbe, 0xdd, 0xf2, 0x59, 0xbe,
  0xa2, 0x21, 0x93, 0x3e, 0x02, 0xb2, 0x04, 0x3e, 0x2a, 0xb8, 0x8a, 0xbd,
  0x5c, 0xc2, 0xce, 0x3d, 0x86, 0xe9, 0x14, 0x3e, 0xa6, 0x49, 0x95, 0x3c,
  0xae, 0xde, 0xd2, 0x3d, 0x75, 0xc7, 0xa1, 0xbc, 0x11, 0xe8, 0x3a, 0xbe,
  0x50, 0x47, 0x60, 0x3e, 0xae, 0xfe, 0x29, 0xbe, 0xde, 0x68, 0xc4, 0x3e,
  0x2b, 0xf4, 0xb0, 0x3e, 0x9e, 0x53, 0x01, 0xbe, 0x21, 0x0f, 0xd9, 0xbd,
  0xc9, 0x7e, 0x01, 0xbe, 0xa7, 0xaa, 0x8b, 0xbe, 0xd2, 0xe6, 0x1e, 0xbe,
  0x76, 0x95, 0x9a, 0xbe, 0xfb, 0x46, 0x2c, 0x3d, 0xde, 0x3e, 0x83, 0x3d,
  0xda, 0x7c, 0xa1, 0x3c, 0xa4, 0xa4, 0xd8, 0xbd, 0xcc, 0xee, 0x05, 0x3d,
  0x6f, 0xba, 0xe1, 0xbe, 0x83, 0x86, 0x87, 0x3d, 0xdf, 0xe4, 0x03, 0xbe,
  0x01, 0x7d, 0x49, 0x3e, 0x44, 0x19, 0x01, 0xbe, 0x66, 0x02, 0x97, 0x3d,
  0xec, 0x0f, 0x88, 0x3e, 0xe5, 0xdd, 0x3d, 0x3e, 0xbd, 0x4d, 0x98, 0x3c,
  0x0f, 0x41, 0x00, 0x3e, 0x54, 0x60, 0x96, 0xbe, 0x1a, 0x4d, 0x90, 0x3e,
  0xa0, 0x2e, 0x94, 0xbe, 0xc8, 0xab, 0x0b, 0x3e, 0x57, 0xfa, 0x86, 0xbd,
  0xf4, 0xe6, 0x16, 0xbd, 0xc2, 0x0e, 0xbb, 0xbe, 0xd6, 0xd0, 0x41, 0xbd,
  0x30, 0xf9, 0xf6, 0x3d, 0xdf, 0xca, 0x9c, 0xbc, 0x2f, 0xda, 0xb3, 0xbc,
  0xbd, 0x99, 0xfd, 0xbd, 0xd9, 0xc9, 0x56, 0x3d, 0xf4, 0x95, 0x4d, 0x3d,
  0x2c, 0xbc, 0x7f, 0xbd, 0x82, 0x71, 0x1d, 0x3e, 0x15, 0xf1, 0x29, 0x3e,
  0x20, 0x8d, 0x8c, 0x3e, 0xb3, 0xa3, 0x24, 0x3e, 0xb0, 0x65, 0x06, 0xbd,
  0x6d, 0xb2, 0x87, 0xbc, 0x48, 0x87, 0x06, 0x3e, 0xd3, 0xff, 0xd4, 0xbe,
  0x19, 0x8a, 0x0d, 0x3d, 0x8c, 0xc1, 0x90, 0x3e, 0x96, 0x95, 0x01, 0x3e,
  0x10, 0x5c, 0xb2, 0x3c, 0x02, 0x16, 0x5b, 0x3e, 0x50, 0x9f, 0xaf, 0xbd,
  0x4c, 0xaa, 0x56, 0xb9, 0x72, 0xc3, 0x8a, 0xbe, 0x96, 0xd4, 0xbd, 0xbe,
  0xe7, 0x99, 0xed, 0xbc, 0x24, 0x7d, 0x09, 0xbe, 0x68, 0x19, 0x09, 0xbf,
  0x3a, 0xb9, 0x3c, 0xbe, 0x33, 0x61, 0x65, 0xbe, 0x85, 0xbd, 0xd7, 0xbe,
  0x33, 0x69, 0xdb, 0x3d, 0x47, 0xd1, 0xa4, 0xbe, 0x3d, 0x87, 0xac, 0xbe,
  0x2e, 0x25, 0x10, 0xbe, 0xbe, 0x42, 0x2e, 0x3e, 0x38, 0x7f, 0xe0, 0xbd,
  0x88, 0x4e, 0xf0, 0xbe, 0x26, 0x7c, 0xdb, 0xbe, 0xcc, 0xa7, 0x0e, 0x3e,
  0x0a, 0x39, 0x30, 0xbe, 0x9d, 0xad, 0x18, 0x3c, 0x2e, 0xa4, 0xa8, 0x3d,
  0xa6, 0xa3, 0x0e, 0xbe, 0x5f, 0x68, 0xf4, 0x3d, 0x28, 0x11, 0xa6, 0xbd,
  0x5e, 0x59, 0x1e, 0x3e, 0x70, 0xb2, 0x54, 0x3e, 0xbc, 0x82, 0x70, 0x3b,
  0x3a, 0xf9, 0x11, 0x3d, 0x9b, 0xec, 0x95, 0x3c, 0x0d, 0x87, 0x05, 0x3e,
  0xb7, 0x60, 0xf8, 0x3d, 0x42, 0x76, 0x46, 0xbe, 0x10, 0x89, 0x01, 0x3e,
  0x51, 0xc7, 0x8a, 0x3e, 0xd4, 0xef, 0x76, 0x3e, 0x0e, 0x8d, 0x2b, 0x3e,
  0x52, 0x46, 0x93, 0x3c, 0x78, 0x2e, 0x14, 0xbb, 0xff, 0x2c, 0x2a, 0x3e,
  0xe6, 0x37, 0x84, 0x3e, 0xaf, 0x8d, 0x60, 0x3e, 0xd9, 0x2c, 0x70, 0xbe,
  0x87, 0x11, 0x27, 0x3e, 0xa4, 0xf5, 0x1b, 0xbc, 0x34, 0xd5, 0xaf, 0x3e,
  0xa6, 0x50, 0x1f, 0x3e, 0x37, 0xf7, 0x01, 0x3d, 0xa9, 0x68, 0x48, 0xbd,
  0x8c, 0x9c, 0x82, 0x3b, 0xec, 0x1b, 0x26, 0xbd, 0x83, 0x1a, 0xdd, 0xbc,
  0x3e, 0x34, 0x5e, 0x3d, 0xde, 0x8c, 0x02, 0x3d, 0x98, 0xba, 0x91, 0x3e,
  0x17, 0xab, 0x9f, 0x3d, 0xf6, 0xed, 0xd0, 0xbd, 0x46, 0xd3, 0x70, 0x3e,
  0xc6, 0x46, 0xea, 0xbc, 0x3f, 0xad, 0x0f, 0x3e, 0x81, 0x7d, 0x8c, 0x3e,
  0x21, 0xc8, 0x2a, 0x3e, 0x6b, 0x3b, 0x86, 0xbe, 0x56, 0xce, 0xb4, 0x3d,
  0x87, 0x2b, 0xca, 0x3e, 0x64, 0x42, 0x33, 0x3e, 0xff, 0x9b, 0xd8, 0xba,
  0x3f, 0xb4, 0xcb, 0xbd, 0xfe, 0x67, 0xb1, 0xbe, 0x1f, 0xa1, 0xa9, 0xbe,
  0xaf, 0xed, 0x73, 0xbe, 0xd7, 0x7d, 0x7e, 0xbe, 0x94, 0x3d, 0x82, 0xbe,
  0x3b, 0x06, 0x8c, 0xbe, 0x2a, 0xf3, 0x93, 0xbe, 0x5c, 0xe2, 0x86, 0xbe,
  0x2b, 0x5d, 0x63, 0xbe, 0xad, 0x8e, 0x90, 0x3c, 0x04, 0xd1, 0xdb, 0x3d,
  0x02, 0xef, 0x24, 0xbe, 0x9b, 0xb7, 0xb9, 0xbd, 0xe4, 0x0f, 0x33, 0xbe,
  0x81, 0xee, 0x02, 0x3e, 0x9a, 0xca, 0xaf, 0xbd, 0x89, 0x67, 0x38, 0x3e,
  0x23, 0x20, 0x43, 0x3e, 0xba, 0x7f, 0xd5, 0x3d, 0xc7, 0x9c, 0xa7, 0xbc,
  0x30, 0xe1, 0x47, 0x3d, 0x21, 0xe3, 0xad, 0xbd, 0xa6, 0x31, 0x86, 0xbe,
  0xe4, 0x2b, 0x8c, 0xbd, 0xb3, 0x3f, 0xac, 0xbd, 0x03, 0x49, 0xa4, 0x3d,
  0x7f, 0xc5, 0x78, 0xbc, 0x4d, 0x09, 0x31, 0x3e, 0x69, 0x83, 0xf6, 0x3c,
  0xbf, 0x93, 0x85, 0x3e, 0x20, 0xa6, 0x0b, 0xbc, 0xb1, 0x54, 0x3c, 0x3e,
  0x4c, 0xd2, 0x5c, 0x3c, 0x46, 0xcd, 0x71, 0x3d, 0x7c, 0x40, 0x29, 0xbd,
  0x39, 0xfc, 0x02, 0x3e, 0x6a, 0xbc, 0x27, 0x3e, 0xe6, 0x1a, 0xe3, 0x3b,
  0x49, 0x45, 0xc6, 0xbe, 0x63, 0x1f, 0x8a, 0x3e, 0xd7, 0x53, 0x7f, 0x3e,
  0x07, 0xa3, 0xe8, 0x3d, 0xe7, 0xea, 0x3b, 0xbe, 0x45, 0x66, 0x4b, 0xbe,
  0x07, 0x08, 0x3b, 0xbe, 0x7c, 0x74, 0x64, 0xbe, 0x2b, 0x0b, 0x4f, 0x3e,
  0x7f, 0x91, 0x28, 0xbe, 0xd6, 0x51, 0xab, 0x3d, 0x8e, 0xf3, 0x73, 0x3e,
  0xd9, 0x90, 0x29, 0xbe, 0xc4, 0x18, 0x73, 0xbe, 0x01, 0xec, 0x94, 0x3d,
  0xd0, 0x44, 0x6b, 0xbe, 0x50, 0xb5, 0x21, 0xbe, 0x56, 0x2d, 0x60, 0xbe,
  0x08, 0x10, 0xba, 0x3d, 0x1f, 0xf0, 0x43, 0xbd, 0x8e, 0xee, 0x9b, 0xbe,
  0x91, 0x5c, 0xc9, 0x3d, 0xef, 0x15, 0x63, 0xbe, 0x50, 0x15, 0x18, 0xbe,
  0x46, 0x60, 0xf8, 0x3d, 0x29, 0x19, 0x76, 0x3e, 0x50, 0x05, 0x2c, 0x3e,
  0xb5, 0xeb, 0x23, 0x3f, 0x79, 0xe7, 0x20, 0xbe, 0xc2, 0x2e, 0x0e, 0x3e,
  0x65, 0x74, 0x4b, 0x3e, 0xc8, 0x38, 0x98, 0xbd, 0xa2, 0xe8, 0x5b, 0xbd,
  0xad, 0x55, 0x34, 0x3e, 0x1b, 0xe0, 0x6b, 0x3d, 0xf5, 0xec, 0xd1, 0xbd,
  0x22, 0x24, 0x55, 0xbe, 0xdb, 0x1d, 0xfd, 0x3c, 0x6d, 0x5e, 0xf7, 0x3d,
  0x60, 0xc9, 0xe7, 0xbd, 0x38, 0xa8, 0xcb, 0x3d, 0xec, 0x6a, 0x5d, 0xbe,
  0xad, 0x7b, 0x02, 0xbf, 0x00, 0x98, 0x5a, 0xbd, 0x9a, 0x52, 0xd4, 0xbe,
  0x3f, 0xfd, 0x96, 0xbe, 0xf6, 0x1a, 0x46, 0xbe, 0x93, 0x86, 0xb8, 0xbe,
  0x61, 0x38, 0x1b, 0xbf, 0xbc, 0xf7, 0x84, 0xbe, 0xcd, 0x36, 0xb4, 0xbe,
  0x2b, 0x63, 0xde, 0x3c, 0xb4, 0x24, 0x0a, 0x3f, 0x52, 0x63, 0x67, 0xbe,
  0x17, 0x3e, 0x9d, 0xbe, 0xd4, 0x29, 0x97, 0xbe, 0xd3, 0x79, 0x1e, 0x3c,
  0xde, 0x42, 0xde, 0x3d, 0x42, 0xa4, 0x4e, 0x3d, 0xfb, 0x31, 0x4b, 0x3e,
  0x21, 0x01, 0x5b, 0x3e, 0x66, 0x52, 0x19, 0x3d, 0x49, 0x20, 0x48, 0x3e,
  0xdf, 0x02, 0x74, 0x3e, 0x4e, 0x5e, 0x79, 0xbe, 0x64, 0x40, 0x56, 0x3d,
  0xa7, 0x05, 0x97, 0x3d, 0xac, 0xf4, 0x29, 0xbe, 0x03, 0x2f, 0xb7, 0x3e,
  0x2c, 0x28, 0x6c, 0x3e, 0x0e, 0xf4, 0x64, 0x3e, 0x6c, 0xec, 0x8d, 0x3d,
  0x55, 0xa4, 0x05, 0x3b, 0x7b, 0x54, 0x0f, 0xbd, 0xac, 0xe2, 0x97, 0x3e,
  0xc0, 0xe8, 0xd1, 0x3e, 0x5c, 0xc2, 0x56, 0x3c, 0x29, 0xce, 0xc9, 0xbd,
  0xa4, 0x43, 0xca, 0x3c, 0x1e, 0x55, 0x8b, 0x3e, 0x38, 0x4c, 0x6f, 0x3e,
  0xe4, 0xba, 0x04, 0xbd, 0x5f, 0x9f, 0x99, 0xbc, 0xd4, 0x66, 0x10, 0xbc,
  0xe3, 0x36, 0xaa, 0xbd, 0x44, 0x98, 0x8c, 0x3e, 0xdd, 0xea, 0xc7, 0x3c,
  0x91, 0x32, 0x2f, 0x3d, 0xfd, 0x51, 0x57, 0xbd, 0x15, 0xbc, 0x67, 0xbe,
  0x90, 0x73, 0xbe, 0xbe, 0x6f, 0xe0, 0x9a, 0xbe, 0x50, 0x65, 0x7e, 0xbe,
  0xae, 0xb3, 0xc4, 0xbc, 0xf7, 0x90, 0xa2, 0x3b, 0x51, 0xda, 0xea, 0xbd,
  0x72, 0x8e, 0xb4, 0xbe, 0x63, 0x5b, 0x4f, 0xbe, 0xc2, 0x49, 0x27, 0xbe,
  0x9b, 0x7d, 0x21, 0xbd, 0xea, 0xdd, 0x01, 0x3e, 0x58, 0x3f, 0xa6, 0xbe,
  0x6b, 0x0d, 0xb8, 0xbd, 0x78, 0xe1, 0x16, 0xbd, 0x8f, 0x2f, 0x82, 0xbe,
  0x1b, 0x14, 0x04, 0xbe, 0xb2, 0x72, 0xe6, 0xbd, 0xd1, 0xbb, 0xe5, 0x3d,
  0x95, 0xff, 0xa8, 0x3d, 0x35, 0x70, 0x31, 0xbe, 0xcf, 0x67, 0x16, 0xbe,
  0x32, 0xed, 0x16, 0x3d, 0x4d, 0xfc, 0x58, 0xbe, 0x54, 0x2e, 0xbc, 0xbd,
  0xc3, 0x67, 0x02, 0xbe, 0x68, 0xa9, 0x86, 0xbd, 0x9d, 0x2b, 0x08, 0x3e,
  0x1f, 0xf3, 0x4f, 0x3b, 0x3b, 0xe0, 0xdd, 0xbd, 0xde, 0x05, 0xd3, 0xbd,
  0xad, 0x98, 0x16, 0x3f, 0xa6, 0x7b, 0x33, 0x3e, 0x72, 0x8a, 0xf5, 0x3d,
  0xbe, 0x0d, 0x18, 0x3f, 0x84, 0xa9, 0x44, 0x3e, 0xb4, 0xc0, 0x82, 0x3d,
  0xb2, 0x97, 0x63, 0x3d, 0xf8, 0xa9, 0x77, 0xbc, 0xb0, 0xbb, 0x17, 0x3c,
  0xbd, 0x4f, 0x7a, 0x3d, 0x22, 0xa7, 0x6e, 0x3d, 0x9c, 0x4c, 0x47, 0x3d,
  0xe4, 0xa6, 0xb5, 0x3e, 0x58, 0xd5, 0xef, 0x3d, 0xb5, 0xb0, 0x08, 0xbc,
  0x09, 0x01, 0xb9, 0xbc, 0x5a, 0x18, 0x1b, 0xbf, 0x13, 0x2c, 0x83, 0xbe,
  0x1a, 0x99, 0x13, 0x3f, 0xeb, 0x17, 0x29, 0x3e, 0x6f, 0x2f, 0xfd, 0x3e,
  0x8a, 0x76, 0x18, 0xbf, 0x23, 0x37, 0xd0, 0xbe, 0x41, 0x52, 0xfd, 0xbe,
  0x64, 0x5c, 0x74, 0x3e, 0x81, 0x28, 0xf7, 0xbe, 0x51, 0x0e, 0x03, 0xbd,
  0xd2, 0x6f, 0x56, 0xbf, 0x6f, 0x74, 0xa9, 0x3e, 0x08, 0x81, 0xd3, 0x3e,
  0xc2, 0x62, 0x96, 0x3e, 0xe6, 0x68, 0x8d, 0x3e, 0xa5, 0xe9, 0xbe, 0xbe,
  0x06, 0x42, 0x00, 0xbe, 0x76, 0x7c, 0x95, 0x3e, 0xe6, 0x46, 0xab, 0x3d,
  0x75, 0x4f, 0x8e, 0xbe, 0x2a, 0xf0, 0x7a, 0xbf, 0x79, 0xc1, 0xc8, 0xbe,
  0x3d, 0x16, 0x22, 0xbf, 0x53, 0xcd, 0x15, 0x3f, 0x58, 0xcf, 0xf4, 0xbe,
  0x77, 0x94, 0x42, 0xbf, 0x08, 0xb2, 0x53, 0xbf, 0x7d, 0xf4, 0x72, 0x3d,
  0x35, 0x1a, 0x08, 0xbe, 0xac, 0xa2, 0xc8, 0xbe, 0x7c, 0x64, 0xe7, 0xbd,
  0x36, 0x38, 0x94, 0x3c, 0xf1, 0xfe, 0xce, 0xbc, 0x95, 0x2a, 0xa6, 0x3d,
  0xe9, 0x87, 0xfe, 0x3e, 0x06, 0xd0, 0x92, 0x3e, 0x8a, 0x5a, 0xbf, 0xbe,
  0x08, 0x4d, 0x88, 0xbe, 0xd2, 0xde, 0x85, 0xbd, 0x6d, 0xdf, 0x26, 0x3f,
  0xdb, 0xda, 0x11, 0xbe, 0x4b, 0x74, 0x70, 0xbe, 0x40, 0x84, 0x76, 0xbe,
  0x15, 0x44, 0xe6, 0x3e, 0xa8, 0xd2, 0x6f, 0x3e, 0x2e, 0x6a, 0xa2, 0xbc,
  0xcc, 0x8d, 0xdc, 0x3d, 0xa3, 0xec, 0xa5, 0x3c, 0x45, 0xef, 0x04, 0xbe,
  0xa7, 0xbb, 0xa7, 0x3e, 0x11, 0x06, 0x12, 0xbe, 0x40, 0xd4, 0xea, 0xbd,
  0x09, 0xcd, 0x82, 0x3e, 0xba, 0x36, 0x81, 0x3e, 0x77, 0xfb, 0x00, 0x3e,
  0xf6, 0x2c, 0x1a, 0x3d, 0x00, 0x4d, 0x39, 0xbe, 0x0e, 0x10, 0xf9, 0xbd,
  0xe5, 0x5d, 0xe0, 0x3b, 0x88, 0x0a, 0x72, 0xbe, 0x5f, 0xc6, 0xaf, 0x3e,
  0xda, 0xae, 0x5d, 0x3e, 0xec, 0x55, 0x0d, 0xbd, 0xc7, 0x07, 0x16, 0xbe,
  0x6c, 0x1b, 0x3d, 0xbd, 0x5a, 0x86, 0xe2, 0x3d, 0x20, 0xb1, 0x16, 0x3c,
  0x87, 0x17, 0x3a, 0x3e, 0xee, 0xb4, 0x8e, 0xbc, 0xf7, 0xe7, 0x11, 0xbd,
  0x76, 0xd5, 0x02, 0xbd, 0x96, 0xf3, 0xad, 0x3e, 0xd7, 0x28, 0x25, 0x3e,
  0x0a, 0x16, 0x07, 0xbe, 0xab, 0x99, 0xae, 0xbd, 0x2a, 0xc6, 0xaf, 0xbe,
  0x29, 0xb7, 0x83, 0xbd, 0x70, 0xe3, 0xbc, 0xbd, 0xf7, 0xd7, 0x18, 0x3e,
  0xf1, 0x11, 0x0a, 0x3e, 0x5c, 0xd5, 0xab, 0xbd, 0x87, 0x9c, 0xc1, 0xbe,
  0x4a, 0x0d, 0x06, 0xbe, 0x61, 0x11, 0x6d, 0x3e, 0xd0, 0xcf, 0x12, 0xbe,
  0x10, 0x09, 0xcc, 0xbd, 0xa8, 0x94, 0x3e, 0x3e, 0x0b, 0xe6, 0x07, 0x3f,
  0x70, 0x28, 0x2d, 0x3d, 0x63, 0x88, 0x2c, 0xbd, 0x31, 0x07, 0x88, 0x3e,
  0x06, 0x13, 0x88, 0xbe, 0xe3, 0xe3, 0xae, 0xbe, 0xe8, 0xe4, 0x84, 0x3d,
  0x0a, 0x5d, 0xd5, 0x3d, 0xeb, 0xaf, 0x75, 0x3e, 0x95, 0x2f, 0x0c, 0xbf,
  0x80, 0x64, 0x38, 0x3e, 0x0f, 0xce, 0x9d, 0x3e, 0xc9, 0x08, 0x26, 0xbf,
  0x2d, 0x55, 0xab, 0xbe, 0x3b, 0x87, 0x3d, 0xbf, 0xd3, 0x87, 0x21, 0xbf,
  0xbf, 0x08, 0x22, 0x3f, 0x54, 0x25, 0x13, 0xbf, 0x7c, 0xe7, 0x67, 0xbf,
  0xb2, 0x80, 0x1a, 0xbe, 0x98, 0x2a, 0x31, 0x3e, 0x0c, 0x7e, 0xf3, 0xbd,
  0x6c, 0xed, 0x38, 0xbf, 0x3e, 0xf2, 0x2a, 0xbf, 0xff, 0x45, 0xf3, 0xbd,
  0xd1, 0xe2, 0x57, 0x3e, 0x2b, 0xd2, 0x92, 0xbd, 0xde, 0xce, 0x4f, 0x3e,
  0x3b, 0x17, 0x91, 0xbd, 0xd1, 0xec, 0x36, 0x3e, 0x03, 0xbf, 0x62, 0x3d,
  0x53, 0x16, 0x4d, 0x3e, 0x52, 0xe0, 0x0d, 0x3c, 0xa2, 0x06, 0x25, 0x3e,
  0x08, 0xb4, 0xca, 0x3d, 0xb8, 0x02, 0xd1, 0xbc, 0x10, 0x8c, 0x72, 0x3d,
  0x21, 0xfc, 0x19, 0x3e, 0x30, 0x45, 0x38, 0x3e, 0x1e, 0xd0, 0xc4, 0x3d,
  0x79, 0x91, 0x1c, 0x3e, 0xe8, 0xba, 0x78, 0xbd, 0xa7, 0x8f, 0x1c, 0xbe,
  0x87, 0x74, 0xcc, 0x3d, 0x9f, 0x16, 0x8f, 0xbd, 0x3b, 0xf7, 0x1c, 0xbe,
  0x85, 0xac, 0xd5, 0x3d, 0x5c, 0xb8, 0xb0, 0xbc, 0xe8, 0x8b, 0x24, 0xbc,
  0x81, 0x63, 0x9c, 0xbd, 0x6d, 0x0d, 0x81, 0x3d, 0x88, 0x04, 0xc6, 0x3d,
  0xb5, 0xc1, 0x7b, 0x3d, 0xb8, 0xeb, 0xb1, 0x3c, 0x0e, 0x43, 0x43, 0x3d,
  0xa6, 0x95, 0xf7, 0x3d, 0xa6, 0xf1, 0xff, 0xff, 0x04, 0x00, 0x00, 0x00,
  0x00, 0x0c, 0x00, 0x00, 0x8a, 0x52, 0xb8, 0xbe, 0x50, 0x09, 0xe9, 0x3d,
  0xb0, 0x4e, 0xd4, 0xbd, 0x7b, 0xed, 0xd1, 0xbd, 0xfe, 0x37, 0x44, 0xbe,
  0xcc, 0xa6, 0xba, 0xbd, 0x0b, 0x66, 0xa3, 0x3d, 0x68, 0xf7, 0x22, 0xbd,
  0xa8, 0x5b, 0x2e, 0xbe, 0xbc, 0x6c, 0x63, 0xbd, 0x38, 0x9b, 0xc9, 0xbd,
  0x71, 0xea, 0x2a, 0xbe, 0xff, 0x54, 0x97, 0xbe, 0x1d, 0xbb, 0x0b, 0xbe,
  0x48, 0xc1, 0xa5, 0x3d, 0x22, 0xfe, 0x06, 0xbe, 0xc5, 0xfa, 0x59, 0xbd,
  0x91, 0x61, 0x8d, 0xbe, 0x55, 0x01, 0xc8, 0x3c, 0x48, 0x9c, 0x22, 0xbe,
  0x22, 0xc5, 0xb8, 0xbd, 0x7d, 0x3a, 0x50, 0xbd, 0x38, 0x44, 0x73, 0xbe,
  0x2d, 0x45, 0xed, 0x3d, 0x1b, 0xf2, 0xac, 0x3e, 0x92, 0xcd, 0x4d, 0x3e,
  0xb2, 0xb9, 0x53, 0x3e, 0x4a, 0x6e, 0x84, 0xbd, 0x90, 0xfc, 0x86, 0x3e,
  0xd6, 0x6c, 0xac, 0x3e, 0x5e, 0x0a, 0xec, 0x3d, 0xa5, 0x49, 0x1b, 0xbe,
  0x06, 0x49, 0xe2, 0x3e, 0x39, 0x81, 0xcd, 0xbc, 0x9b, 0xbc, 0xde, 0x3e,
  0xb8, 0x15, 0xbe, 0x3d, 0x44, 0x1c, 0x4c, 0x3d, 0x18, 0x99, 0xb0, 0x3e,
  0x28, 0x52, 0x46, 0xbd, 0xa8, 0x65, 0xa8, 0x3e, 0xaa, 0xd6, 0xe2, 0x3e,
  0x16, 0x56, 0xb0, 0x3d, 0x19, 0x7e, 0xd6, 0x3e, 0x49, 0x1c, 0x57, 0x3e,
  0xeb, 0xd3, 0xe7, 0x3e, 0x7c, 0xa2, 0x65, 0x3e, 0xe7, 0x29, 0x82, 0x3e,
  0x40, 0xb2, 0x29, 0x3e, 0x3c, 0x3f, 0xd9, 0x3d, 0x3e, 0x12, 0x64, 0x3e,
  0xfe, 0x69, 0xc5, 0xbc, 0x7b, 0xee, 0x0e, 0x3d, 0xa0, 0x68, 0xe7, 0xbd,
  0x2f, 0xc6, 0x82, 0x3e, 0x66, 0x5e, 0x3a, 0x3e, 0x89, 0x11, 0xec, 0x3e,
  0x4d, 0xdb, 0x98, 0x3e, 0xf4, 0xd4, 0x58, 0xbc, 0x2f, 0x5c, 0x80, 0x3e,
  0xb7, 0x2f, 0x45, 0x3e, 0xb1, 0x12, 0x0c, 0x3e, 0xbf, 0x5b, 0x0a, 0x3f,
  0x0c, 0x0e, 0x87, 0x3d, 0x5a, 0x8a, 0x5c, 0x3e, 0xa5, 0x43, 0x8e, 0x3c,
  0x06, 0xbb, 0xf9, 0x3e, 0xee, 0x6c, 0x8e, 0x3d, 0x54, 0x7c, 0xb4, 0xbe,
  0x45, 0xdf, 0x44, 0x3b, 0xbf, 0xfd, 0x5a, 0xbe, 0x48, 0x1a, 0x6e, 0xbe,
  0xc8, 0x2f, 0x42, 0x3d, 0x84, 0xc8, 0x46, 0xbe, 0x0e, 0xed, 0x22, 0x3d,
  0x73, 0x86, 0xc0, 0xbc, 0x57, 0x70, 0xd8, 0x3b, 0xf5, 0x12, 0x9f, 0x3d,
  0xb3, 0xd6, 0x98, 0x3e, 0x49, 0x3b, 0x04, 0x3f, 0x3e, 0x81, 0x9b, 0xbc,
  0x24, 0x7d, 0xb8, 0x3d, 0xaa, 0x5c, 0xc1, 0x3c, 0x15, 0xa2, 0x21, 0xbd,
  0x71, 0x50, 0x52, 0x3d, 0x70, 0xa1, 0x70, 0xbe, 0x35, 0x03, 0x0b, 0x3e,
  0x93, 0x1b, 0xda, 0xbc, 0x73, 0xa1, 0xcf, 0x3d, 0x45, 0x62, 0xda, 0xbc,
  0x09, 0xd2, 0xe4, 0x3d, 0x8b, 0x7b, 0x30, 0x3e, 0xbf, 0x81, 0xa9, 0xbc,
  0x6b, 0x50, 0x16, 0xbd, 0x41, 0xa9, 0xbb, 0x3d, 0xb7, 0xfa, 0x5d, 0x3d,
  0x90, 0xbe, 0x10, 0x3d, 0x93, 0x8b, 0x30, 0xbe, 0x9e, 0x67, 0x10, 0x3e,
  0xb9, 0xa8, 0x95, 0x3e, 0x16, 0xd5, 0xe0, 0x3e, 0x6f, 0x5f, 0xd6, 0x3b,
  0x60, 0x7f, 0x4a, 0x3e, 0x4a, 0x47, 0xc9, 0xbd, 0x3d, 0x50, 0x2b, 0xbd,
  0xd1, 0xa4, 0xf1, 0x3e, 0x87, 0x63, 0x32, 0x3e, 0xe1, 0xbc, 0xda, 0x3d,
  0x91, 0x19, 0xb5, 0xbb, 0x02, 0x66, 0xec, 0xbe, 0x7a, 0xc3, 0xd2, 0xbe,
  0xdc, 0x37, 0x40, 0xbd, 0xf1, 0xab, 0x31, 0xbe, 0xa8, 0x25, 0x45, 0xbe,
  0xe7, 0x1b, 0x3e, 0xbe, 0x64, 0xa9, 0x96, 0x3d, 0x72, 0x82, 0x09, 0x3e,
  0x37, 0x53, 0xe0, 0xbd, 0xfa, 0x65, 0x91, 0x3e, 0x72, 0x12, 0x37, 0xbe,
  0x08, 0x5e, 0x22, 0xbe, 0x48, 0x31, 0xae, 0x3e, 0xfe, 0xa4, 0xdb, 0xbe,
  0x0e, 0xf2, 0x28, 0x3e, 0x03, 0x02, 0x8b, 0x3b, 0x97, 0x9f, 0x98, 0xbe,
  0x81, 0xb4, 0xde, 0xbe, 0x62, 0x33, 0xf7, 0xbe, 0x0b, 0x18, 0xac, 0xbe,
  0x05, 0x4b, 0x82, 0x3d, 0xd5, 0x31, 0x39, 0xbd, 0xa6, 0x90, 0x97, 0x3d,
  0x48, 0x53, 0x76, 0x3e, 0x79, 0x6f, 0x80, 0xbe, 0x4d, 0x67, 0x75, 0x3e,
  0xc8, 0xb3, 0x95, 0xbe, 0xaf, 0x50, 0x23, 0xbe, 0xa7, 0xe3, 0x49, 0x3e,
  0xf6, 0x1c, 0x1a, 0x3e, 0x92, 0x46, 0x04, 0xbd, 0xf9, 0x76, 0x3a, 0x3b,
  0x2b, 0xe2, 0x0e, 0xbe, 0x31, 0xd0, 0x44, 0xbe, 0x23, 0x0f, 0x1d, 0x3d,
  0xdc, 0xa0, 0x47, 0xbe, 0x1a, 0x6a, 0xfe, 0x3c, 0x60, 0xec, 0xfa, 0x3e,
  0xed, 0xde, 0xce, 0xbe, 0xd4, 0x5a, 0x8d, 0xbe, 0xca, 0xaf, 0x14, 0xbe,
  0x19, 0xcd, 0xad, 0xbe, 0x33, 0x38, 0x69, 0x3c, 0xff, 0x43, 0x81, 0x3e,
  0x83, 0xae, 0xfe, 0xbd, 0xe5, 0x2e, 0x8b, 0x3e, 0xef, 0x97, 0x4d, 0xbe,
  0x70, 0xeb, 0x89, 0xbe, 0x01, 0xe1, 0xc7, 0x3e, 0x73, 0x02, 0xa0, 0x3e,
  0x52, 0x62, 0x00, 0x3f, 0x77, 0x28, 0xf5, 0xbd, 0x27, 0x7c, 0xbd, 0xbd,
  0xf2, 0xe9, 0x96, 0x3e, 0xb5, 0x58, 0x2c, 0xbe, 0xbe, 0xf3, 0xd4, 0xbd,
  0x3e, 0x2e, 0x8a, 0x3c, 0x58, 0x5b, 0x4a, 0x3c, 0x6f, 0xec, 0xf0, 0x3d,
  0xb6, 0x61, 0xeb, 0xbd, 0x4a, 0x54, 0xb8, 0x3d, 0x04, 0x76, 0x28, 0x3d,
  0x0d, 0x57, 0xa3, 0xbe, 0x06, 0x1a, 0xc7, 0xbd, 0xe9, 0xa6, 0xa6, 0xbd,
  0x92, 0x06, 0xf1, 0x3d, 0xb5, 0x78, 0x55, 0x3e, 0x6f, 0xb7, 0x2c, 0x3e,
  0x05, 0x25, 0x2d, 0xbe, 0xdf, 0xe6, 0xb1, 0xbe, 0x77, 0x07, 0xa3, 0x3e,
  0xa9, 0x75, 0x91, 0x3e, 0x21, 0x2b, 0x00, 0x3e, 0xb2, 0xa1, 0x2f, 0x3e,
  0xd0, 0xfe, 0x07, 0xbe, 0xd1, 0x8b, 0x70, 0x3e, 0x08, 0xdd, 0x97, 0x3d,
  0xa2, 0xdb, 0xb6, 0xbd, 0xfe, 0x45, 0xc6, 0xbd, 0x98, 0xf7, 0x92, 0x3e,
  0x86, 0xa0, 0x17, 0xbe, 0x65, 0xe9, 0x70, 0xbc, 0x85, 0x3b, 0xd9, 0xbd,
  0x6f, 0xba, 0x07, 0x3c, 0x88, 0xd2, 0x8f, 0x3e, 0x08, 0x75, 0x1f, 0x3f,
  0x47, 0xc9, 0xdf, 0x3d, 0x6c, 0xdc, 0xd5, 0x3e, 0xa6, 0x83, 0xac, 0x3e,
  0x2a, 0xe7, 0x80, 0xbe, 0x4f, 0x58, 0xa9, 0x3e, 0x45, 0x5a, 0x9a, 0x3e,
  0xc4, 0x61, 0x83, 0x3e, 0xda, 0xb4, 0x5c, 0x3d, 0x2e, 0xed, 0x50, 0xbd,
  0x30, 0x11, 0x04, 0x3e, 0x81, 0xe2, 0xd6, 0x3d, 0x93, 0xb9, 0x11, 0xbe,
  0xb9, 0x84, 0x87, 0x3e, 0xdb, 0x9a, 0xc3, 0x3d, 0x43, 0x51, 0xf6, 0xbd,
  0x36, 0xb5, 0x42, 0xbd, 0xa1, 0xa3, 0xcc, 0xbd, 0x97, 0x55, 0x0a, 0x3e,
  0xb6, 0x65, 0xad, 0x3c, 0xec, 0x47, 0x72, 0xbd, 0x7b, 0x8a, 0x90, 0x3c,
  0x1a, 0xaf, 0x36, 0xbd, 0x58, 0x52, 0xf8, 0x3d, 0x89, 0x74, 0x78, 0xbe,
  0x72, 0xea, 0x8f, 0x3d, 0x9d, 0xe3, 0x43, 0xbc, 0xdb, 0x4e, 0x12, 0x3e,
  0x3e, 0xef, 0x3a, 0x3c, 0xf4, 0x80, 0xe5, 0x3d, 0x4f, 0xed, 0xa3, 0xbd,
  0x60, 0x46, 0xc6, 0x3b, 0xc2, 0xba, 0x73, 0x3e, 0xb3, 0x35, 0x22, 0xbd,
  0xf8, 0x90, 0xd3, 0x3d, 0x15, 0x5a, 0x14, 0x3e, 0xde, 0x6f, 0x90, 0x3d,
  0x7d, 0x90, 0x1a, 0xbe, 0x64, 0xe8, 0x7e, 0xbd, 0xa1, 0xab, 0xc5, 0x3d,
  0x89, 0x6c, 0x0a, 0xbd, 0xd9, 0x1d, 0xc1, 0xbd, 0xa5, 0x82, 0x20, 0x3e,
  0x72, 0xc2, 0x94, 0x3e, 0xc2, 0xe6, 0xcb, 0xbd, 0xf4, 0xe3, 0x86, 0x3e,
  0xf9, 0x50, 0x51, 0xbd, 0xdb, 0x5e, 0x47, 0xbe, 0xc1, 0x75, 0x8c, 0xbe,
  0x33, 0x9e, 0xe8, 0x3e, 0x61, 0xc7, 0x2f, 0x3e, 0x4b, 0xc8, 0x9e, 0x3e,
  0xd1, 0xb9, 0xb0, 0x3e, 0xdc, 0xbf, 0x58, 0xbe, 0x00, 0x27, 0x97, 0x3d,
  0xbc, 0x7e, 0x33, 0x3f, 0x67, 0xc4, 0x06, 0xbe, 0x2b, 0x97, 0x54, 0x3e,
  0xba, 0x8c, 0x1d, 0x3f, 0x6a, 0xdf, 0x72, 0x3e, 0x5f, 0x14, 0xbb, 0x3b,
  0x41, 0x1f, 0x03, 0xbd, 0x29, 0xdb, 0x19, 0x3e, 0xde, 0xfe, 0x3e, 0x3d,
  0xa1, 0x1f, 0xe6, 0x3d, 0xa7, 0x29, 0xef, 0x3d, 0xf4, 0xbe, 0x8d, 0xbc,
  0x44, 0x56, 0x6d, 0xbe, 0x39, 0x00, 0x81, 0x3e, 0x23, 0xac, 0x1a, 0x3e,
  0xa7, 0x49, 0x2b, 0xbe, 0xce, 0x88, 0xdd, 0x3e, 0xed, 0x59, 0x05, 0xbe,
  0xb6, 0x2c, 0x15, 0xbd, 0x8f, 0xaa, 0x7e, 0xbd, 0x02, 0xc9, 0x42, 0x3d,
  0x84, 0x84, 0xf2, 0xbc, 0x1f, 0x2a, 0x9b, 0xbc, 0xa2, 0x75, 0x94, 0x3b,
  0xe2, 0x58, 0x52, 0xbc, 0x47, 0xd3, 0xcd, 0xbe, 0xf9, 0xdc, 0x20, 0x3e,
  0xb7, 0x15, 0x77, 0xbe, 0x7d, 0x9d, 0xd7, 0x3c, 0x62, 0x95, 0x52, 0x3e,
  0x21, 0xe9, 0xec, 0x3b, 0x8f, 0x8a, 0x09, 0xbb, 0xf1, 0xd6, 0x6b, 0x3e,
  0xcc, 0x12, 0xae, 0xbe, 0x9c, 0xbe, 0x51, 0x3e, 0x3d, 0x42, 0xd6, 0xbd,
  0x71, 0xd7, 0xe7, 0xbb, 0x1c, 0xb0, 0x22, 0x3e, 0x37, 0x76, 0x80, 0xbe,
  0xbf, 0x6f, 0xb2, 0xba, 0x2a, 0x59, 0x8e, 0x3e, 0x71, 0xa6, 0xb6, 0xbe,
  0x57, 0x94, 0xac, 0x3e, 0x0e, 0x38, 0x18, 0xbe, 0xce, 0x09, 0x42, 0x3e,
  0x28, 0x93, 0x9e, 0x3e, 0xb6, 0x63, 0x15, 0x3e, 0xb2, 0xec, 0xbe, 0x3e,
  0x6b, 0x65, 0xa9, 0x3d, 0xb4, 0x80, 0x61, 0xbe, 0x61, 0x7d, 0xb9, 0x3e,
  0x92, 0x37, 0x42, 0xbd, 0x91, 0xa2, 0xac, 0x3e, 0x9d, 0xa1, 0x8d, 0x3d,
  0x1e, 0x9e, 0x8b, 0xbe, 0x16, 0x11, 0x4a, 0x3e, 0xd9, 0x6c, 0x25, 0x3e,
  0xf0, 0x53, 0x00, 0xbf, 0x31, 0x30, 0x14, 0x3e, 0x4e, 0xb6, 0x4e, 0x3d,
  0x40, 0x76, 0x0b, 0xbe, 0xcd, 0x8a, 0x42, 0xbd, 0xf4, 0x61, 0xae, 0xbd,
  0x30, 0x69, 0x1c, 0xbe, 0xcd, 0x77, 0x4c, 0xbe, 0x3b, 0x84, 0x9a, 0xbe,
  0xb3, 0xe5, 0x5b, 0x3e, 0x84, 0x8e, 0x3a, 0x3e, 0x3f, 0x32, 0x19, 0x3e,
  0xaf, 0x0b, 0x35, 0x3e, 0x62, 0xd3, 0x34, 0xbe, 0x30, 0xa6, 0x92, 0xbb,
  0x16, 0x56, 0xa9, 0xbe, 0xb9, 0xbc, 0x30, 0xbe, 0x75, 0x3f, 0x54, 0x3e,
  0x46, 0x7c, 0x14, 0xbd, 0xaa, 0x89, 0x02, 0x3d, 0xbb, 0xd1, 0x2b, 0xbd,
  0xd2, 0xc5, 0x22, 0xbe, 0x35, 0x21, 0x5c, 0xbd, 0xc1, 0x03, 0x1d, 0x3e,
  0xc0, 0xd4, 0xce, 0xbc, 0xd9, 0xb3, 0x3a, 0x3d, 0x77, 0x1a, 0x41, 0x3e,
  0xcf, 0xe6, 0xdb, 0xbd, 0x8b, 0xbc, 0x02, 0x3e, 0x34, 0xc3, 0x1d, 0x3e,
  0xf1, 0x6d, 0xb6, 0xbd, 0xd9, 0x03, 0x6d, 0x3e, 0x70, 0x78, 0x41, 0x3f,
  0x15, 0x79, 0xbd, 0x3d, 0x64, 0x24, 0x77, 0xbe, 0x73, 0xa3, 0xcc, 0x3d,
  0xfb, 0xb6, 0x80, 0x3d, 0x4b, 0xe7, 0x0f, 0x3e, 0x09, 0x14, 0x0e, 0x3f,
  0x44, 0xc4, 0x96, 0x3e, 0x18, 0x92, 0xd1, 0x3d, 0xff, 0x7f, 0x7f, 0xbd,
  0x45, 0x20, 0x93, 0x3e, 0x7a, 0x81, 0x74, 0x3e, 0xae, 0xe8, 0x8d, 0x3e,
  0xee, 0xe2, 0xa1, 0x3e, 0x3e, 0x7d, 0xa5, 0x3d, 0x64, 0x7e, 0xbf, 0xbb,
  0x46, 0xd1, 0x82, 0x3e, 0x62, 0x8c, 0x1d, 0xbd, 0x7a, 0x42, 0xe7, 0x3d,
  0xea, 0xc7, 0x8c, 0x3d, 0x6b, 0x43, 0x48, 0xbd, 0x14, 0x5a, 0xc1, 0x3c,
  0x29, 0x5d, 0x8e, 0xbe, 0xfd, 0x61, 0x1c, 0xbe, 0x75, 0x54, 0x77, 0x3e,
  0x54, 0x78, 0x5d, 0x3c, 0x29, 0xd2, 0xab, 0xbb, 0x73, 0x93, 0x36, 0xbe,
  0xe5, 0xa3, 0x6a, 0x3e, 0x83, 0x3f, 0xe1, 0x3e, 0xaf, 0x88, 0x0d, 0xbc,
  0xc2, 0xb8, 0x18, 0x3e, 0x5a, 0x4d, 0xc9, 0xbd, 0x94, 0xbc, 0x55, 0xbe,
  0x1c, 0x25, 0x14, 0xbe, 0x44, 0xc1, 0x53, 0xbd, 0x32, 0x31, 0x23, 0x3d,
  0xe7, 0x2d, 0xb8, 0xbd, 0x99, 0xa5, 0x5d, 0xbe, 0xca, 0x88, 0xa4, 0xbe,
  0x96, 0xc9, 0xea, 0x3a, 0x6c, 0x22, 0x1c, 0xbd, 0x92, 0x3b, 0xf3, 0xbc,
  0x71, 0xd8, 0x0b, 0xbe, 0xb7, 0x72, 0xb1, 0xbc, 0x07, 0xca, 0x3b, 0x3e,
  0xf5, 0x24, 0x70, 0x3e, 0x2d, 0x9e, 0x1c, 0x3e, 0x82, 0xf5, 0x45, 0x3e,
  0x46, 0x44, 0x06, 0xbf, 0xfa, 0xa4, 0x77, 0xbe, 0x2f, 0x53, 0x3a, 0x3e,
  0x45, 0x04, 0xf7, 0xbe, 0x1b, 0xe9, 0x84, 0x3d, 0xf5, 0xb8, 0xce, 0xbe,
  0x63, 0x8d, 0x30, 0xbe, 0xc6, 0x4d, 0x93, 0x3e, 0xf7, 0x71, 0x8e, 0xbe,
  0xca, 0x83, 0xd2, 0xbe, 0x5b, 0x5b, 0x4b, 0x3e, 0x29, 0x6e, 0xa6, 0x3e,
  0xd1, 0xde, 0xb6, 0x3e, 0x19, 0xd5, 0x49, 0xbd, 0x79, 0x3b, 0x4b, 0xbb,
  0x6d, 0x48, 0x6a, 0x3e, 0x1d, 0xa0, 0x1d, 0xbf, 0x37, 0xc9, 0xc1, 0x3c,
  0xe1, 0x40, 0xb4, 0x3d, 0xaf, 0x54, 0x2c, 0xbf, 0xcd, 0x21, 0x15, 0x3e,
  0x75, 0xf9, 0x50, 0xbe, 0x28, 0xcf, 0x93, 0xbe, 0x30, 0xe0, 0xc6, 0x3e,
  0xe8, 0x6b, 0xdc, 0xbe, 0x1e, 0x59, 0x37, 0xbf, 0x86, 0x13, 0x04, 0x3e,
  0xe4, 0x69, 0x62, 0x3e, 0xe4, 0x83, 0xcc, 0x3e, 0x2a, 0xef, 0x51, 0xbd,
  0xaa, 0x19, 0xc2, 0x3c, 0x94, 0x71, 0xc8, 0x3e, 0xf6, 0x63, 0x0e, 0xbe,
  0x5e, 0xcc, 0x08, 0xbe, 0x51, 0xad, 0x05, 0xbe, 0xa4, 0xe5, 0x05, 0xbe,
  0xbe, 0x6c, 0x76, 0x3d, 0xce, 0x8e, 0x45, 0xbe, 0xe3, 0xff, 0xdf, 0xbe,
  0x1c, 0x47, 0xb7, 0x3d, 0xcc, 0x70, 0x45, 0xbe, 0xa3, 0x55, 0xf1, 0xbe,
  0xe0, 0x08, 0x33, 0x3d, 0x31, 0xc8, 0xb1, 0x3c, 0xc3, 0xfa, 0x63, 0x3d,
  0x96, 0xb9, 0x5a, 0x3d, 0x75, 0x97, 0x10, 0x3e, 0x3e, 0x0b, 0xfe, 0x3e,
  0xf2, 0xe4, 0x03, 0xbe, 0x5e, 0xcc, 0xbf, 0xbe, 0xc6, 0x6d, 0x39, 0xbe,
  0x57, 0x14, 0x6f, 0x3e, 0x14, 0xf6, 0xcc, 0xbc, 0xda, 0xc4, 0x90, 0x3e,
  0x4d, 0x59, 0x45, 0x3d, 0x43, 0x32, 0x0b, 0x3e, 0x54, 0x5f, 0xc2, 0x3e,
  0xc4, 0xc0, 0x91, 0x3e, 0x65, 0x09, 0xbc, 0x3e, 0xbf, 0x94, 0x9d, 0x3e,
  0x5d, 0xbe, 0x79, 0x3e, 0x5d, 0x76, 0x01, 0x3f, 0x7c, 0x59, 0x44, 0x3e,
  0xd8, 0x3c, 0x8a, 0xbd, 0x79, 0x9a, 0xd5, 0x3d, 0x7e, 0x05, 0x71, 0x3c,
  0xab, 0xe1, 0x5d, 0x3d, 0x68, 0x0d, 0xad, 0x3b, 0x18, 0xfa, 0x1b, 0x3c,
  0xfe, 0x93, 0x4c, 0x3e, 0xf0, 0xe0, 0xd2, 0xbe, 0xa8, 0xa6, 0x8b, 0x3c,
  0x95, 0xc7, 0x2b, 0xbe, 0xd2, 0xb6, 0xc8, 0xbc, 0x4c, 0x0f, 0x8a, 0x3a,
  0x85, 0x0e, 0x42, 0xbe, 0x23, 0xa6, 0xf9, 0xbd, 0x26, 0x2e, 0x21, 0x3e,
  0x85, 0xee, 0x7c, 0xbc, 0x18, 0xb7, 0xff, 0xbd, 0x24, 0xa7, 0x38, 0xbe,
  0xab, 0x64, 0xa4, 0x3d, 0x26, 0xa9, 0x0b, 0x3e, 0x54, 0x62, 0x14, 0xbe,
  0x34, 0xa3, 0x31, 0x3e, 0xc9, 0x2a, 0x0b, 0x3e, 0xb0, 0x51, 0xc0, 0xbd,
  0x32, 0x69, 0x88, 0x3e, 0xb3, 0x8d, 0x36, 0xbe, 0xb8, 0x92, 0x4c, 0xbe,
  0xfe, 0x84, 0xa2, 0xbd, 0xd2, 0xd1, 0x3f, 0xbc, 0x92, 0xdb, 0xe6, 0xbb,
  0x64, 0xc2, 0x4e, 0x3e, 0xff, 0x70, 0xa3, 0x3d, 0x81, 0x49, 0x17, 0x3f,
  0x1d, 0x95, 0xe4, 0x3e, 0xb2, 0xba, 0x9b, 0xbe, 0x60, 0xcd, 0xbd, 0x3e,
  0x62, 0x2e, 0x14, 0x3e, 0xed, 0xa5, 0xbb, 0x3e, 0x19, 0x70, 0x19, 0xbe,
  0x2f, 0xf7, 0x0b, 0x3e, 0x2c, 0x1a, 0xb1, 0xbb, 0x4c, 0x67, 0x8f, 0x3e,
  0x3d, 0x10, 0x43, 0xbc, 0x1d, 0x35, 0x81, 0x3e, 0xfc, 0x16, 0x3a, 0x3e,
  0x77, 0xfc, 0x73, 0x3e, 0x51, 0x22, 0xb0, 0x3e, 0x7e, 0x04, 0x2b, 0xbe,
  0x6a, 0xfa, 0x80, 0xbd, 0x07, 0x89, 0x77, 0xbd, 0x57, 0x60, 0xd3, 0xbb,
  0x78, 0xae, 0x8c, 0xbe, 0x9c, 0x0b, 0xe5, 0x3d, 0xe4, 0x76, 0x36, 0x3c,
  0xa1, 0x1f, 0x04, 0xbe, 0xc2, 0xc9, 0x7b, 0x3e, 0x7c, 0xdc, 0xc9, 0xbe,
  0xf1, 0xa3, 0x27, 0x3e, 0x4e, 0x01, 0x53, 0x3e, 0xb9, 0x7e, 0xa0, 0x3d,
  0x30, 0xb9, 0x64, 0xbd, 0x96, 0xfe, 0x96, 0xbe, 0x33, 0x5a, 0x60, 0x3d,
  0xa8, 0x89, 0x2e, 0x3d, 0xc9, 0x5c, 0xc5, 0xbe, 0xe3, 0x4f, 0x37, 0x3e,
  0x1f, 0xd5, 0xa5, 0xbd, 0x8b, 0x17, 0xfe, 0xbd, 0xd4, 0xc3, 0xde, 0x3d,
  0xe3, 0xff, 0x08, 0x3d, 0x15, 0xa8, 0x8d, 0xbe, 0x99, 0x59, 0x9f, 0xbd,
  0x06, 0xef, 0x29, 0xbe, 0x38, 0x8c, 0x9e, 0xbc, 0x35, 0xac, 0xdf, 0xbd,
  0x34, 0x6a, 0xbc, 0xbd, 0x42, 0xe4, 0xc7, 0x3d, 0xf2, 0xf9, 0x1e, 0xbc,
  0x8d, 0xec, 0x27, 0x3e, 0x30, 0xbb, 0x75, 0x3e, 0xab, 0xa4, 0x54, 0x3d,
  0x2c, 0x8d, 0x91, 0x3e, 0xfd, 0x4a, 0x94, 0xbe, 0x2e, 0xfd, 0x4b, 0x3d,
  0x9d, 0xae, 0xc3, 0xbd, 0xc7, 0xc3, 0x47, 0x3e, 0x49, 0xa7, 0xa6, 0x3d,
  0x1d, 0x0e, 0x12, 0xbe, 0x57, 0x1f, 0x80, 0x3d, 0xfa, 0xeb, 0x77, 0x3e,
  0xfe, 0x06, 0xff, 0x3c, 0x6c, 0x38, 0x37, 0x3e, 0x62, 0xa0, 0x9b, 0xbc,
  0x78, 0x1e, 0x85, 0xbe, 0xdd, 0x44, 0xb3, 0x3e, 0xf9, 0xe8, 0xda, 0xbc,
  0xb2, 0x25, 0xa9, 0xbd, 0xb1, 0x28, 0x17, 0xbe, 0x2c, 0x9c, 0x5b, 0x3d,
  0xc9, 0x9a, 0x35, 0x3e, 0x34, 0xf3, 0x32, 0xbe, 0xbe, 0x60, 0x60, 0x3e,
  0x67, 0x59, 0x66, 0xbe, 0xa3, 0xdd, 0xb4, 0xbe, 0x53, 0xe7, 0xfe, 0xbd,
  0x92, 0xaf, 0x45, 0x3d, 0x19, 0x34, 0x42, 0xbe, 0x40, 0x2a, 0x26, 0xbe,
  0x29, 0xbd, 0x9c, 0xbe, 0xf0, 0x12, 0x8c, 0x3c, 0xc8, 0x7d, 0x4b, 0x3e,
  0xe8, 0xb6, 0xc7, 0x3c, 0x72, 0x39, 0x29, 0xbe, 0x47, 0xd0, 0x98, 0xbd,
  0x4e, 0xe0, 0x8d, 0x3e, 0xeb, 0x50, 0xe5, 0x3e, 0xdf, 0x38, 0x27, 0x3e,
  0xc3, 0xcd, 0xba, 0x3e, 0xb4, 0x25, 0x91, 0x3d, 0x91, 0x24, 0xca, 0xbd,
  0x3c, 0x5b, 0x97, 0x3e, 0x5c, 0x4d, 0x9e, 0x3e, 0xd4, 0x8d, 0xe3, 0xbd,
  0x03, 0x78, 0xb2, 0x3e, 0xa1, 0x8e, 0x61, 0x3e, 0x10, 0x0e, 0x44, 0xbe,
  0x6b, 0xa1, 0x00, 0x3f, 0xe8, 0x01, 0x0f, 0xbe, 0x71, 0xa7, 0x42, 0xbe,
  0x7b, 0x33, 0x54, 0x3c, 0xc0, 0x6d, 0x36, 0xbd, 0xa5, 0x29, 0x23, 0xbc,
  0xf4, 0x2b, 0x33, 0xbe, 0xc0, 0x83, 0xaa, 0x3c, 0x6f, 0x94, 0x72, 0xbe,
  0x6d, 0xf4, 0xee, 0xbe, 0xd1, 0x21, 0xe2, 0xbd, 0xb1, 0x60, 0xbe, 0xbe,
  0xcf, 0xf1, 0x50, 0xbe, 0x60, 0x99, 0xdc, 0xbd, 0x9b, 0xff, 0x39, 0xbe,
  0x7d, 0x94, 0x69, 0xbe, 0x21, 0x9e, 0x52, 0x3e, 0xb3, 0x0f, 0x53, 0xbe,
  0x53, 0x67, 0x84, 0xbe, 0xad, 0x7f, 0xda, 0x3d, 0x67, 0x23, 0xea, 0x3d,
  0x89, 0xf8, 0x5e, 0xbe, 0xb0, 0xd3, 0x8c, 0xbe, 0xee, 0x0f, 0x9e, 0xbe,
  0x8c, 0x1a, 0xcc, 0xbd, 0x29, 0x60, 0xf2, 0xbe, 0xbd, 0x05, 0xe9, 0xbd,
  0x92, 0x49, 0x19, 0xbe, 0x7c, 0xb4, 0x51, 0xbd, 0xe9, 0x8f, 0xc0, 0x3d,
  0xa2, 0x8a, 0x60, 0x3e, 0x87, 0x6e, 0x67, 0xbd, 0xff, 0x79, 0x8f, 0xbe,
  0xaf, 0xb8, 0x77, 0x3d, 0x3f, 0x80, 0x83, 0xbe, 0xb1, 0x2d, 0xf2, 0x3b,
  0x0a, 0x33, 0x75, 0x3e, 0xe3, 0x2f, 0x22, 0x3e, 0x44, 0x2d, 0x9c, 0x3e,
  0xb1, 0x20, 0xd1, 0xbc, 0x6a, 0x36, 0x3f, 0x3e, 0xe4, 0xbc, 0x0b, 0x3e,
  0x62, 0x9a, 0x96, 0xbe, 0xf2, 0x87, 0x27, 0x3e, 0xfa, 0xd3, 0x9b, 0xbb,
  0xd1, 0xee, 0x08, 0xbe, 0x77, 0x2b, 0x6d, 0x3e, 0xd0, 0xa3, 0x82, 0xbd,
  0xce, 0x7a, 0x9f, 0x3e, 0x5a, 0x9b, 0x89, 0xbe, 0x5f, 0x1d, 0x2c, 0x3e,
  0xab, 0xd4, 0x9f, 0x3e, 0x69, 0x3b, 0xf0, 0x3e, 0xd6, 0x7e, 0x11, 0xbe,
  0x1a, 0x87, 0xc2, 0x3e, 0x73, 0x9f, 0xbe, 0x3d, 0x87, 0x49, 0xa4, 0xbc,
  0x9d, 0xfb, 0xcc, 0x3d, 0x94, 0x8e, 0x2d, 0xbe, 0xe4, 0xb7, 0x18, 0x3e,
  0x2b, 0xfc, 0x6e, 0x3e, 0xad, 0x7e, 0xe0, 0xbe, 0x5a, 0x7a, 0x03, 0xbf,
  0x3c, 0xc6, 0xab, 0x3d, 0xa2, 0x0a, 0x5f, 0x3d, 0xe6, 0xd1, 0x38, 0xbe,
  0x66, 0x0e, 0x21, 0xbe, 0xa4, 0xa3, 0xb8, 0x3e, 0x2b, 0x10, 0xd8, 0x3d,
  0x87, 0x5f, 0xaa, 0xbd, 0xbb, 0x37, 0xdc, 0xbd, 0x56, 0xb2, 0x72, 0xbe,
  0x48, 0xe8, 0xd5, 0x3e, 0xc8, 0x38, 0xd8, 0x3d, 0xd2, 0xfd, 0x89, 0xbd,
  0x85, 0x7b, 0x29, 0x3e, 0xfc, 0x91, 0xb1, 0x3e, 0x8c, 0xec, 0x2c, 0xbd,
  0xf2, 0xd7, 0x91, 0xbe, 0xaf, 0x8e, 0xaa, 0x3e, 0x18, 0x3d, 0x3c, 0xbd,
  0x06, 0xe9, 0xad, 0x3a, 0x21, 0x8c, 0xf9, 0x3e, 0x2a, 0xdc, 0x8b, 0xbe,
  0x81, 0xee, 0xa8, 0xbd, 0xd0, 0x22, 0x45, 0xbd, 0xc2, 0x36, 0x4c, 0xbe,
  0xce, 0x00, 0x2f, 0xbc, 0x41, 0x5d, 0x93, 0x3d, 0xd5, 0x98, 0xea, 0x3d,
  0x75, 0x24, 0x97, 0x3e, 0x1b, 0xc1, 0xce, 0x3c, 0x97, 0xca, 0xde, 0xbd,
  0x08, 0x78, 0x70, 0x3d, 0x52, 0x74, 0xf2, 0xbc, 0x09, 0xa0, 0xfb, 0x3d,
  0x98, 0x31, 0x0c, 0x3d, 0x72, 0x7e, 0xb2, 0x3e, 0xb0, 0x58, 0xe5, 0x3e,
  0x0d, 0xe3, 0xa0, 0xbc, 0xc4, 0x4f, 0xea, 0xbd, 0x39, 0x78, 0xcd, 0x3e,
  0xaf, 0xa3, 0x86, 0xbd, 0xbb, 0x6c, 0x7c, 0x3e, 0x8f, 0x60, 0xb3, 0x3d,
  0x2e, 0x62, 0xb9, 0x3e, 0x18, 0xb9, 0x2d, 0x3e, 0xb0, 0x3f, 0x9b, 0x3c,
  0x26, 0x21, 0x0d, 0x3f, 0x23, 0xed, 0xf6, 0xbd, 0x9b, 0xd5, 0x30, 0x3e,
  0xf4, 0x91, 0x0a, 0x3f, 0xa1, 0x1b, 0xe7, 0x3e, 0xcf, 0xc1, 0x52, 0xbd,
  0xc7, 0x3f, 0x47, 0xbe, 0x65, 0x7c, 0xf1, 0xbd, 0x7a, 0xa8, 0xa8, 0x3e,
  0x68, 0xa1, 0x8a, 0x3d, 0xd7, 0xdb, 0x7a, 0xbd, 0xfb, 0x30, 0x07, 0x3e,
  0x92, 0x79, 0x3b, 0x3d, 0xb5, 0xf5, 0x15, 0xbe, 0x01, 0xe7, 0x63, 0xbd,
  0x1d, 0x5c, 0xdf, 0xbd, 0x5b, 0xf4, 0xa7, 0xbb, 0xfc, 0x9b, 0x56, 0x3e,
  0x69, 0x99, 0x5c, 0xbe, 0x20, 0x63, 0x0e, 0xbd, 0x0d, 0xde, 0xf5, 0xbd,
  0xe9, 0x7c, 0xa1, 0x3d, 0x3f, 0x2b, 0x71, 0xbe, 0x90, 0xa3, 0xe0, 0xbd,
  0x61, 0x02, 0x34, 0x3e, 0x5e, 0xf0, 0xc9, 0xbd, 0x84, 0xa5, 0x08, 0xbe,
  0x95, 0xcc, 0x86, 0x3e, 0x42, 0x87, 0x7b, 0xbe, 0x6e, 0xec, 0xd3, 0x3d,
  0x7d, 0xc5, 0xaa, 0xbd, 0x6e, 0x29, 0xc9, 0xbd, 0x08, 0x83, 0x31, 0x3e,
  0xdf, 0xeb, 0xea, 0x3d, 0x38, 0x3f, 0x11, 0xbe, 0xb2, 0x8f, 0xf4, 0xbc,
  0xad, 0x06, 0x84, 0x3c, 0xd9, 0xdf, 0xa0, 0x3e, 0xe6, 0x39, 0xf7, 0x3e,
  0xbc, 0x94, 0x9d, 0xbd, 0x6d, 0xa2, 0xcd, 0x3e, 0x9e, 0x54, 0x8b, 0x3e,
  0x87, 0x9c, 0xdf, 0xbd, 0xa6, 0x33, 0x51, 0x3e, 0x50, 0x9b, 0x1f, 0x3d,
  0x58, 0x02, 0x9c, 0x3e, 0xf3, 0x00, 0x95, 0x3d, 0x82, 0x85, 0xb3, 0x3e,
  0x04, 0xf3, 0xc0, 0xbd, 0x92, 0x19, 0x40, 0x3e, 0xad, 0xa4, 0x5f, 0xbd,
  0x6a, 0x96, 0x7b, 0x3d, 0xd5, 0x41, 0x4b, 0x3e, 0x88, 0xc8, 0x88, 0x3e,
  0x9f, 0x1d, 0xa7, 0x3d, 0xf5, 0x3d, 0x8f, 0xbe, 0x09, 0x53, 0x59, 0xbd,
  0xb2, 0x59, 0xdd, 0x3d, 0xa9, 0x8d, 0x2d, 0x3c, 0x77, 0xc4, 0x2f, 0x3e,
  0x2c, 0xc6, 0xf8, 0xbd, 0xa6, 0x43, 0x24, 0xbd, 0x8f, 0xe8, 0x99, 0x3e,
  0xe1, 0xfd, 0x32, 0x3e, 0x5a, 0x47, 0xff, 0xbd, 0x17, 0xda, 0x0c, 0x3c,
  0xb5, 0x3b, 0x26, 0xbe, 0x0b, 0x5f, 0xf3, 0xbd, 0xfc, 0xec, 0x3b, 0xbe,
  0xd2, 0x9e, 0xce, 0xbd, 0x31, 0xcc, 0x04, 0x3e, 0xf9, 0xde, 0x78, 0xbe,
  0x26, 0xf8, 0xf0, 0xbc, 0x04, 0xa7, 0x62, 0xbc, 0x1b, 0x07, 0x2b, 0xbd,
  0xb7, 0x15, 0x20, 0xbc, 0x93, 0xc6, 0x2b, 0x3e, 0x21, 0xea, 0x2e, 0xbe,
  0x65, 0xda, 0x15, 0xbc, 0xbf, 0x6f, 0xc8, 0xbb, 0xcc, 0xc2, 0xb8, 0xbd,
  0xb8, 0x5f, 0x32, 0x3e, 0x87, 0x05, 0xba, 0x3d, 0xad, 0xcd, 0x08, 0x3e,
  0x7c, 0x19, 0x92, 0xbd, 0xb2, 0xfd, 0xff, 0xff, 0x04, 0x00, 0x00, 0x00,
  0xc0, 0x00, 0x00, 0x00, 0x87, 0x28, 0x34, 0xbe, 0x72, 0x3e, 0x04, 0x3f,
  0x99, 0x2e, 0x9d, 0x3e, 0x19, 0x02, 0xc8, 0x3e, 0x03, 0xf5, 0x15, 0x3e,
  0x26, 0x8f, 0x36, 0x3d, 0x3d, 0xda, 0xa8, 0xbe, 0x88, 0x66, 0x18, 0xbf,
  0x0b, 0x2d, 0x98, 0xbe, 0xae, 0xae, 0x09, 0xbf, 0x45, 0x2f, 0x69, 0xbd,
  0xd9, 0x96, 0x14, 0xbf, 0xca, 0x86, 0x0a, 0x3f, 0x03, 0x97, 0xa5, 0xbe,
  0x42, 0x19, 0x96, 0xbe, 0x47, 0xf0, 0xaf, 0xbd, 0x51, 0x72, 0x1c, 0xbf,
  0xc5, 0xcc, 0x15, 0xbf, 0x2d, 0x21, 0xf9, 0x3e, 0x4e, 0x0e, 0x36, 0xbe,
  0xdf, 0x6e, 0xa4, 0x3c, 0xc7, 0x98, 0x30, 0xbe, 0xb9, 0x00, 0x33, 0x3d,
  0xa5, 0x6c, 0x10, 0x3e, 0xd3, 0x75, 0x88, 0xbe, 0x16, 0xff, 0x0a, 0xbf,
  0x75, 0x6a, 0xce, 0xbe, 0x76, 0x4e, 0xe5, 0x3e, 0xa8, 0xdd, 0x8b, 0x3d,
  0x21, 0xe3, 0xdd, 0x3e, 0x88, 0x6c, 0x09, 0xbf, 0xa3, 0x8a, 0x8a, 0xbe,
  0xa4, 0x74, 0x81, 0x3e, 0x61, 0xbf, 0xef, 0xbe, 0x64, 0xb5, 0x04, 0xbf,
  0x05, 0xa5, 0xa8, 0xba, 0x1e, 0xd6, 0x16, 0xbe, 0xae, 0xde, 0xb7, 0x3e,
  0xe9, 0x65, 0x2f, 0x3f, 0x68, 0xa1, 0xae, 0x3e, 0x14, 0x04, 0x1f, 0x3f,
  0xca, 0x45, 0xb9, 0x3e, 0xd4, 0x73, 0xbb, 0x3e, 0xf0, 0x28, 0x7a, 0x3e,
  0x59, 0xc4, 0x97, 0x3e, 0x7f, 0xe3, 0xbc, 0x3e, 0x76, 0x5f, 0x5a, 0x3e,
  0xce, 0xf0, 0xb9, 0xbe, 0x7e, 0xfe, 0xff, 0xff, 0x04, 0x00, 0x00, 0x00,
  0x40, 0x00, 0x00, 0x00, 0x09, 0xc0, 0x30, 0xbd, 0xc6, 0x08, 0xbf, 0xbe,
  0x21, 0x50, 0x1b, 0xbe, 0x61, 0x5a, 0x1e, 0xbf, 0x0f, 0xaa, 0xb7, 0x3d,
  0x11, 0x33, 0x2c, 0x3d, 0x8e, 0xe0, 0x2f, 0xbc, 0xbc, 0x17, 0xee, 0xbc,
  0xeb, 0x68, 0x15, 0xbc, 0x31, 0xa1, 0x3c, 0xbd, 0xbd, 0x00, 0x47, 0xbe,
  0x57, 0xb9, 0x0c, 0xbb, 0xab, 0x6b, 0xeb, 0xbc, 0x6c, 0xb1, 0x5c, 0x3e,
  0xa1, 0x3f, 0x84, 0xbe, 0x08, 0x22, 0xa9, 0x3d, 0xca, 0xfe, 0xff, 0xff,
  0x04, 0x00, 0x00, 0x00, 0x40, 0x00, 0x00, 0x00, 0x3a, 0x30, 0x26, 0xbd,
  0x0b, 0x29, 0x18, 0xbe, 0xef, 0xae, 0x40, 0x3d, 0xf9, 0x6f, 0x62, 0xbc,
  0x99, 0x7e, 0xba, 0xbd, 0xca, 0xde, 0x36, 0xbd, 0x1f, 0x18, 0x56, 0xbd,
  0x14, 0xd1, 0xca, 0xbc, 0x85, 0xc3, 0xdb, 0x3d, 0x4c, 0x89, 0x98, 0xbc,
  0xc9, 0x7f, 0x4b, 0xbd, 0x95, 0x09, 0x06, 0xbc, 0x52, 0x19, 0xf7, 0x3d,
  0x76, 0x66, 0xf8, 0xbb, 0xf7, 0x41, 0x96, 0xbd, 0x91, 0x2d, 0x02, 0xbd,
  0x16, 0xff, 0xff, 0xff, 0x04, 0x00, 0x00, 0x00, 0x40, 0x00, 0x00, 0x00,
  0x4a, 0x3a, 0x95, 0x3b, 0xb2, 0xf1, 0xd3, 0xbd, 0x71, 0xc6, 0x9f, 0x3c,
  0xf6, 0xc7, 0x89, 0xbc, 0x5e, 0xdc, 0x4e, 0xba, 0xf1, 0x8d, 0x8c, 0x3c,
  0x26, 0x00, 0x20, 0xba, 0xb0, 0x26, 0x99, 0xbc, 0xc4, 0xbb, 0x15, 0xbe,
  0x90, 0x27, 0xbb, 0xbc, 0xc7, 0xff, 0xd3, 0x3b, 0x48, 0x44, 0x49, 0x3c,
  0xe4, 0xde, 0x73, 0x3c, 0x12, 0x2a, 0xba, 0x3c, 0x28, 0xb7, 0xc6, 0xbd,
  0x4c, 0x4a, 0x2d, 0x3b, 0x78, 0xf2, 0xff, 0xff, 0x7c, 0xf2, 0xff, 0xff,
  0x0f, 0x00, 0x00, 0x00, 0x4d, 0x4c, 0x49, 0x52, 0x20, 0x43, 0x6f, 0x6e,
  0x76, 0x65, 0x72, 0x74, 0x65, 0x64, 0x2e, 0x00, 0x01, 0x00, 0x00, 0x00,
  0x14, 0x00, 0x00, 0x00, 0x00, 0x00, 0x0e, 0x00, 0x18, 0x00, 0x14, 0x00,
  0x10, 0x00, 0x0c, 0x00, 0x08, 0x00, 0x04, 0x00, 0x0e, 0x00, 0x00, 0x00,
  0x14, 0x00, 0x00, 0x00, 0x1c, 0x00, 0x00, 0x00, 0xdc, 0x02, 0x00, 0x00,
  0xe0, 0x02, 0x00, 0x00, 0xe4, 0x02, 0x00, 0x00, 0x04, 0x00, 0x00, 0x00,
  0x6d, 0x61, 0x69, 0x6e, 0x00, 0x00, 0x00, 0x00, 0x0a, 0x00, 0x00, 0x00,
  0x74, 0x02, 0x00, 0x00, 0x10, 0x02, 0x00, 0x00, 0xbc, 0x01, 0x00, 0x00,
  0x78, 0x01, 0x00, 0x00, 0x34, 0x01, 0x00, 0x00, 0xf0, 0x00, 0x00, 0x00,
  0xc8, 0x00, 0x00, 0x00, 0x78, 0x00, 0x00, 0x00, 0x40, 0x00, 0x00, 0x00,
  0x04, 0x00, 0x00, 0x00, 0x22, 0xfe, 0xff, 0xff, 0x1c, 0x00, 0x00, 0x00,
  0x00, 0x00, 0x00, 0x09, 0x1c, 0x00, 0x00, 0x00, 0x20, 0x00, 0x00, 0x00,
  0x04, 0x00, 0x00, 0x00, 0x00, 0x00, 0x06, 0x00, 0x08, 0x00, 0x04, 0x00,
  0x06, 0x00, 0x00, 0x00, 0x00, 0x00, 0x80, 0x3f, 0x01, 0x00, 0x00, 0x00,
  0x15, 0x00, 0x00, 0x00, 0x01, 0x00, 0x00, 0x00, 0x14, 0x00, 0x00, 0x00,
  0x5a, 0xfe, 0xff, 0xff, 0x14, 0x00, 0x00, 0x00, 0x00, 0x00, 0x00, 0x08,
  0x10, 0x00, 0x00, 0x00, 0x14, 0x00, 0x00, 0x00, 0x03, 0x00, 0x00, 0x00,
  0x4c, 0xf3, 0xff, 0xff, 0x01, 0x00, 0x00, 0x00, 0x14, 0x00, 0x00, 0x00,
  0x03, 0x00, 0x00, 0x00, 0x13, 0x00, 0x00, 0x00, 0x0b, 0x00, 0x00, 0x00,
  0x07, 0x00, 0x00, 0x00, 0x8e, 0xfe, 0xff, 0xff, 0x1c, 0x00, 0x00, 0x00,
  0x00, 0x00, 0x00, 0x08, 0x1c, 0x00, 0x00, 0x00, 0x20, 0x00, 0x00, 0x00,
  0x03, 0x00, 0x00, 0x00, 0x00, 0x00, 0x06, 0x00, 0x08, 0x00, 0x07, 0x00,
  0x06, 0x00, 0x00, 0x00, 0x00, 0x00, 0x00, 0x01, 0x01, 0x00, 0x00, 0x00,
  0x13, 0x00, 0x00, 0x00, 0x03, 0x00, 0x00, 0x00, 0x12, 0x00, 0x00, 0x00,
  0x0a, 0x00, 0x00, 0x00, 0x08, 0x00, 0x00, 0x00, 0x00, 0x00, 0x0a, 0x00,
  0x10, 0x00, 0x0c, 0x00, 0x08, 0x00, 0x04, 0x00, 0x0a, 0x00, 0x00, 0x00,
  0x0c, 0x00, 0x00, 0x00, 0x10, 0x00, 0x00, 0x00, 0x02, 0x00, 0x00, 0x00,
  0x01, 0x00, 0x00, 0x00, 0x12, 0x00, 0x00, 0x00, 0x02, 0x00, 0x00, 0x00,
  0x11, 0x00, 0x00, 0x00, 0x09, 0x00, 0x00, 0x00, 0xfe, 0xfe, 0xff, 0xff,
  0x14, 0x00, 0x00, 0x00, 0x00, 0x00, 0x00, 0x05, 0x24, 0x00, 0x00, 0x00,
  0x28, 0x00, 0x00, 0x00, 0x01, 0x00, 0x00, 0x00, 0xee, 0xfe, 0xff, 0xff,
  0x03, 0x00, 0x00, 0x00, 0x01, 0x00, 0x00, 0x00, 0x03, 0x00, 0x00, 0x00,
  0x01, 0x00, 0x00, 0x00, 0x00, 0x00, 0x00, 0x01, 0x01, 0x00, 0x00, 0x00,
  0x11, 0x00, 0x00, 0x00, 0x01, 0x00, 0x00, 0x00, 0x10, 0x00, 0x00, 0x00,
  0xde, 0xfe, 0xff, 0xff, 0x10, 0x00, 0x00, 0x00, 0x00, 0x00, 0x00, 0x01,
  0x1c, 0x00, 0x00, 0x00, 0x20, 0x00, 0x00, 0x00, 0xd0, 0xfe, 0xff, 0xff,
  0x00, 0x00, 0x00, 0x01, 0x01, 0x00, 0x00, 0x00, 0x01, 0x00, 0x00, 0x00,
  0x00, 0x00, 0x00, 0x01, 0x01, 0x00, 0x00, 0x00, 0x10, 0x00, 0x00, 0x00,
  0x03, 0x00, 0x00, 0x00, 0x0f, 0x00, 0x00, 0x00, 0x06, 0x00, 0x00, 0x00,
  0x03, 0x00, 0x00, 0x00, 0x7e, 0xff, 0xff, 0xff, 0x14, 0x00, 0x00, 0x00,
  0x00, 0x00, 0x00, 0x05, 0x24, 0x00, 0x00, 0x00, 0x28, 0x00, 0x00, 0x00,
  0x01, 0x00, 0x00, 0x00, 0x6e, 0xff, 0xff, 0xff, 0x03, 0x00, 0x00, 0x00,
  0x01, 0x00, 0x00, 0x00, 0x03, 0x00, 0x00, 0x00, 0x01, 0x00, 0x00, 0x00,
  0x00, 0x00, 0x00, 0x01, 0x01, 0x00, 0x00, 0x00, 0x0f, 0x00, 0x00, 0x00,
  0x01, 0x00, 0x00, 0x00, 0x0e, 0x00, 0x00, 0x00, 0x5e, 0xff, 0xff, 0xff,
  0x10, 0x00, 0x00, 0x00, 0x00, 0x00, 0x00, 0x01, 0x1c, 0x00, 0x00, 0x00,
  0x20, 0x00, 0x00, 0x00, 0x50, 0xff, 0xff, 0xff, 0x00, 0x00, 0x00, 0x01,
  0x01, 0x00, 0x00, 0x00, 0x01, 0x00, 0x00, 0x00, 0x00, 0x00, 0x00, 0x01,
  0x01, 0x00, 0x00, 0x00, 0x0e, 0x00, 0x00, 0x00, 0x03, 0x00, 0x00, 0x00,
  0x0d, 0x00, 0x00, 0x00, 0x05, 0x00, 0x00, 0x00, 0x02, 0x00, 0x00, 0x00,
  0x00, 0x00, 0x0e, 0x00, 0x1a, 0x00, 0x14, 0x00, 0x10, 0x00, 0x0c, 0x00,
  0x0b, 0x00, 0x04, 0x00, 0x0e, 0x00, 0x00, 0x00, 0x24, 0x00, 0x00, 0x00,
  0x00, 0x00, 0x00, 0x05, 0x34, 0x00, 0x00, 0x00, 0x38, 0x00, 0x00, 0x00,
  0x01, 0x00, 0x00, 0x00, 0x00, 0x00, 0x0e, 0x00, 0x18, 0x00, 0x17, 0x00,
  0x10, 0x00, 0x0c, 0x00, 0x08, 0x00, 0x04, 0x00, 0x0e, 0x00, 0x00, 0x00,
  0x03, 0x00, 0x00, 0x00, 0x01, 0x00, 0x00, 0x00, 0x03, 0x00, 0x00, 0x00,
  0x01, 0x00, 0x00, 0x00, 0x00, 0x00, 0x00, 0x01, 0x01, 0x00, 0x00, 0x00,
  0x0d, 0x00, 0x00, 0x00, 0x01, 0x00, 0x00, 0x00, 0x0c, 0x00, 0x00, 0x00,
  0x00, 0x00, 0x0e, 0x00, 0x14, 0x00, 0x00, 0x00, 0x10, 0x00, 0x0c, 0x00,
  0x0b, 0x00, 0x04, 0x00, 0x0e, 0x00, 0x00, 0x00, 0x1c, 0x00, 0x00, 0x00,
  0x00, 0x00, 0x00, 0x01, 0x28, 0x00, 0x00, 0x00, 0x2c, 0x00, 0x00, 0x00,
  0x0c, 0x00, 0x14, 0x00, 0x13, 0x00, 0x0c, 0x00, 0x08, 0x00, 0x07, 0x00,
  0x0c, 0x00, 0x00, 0x00, 0x00, 0x00, 0x00, 0x01, 0x01, 0x00, 0x00, 0x00,
  0x01, 0x00, 0x00, 0x00, 0x00, 0x00, 0x00, 0x01, 0x01, 0x00, 0x00, 0x00,
  0x0c, 0x00, 0x00, 0x00, 0x03, 0x00, 0x00, 0x00, 0x00, 0x00, 0x00, 0x00,
  0x04, 0x00, 0x00, 0x00, 0x01, 0x00, 0x00, 0x00, 0x01, 0x00, 0x00, 0x00,
  0x15, 0x00, 0x00, 0x00, 0x01, 0x00, 0x00, 0x00, 0x00, 0x00, 0x00, 0x00,
  0x16, 0x00, 0x00, 0x00, 0x28, 0x0a, 0x00, 0x00, 0xb4, 0x09, 0x00, 0x00,
  0x40, 0x09, 0x00, 0x00, 0xe4, 0x08, 0x00, 0x00, 0x8c, 0x08, 0x00, 0x00,
  0x34, 0x08, 0x00, 0x00, 0xdc, 0x07, 0x00, 0x00, 0x80, 0x07, 0x00, 0x00,
  0x24, 0x07, 0x00, 0x00, 0xd4, 0x06, 0x00, 0x00, 0x6c, 0x06, 0x00, 0x00,
  0x1c, 0x06, 0x00, 0x00, 0x20, 0x05, 0x00, 0x00, 0xa8, 0x04, 0x00, 0x00,
  0xac, 0x03, 0x00, 0x00, 0x34, 0x03, 0x00, 0x00, 0x58, 0x02, 0x00, 0x00,
  0xe0, 0x01, 0x00, 0x00, 0x7c, 0x01, 0x00, 0x00, 0xe0, 0x00, 0x00, 0x00,
  0x60, 0x00, 0x00, 0x00, 0x04, 0x00, 0x00, 0x00, 0x46, 0xf6, 0xff, 0xff,
  0x00, 0x00, 0x00, 0x01, 0x14, 0x00, 0x00, 0x00, 0x1c, 0x00, 0x00, 0x00,
  0x1c, 0x00, 0x00, 0x00, 0x16, 0x00, 0x00, 0x00, 0x34, 0x00, 0x00, 0x00,
  0x02, 0x00, 0x00, 0x00, 0xff, 0xff, 0xff, 0xff, 0x03, 0x00, 0x00, 0x00,
  0x28, 0xf6, 0xff, 0xff, 0x19, 0x00, 0x00, 0x00, 0x53, 0x74, 0x61, 0x74,
  0x65, 0x66, 0x75, 0x6c, 0x50, 0x61, 0x72, 0x74, 0x69, 0x74, 0x69, 0x6f,
  0x6e, 0x65, 0x64, 0x43, 0x61, 0x6c, 0x6c, 0x3a, 0x30, 0x00, 0x00, 0x00,
  0x02, 0x00, 0x00, 0x00, 0x01, 0x00, 0x00, 0x00, 0x03, 0x00, 0x00, 0x00,
  0x9e, 0xf6, 0xff, 0xff, 0x00, 0x00, 0x00, 0x01, 0x14, 0x00, 0x00, 0x00,
  0x1c, 0x00, 0x00, 0x00, 0x1c, 0x00, 0x00, 0x00, 0x15, 0x00, 0x00, 0x00,
  0x58, 0x00, 0x00, 0x00, 0x02, 0x00, 0x00, 0x00, 0xff, 0xff, 0xff, 0xff,
  0x03, 0x00, 0x00, 0x00, 0x80, 0xf6, 0xff, 0xff, 0x3c, 0x00, 0x00, 0x00,
  0x73, 0x65, 0x71, 0x75, 0x65, 0x6e, 0x74, 0x69, 0x61, 0x6c, 0x5f, 0x32,
  0x36, 0x2f, 0x64, 0x65, 0x6e, 0x73, 0x65, 0x5f, 0x36, 0x36, 0x2f, 0x4d,
  0x61, 0x74, 0x4d, 0x75, 0x6c, 0x3b, 0x73, 0x65, 0x71, 0x75, 0x65, 0x6e,
  0x74, 0x69, 0x61, 0x6c, 0x5f, 0x32, 0x36, 0x2f, 0x64, 0x65, 0x6e, 0x73,
  0x65, 0x5f, 0x36, 0x36, 0x2f, 0x42, 0x69, 0x61, 0x73, 0x41, 0x64, 0x64,
  0x00, 0x00, 0x00, 0x00, 0x02, 0x00, 0x00, 0x00, 0x01, 0x00, 0x00, 0x00,
  0x03, 0x00, 0x00, 0x00, 0x1a, 0xf7, 0xff, 0xff, 0x00, 0x00, 0x00, 0x01,
  0x14, 0x00, 0x00, 0x00, 0x1c, 0x00, 0x00, 0x00, 0x1c, 0x00, 0x00, 0x00,
  0x14, 0x00, 0x00, 0x00, 0x74, 0x00, 0x00, 0x00, 0x02, 0x00, 0x00, 0x00,
  0xff, 0xff, 0xff, 0xff, 0x10, 0x00, 0x00, 0x00, 0xfc, 0xf6, 0xff, 0xff,
  0x58, 0x00, 0x00, 0x00, 0x73, 0x65, 0x71, 0x75, 0x65, 0x6e, 0x74, 0x69,
  0x61, 0x6c, 0x5f, 0x32, 0x36, 0x2f, 0x64, 0x65, 0x6e, 0x73, 0x65, 0x5f,
  0x36, 0x35, 0x2f, 0x4d, 0x61, 0x74, 0x4d, 0x75, 0x6c, 0x3b, 0x73, 0x65,
  0x71, 0x75, 0x65, 0x6e, 0x74, 0x69, 0x61, 0x6c, 0x5f, 0x32, 0x36, 0x2f,
  0x64, 0x65, 0x6e, 0x73, 0x65, 0x5f, 0x36, 0x35, 0x2f, 0x52, 0x65, 0x6c,
  0x75, 0x3b, 0x73, 0x65, 0x71, 0x75, 0x65, 0x6e, 0x74, 0x69, 0x61, 0x6c,
  0x5f, 0x32, 0x36, 0x2f, 0x64, 0x65, 0x6e, 0x73, 0x65, 0x5f, 0x36, 0x35,
  0x2f, 0x42, 0x69, 0x61, 0x73, 0x41, 0x64, 0x64, 0x00, 0x00, 0x00, 0x00,
  0x02, 0x00, 0x00, 0x00, 0x01, 0x00, 0x00, 0x00, 0x10, 0x00, 0x00, 0x00,
  0xb2, 0xf7, 0xff, 0xff, 0x00, 0x00, 0x00, 0x01, 0x14, 0x00, 0x00, 0x00,
  0x1c, 0x00, 0x00, 0x00, 0x1c, 0x00, 0x00, 0x00, 0x13, 0x00, 0x00, 0x00,
  0x3c, 0x00, 0x00, 0x00, 0x02, 0x00, 0x00, 0x00, 0xff, 0xff, 0xff, 0xff,
  0x60, 0x00, 0x00, 0x00, 0x94, 0xf7, 0xff, 0xff, 0x20, 0x00, 0x00, 0x00,
  0x73, 0x65, 0x71, 0x75, 0x65, 0x6e, 0x74, 0x69, 0x61, 0x6c, 0x5f, 0x32,
  0x36, 0x2f, 0x66, 0x6c, 0x61, 0x74, 0x74, 0x65, 0x6e, 0x5f, 0x32, 0x36,
  0x2f, 0x52, 0x65, 0x73, 0x68, 0x61, 0x70, 0x65, 0x00, 0x00, 0x00, 0x00,
  0x02, 0x00, 0x00, 0x00, 0x01, 0x00, 0x00, 0x00, 0x60, 0x00, 0x00, 0x00,
  0x12, 0xf8, 0xff, 0xff, 0x00, 0x00, 0x00, 0x01, 0x14, 0x00, 0x00, 0x00,
  0x24, 0x00, 0x00, 0x00, 0x24, 0x00, 0x00, 0x00, 0x12, 0x00, 0x00, 0x00,
  0x48, 0x00, 0x00, 0x00, 0x04, 0x00, 0x00, 0x00, 0xff, 0xff, 0xff, 0xff,
  0x02, 0x00, 0x00, 0x00, 0x03, 0x00, 0x00, 0x00, 0x10, 0x00, 0x00, 0x00,
  0xfc, 0xf7, 0xff, 0xff, 0x26, 0x00, 0x00, 0x00, 0x73, 0x65, 0x71, 0x75,
  0x65, 0x6e, 0x74, 0x69, 0x61, 0x6c, 0x5f, 0x32, 0x36, 0x2f, 0x6d, 0x61,
  0x78, 0x5f, 0x70, 0x6f, 0x6f, 0x6c, 0x69, 0x6e, 0x67, 0x32, 0x64, 0x5f,
  0x34, 0x30, 0x2f, 0x4d, 0x61, 0x78, 0x50, 0x6f, 0x6f, 0x6c, 0x00, 0x00,
  0x04, 0x00, 0x00, 0x00, 0x01, 0x00, 0x00, 0x00, 0x02, 0x00, 0x00, 0x00,
  0x03, 0x00, 0x00, 0x00, 0x10, 0x00, 0x00, 0x00, 0x86, 0xf8, 0xff, 0xff,
  0x00, 0x00, 0x00, 0x01, 0x14, 0x00, 0x00, 0x00, 0x24, 0x00, 0x00, 0x00,
  0x24, 0x00, 0x00, 0x00, 0x11, 0x00, 0x00, 0x00, 0xac, 0x00, 0x00, 0x00,
  0x04, 0x00, 0x00, 0x00, 0xff, 0xff, 0xff, 0xff, 0x06, 0x00, 0x00, 0x00,
  0x03, 0x00, 0x00, 0x00, 0x10, 0x00, 0x00, 0x00, 0x70, 0xf8, 0xff, 0xff,
  0x8a, 0x00, 0x00, 0x00, 0x73, 0x65, 0x71, 0x75, 0x65, 0x6e, 0x74, 0x69,
  0x61, 0x6c, 0x5f, 0x32, 0x36, 0x2f, 0x63, 0x6f, 0x6e, 0x76, 0x32, 0x64,
  0x5f, 0x34, 0x30, 0x2f, 0x52, 0x65, 0x6c, 0x75, 0x3b, 0x73, 0x65, 0x71,
  0x75, 0x65, 0x6e, 0x74, 0x69, 0x61, 0x6c, 0x5f, 0x32, 0x36, 0x2f, 0x63,
  0x6f, 0x6e, 0x76, 0x32, 0x64, 0x5f, 0x34, 0x30, 0x2f, 0x42, 0x69, 0x61,
  0x73, 0x41, 0x64, 0x64, 0x3b, 0x73, 0x65, 0x71, 0x75, 0x65, 0x6e, 0x74,
  0x69, 0x61, 0x6c, 0x5f, 0x32, 0x36, 0x2f, 0x63, 0x6f, 0x6e, 0x76, 0x32,
  0x64, 0x5f, 0x34, 0x30, 0x2f, 0x43, 0x6f, 0x6e, 0x76, 0x32, 0x44, 0x3b,
  0x73, 0x65, 0x71, 0x75, 0x65, 0x6e, 0x74, 0x69, 0x61, 0x6c, 0x5f, 0x32,
  0x36, 0x2f, 0x63, 0x6f, 0x6e, 0x76, 0x32, 0x64, 0x5f, 0x34, 0x30, 0x2f,
  0x42, 0x69, 0x61, 0x73, 0x41, 0x64, 0x64, 0x2f, 0x52, 0x65, 0x61, 0x64,
  0x56, 0x61, 0x72, 0x69, 0x61, 0x62, 0x6c, 0x65, 0x4f, 0x70, 0x00, 0x00,
  0x04, 0x00, 0x00, 0x00, 0x01, 0x00, 0x00, 0x00, 0x06, 0x00, 0x00, 0x00,
  0x03, 0x00, 0x00, 0x00, 0x10, 0x00, 0x00, 0x00, 0x5e, 0xf9, 0xff, 0xff,
  0x00, 0x00, 0x00, 0x01, 0x14, 0x00, 0x00, 0x00, 0x24, 0x00, 0x00, 0x00,
  0x24, 0x00, 0x00, 0x00, 0x10, 0x00, 0x00, 0x00, 0x48, 0x00, 0x00, 0x00,
  0x04, 0x00, 0x00, 0x00, 0xff, 0xff, 0xff, 0xff, 0x08, 0x00, 0x00, 0x00,
  0x03, 0x00, 0x00, 0x00, 0x10, 0x00, 0x00, 0x00, 0x48, 0xf9, 0xff, 0xff,
  0x26, 0x00, 0x00, 0x00, 0x73, 0x65, 0x71, 0x75, 0x65, 0x6e, 0x74, 0x69,
  0x61, 0x6c, 0x5f, 0x32, 0x36, 0x2f, 0x6d, 0x61, 0x78, 0x5f, 0x70, 0x6f,
  0x6f, 0x6c, 0x69, 0x6e, 0x67, 0x32, 0x64, 0x5f, 0x33, 0x39, 0x2f, 0x4d,
  0x61, 0x78, 0x50, 0x6f, 0x6f, 0x6c, 0x00, 0x00, 0x04, 0x00, 0x00, 0x00,
  0x01, 0x00, 0x00, 0x00, 0x08, 0x00, 0x00, 0x00, 0x03, 0x00, 0x00, 0x00,
  0x10, 0x00, 0x00, 0x00, 0xd2, 0xf9, 0xff, 0xff, 0x00, 0x00, 0x00, 0x01,
  0x14, 0x00, 0x00, 0x00, 0x24, 0x00, 0x00, 0x00, 0x24, 0x00, 0x00, 0x00,
  0x0f, 0x00, 0x00, 0x00, 0xcc, 0x00, 0x00, 0x00, 0x04, 0x00, 0x00, 0x00,
  0xff, 0xff, 0xff, 0xff, 0x18, 0x00, 0x00, 0x00, 0x03, 0x00, 0x00, 0x00,
  0x10, 0x00, 0x00, 0x00, 0xbc, 0xf9, 0xff, 0xff, 0xa9, 0x00, 0x00, 0x00,
  0x73, 0x65, 0x71, 0x75, 0x65, 0x6e, 0x74, 0x69, 0x61, 0x6c, 0x5f, 0x32,
  0x36, 0x2f, 0x63, 0x6f, 0x6e, 0x76, 0x32, 0x64, 0x5f, 0x33, 0x39, 0x2f,
  0x52, 0x65, 0x6c, 0x75, 0x3b, 0x73, 0x65, 0x71, 0x75, 0x65, 0x6e, 0x74,
  0x69, 0x61, 0x6c, 0x5f, 0x32, 0x36, 0x2f, 0x63, 0x6f, 0x6e, 0x76, 0x32,
  0x64, 0x5f, 0x33, 0x39, 0x2f, 0x42, 0x69, 0x61, 0x73, 0x41, 0x64, 0x64,
  0x3b, 0x73, 0x65, 0x71, 0x75, 0x65, 0x6e, 0x74, 0x69, 0x61, 0x6c, 0x5f,
  0x32, 0x36, 0x2f, 0x63, 0x6f, 0x6e, 0x76, 0x32, 0x64, 0x5f, 0x34, 0x30,
  0x2f, 0x43, 0x6f, 0x6e, 0x76, 0x32, 0x44, 0x3b, 0x73, 0x65, 0x71, 0x75,
  0x65, 0x6e, 0x74, 0x69, 0x61, 0x6c, 0x5f, 0x32, 0x36, 0x2f, 0x63, 0x6f,
  0x6e, 0x76, 0x32, 0x64, 0x5f, 0x33, 0x39, 0x2f, 0x43, 0x6f, 0x6e, 0x76,
  0x32, 0x44, 0x3b, 0x73, 0x65, 0x71, 0x75, 0x65, 0x6e, 0x74, 0x69, 0x61,
  0x6c, 0x5f, 0x32, 0x36, 0x2f, 0x63, 0x6f, 0x6e, 0x76, 0x32, 0x64, 0x5f,
  0x33, 0x39, 0x2f, 0x42, 0x69, 0x61, 0x73, 0x41, 0x64, 0x64, 0x2f, 0x52,
  0x65, 0x61, 0x64, 0x56, 0x61, 0x72, 0x69, 0x61, 0x62, 0x6c, 0x65, 0x4f,
  0x70, 0x00, 0x00, 0x00, 0x04, 0x00, 0x00, 0x00, 0x01, 0x00, 0x00, 0x00,
  0x18, 0x00, 0x00, 0x00, 0x03, 0x00, 0x00, 0x00, 0x10, 0x00, 0x00, 0x00,
  0xca, 0xfa, 0xff, 0xff, 0x00, 0x00, 0x00, 0x01, 0x14, 0x00, 0x00, 0x00,
  0x24, 0x00, 0x00, 0x00, 0x24, 0x00, 0x00, 0x00, 0x0e, 0x00, 0x00, 0x00,
  0x48, 0x00, 0x00, 0x00, 0x04, 0x00, 0x00, 0x00, 0xff, 0xff, 0xff, 0xff,
  0x1a, 0x00, 0x00, 0x00, 0x03, 0x00, 0x00, 0x00, 0x10, 0x00, 0x00, 0x00,
  0xb4, 0xfa, 0xff, 0xff, 0x26, 0x00, 0x00, 0x00, 0x73, 0x65, 0x71, 0x75,
  0x65, 0x6e, 0x74, 0x69, 0x61, 0x6c, 0x5f, 0x32, 0x36, 0x2f, 0x6d, 0x61,
  0x78, 0x5f, 0x70, 0x6f, 0x6f, 0x6c, 0x69, 0x6e, 0x67, 0x32, 0x64, 0x5f,
  0x33, 0x38, 0x2f, 0x4d, 0x61, 0x78, 0x50, 0x6f, 0x6f, 0x6c, 0x00, 0x00,
  0x04, 0x00, 0x00, 0x00, 0x01, 0x00, 0x00, 0x00, 0x1a, 0x00, 0x00, 0x00,
  0x03, 0x00, 0x00, 0x00, 0x10, 0x00, 0x00, 0x00, 0x3e, 0xfb, 0xff, 0xff,
  0x00, 0x00, 0x00, 0x01, 0x14, 0x00, 0x00, 0x00, 0x24, 0x00, 0x00, 0x00,
  0x24, 0x00, 0x00, 0x00, 0x0d, 0x00, 0x00, 0x00, 0xcc, 0x00, 0x00, 0x00,
  0x04, 0x00, 0x00, 0x00, 0xff, 0xff, 0xff, 0xff, 0x4e, 0x00, 0x00, 0x00,
  0x03, 0x00, 0x00, 0x00, 0x10, 0x00, 0x00, 0x00, 0x28, 0xfb, 0xff, 0xff,
  0xa9, 0x00, 0x00, 0x00, 0x73, 0x65, 0x71, 0x75, 0x65, 0x6e, 0x74, 0x69,
  0x61, 0x6c, 0x5f, 0x32, 0x36, 0x2f, 0x63, 0x6f, 0x6e, 0x76, 0x32, 0x64,
  0x5f, 0x33, 0x38, 0x2f, 0x52, 0x65, 0x6c, 0x75, 0x3b, 0x73, 0x65, 0x71,
  0x75, 0x65, 0x6e, 0x74, 0x69, 0x61, 0x6c, 0x5f, 0x32, 0x36, 0x2f, 0x63,
  0x6f, 0x6e, 0x76, 0x32, 0x64, 0x5f, 0x33, 0x38, 0x2f, 0x42, 0x69, 0x61,
  0x73, 0x41, 0x64, 0x64, 0x3b, 0x73, 0x65, 0x71, 0x75, 0x65, 0x6e, 0x74,
  0x69, 0x61, 0x6c, 0x5f, 0x32, 0x36, 0x2f, 0x63, 0x6f, 0x6e, 0x76, 0x32,
  0x64, 0x5f, 0x34, 0x30, 0x2f, 0x43, 0x6f, 0x6e, 0x76, 0x32, 0x44, 0x3b,
  0x73, 0x65, 0x71, 0x75, 0x65, 0x6e, 0x74, 0x69, 0x61, 0x6c, 0x5f, 0x32,
  0x36, 0x2f, 0x63, 0x6f, 0x6e, 0x76, 0x32, 0x64, 0x5f, 0x33, 0x38, 0x2f,
  0x43, 0x6f, 0x6e, 0x76, 0x32, 0x44, 0x3b, 0x73, 0x65, 0x71, 0x75, 0x65,
  0x6e, 0x74, 0x69, 0x61, 0x6c, 0x5f, 0x32, 0x36, 0x2f, 0x63, 0x6f, 0x6e,
  0x76, 0x32, 0x64, 0x5f, 0x33, 0x38, 0x2f, 0x42, 0x69, 0x61, 0x73, 0x41,
  0x64, 0x64, 0x2f, 0x52, 0x65, 0x61, 0x64, 0x56, 0x61, 0x72, 0x69, 0x61,
  0x62, 0x6c, 0x65, 0x4f, 0x70, 0x00, 0x00, 0x00, 0x04, 0x00, 0x00, 0x00,
  0x01, 0x00, 0x00, 0x00, 0x4e, 0x00, 0x00, 0x00, 0x03, 0x00, 0x00, 0x00,
  0x10, 0x00, 0x00, 0x00, 0xa6, 0xfc, 0xff, 0xff, 0x00, 0x00, 0x00, 0x01,
  0x10, 0x00, 0x00, 0x00, 0x10, 0x00, 0x00, 0x00, 0x0c, 0x00, 0x00, 0x00,
  0x2c, 0x00, 0x00, 0x00, 0x08, 0xfc, 0xff, 0xff, 0x1d, 0x00, 0x00, 0x00,
  0x73, 0x65, 0x71, 0x75, 0x65, 0x6e, 0x74, 0x69, 0x61, 0x6c, 0x5f, 0x32,
  0x36, 0x2f, 0x64, 0x65, 0x6e, 0x73, 0x65, 0x5f, 0x36, 0x36, 0x2f, 0x4d,
  0x61, 0x74, 0x4d, 0x75, 0x6c, 0x00, 0x00, 0x00, 0x02, 0x00, 0x00, 0x00,
  0x03, 0x00, 0x00, 0x00, 0x10, 0x00, 0x00, 0x00, 0xf2, 0xfc, 0xff, 0xff,
  0x00, 0x00, 0x00, 0x01, 0x10, 0x00, 0x00, 0x00, 0x10, 0x00, 0x00, 0x00,
  0x0b, 0x00, 0x00, 0x00, 0x2c, 0x00, 0x00, 0x00, 0x54, 0xfc, 0xff, 0xff,
  0x1d, 0x00, 0x00, 0x00, 0x73, 0x65, 0x71, 0x75, 0x65, 0x6e, 0x74, 0x69,
  0x61, 0x6c, 0x5f, 0x32, 0x36, 0x2f, 0x64, 0x65, 0x6e, 0x73, 0x65, 0x5f,
  0x36, 0x35, 0x2f, 0x4d, 0x61, 0x74, 0x4d, 0x75, 0x6c, 0x00, 0x00, 0x00,
  0x02, 0x00, 0x00, 0x00, 0x10, 0x00, 0x00, 0x00, 0x60, 0x00, 0x00, 0x00,
  0x00, 0x00, 0x16, 0x00, 0x1c, 0x00, 0x18, 0x00, 0x17, 0x00, 0x10, 0x00,
