const unsigned char model[] __attribute__((aligned(4))) = {
  0x1c, 0x00, 0x00, 0x00, 0x54, 0x46, 0x4c, 0x33, 0x14, 0x00, 0x20, 0x00,
  0x1c, 0x00, 0x18, 0x00, 0x14, 0x00, 0x10, 0x00, 0x0c, 0x00, 0x00, 0x00,
  0x08, 0x00, 0x04, 0x00, 0x14, 0x00, 0x00, 0x00, 0x1c, 0x00, 0x00, 0x00,
  0x88, 0x00, 0x00, 0x00, 0xe0, 0x00, 0x00, 0x00, 0x68, 0x0b, 0x00, 0x00,
  0x78, 0x0b, 0x00, 0x00, 0x1c, 0x19, 0x00, 0x00, 0x03, 0x00, 0x00, 0x00,
  0x01, 0x00, 0x00, 0x00, 0x04, 0x00, 0x00, 0x00, 0x86, 0xf3, 0xff, 0xff,
  0x0c, 0x00, 0x00, 0x00, 0x1c, 0x00, 0x00, 0x00, 0x3c, 0x00, 0x00, 0x00,
  0x0f, 0x00, 0x00, 0x00, 0x73, 0x65, 0x72, 0x76, 0x69, 0x6e, 0x67, 0x5f,
  0x64, 0x65, 0x66, 0x61, 0x75, 0x6c, 0x74, 0x00, 0x01, 0x00, 0x00, 0x00,
  0x04, 0x00, 0x00, 0x00, 0x94, 0xff, 0xff, 0xff, 0x15, 0x00, 0x00, 0x00,
  0x04, 0x00, 0x00, 0x00, 0x08, 0x00, 0x00, 0x00, 0x64, 0x65, 0x6e, 0x73,
  0x65, 0x5f, 0x35, 0x38, 0x00, 0x00, 0x00, 0x00, 0x01, 0x00, 0x00, 0x00,
  0x04, 0x00, 0x00, 0x00, 0x6a, 0xf4, 0xff, 0xff, 0x04, 0x00, 0x00, 0x00,
  0x08, 0x00, 0x00, 0x00, 0x69, 0x6e, 0x70, 0x75, 0x74, 0x5f, 0x32, 0x33,
  0x00, 0x00, 0x00, 0x00, 0x02, 0x00, 0x00, 0x00, 0x34, 0x00, 0x00, 0x00,
  0x04, 0x00, 0x00, 0x00, 0xdc, 0xff, 0xff, 0xff, 0x18, 0x00, 0x00, 0x00,
  0x04, 0x00, 0x00, 0x00, 0x13, 0x00, 0x00, 0x00, 0x43, 0x4f, 0x4e, 0x56,
  0x45, 0x52, 0x53, 0x49, 0x4f, 0x4e, 0x5f, 0x4d, 0x45, 0x54, 0x41, 0x44,
  0x41, 0x54, 0x41, 0x00, 0x08, 0x00, 0x0c, 0x00, 0x08, 0x00, 0x04, 0x00,
  0x08, 0x00, 0x00, 0x00, 0x17, 0x00, 0x00, 0x00, 0x04, 0x00, 0x00, 0x00,
  0x13, 0x00, 0x00, 0x00, 0x6d, 0x69, 0x6e, 0x5f, 0x72, 0x75, 0x6e, 0x74,
  0x69, 0x6d, 0x65, 0x5f, 0x76, 0x65, 0x72, 0x73, 0x69, 0x6f, 0x6e, 0x00,
  0x19, 0x00, 0x00, 0x00, 0x84, 0x0a, 0x00, 0x00, 0x7c, 0x0a, 0x00, 0x00,
  0x5c, 0x0a, 0x00, 0x00, 0x3c, 0x0a, 0x00, 0x00, 0x1c, 0x0a, 0x00, 0x00,
  0xdc, 0x09, 0x00, 0x00, 0x0c, 0x09, 0x00, 0x00, 0x3c, 0x08, 0x00, 0x00,
  0x20, 0x08, 0x00, 0x00, 0xd0, 0x07, 0x00, 0x00, 0xb8, 0x07, 0x00, 0x00,
  0xa8, 0x01, 0x00, 0x00, 0xd8, 0x00, 0x00, 0x00, 0xd0, 0x00, 0x00, 0x00,
  0xc8, 0x00, 0x00, 0x00, 0xc0, 0x00, 0x00, 0x00, 0xb8, 0x00, 0x00, 0x00,
  0xb0, 0x00, 0x00, 0x00, 0xa8, 0x00, 0x00, 0x00, 0xa0, 0x00, 0x00, 0x00,
  0x98, 0x00, 0x00, 0x00, 0x90, 0x00, 0x00, 0x00, 0x88, 0x00, 0x00, 0x00,
  0x68, 0x00, 0x00, 0x00, 0x04, 0x00, 0x00, 0x00, 0x46, 0xf5, 0xff, 0xff,
  0x04, 0x00, 0x00, 0x00, 0x54, 0x00, 0x00, 0x00, 0x0c, 0x00, 0x00, 0x00,
  0x08, 0x00, 0x0e, 0x00, 0x08, 0x00, 0x04, 0x00, 0x08, 0x00, 0x00, 0x00,
  0x10, 0x00, 0x00, 0x00, 0x24, 0x00, 0x00, 0x00, 0x00, 0x00, 0x06, 0x00,
  0x08, 0x00, 0x04, 0x00, 0x06, 0x00, 0x00, 0x00, 0x04, 0x00, 0x00, 0x00,
  0x00, 0x00, 0x00, 0x00, 0x00, 0x00, 0x0a, 0x00, 0x10, 0x00, 0x0c, 0x00,
  0x08, 0x00, 0x04, 0x00, 0x0a, 0x00, 0x00, 0x00, 0x02, 0x00, 0x00, 0x00,
  0x02, 0x00, 0x00, 0x00, 0x04, 0x00, 0x00, 0x00, 0x06, 0x00, 0x00, 0x00,
  0x32, 0x2e, 0x31, 0x30, 0x2e, 0x30, 0x00, 0x00, 0xa6, 0xf5, 0xff, 0xff,
  0x04, 0x00, 0x00, 0x00, 0x10, 0x00, 0x00, 0x00, 0x31, 0x2e, 0x35, 0x2e,
  0x30, 0x00, 0x00, 0x00, 0x00, 0x00, 0x00, 0x00, 0x00, 0x00, 0x00, 0x00,
  0xd8, 0xe8, 0xff, 0xff, 0xdc, 0xe8, 0xff, 0xff, 0xe0, 0xe8, 0xff, 0xff,
  0xe4, 0xe8, 0xff, 0xff, 0xe8, 0xe8, 0xff, 0xff, 0xec, 0xe8, 0xff, 0xff,
  0xf0, 0xe8, 0xff, 0xff, 0xf4, 0xe8, 0xff, 0xff, 0xf8, 0xe8, 0xff, 0xff,
  0xfc, 0xe8, 0xff, 0xff, 0xea, 0xf5, 0xff, 0xff, 0x04, 0x00, 0x00, 0x00,
  0xc0, 0x00, 0x00, 0x00, 0x3d, 0x3c, 0xdc, 0xbe, 0x11, 0x20, 0x13, 0xbf,
  0xc0, 0xb6, 0xf1, 0x3e, 0xea, 0x4a, 0x1a, 0x3f, 0xba, 0x51, 0x27, 0x3f,
  0xe3, 0x41, 0x6d, 0x3e, 0x11, 0xd6, 0x66, 0x3e, 0x2a, 0x6a, 0xe6, 0x3e,
  0x30, 0xfb, 0xd0, 0xbe, 0x9e, 0xc8, 0x26, 0xbf, 0x37, 0xbd, 0x1b, 0x3f,
  0xc9, 0x30, 0xfa, 0xbe, 0x94, 0x0b, 0x67, 0x3f, 0x9f, 0x49, 0x72, 0xbf,
  0x39, 0xef, 0x2f, 0xbf, 0x46, 0x0e, 0x2f, 0x3f, 0x02, 0x3a, 0x8f, 0x3e,
  0xf1, 0x9b, 0x0c, 0x3f, 0x24, 0x00, 0x8e, 0xbe, 0xda, 0x24, 0x17, 0xbe,
  0xd8, 0x88, 0xf9, 0x3e, 0xd0, 0x03, 0x28, 0xbf, 0x36, 0xe2, 0x40, 0x3f,
  0xe9, 0xcb, 0xaa, 0x3d, 0xe1, 0x35, 0x66, 0x3e, 0xdd, 0xdf, 0x8b, 0x3e,
  0x3f, 0xe5, 0x05, 0x3f, 0x28, 0x1e, 0x75, 0x3f, 0xd0, 0xda, 0x21, 0x3e,
  0x81, 0x84, 0x07, 0xbe, 0xc7, 0x91, 0x9b, 0xbe, 0x17, 0xf0, 0x14, 0x3f,
  0xe4, 0xf2, 0x69, 0x3e, 0x4e, 0x47, 0x35, 0x3f, 0xb4, 0xf8, 0x15, 0x3f,
  0x3c, 0xa7, 0x5c, 0xbe, 0x54, 0x83, 0x15, 0xbf, 0xbd, 0xe0, 0x65, 0x3f,
  0x14, 0x3d, 0x9f, 0xbf, 0x3f, 0xd2, 0x81, 0xbf, 0xb5, 0x2a, 0x37, 0x3f,
  0x7b, 0x87, 0x0c, 0x3f, 0x58, 0xc3, 0x55, 0xbf, 0x37, 0xc2, 0x3d, 0xbf,
  0x49, 0xa5, 0x1f, 0xbf, 0x1f, 0x89, 0x61, 0x3f, 0xbd, 0x5f, 0x13, 0x3f,
  0x85, 0x92, 0x80, 0xbf, 0xb6, 0xf6, 0xff, 0xff, 0x04, 0x00, 0x00, 0x00,
  0x00, 0x06, 0x00, 0x00, 0xa6, 0xde, 0xc0, 0x3d, 0xec, 0xec, 0x03, 0x3f,
  0xcb, 0x1e, 0xe5, 0x3b, 0xd1, 0x9d, 0xcc, 0xbe, 0x21, 0xcf, 0x19, 0x3e,
  0x31, 0xa0, 0xf3, 0x3e, 0x8e, 0x55, 0x80, 0xbc, 0x1a, 0x0f, 0xcf, 0xbe,
  0xca, 0xf1, 0x54, 0xbe, 0x96, 0x1a, 0xf7, 0xbe, 0xf0, 0x73, 0x1b, 0xbf,
  0x40, 0x3d, 0x36, 0xbe, 0x70, 0xe3, 0xde, 0x3c, 0x99, 0xc9, 0xfe, 0x3e,
  0xdc, 0x01, 0xac, 0x3d, 0xfd, 0xd6, 0x71, 0xbe, 0x8c, 0xf1, 0xab, 0x3e,
  0xc5, 0x59, 0x88, 0x3e, 0x09, 0x11, 0x50, 0x3e, 0x94, 0x52, 0xda, 0xbe,
  0x18, 0xef, 0x94, 0x3c, 0x8a, 0x23, 0xb8, 0xbe, 0x39, 0xf9, 0xb7, 0xbe,
  0x21, 0xc8, 0xe0, 0xbd, 0xf8, 0x43, 0x22, 0xbf, 0xac, 0x91, 0xb3, 0x3e,
  0x4f, 0xa2, 0xa9, 0x3e, 0xcf, 0xd2, 0x99, 0xbe, 0x4e, 0xad, 0xb0, 0xbe,
  0xf3, 0x4d, 0x4f, 0x3e, 0x59, 0x46, 0xad, 0x3e, 0x7d, 0x86, 0x59, 0xbe,
  0x1b, 0xa1, 0x8f, 0xbd, 0x41, 0xfd, 0xeb, 0x3d, 0x8f, 0xd8, 0x6b, 0xbe,
  0x81, 0x37, 0x34, 0xbf, 0x87, 0xa5, 0x3f, 0xbf, 0x23, 0x26, 0xb2, 0x3d,
  0x79, 0x19, 0x92, 0x3d, 0xb5, 0x38, 0xc6, 0x3e, 0xbd, 0x64, 0xcd, 0xbd,
  0x30, 0xc7, 0xa9, 0x3e, 0x10, 0x4a, 0x51, 0x3e, 0xff, 0x41, 0x9b, 0x3d,
  0x3b, 0x89, 0x9a, 0x3d, 0xad, 0x26, 0xff, 0x3e, 0xd5, 0xbd, 0x27, 0xbe,
  0x1e, 0x33, 0xf4, 0xbe, 0x82, 0x98, 0x91, 0xbe, 0x09, 0x26, 0x1d, 0xbc,
  0x1a, 0x15, 0x93, 0x3e, 0x94, 0xdd, 0x40, 0x3e, 0xd9, 0xfd, 0x92, 0xbe,
  0xc6, 0x8f, 0xe3, 0xbc, 0x28, 0x76, 0x76, 0x3e, 0x6b, 0x58, 0x02, 0x3d,
  0xef, 0x51, 0xb8, 0x3d, 0xb4, 0xde, 0xa5, 0x3e, 0x7c, 0x7c, 0x1b, 0x3f,
  0x0d, 0x6a, 0x5c, 0x3f, 0xae, 0xbf, 0x96, 0xbe, 0x23, 0x4f, 0xce, 0x3c,
  0x92, 0x03, 0x82, 0xbd, 0x49, 0xfa, 0xd9, 0x3d, 0xc9, 0xda, 0x39, 0xbe,
  0xff, 0x66, 0xf2, 0xbd, 0xfb, 0x88, 0x80, 0x3c, 0x4d, 0xc0, 0x9a, 0xbe,
  0x0d, 0xd1, 0xdf, 0x3e, 0xe7, 0xb3, 0x63, 0x3e, 0x66, 0x17, 0x37, 0x3e,
  0x65, 0x19, 0x27, 0x3f, 0xc8, 0x9c, 0xe0, 0x3a, 0xee, 0x0a, 0x13, 0xbe,
  0xd2, 0x55, 0x45, 0xbd, 0xfb, 0x32, 0xf1, 0x3e, 0x27, 0x9e, 0x62, 0x3e,
  0x8d, 0xd1, 0xfe, 0xbe, 0x88, 0x4f, 0x9f, 0xbe, 0xdc, 0xa1, 0xfe, 0xbb,
  0xc6, 0xbd, 0x30, 0x3f, 0x87, 0x33, 0x0d, 0x3f, 0xc0, 0xaf, 0x07, 0x3e,
  0xf7, 0x9d, 0x1a, 0x3f, 0xff, 0xa7, 0x2d, 0xbe, 0x08, 0x4d, 0x86, 0xbd,
  0x2f, 0x14, 0x69, 0xbe, 0xc4, 0x87, 0xaa, 0xbe, 0x4e, 0x4c, 0x76, 0x3e,
  0xe5, 0x27, 0x7b, 0xbe, 0x82, 0x09, 0x89, 0xbe, 0x7e, 0x30, 0x34, 0xbe,
  0x2d, 0xb4, 0x20, 0x3e, 0xe4, 0x1c, 0x0b, 0x3e, 0x62, 0x22, 0x87, 0xbd,
  0x62, 0x35, 0x37, 0x3f, 0x2b, 0x94, 0x1a, 0x3f, 0x84, 0x10, 0xa4, 0xbb,
  0x71, 0x13, 0x2e, 0xbc, 0xe4, 0x87, 0xf9, 0x3e, 0x96, 0x46, 0x20, 0x3f,
  0x88, 0x84, 0xf6, 0xbd, 0xe3, 0xf4, 0x9f, 0xbe, 0xc0, 0xa4, 0xf8, 0x3e,
  0x71, 0xb7, 0x21, 0x3f, 0x6f, 0xf6, 0xd8, 0xbd, 0xee, 0x70, 0xaa, 0xbd,
  0xac, 0x67, 0xd5, 0x3d, 0xfd, 0xa5, 0x72, 0xbe, 0x4d, 0x3a, 0xeb, 0x3d,
  0xc7, 0x86, 0x65, 0xbe, 0x2f, 0x77, 0x95, 0x3d, 0xce, 0xd4, 0xab, 0x3e,
  0xba, 0x05, 0x8c, 0x3d, 0x1d, 0x31, 0x34, 0xbe, 0x5c, 0x90, 0x53, 0xbe,
  0xc9, 0xf6, 0x38, 0x3a, 0x3f, 0xdb, 0x48, 0xbe, 0xcc, 0x51, 0xc1, 0xbd,
  0x49, 0x0f, 0x65, 0x3d, 0x34, 0xcf, 0x0c, 0xbf, 0x8b, 0x05, 0x27, 0x3d,
  0x72, 0xae, 0x76, 0x3e, 0x3f, 0xf1, 0x25, 0x3e, 0x3f, 0x08, 0xd8, 0xbe,
  0x0d, 0x11, 0x0c, 0xbe, 0xd3, 0xe0, 0xd0, 0x3e, 0x69, 0x20, 0xf4, 0x3d,
  0xa2, 0x53, 0xd9, 0xbe, 0xfd, 0xbe, 0x43, 0xbe, 0xcb, 0xed, 0xef, 0x3e,
  0xe4, 0xb0, 0x36, 0x3e, 0x2c, 0x9c, 0x69, 0xbe, 0x45, 0xcd, 0x58, 0xbe,
  0x16, 0x77, 0xe2, 0x3e, 0x7d, 0xc6, 0x37, 0xbd, 0xba, 0x12, 0x4d, 0xbe,
  0xfe, 0x94, 0x88, 0xbc, 0xfb, 0x9e, 0xa4, 0x3e, 0xc4, 0x06, 0xc2, 0x39,
  0x7d, 0x78, 0xe6, 0xbd, 0xeb, 0x4f, 0x11, 0xbe, 0x7c, 0x3f, 0xeb, 0x3e,
  0x61, 0xf9, 0x6a, 0x3f, 0xbb, 0xaf, 0x82, 0xbe, 0xfc, 0x73, 0xe9, 0xbe,
  0x5b, 0xe3, 0x1f, 0xbf, 0x00, 0x92, 0x67, 0xbe, 0x58, 0xfe, 0x7d, 0xbe,
  0x92, 0x9f, 0xfd, 0xbe, 0x7f, 0x3f, 0x0a, 0xbf, 0xbc, 0x05, 0x6d, 0xbd,
  0xe0, 0x5e, 0xd9, 0x3b, 0xbf, 0x53, 0xcd, 0x3b, 0x08, 0x14, 0x0f, 0xbe,
  0x4b, 0x21, 0xa4, 0xbe, 0xb1, 0x9d, 0xe7, 0x3e, 0x5b, 0xad, 0x0d, 0x3e,
  0x2b, 0x34, 0xb8, 0x3d, 0x3b, 0xc5, 0x32, 0xbe, 0xd2, 0xd1, 0xe0, 0x3e,
  0x3b, 0x84, 0x8e, 0x3e, 0xe9, 0x65, 0x48, 0x3c, 0x09, 0x9a, 0x11, 0xbe,
  0x67, 0x1e, 0x99, 0xbd, 0x9c, 0x39, 0x0f, 0xbe, 0x6c, 0xcd, 0x13, 0xbe,
  0xda, 0x0b, 0x02, 0xbf, 0xbd, 0xa5, 0x1b, 0x3d, 0x58, 0xea, 0x1f, 0xbf,
  0x79, 0x87, 0x63, 0xbf, 0xa2, 0x77, 0x19, 0x3f, 0x25, 0xc1, 0x1c, 0xbd,
  0xdf, 0xfd, 0x3d, 0xbf, 0x42, 0x50, 0x47, 0xbf, 0xca, 0xae, 0x91, 0x3e,
  0x8d, 0xee, 0x18, 0x3f, 0x0a, 0xf9, 0x84, 0xbe, 0xed, 0xc2, 0x89, 0xbe,
  0x21, 0x8d, 0x51, 0x3f, 0x49, 0x5e, 0x00, 0x3f, 0xfe, 0x0b, 0x70, 0xbe,
  0xd8, 0x1b, 0xee, 0xbd, 0x93, 0xdb, 0x95, 0xbe, 0xc0, 0x46, 0x8a, 0x3e,
  0x00, 0xf1, 0x7c, 0x3d, 0x5a, 0x35, 0xa3, 0xbe, 0x22, 0x63, 0x99, 0x3c,
  0x31, 0x16, 0x96, 0x3c, 0xe3, 0xef, 0x5f, 0x3e, 0xbc, 0x1a, 0x9e, 0x3d,
  0x71, 0x2f, 0xb1, 0x3e, 0xb0, 0xe7, 0x95, 0xbf, 0xcf, 0x9a, 0x5d, 0x3e,
  0x0e, 0x71, 0x2c, 0x3d, 0x9d, 0x5b, 0x4b, 0xbe, 0x4d, 0x67, 0x40, 0xbf,
  0xed, 0x52, 0x6e, 0x3e, 0x10, 0x45, 0x96, 0x3d, 0x71, 0xf2, 0xf0, 0xbe,
  0xc5, 0xbb, 0x76, 0xbe, 0xe1, 0x62, 0x95, 0x3e, 0x58, 0x11, 0xa4, 0x3e,
  0x9e, 0xdb, 0x2f, 0xbe, 0x00, 0x35, 0x07, 0xbf, 0x08, 0x40, 0x8f, 0x3e,
  0xd4, 0x6b, 0x90, 0x3c, 0xe7, 0xf0, 0x95, 0x3e, 0xce, 0x2c, 0x9c, 0x3e,
  0xb5, 0x75, 0x03, 0xbe, 0x48, 0x50, 0x4f, 0x3e, 0x30, 0xc6, 0x3b, 0x3b,
  0x63, 0xef, 0x95, 0xbe, 0x5c, 0x9d, 0x1c, 0x3e, 0x93, 0x8e, 0x88, 0x3d,
  0x30, 0x4a, 0xc6, 0xbd, 0x76, 0x50, 0xc7, 0xbd, 0x4d, 0x91, 0x61, 0x3e,
  0x52, 0x81, 0x60, 0x3e, 0xe9, 0x2e, 0x35, 0xbf, 0x5a, 0x48, 0xf0, 0xbe,
  0xdf, 0x68, 0xa8, 0x3e, 0x21, 0x94, 0x4e, 0xbc, 0xb9, 0x61, 0x26, 0xbf,
  0xcc, 0x09, 0xa4, 0xbe, 0x33, 0xde, 0x97, 0xbe, 0xe4, 0xfd, 0xe9, 0x3d,
  0xfb, 0xb5, 0xba, 0xbe, 0x4d, 0x26, 0x34, 0x3e, 0x8b, 0xc8, 0x73, 0x3e,
  0x87, 0xea, 0x79, 0x3e, 0xdf, 0xd4, 0x34, 0xbe, 0xc3, 0xfc, 0x1a, 0xbe,
  0x2d, 0xc5, 0xe0, 0x3e, 0xa6, 0xc4, 0xe4, 0xbd, 0xa0, 0xcf, 0x2c, 0xbe,
  0xad, 0xe9, 0x5d, 0xbd, 0xdb, 0x06, 0x09, 0x3d, 0xe4, 0xc5, 0xb8, 0xbd,
  0xbe, 0xdb, 0xff, 0xbd, 0xc9, 0x8a, 0x5a, 0x3f, 0x3b, 0xe0, 0x0f, 0xbf,
  0x8e, 0x46, 0x2f, 0xbf, 0xab, 0xaf, 0xb1, 0x3e, 0x01, 0x3d, 0x29, 0x3f,
  0x69, 0x79, 0x68, 0xbe, 0x45, 0x8e, 0x6b, 0xbe, 0x49, 0x01, 0xa4, 0x3e,
  0x69, 0xb5, 0x30, 0x3e, 0xbf, 0xaf, 0x72, 0xbe, 0x26, 0xa6, 0x8e, 0xbe,
  0x99, 0x5e, 0x2b, 0x3e, 0xc3, 0x8a, 0x00, 0x3f, 0xe8, 0xad, 0x39, 0xbc,
  0x7e, 0x9d, 0x8b, 0xbe, 0x8d, 0xbb, 0x54, 0x3d, 0xc8, 0x58, 0x95, 0x3e,
  0x67, 0xbd, 0x46, 0xbe, 0x76, 0x83, 0xf6, 0xbc, 0x01, 0xe2, 0x2e, 0x3d,
  0xba, 0xfd, 0x3a, 0x3e, 0x22, 0x47, 0x0f, 0xbe, 0x3f, 0xdf, 0xc6, 0xbd,
  0x7f, 0x08, 0x48, 0xbe, 0x6e, 0x98, 0xd5, 0x3e, 0xc3, 0xf2, 0x1b, 0x3e,
  0x24, 0x6c, 0x9f, 0xbd, 0xf0, 0x7d, 0xfd, 0xbd, 0xd2, 0x04, 0x1e, 0x3f,
  0x2c, 0x95, 0x4a, 0x3e, 0xbb, 0xd2, 0x81, 0x3d, 0xef, 0x07, 0xd8, 0xbe,
  0xc9, 0x63, 0xb6, 0xbd, 0x27, 0x9d, 0x04, 0xbf, 0x3b, 0xb4, 0x13, 0xbf,
  0xf1, 0x15, 0x06, 0xbf, 0x3c, 0x2c, 0x46, 0x3e, 0xbb, 0x3d, 0xc4, 0xbd,
  0xb8, 0xc5, 0x6a, 0xbd, 0x73, 0xa1, 0x53, 0xbe, 0x81, 0x11, 0x31, 0x3e,
  0x0f, 0x0c, 0x3d, 0xbe, 0x99, 0x72, 0x82, 0xbd, 0xfd, 0xb7, 0x77, 0x3d,
  0xe9, 0x31, 0x4d, 0x3d, 0x9d, 0x46, 0x85, 0xbe, 0x59, 0x7b, 0xe8, 0xbe,
  0x89, 0xf2, 0x9a, 0xbe, 0x56, 0xf6, 0x04, 0xbe, 0x4d, 0xa1, 0x70, 0xbf,
  0x5b, 0x73, 0x39, 0xbf, 0x49, 0x51, 0xbe, 0xbd, 0x28, 0xee, 0xee, 0xbe,
  0xa5, 0x0c, 0xb6, 0xbe, 0x5b, 0xd7, 0xd1, 0xbe, 0x78, 0xe5, 0x32, 0x3d,
  0x01, 0xca, 0x04, 0xbe, 0xd3, 0x37, 0x63, 0xbf, 0xad, 0x4d, 0x09, 0xbf,
  0x51, 0x57, 0xb0, 0x3e, 0xaf, 0x62, 0xa5, 0xbd, 0x44, 0x4c, 0xf8, 0xbe,
  0x6a, 0xa9, 0xff, 0xbe, 0xfb, 0x31, 0x28, 0x3f, 0x1f, 0x2f, 0x0f, 0xbe,
  0xcd, 0x04, 0x26, 0xbf, 0x29, 0xd9, 0x0c, 0xbf, 0x58, 0x82, 0x05, 0x3e,
  0xa7, 0xb3, 0x61, 0x3f, 0x82, 0x9e, 0x26, 0x3e, 0x7e, 0xd0, 0xe4, 0xbc,
  0xb7, 0x6e, 0x20, 0x3f, 0x09, 0xd6, 0x39, 0xbf, 0x42, 0xd9, 0x49, 0xbd,
  0xa5, 0xef, 0xf0, 0x3e, 0x46, 0xfa, 0x27, 0x3d, 0x47, 0x8b, 0x29, 0xbf,
  0x79, 0xc4, 0xeb, 0x3d, 0x1f, 0x02, 0x9b, 0x3e, 0xd8, 0x2d, 0x85, 0xbe,
  0x99, 0xfb, 0xc4, 0xbe, 0x30, 0x27, 0x66, 0x3e, 0xb0, 0x6d, 0x41, 0xbd,
  0x1c, 0xe0, 0x24, 0xbe, 0xfe, 0xe8, 0xc4, 0xbe, 0x49, 0xc1, 0x49, 0xbe,
  0xf9, 0x9c, 0x9a, 0x3e, 0x17, 0x1e, 0xd9, 0xbc, 0xd1, 0x60, 0x11, 0xbe,
  0xfa, 0x97, 0x39, 0xbe, 0xce, 0x07, 0xba, 0x3e, 0xc7, 0xde, 0x03, 0x3e,
  0xbe, 0xe9, 0x8a, 0xbe, 0x60, 0xaf, 0xae, 0x3d, 0x9b, 0xf2, 0x6b, 0x3e,
  0xe2, 0xf3, 0x53, 0xbe, 0x41, 0x4f, 0xe9, 0xbe, 0x20, 0x36, 0xff, 0x3d,
  0x26, 0xa3, 0xb5, 0x3e, 0x9b, 0xd1, 0xaf, 0xbf, 0x06, 0x96, 0x25, 0xbf,
  0x11, 0xa3, 0x4c, 0xbd, 0x8a, 0x37, 0x92, 0x3d, 0xcc, 0x48, 0xe1, 0xbe,
  0x6f, 0xd7, 0x03, 0xbf, 0x7d, 0xc0, 0x7f, 0x3e, 0x7a, 0x7d, 0x55, 0xbe,
  0xd7, 0x87, 0x92, 0x3e, 0xda, 0x22, 0x45, 0x3e, 0x51, 0x89, 0x72, 0x3e,
  0xde, 0x32, 0x61, 0x3d, 0xb0, 0xd3, 0x43, 0xbf, 0xad, 0x9e, 0x0a, 0xbe,
  0x38, 0xd8, 0xdf, 0x3c, 0x13, 0x8f, 0xec, 0x3c, 0xe5, 0x79, 0x17, 0xbd,
  0x82, 0x88, 0x46, 0x3d, 0x92, 0x99, 0x1e, 0xbe, 0x1a, 0xf6, 0xad, 0x3e,
  0xd9, 0x32, 0x4c, 0x3e, 0xf1, 0xd5, 0xac, 0xbd, 0x09, 0xac, 0xf8, 0xbe,
  0x89, 0x53, 0x1a, 0xbf, 0xd4, 0x74, 0xbe, 0x3e, 0xfc, 0x16, 0x9c, 0x3d,
  0xc3, 0x33, 0x48, 0xbf, 0xf2, 0x0a, 0x51, 0xbf, 0xe9, 0x1d, 0x04, 0x3f,
  0xbb, 0xb4, 0x3a, 0xbd, 0x0a, 0x5b, 0x17, 0xbf, 0xbe, 0xa5, 0x11, 0xbf,
  0x55, 0x51, 0x44, 0x3e, 0xa5, 0xf0, 0xb7, 0x3e, 0x72, 0x07, 0x6a, 0x3e,
  0x39, 0xb5, 0x02, 0xbe, 0x49, 0x55, 0xa6, 0x3d, 0x69, 0x18, 0x30, 0x3f,
  0xf6, 0x6c, 0xef, 0x3d, 0xc3, 0x62, 0x1a, 0xbd, 0xde, 0x76, 0x67, 0x3b,
  0xd5, 0x99, 0x22, 0x3f, 0x29, 0x43, 0xbc, 0x3d, 0xf8, 0x16, 0xa5, 0xbd,
  0xa6, 0x31, 0xe0, 0x3c, 0xc2, 0xfc, 0xff, 0xff, 0x04, 0x00, 0x00, 0x00,
  0x08, 0x00, 0x00, 0x00, 0xff, 0xff, 0xff, 0xff, 0x18, 0x00, 0x00, 0x00,
  0xd6, 0xfc, 0xff, 0xff, 0x04, 0x00, 0x00, 0x00, 0x40, 0x00, 0x00, 0x00,
  0x5b, 0x34, 0xbe, 0x3e, 0xff, 0x1d, 0x87, 0x3e, 0xf3, 0xd7, 0x9d, 0x3d,
  0x74, 0x8b, 0x36, 0xbe, 0xa1, 0x5b, 0x01, 0x3c, 0xf7, 0xd4, 0x32, 0x3e,
  0x6f, 0x25, 0x41, 0x3e, 0x9c, 0xe1, 0x03, 0x3d, 0x99, 0x1b, 0xc2, 0x3e,
  0x02, 0x63, 0xce, 0x3e, 0x75, 0x00, 0x55, 0x3e, 0x94, 0xef, 0xed, 0x3d,
  0x91, 0x70, 0xe1, 0xbd, 0xae, 0x78, 0xad, 0x3e, 0x1c, 0xe2, 0x7c, 0x3e,
  0x30, 0xa2, 0xd7, 0x3d, 0x22, 0xfd, 0xff, 0xff, 0x04, 0x00, 0x00, 0x00,
  0x0c, 0x00, 0x00, 0x00, 0x67, 0x37, 0xea, 0xbd, 0x88, 0xd5, 0xa9, 0x3d,
  0x12, 0xeb, 0xae, 0x3d, 0x3a, 0xfd, 0xff, 0xff, 0x04, 0x00, 0x00, 0x00,
  0xc0, 0x00, 0x00, 0x00, 0x8e, 0x37, 0x76, 0xbe, 0x23, 0x9d, 0x8c, 0x3f,
  0x76, 0x70, 0x41, 0xbf, 0xc5, 0x27, 0xa3, 0xbf, 0x35, 0xc5, 0xda, 0x3e,
  0x5c, 0x0c, 0x9c, 0x3e, 0xd7, 0xd5, 0xa8, 0xbb, 0xd5, 0x3d, 0x7b, 0x3c,
  0x8c, 0x41, 0x19, 0x3f, 0x5d, 0xe1, 0x8b, 0xbe, 0x02, 0xbd, 0x67, 0x3e,
  0x8c, 0xd6, 0xad, 0x3e, 0xff, 0x21, 0x85, 0x3c, 0xf9, 0x75, 0x06, 0xbf,
  0xa5, 0x92, 0xd0, 0x3d, 0xb2, 0xce, 0x3f, 0x3f, 0x64, 0xe6, 0xd0, 0x3e,
  0x3e, 0x0a, 0xa6, 0x3e, 0x54, 0x19, 0xb4, 0x3e, 0x4a, 0x93, 0xf1, 0xbc,
  0x68, 0x4a, 0xd9, 0xbd, 0x90, 0x9d, 0x00, 0xbe, 0x7c, 0x23, 0x91, 0xbd,
  0x72, 0xa9, 0x84, 0x3e, 0x9c, 0xfc, 0x15, 0xbf, 0x63, 0xc8, 0x2f, 0xbf,
  0xa4, 0xd1, 0x7a, 0x3d, 0x87, 0x1b, 0x05, 0x3f, 0x5c, 0x55, 0xec, 0xbe,
  0xa9, 0xaa, 0xbe, 0x3d, 0xc3, 0x38, 0xd7, 0xbe, 0xb7, 0x59, 0x1f, 0x3f,
  0x66, 0xd3, 0x9c, 0x3c, 0x61, 0x08, 0xc6, 0x3d, 0x8b, 0x17, 0x68, 0x3e,
  0xfd, 0xff, 0x78, 0xbe, 0x64, 0x5e, 0x5c, 0xbf, 0x39, 0xdb, 0xcc, 0x3e,
  0x03, 0x52, 0xd6, 0xbf, 0x92, 0x5d, 0x45, 0xbf, 0x3a, 0xb7, 0x94, 0xbd,
  0x25, 0x7d, 0x05, 0x3f, 0x49, 0xfe, 0x31, 0xbf, 0xfc, 0x40, 0x0b, 0x3d,
  0x4c, 0x7a, 0x42, 0x3e, 0x05, 0x3b, 0x10, 0x3e, 0xda, 0xb7, 0x2b, 0x3e,
  0x88, 0x54, 0x78, 0x3e, 0x06, 0xfe, 0xff, 0xff, 0x04, 0x00, 0x00, 0x00,
  0xc0, 0x00, 0x00, 0x00, 0x5c, 0x28, 0xac, 0xbe, 0x96, 0x00, 0xcb, 0xbd,
  0x83, 0x32, 0x64, 0xbe, 0x53, 0x25, 0x54, 0xbe, 0x15, 0x71, 0xce, 0xbd,
  0xb1, 0x16, 0xa3, 0xbe, 0x80, 0xfa, 0xe4, 0x3d, 0x6a, 0xa0, 0xf4, 0x3e,
  0x1a, 0xea, 0x33, 0x3c, 0xe0, 0xeb, 0x51, 0x3f, 0x8e, 0x54, 0x45, 0x3d,
  0xac, 0x21, 0xb4, 0x3d, 0xff, 0x82, 0x56, 0xbf, 0xdc, 0x49, 0x42, 0xbf,
  0xc6, 0xa1, 0x76, 0xbf, 0x58, 0x79, 0x47, 0xbf, 0x7e, 0x8b, 0x8a, 0xbe,
  0x07, 0x0a, 0x9d, 0xbe, 0x9e, 0x8f, 0x03, 0xbf, 0x98, 0x52, 0xf9, 0xbe,
  0x69, 0xf6, 0x42, 0x3d, 0x7c, 0xa5, 0xfa, 0x3e, 0x28, 0xed, 0x82, 0x3e,
  0x54, 0x93, 0xb5, 0x3c, 0x04, 0xb4, 0xbd, 0x3e, 0x79, 0x85, 0x36, 0x3f,
  0x55, 0x6f, 0x9a, 0x3e, 0x74, 0xbb, 0xef, 0x3e, 0x6a, 0x8a, 0xb9, 0xbe,
  0xfc, 0xa9, 0x04, 0x3f, 0x2b, 0xfe, 0x91, 0xbe, 0x66, 0x7b, 0x7c, 0x3e,
  0x3e, 0xe4, 0x77, 0xbe, 0x53, 0x3a, 0x65, 0xbd, 0x53, 0x81, 0x69, 0xbe,
  0xbb, 0xd5, 0x32, 0xbd, 0x7b, 0xa9, 0x0a, 0x3f, 0x29, 0xff, 0x55, 0xbc,
  0x3b, 0x61, 0x5c, 0x3f, 0x9f, 0x16, 0x01, 0x3f, 0x6c, 0x68, 0x9a, 0x3e,
  0xec, 0x56, 0x8d, 0xbe, 0x41, 0x45, 0x21, 0x3f, 0x16, 0xbc, 0xf0, 0x3b,
  0xd1, 0xab, 0xa9, 0x3e, 0xa7, 0x96, 0x7f, 0xbc, 0xa0, 0xfe, 0x1f, 0x3e,
  0x9b, 0x36, 0x51, 0xbe, 0xd2, 0xfe, 0xff, 0xff, 0x04, 0x00, 0x00, 0x00,
  0x30, 0x00, 0x00, 0x00, 0x66, 0xdd, 0x12, 0xbf, 0x59, 0x0f, 0x6a, 0x3d,
  0xba, 0x76, 0x1b, 0xbf, 0xf0, 0xc2, 0x72, 0xbe, 0x8d, 0x5f, 0x08, 0x3f,
  0xb3, 0x66, 0x3b, 0x3f, 0xfe, 0xb1, 0xff, 0xbe, 0x67, 0x85, 0x54, 0xbf,
  0x04, 0x8d, 0x0f, 0xbf, 0x61, 0x19, 0x52, 0x3f, 0xbe, 0xc2, 0x32, 0x3e,
  0x60, 0x47, 0xaf, 0xbe, 0x0e, 0xff, 0xff, 0xff, 0x04, 0x00, 0x00, 0x00,
  0x10, 0x00, 0x00, 0x00, 0x01, 0x29, 0xb3, 0xbe, 0xcd, 0xc5, 0xad, 0xbe,
  0x9e, 0xd5, 0x2b, 0x3d, 0xe6, 0x5f, 0x21, 0xbd, 0x2a, 0xff, 0xff, 0xff,
  0x04, 0x00, 0x00, 0x00, 0x10, 0x00, 0x00, 0x00, 0x21, 0x03, 0x7c, 0xbc,
  0xa9, 0xf7, 0x93, 0x3e, 0x7b, 0x3c, 0x30, 0xbd, 0xa0, 0x29, 0xdc, 0xbd,
  0x46, 0xff, 0xff, 0xff, 0x04, 0x00, 0x00, 0x00, 0x10, 0x00, 0x00, 0x00,
  0x9a, 0x73, 0x02, 0xbe, 0x6d, 0xeb, 0xda, 0x3a, 0xd0, 0x3f, 0x53, 0xbe,
  0x97, 0x47, 0x83, 0xbc, 0x78, 0xf2, 0xff, 0xff, 0x7c, 0xf2, 0xff, 0xff,
  0x0f, 0x00, 0x00, 0x00, 0x4d, 0x4c, 0x49, 0x52, 0x20, 0x43, 0x6f, 0x6e,
  0x76, 0x65, 0x72, 0x74, 0x65, 0x64, 0x2e, 0x00, 0x01, 0x00, 0x00, 0x00,
  0x14, 0x00, 0x00, 0x00, 0x00, 0x00, 0x0e, 0x00, 0x18, 0x00, 0x14, 0x00,
  0x10, 0x00, 0x0c, 0x00, 0x08, 0x00, 0x04, 0x00, 0x0e, 0x00, 0x00, 0x00,
  0x14, 0x00, 0x00, 0x00, 0x1c, 0x00, 0x00, 0x00, 0xdc, 0x02, 0x00, 0x00,
  0xe0, 0x02, 0x00, 0x00, 0xe4, 0x02, 0x00, 0x00, 0x04, 0x00, 0x00, 0x00,
  0x6d, 0x61, 0x69, 0x6e, 0x00, 0x00, 0x00, 0x00, 0x0a, 0x00, 0x00, 0x00,
  0x74, 0x02, 0x00, 0x00, 0x10, 0x02, 0x00, 0x00, 0xbc, 0x01, 0x00, 0x00,
  0x78, 0x01, 0x00, 0x00, 0x34, 0x01, 0x00, 0x00, 0xf0, 0x00, 0x00, 0x00,
  0xc8, 0x00, 0x00, 0x00, 0x78, 0x00, 0x00, 0x00, 0x40, 0x00, 0x00, 0x00,
  0x04, 0x00, 0x00, 0x00, 0x22, 0xfe, 0xff, 0xff, 0x1c, 0x00, 0x00, 0x00,
  0x00, 0x00, 0x00, 0x09, 0x1c, 0x00, 0x00, 0x00, 0x20, 0x00, 0x00, 0x00,
  0x04, 0x00, 0x00, 0x00, 0x00, 0x00, 0x06, 0x00, 0x08, 0x00, 0x04, 0x00,
  0x06, 0x00, 0x00, 0x00, 0x00, 0x00, 0x80, 0x3f, 0x01, 0x00, 0x00, 0x00,
  0x15, 0x00, 0x00, 0x00, 0x01, 0x00, 0x00, 0x00, 0x14, 0x00, 0x00, 0x00,
  0x5a, 0xfe, 0xff, 0xff, 0x14, 0x00, 0x00, 0x00, 0x00, 0x00, 0x00, 0x08,
  0x10, 0x00, 0x00, 0x00, 0x14, 0x00, 0x00, 0x00, 0x03, 0x00, 0x00, 0x00,
  0x4c, 0xf3, 0xff, 0xff, 0x01, 0x00, 0x00, 0x00, 0x14, 0x00, 0x00, 0x00,
  0x03, 0x00, 0x00, 0x00, 0x13, 0x00, 0x00, 0x00, 0x0b, 0x00, 0x00, 0x00,
  0x07, 0x00, 0x00, 0x00, 0x8e, 0xfe, 0xff, 0xff, 0x1c, 0x00, 0x00, 0x00,
  0x00, 0x00, 0x00, 0x08, 0x1c, 0x00, 0x00, 0x00, 0x20, 0x00, 0x00, 0x00,
  0x03, 0x00, 0x00, 0x00, 0x00, 0x00, 0x06, 0x00, 0x08, 0x00, 0x07, 0x00,
  0x06, 0x00, 0x00, 0x00, 0x00, 0x00, 0x00, 0x01, 0x01, 0x00, 0x00, 0x00,
  0x13, 0x00, 0x00, 0x00, 0x03, 0x00, 0x00, 0x00, 0x12, 0x00, 0x00, 0x00,
  0x0a, 0x00, 0x00, 0x00, 0x08, 0x00, 0x00, 0x00, 0x00, 0x00, 0x0a, 0x00,
  0x10, 0x00, 0x0c, 0x00, 0x08, 0x00, 0x04, 0x00, 0x0a, 0x00, 0x00, 0x00,
  0x0c, 0x00, 0x00, 0x00, 0x10, 0x00, 0x00, 0x00, 0x02, 0x00, 0x00, 0x00,
  0x01, 0x00, 0x00, 0x00, 0x12, 0x00, 0x00, 0x00, 0x02, 0x00, 0x00, 0x00,
  0x11, 0x00, 0x00, 0x00, 0x09, 0x00, 0x00, 0x00, 0xfe, 0xfe, 0xff, 0xff,
  0x14, 0x00, 0x00, 0x00, 0x00, 0x00, 0x00, 0x05, 0x24, 0x00, 0x00, 0x00,
  0x28, 0x00, 0x00, 0x00, 0x01, 0x00, 0x00, 0x00, 0xee, 0xfe, 0xff, 0xff,
  0x03, 0x00, 0x00, 0x00, 0x01, 0x00, 0x00, 0x00, 0x03, 0x00, 0x00, 0x00,
  0x01, 0x00, 0x00, 0x00, 0x00, 0x00, 0x00, 0x01, 0x01, 0x00, 0x00, 0x00,
  0x11, 0x00, 0x00, 0x00, 0x01, 0x00, 0x00, 0x00, 0x10, 0x00, 0x00, 0x00,
  0xde, 0xfe, 0xff, 0xff, 0x10, 0x00, 0x00, 0x00, 0x00, 0x00, 0x00, 0x01,
  0x1c, 0x00, 0x00, 0x00, 0x20, 0x00, 0x00, 0x00, 0xd0, 0xfe, 0xff, 0xff,
  0x00, 0x00, 0x00, 0x01, 0x01, 0x00, 0x00, 0x00, 0x01, 0x00, 0x00, 0x00,
  0x00, 0x00, 0x00, 0x01, 0x01, 0x00, 0x00, 0x00, 0x10, 0x00, 0x00, 0x00,
  0x03, 0x00, 0x00, 0x00, 0x0f, 0x00, 0x00, 0x00, 0x06, 0x00, 0x00, 0x00,
  0x03, 0x00, 0x00, 0x00, 0x7e, 0xff, 0xff, 0xff, 0x14, 0x00, 0x00, 0x00,
  0x00, 0x00, 0x00, 0x05, 0x24, 0x00, 0x00, 0x00, 0x28, 0x00, 0x00, 0x00,
  0x01, 0x00, 0x00, 0x00, 0x6e, 0xff, 0xff, 0xff, 0x03, 0x00, 0x00, 0x00,
  0x01, 0x00, 0x00, 0x00, 0x03, 0x00, 0x00, 0x00, 0x01, 0x00, 0x00, 0x00,
  0x00, 0x00, 0x00, 0x01, 0x01, 0x00, 0x00, 0x00, 0x0f, 0x00, 0x00, 0x00,
  0x01, 0x00, 0x00, 0x00, 0x0e, 0x00, 0x00, 0x00, 0x5e, 0xff, 0xff, 0xff,
  0x10, 0x00, 0x00, 0x00, 0x00, 0x00, 0x00, 0x01, 0x1c, 0x00, 0x00, 0x00,
  0x20, 0x00, 0x00, 0x00, 0x50, 0xff, 0xff, 0xff, 0x00, 0x00, 0x00, 0x01,
  0x01, 0x00, 0x00, 0x00, 0x01, 0x00, 0x00, 0x00, 0x00, 0x00, 0x00, 0x01,
  0x01, 0x00, 0x00, 0x00, 0x0e, 0x00, 0x00, 0x00, 0x03, 0x00, 0x00, 0x00,
  0x0d, 0x00, 0x00, 0x00, 0x05, 0x00, 0x00, 0x00, 0x02, 0x00, 0x00, 0x00,
  0x00, 0x00, 0x0e, 0x00, 0x1a, 0x00, 0x14, 0x00, 0x10, 0x00, 0x0c, 0x00,
  0x0b, 0x00, 0x04, 0x00, 0x0e, 0x00, 0x00, 0x00, 0x24, 0x00, 0x00, 0x00,
  0x00, 0x00, 0x00, 0x05, 0x34, 0x00, 0x00, 0x00, 0x38, 0x00, 0x00, 0x00,
  0x01, 0x00, 0x00, 0x00, 0x00, 0x00, 0x0e, 0x00, 0x18, 0x00, 0x17, 0x00,
  0x10, 0x00, 0x0c, 0x00, 0x08, 0x00, 0x04, 0x00, 0x0e, 0x00, 0x00, 0x00,
  0x03, 0x00, 0x00, 0x00, 0x01, 0x00, 0x00, 0x00, 0x03, 0x00, 0x00, 0x00,
  0x01, 0x00, 0x00, 0x00, 0x00, 0x00, 0x00, 0x01, 0x01, 0x00, 0x00, 0x00,
  0x0d, 0x00, 0x00, 0x00, 0x01, 0x00, 0x00, 0x00, 0x0c, 0x00, 0x00, 0x00,
  0x00, 0x00, 0x0e, 0x00, 0x14, 0x00, 0x00, 0x00, 0x10, 0x00, 0x0c, 0x00,
  0x0b, 0x00, 0x04, 0x00, 0x0e, 0x00, 0x00, 0x00, 0x1c, 0x00, 0x00, 0x00,
  0x00, 0x00, 0x00, 0x01, 0x28, 0x00, 0x00, 0x00, 0x2c, 0x00, 0x00, 0x00,
  0x0c, 0x00, 0x14, 0x00, 0x13, 0x00, 0x0c, 0x00, 0x08, 0x00, 0x07, 0x00,
  0x0c, 0x00, 0x00, 0x00, 0x00, 0x00, 0x00, 0x01, 0x01, 0x00, 0x00, 0x00,
  0x01, 0x00, 0x00, 0x00, 0x00, 0x00, 0x00, 0x01, 0x01, 0x00, 0x00, 0x00,
  0x0c, 0x00, 0x00, 0x00, 0x03, 0x00, 0x00, 0x00, 0x00, 0x00, 0x00, 0x00,
  0x04, 0x00, 0x00, 0x00, 0x01, 0x00, 0x00, 0x00, 0x01, 0x00, 0x00, 0x00,
  0x15, 0x00, 0x00, 0x00, 0x01, 0x00, 0x00, 0x00, 0x00, 0x00, 0x00, 0x00,
  0x16, 0x00, 0x00, 0x00, 0x28, 0x0a, 0x00, 0x00, 0xb4, 0x09, 0x00, 0x00,
  0x40, 0x09, 0x00, 0x00, 0xe4, 0x08, 0x00, 0x00, 0x8c, 0x08, 0x00, 0x00,
  0x34, 0x08, 0x00, 0x00, 0xdc, 0x07, 0x00, 0x00, 0x80, 0x07, 0x00, 0x00,
  0x24, 0x07, 0x00, 0x00, 0xd4, 0x06, 0x00, 0x00, 0x6c, 0x06, 0x00, 0x00,
  0x1c, 0x06, 0x00, 0x00, 0x20, 0x05, 0x00, 0x00, 0xa8, 0x04, 0x00, 0x00,
  0xac, 0x03, 0x00, 0x00, 0x34, 0x03, 0x00, 0x00, 0x58, 0x02, 0x00, 0x00,
  0xe0, 0x01, 0x00, 0x00, 0x7c, 0x01, 0x00, 0x00, 0xe0, 0x00, 0x00, 0x00,
  0x60, 0x00, 0x00, 0x00, 0x04, 0x00, 0x00, 0x00, 0x46, 0xf6, 0xff, 0xff,
  0x00, 0x00, 0x00, 0x01, 0x14, 0x00, 0x00, 0x00, 0x1c, 0x00, 0x00, 0x00,
  0x1c, 0x00, 0x00, 0x00, 0x16, 0x00, 0x00, 0x00, 0x34, 0x00, 0x00, 0x00,
  0x02, 0x00, 0x00, 0x00, 0xff, 0xff, 0xff, 0xff, 0x03, 0x00, 0x00, 0x00,
  0x28, 0xf6, 0xff, 0xff, 0x19, 0x00, 0x00, 0x00, 0x53, 0x74, 0x61, 0x74,
  0x65, 0x66, 0x75, 0x6c, 0x50, 0x61, 0x72, 0x74, 0x69, 0x74, 0x69, 0x6f,
  0x6e, 0x65, 0x64, 0x43, 0x61, 0x6c, 0x6c, 0x3a, 0x30, 0x00, 0x00, 0x00,
  0x02, 0x00, 0x00, 0x00, 0x01, 0x00, 0x00, 0x00, 0x03, 0x00, 0x00, 0x00,
  0x9e, 0xf6, 0xff, 0xff, 0x00, 0x00, 0x00, 0x01, 0x14, 0x00, 0x00, 0x00,
  0x1c, 0x00, 0x00, 0x00, 0x1c, 0x00, 0x00, 0x00, 0x15, 0x00, 0x00, 0x00,
  0x58, 0x00, 0x00, 0x00, 0x02, 0x00, 0x00, 0x00, 0xff, 0xff, 0xff, 0xff,
  0x03, 0x00, 0x00, 0x00, 0x80, 0xf6, 0xff, 0xff, 0x3c, 0x00, 0x00, 0x00,
  0x73, 0x65, 0x71, 0x75, 0x65, 0x6e, 0x74, 0x69, 0x61, 0x6c, 0x5f, 0x32,
  0x32, 0x2f, 0x64, 0x65, 0x6e, 0x73, 0x65, 0x5f, 0x35, 0x38, 0x2f, 0x4d,
  0x61, 0x74, 0x4d, 0x75, 0x6c, 0x3b, 0x73, 0x65, 0x71, 0x75, 0x65, 0x6e,
  0x74, 0x69, 0x61, 0x6c, 0x5f, 0x32, 0x32, 0x2f, 0x64, 0x65, 0x6e, 0x73,
  0x65, 0x5f, 0x35, 0x38, 0x2f, 0x42, 0x69, 0x61, 0x73, 0x41, 0x64, 0x64,
  0x00, 0x00, 0x00, 0x00, 0x02, 0x00, 0x00, 0x00, 0x01, 0x00, 0x00, 0x00,
  0x03, 0x00, 0x00, 0x00, 0x1a, 0xf7, 0xff, 0xff, 0x00, 0x00, 0x00, 0x01,
  0x14, 0x00, 0x00, 0x00, 0x1c, 0x00, 0x00, 0x00, 0x1c, 0x00, 0x00, 0x00,
  0x14, 0x00, 0x00, 0x00, 0x74, 0x00, 0x00, 0x00, 0x02, 0x00, 0x00, 0x00,
  0xff, 0xff, 0xff, 0xff, 0x10, 0x00, 0x00, 0x00, 0xfc, 0xf6, 0xff, 0xff,
  0x58, 0x00, 0x00, 0x00, 0x73, 0x65, 0x71, 0x75, 0x65, 0x6e, 0x74, 0x69,
  0x61, 0x6c, 0x5f, 0x32, 0x32, 0x2f, 0x64, 0x65, 0x6e, 0x73, 0x65, 0x5f,
  0x35, 0x37, 0x2f, 0x4d, 0x61, 0x74, 0x4d, 0x75, 0x6c, 0x3b, 0x73, 0x65,
  0x71, 0x75, 0x65, 0x6e, 0x74, 0x69, 0x61, 0x6c, 0x5f, 0x32, 0x32, 0x2f,
  0x64, 0x65, 0x6e, 0x73, 0x65, 0x5f, 0x35, 0x37, 0x2f, 0x52, 0x65, 0x6c,
  0x75, 0x3b, 0x73, 0x65, 0x71, 0x75, 0x65, 0x6e, 0x74, 0x69, 0x61, 0x6c,
  0x5f, 0x32, 0x32, 0x2f, 0x64, 0x65, 0x6e, 0x73, 0x65, 0x5f, 0x35, 0x37,
  0x2f, 0x42, 0x69, 0x61, 0x73, 0x41, 0x64, 0x64, 0x00, 0x00, 0x00, 0x00,
  0x02, 0x00, 0x00, 0x00, 0x01, 0x00, 0x00, 0x00, 0x10, 0x00, 0x00, 0x00,
  0xb2, 0xf7, 0xff, 0xff, 0x00, 0x00, 0x00, 0x01, 0x14, 0x00, 0x00, 0x00,
  0x1c, 0x00, 0x00, 0x00, 0x1c, 0x00, 0x00, 0x00, 0x13, 0x00, 0x00, 0x00,
  0x3c, 0x00, 0x00, 0x00, 0x02, 0x00, 0x00, 0x00, 0xff, 0xff, 0xff, 0xff,
  0x18, 0x00, 0x00, 0x00, 0x94, 0xf7, 0xff, 0xff, 0x20, 0x00, 0x00, 0x00,
  0x73, 0x65, 0x71, 0x75, 0x65, 0x6e, 0x74, 0x69, 0x61, 0x6c, 0x5f, 0x32,
  0x32, 0x2f, 0x66, 0x6c, 0x61, 0x74, 0x74, 0x65, 0x6e, 0x5f, 0x32, 0x32,
  0x2f, 0x52, 0x65, 0x73, 0x68, 0x61, 0x70, 0x65, 0x00, 0x00, 0x00, 0x00,
  0x02, 0x00, 0x00, 0x00, 0x01, 0x00, 0x00, 0x00, 0x18, 0x00, 0x00, 0x00,
  0x12, 0xf8, 0xff, 0xff, 0x00, 0x00, 0x00, 0x01, 0x14, 0x00, 0x00, 0x00,
  0x24, 0x00, 0x00, 0x00, 0x24, 0x00, 0x00, 0x00, 0x12, 0x00, 0x00, 0x00,
  0x48, 0x00, 0x00, 0x00, 0x04, 0x00, 0x00, 0x00, 0xff, 0xff, 0xff, 0xff,
  0x02, 0x00, 0x00, 0x00, 0x03, 0x00, 0x00, 0x00, 0x04, 0x00, 0x00, 0x00,
  0xfc, 0xf7, 0xff, 0xff, 0x26, 0x00, 0x00, 0x00, 0x73, 0x65, 0x71, 0x75,
  0x65, 0x6e, 0x74, 0x69, 0x61, 0x6c, 0x5f, 0x32, 0x32, 0x2f, 0x6d, 0x61,
  0x78, 0x5f, 0x70, 0x6f, 0x6f, 0x6c, 0x69, 0x6e, 0x67, 0x32, 0x64, 0x5f,
  0x32, 0x38, 0x2f, 0x4d, 0x61, 0x78, 0x50, 0x6f, 0x6f, 0x6c, 0x00, 0x00,
  0x04, 0x00, 0x00, 0x00, 0x01, 0x00, 0x00, 0x00, 0x02, 0x00, 0x00, 0x00,
  0x03, 0x00, 0x00, 0x00, 0x04, 0x00, 0x00, 0x00, 0x86, 0xf8, 0xff, 0xff,
  0x00, 0x00, 0x00, 0x01, 0x14, 0x00, 0x00, 0x00, 0x24, 0x00, 0x00, 0x00,
  0x24, 0x00, 0x00, 0x00, 0x11, 0x00, 0x00, 0x00, 0xac, 0x00, 0x00, 0x00,
  0x04, 0x00, 0x00, 0x00, 0xff, 0xff, 0xff, 0xff, 0x06, 0x00, 0x00, 0x00,
  0x03, 0x00, 0x00, 0x00, 0x04, 0x00, 0x00, 0x00, 0x70, 0xf8, 0xff, 0xff,
  0x8a, 0x00, 0x00, 0x00, 0x73, 0x65, 0x71, 0x75, 0x65, 0x6e, 0x74, 0x69,
  0x61, 0x6c, 0x5f, 0x32, 0x32, 0x2f, 0x63, 0x6f, 0x6e, 0x76, 0x32, 0x64,
  0x5f, 0x32, 0x38, 0x2f, 0x52, 0x65, 0x6c, 0x75, 0x3b, 0x73, 0x65, 0x71,
  0x75, 0x65, 0x6e, 0x74, 0x69, 0x61, 0x6c, 0x5f, 0x32, 0x32, 0x2f, 0x63,
  0x6f, 0x6e, 0x76, 0x32, 0x64, 0x5f, 0x32, 0x38, 0x2f, 0x42, 0x69, 0x61,
  0x73, 0x41, 0x64, 0x64, 0x3b, 0x73, 0x65, 0x71, 0x75, 0x65, 0x6e, 0x74,
  0x69, 0x61, 0x6c, 0x5f, 0x32, 0x32, 0x2f, 0x63, 0x6f, 0x6e, 0x76, 0x32,
  0x64, 0x5f, 0x32, 0x38, 0x2f, 0x43, 0x6f, 0x6e, 0x76, 0x32, 0x44, 0x3b,
  0x73, 0x65, 0x71, 0x75, 0x65, 0x6e, 0x74, 0x69, 0x61, 0x6c, 0x5f, 0x32,
  0x32, 0x2f, 0x63, 0x6f, 0x6e, 0x76, 0x32, 0x64, 0x5f, 0x32, 0x38, 0x2f,
  0x42, 0x69, 0x61, 0x73, 0x41, 0x64, 0x64, 0x2f, 0x52, 0x65, 0x61, 0x64,
  0x56, 0x61, 0x72, 0x69, 0x61, 0x62, 0x6c, 0x65, 0x4f, 0x70, 0x00, 0x00,
  0x04, 0x00, 0x00, 0x00, 0x01, 0x00, 0x00, 0x00, 0x06, 0x00, 0x00, 0x00,
  0x03, 0x00, 0x00, 0x00, 0x04, 0x00, 0x00, 0x00, 0x5e, 0xf9, 0xff, 0xff,
  0x00, 0x00, 0x00, 0x01, 0x14, 0x00, 0x00, 0x00, 0x24, 0x00, 0x00, 0x00,
  0x24, 0x00, 0x00, 0x00, 0x10, 0x00, 0x00, 0x00, 0x48, 0x00, 0x00, 0x00,
  0x04, 0x00, 0x00, 0x00, 0xff, 0xff, 0xff, 0xff, 0x08, 0x00, 0x00, 0x00,
  0x03, 0x00, 0x00, 0x00, 0x04, 0x00, 0x00, 0x00, 0x48, 0xf9, 0xff, 0xff,
  0x26, 0x00, 0x00, 0x00, 0x73, 0x65, 0x71, 0x75, 0x65, 0x6e, 0x74, 0x69,
  0x61, 0x6c, 0x5f, 0x32, 0x32, 0x2f, 0x6d, 0x61, 0x78, 0x5f, 0x70, 0x6f,
  0x6f, 0x6c, 0x69, 0x6e, 0x67, 0x32, 0x64, 0x5f, 0x32, 0x37, 0x2f, 0x4d,
  0x61, 0x78, 0x50, 0x6f, 0x6f, 0x6c, 0x00, 0x00, 0x04, 0x00, 0x00, 0x00,
  0x01, 0x00, 0x00, 0x00, 0x08, 0x00, 0x00, 0x00, 0x03, 0x00, 0x00, 0x00,
  0x04, 0x00, 0x00, 0x00, 0xd2, 0xf9, 0xff, 0xff, 0x00, 0x00, 0x00, 0x01,
  0x14, 0x00, 0x00, 0x00, 0x24, 0x00, 0x00, 0x00, 0x24, 0x00, 0x00, 0x00,
  0x0f, 0x00, 0x00, 0x00, 0xcc, 0x00, 0x00, 0x00, 0x04, 0x00, 0x00, 0x00,
  0xff, 0xff, 0xff, 0xff, 0x18, 0x00, 0x00, 0x00, 0x03, 0x00, 0x00, 0x00,
  0x04, 0x00, 0x00, 0x00, 0xbc, 0xf9, 0xff, 0xff, 0xa9, 0x00, 0x00, 0x00,
  0x73, 0x65, 0x71, 0x75, 0x65, 0x6e, 0x74, 0x69, 0x61, 0x6c, 0x5f, 0x32,
  0x32, 0x2f, 0x63, 0x6f, 0x6e, 0x76, 0x32, 0x64, 0x5f, 0x32, 0x37, 0x2f,
  0x52, 0x65, 0x6c, 0x75, 0x3b, 0x73, 0x65, 0x71, 0x75, 0x65, 0x6e, 0x74,
  0x69, 0x61, 0x6c, 0x5f, 0x32, 0x32, 0x2f, 0x63, 0x6f, 0x6e, 0x76, 0x32,
  0x64, 0x5f, 0x32, 0x37, 0x2f, 0x42, 0x69, 0x61, 0x73, 0x41, 0x64, 0x64,
  0x3b, 0x73, 0x65, 0x71, 0x75, 0x65, 0x6e, 0x74, 0x69, 0x61, 0x6c, 0x5f,
  0x32, 0x32, 0x2f, 0x63, 0x6f, 0x6e, 0x76, 0x32, 0x64, 0x5f, 0x32, 0x38,
  0x2f, 0x43, 0x6f, 0x6e, 0x76, 0x32, 0x44, 0x3b, 0x73, 0x65, 0x71, 0x75,
  0x65, 0x6e, 0x74, 0x69, 0x61, 0x6c, 0x5f, 0x32, 0x32, 0x2f, 0x63, 0x6f,
  0x6e, 0x76, 0x32, 0x64, 0x5f, 0x32, 0x37, 0x2f, 0x43, 0x6f, 0x6e, 0x76,
  0x32, 0x44, 0x3b, 0x73, 0x65, 0x71, 0x75, 0x65, 0x6e, 0x74, 0x69, 0x61,
  0x6c, 0x5f, 0x32, 0x32, 0x2f, 0x63, 0x6f, 0x6e, 0x76, 0x32, 0x64, 0x5f,
  0x32, 0x37, 0x2f, 0x42, 0x69, 0x61, 0x73, 0x41, 0x64, 0x64, 0x2f, 0x52,
  0x65, 0x61, 0x64, 0x56, 0x61, 0x72, 0x69, 0x61, 0x62, 0x6c, 0x65, 0x4f,
  0x70, 0x00, 0x00, 0x00, 0x04, 0x00, 0x00, 0x00, 0x01, 0x00, 0x00, 0x00,
  0x18, 0x00, 0x00, 0x00, 0x03, 0x00, 0x00, 0x00, 0x04, 0x00, 0x00, 0x00,
  0xca, 0xfa, 0xff, 0xff, 0x00, 0x00, 0x00, 0x01, 0x14, 0x00, 0x00, 0x00,
  0x24, 0x00, 0x00, 0x00, 0x24, 0x00, 0x00, 0x00, 0x0e, 0x00, 0x00, 0x00,
  0x48, 0x00, 0x00, 0x00, 0x04, 0x00, 0x00, 0x00, 0xff, 0xff, 0xff, 0xff,
  0x1a, 0x00, 0x00, 0x00, 0x03, 0x00, 0x00, 0x00, 0x04, 0x00, 0x00, 0x00,
  0xb4, 0xfa, 0xff, 0xff, 0x26, 0x00, 0x00, 0x00, 0x73, 0x65, 0x71, 0x75,
  0x65, 0x6e, 0x74, 0x69, 0x61, 0x6c, 0x5f, 0x32, 0x32, 0x2f, 0x6d, 0x61,
  0x78, 0x5f, 0x70, 0x6f, 0x6f, 0x6c, 0x69, 0x6e, 0x67, 0x32, 0x64, 0x5f,
  0x32, 0x36, 0x2f, 0x4d, 0x61, 0x78, 0x50, 0x6f, 0x6f, 0x6c, 0x00, 0x00,
  0x04, 0x00, 0x00, 0x00, 0x01, 0x00, 0x00, 0x00, 0x1a, 0x00, 0x00, 0x00,
  0x03, 0x00, 0x00, 0x00, 0x04, 0x00, 0x00, 0x00, 0x3e, 0xfb, 0xff, 0xff,
  0x00, 0x00, 0x00, 0x01, 0x14, 0x00, 0x00, 0x00, 0x24, 0x00, 0x00, 0x00,
  0x24, 0x00, 0x00, 0x00, 0x0d, 0x00, 0x00, 0x00, 0xcc, 0x00, 0x00, 0x00,
  0x04, 0x00, 0x00, 0x00, 0xff, 0xff, 0xff, 0xff, 0x4e, 0x00, 0x00, 0x00,
  0x03, 0x00, 0x00, 0x00, 0x04, 0x00, 0x00, 0x00, 0x28, 0xfb, 0xff, 0xff,
  0xa9, 0x00, 0x00, 0x00, 0x73, 0x65, 0x71, 0x75, 0x65, 0x6e, 0x74, 0x69,
  0x61, 0x6c, 0x5f, 0x32, 0x32, 0x2f, 0x63, 0x6f, 0x6e, 0x76, 0x32, 0x64,
  0x5f, 0x32, 0x36, 0x2f, 0x52, 0x65, 0x6c, 0x75, 0x3b, 0x73, 0x65, 0x71,
  0x75, 0x65, 0x6e, 0x74, 0x69, 0x61, 0x6c, 0x5f, 0x32, 0x32, 0x2f, 0x63,
  0x6f, 0x6e, 0x76, 0x32, 0x64, 0x5f, 0x32, 0x36, 0x2f, 0x42, 0x69, 0x61,
  0x73, 0x41, 0x64, 0x64, 0x3b, 0x73, 0x65, 0x71, 0x75, 0x65, 0x6e, 0x74,
  0x69, 0x61, 0x6c, 0x5f, 0x32, 0x32, 0x2f, 0x63, 0x6f, 0x6e, 0x76, 0x32,
  0x64, 0x5f, 0x32, 0x38, 0x2f, 0x43, 0x6f, 0x6e, 0x76, 0x32, 0x44, 0x3b,
  0x73, 0x65, 0x71, 0x75, 0x65, 0x6e, 0x74, 0x69, 0x61, 0x6c, 0x5f, 0x32,
  0x32, 0x2f, 0x63, 0x6f, 0x6e, 0x76, 0x32, 0x64, 0x5f, 0x32, 0x36, 0x2f,
  0x43, 0x6f, 0x6e, 0x76, 0x32, 0x44, 0x3b, 0x73, 0x65, 0x71, 0x75, 0x65,
  0x6e, 0x74, 0x69, 0x61, 0x6c, 0x5f, 0x32, 0x32, 0x2f, 0x63, 0x6f, 0x6e,
  0x76, 0x32, 0x64, 0x5f, 0x32, 0x36, 0x2f, 0x42, 0x69, 0x61, 0x73, 0x41,
  0x64, 0x64, 0x2f, 0x52, 0x65, 0x61, 0x64, 0x56, 0x61, 0x72, 0x69, 0x61,
  0x62, 0x6c, 0x65, 0x4f, 0x70, 0x00, 0x00, 0x00, 0x04, 0x00, 0x00, 0x00,
  0x01, 0x00, 0x00, 0x00, 0x4e, 0x00, 0x00, 0x00, 0x03, 0x00, 0x00, 0x00,
  0x04, 0x00, 0x00, 0x00, 0xa6, 0xfc, 0xff, 0xff, 0x00, 0x00, 0x00, 0x01,
  0x10, 0x00, 0x00, 0x00, 0x10, 0x00, 0x00, 0x00, 0x0c, 0x00, 0x00, 0x00,
  0x2c, 0x00, 0x00, 0x00, 0x08, 0xfc, 0xff, 0xff, 0x1d, 0x00, 0x00, 0x00,
  0x73, 0x65, 0x71, 0x75, 0x65, 0x6e, 0x74, 0x69, 0x61, 0x6c, 0x5f, 0x32,
  0x32, 0x2f, 0x64, 0x65, 0x6e, 0x73, 0x65, 0x5f, 0x35, 0x38, 0x2f, 0x4d,
  0x61, 0x74, 0x4d, 0x75, 0x6c, 0x00, 0x00, 0x00, 0x02, 0x00, 0x00, 0x00,
  0x03, 0x00, 0x00, 0x00, 0x10, 0x00, 0x00, 0x00, 0xf2, 0xfc, 0xff, 0xff,
  0x00, 0x00, 0x00, 0x01, 0x10, 0x00, 0x00, 0x00, 0x10, 0x00, 0x00, 0x00,
  0x0b, 0x00, 0x00, 0x00, 0x2c, 0x00, 0x00, 0x00, 0x54, 0xfc, 0xff, 0xff,
  0x1d, 0x00, 0x00, 0x00, 0x73, 0x65, 0x71, 0x75, 0x65, 0x6e, 0x74, 0x69,
  0x61, 0x6c, 0x5f, 0x32, 0x32, 0x2f, 0x64, 0x65, 0x6e, 0x73, 0x65, 0x5f,
  0x35, 0x37, 0x2f, 0x4d, 0x61, 0x74, 0x4d, 0x75, 0x6c, 0x00, 0x00, 0x00,
  0x02, 0x00, 0x00, 0x00, 0x10, 0x00, 0x00, 0x00, 0x18, 0x00, 0x00, 0x00,
  0x00, 0x00, 0x16, 0x00, 0x1c, 0x00, 0x18, 0x00, 0x17, 0x00, 0x10, 0x00,
  0x0c, 0x00, 0x08, 0x00, 0x00, 0x00, 0x00, 0x00, 0x00, 0x00, 0x07, 0x00,
  0x16, 0x00, 0x00, 0x00, 0x00, 0x00, 0x00, 0x01, 0x14, 0x00, 0x00, 0x00,
  0x14, 0x00, 0x00, 0x00, 0x0a, 0x00, 0x00, 0x00, 0x00, 0x00, 0x00, 0x02,
  0x2c, 0x00, 0x00, 0x00, 0xbc, 0xfc, 0xff, 0xff, 0x1e, 0x00, 0x00, 0x00,
  0x73, 0x65, 0x71, 0x75, 0x65, 0x6e, 0x74, 0x69, 0x61, 0x6c, 0x5f, 0x32,
  0x32, 0x2f, 0x66, 0x6c, 0x61, 0x74, 0x74, 0x65, 0x6e, 0x5f, 0x32, 0x32,
  0x2f, 0x43, 0x6f, 0x6e, 0x73, 0x74, 0x00, 0x00, 0x01, 0x00, 0x00, 0x00,
  0x02, 0x00, 0x00, 0x00, 0xa2, 0xfd, 0xff, 0xff, 0x00, 0x00, 0x00, 0x01,
  0x10, 0x00, 0x00, 0x00, 0x10, 0x00, 0x00, 0x00, 0x09, 0x00, 0x00, 0x00,
  0x3c, 0x00, 0x00, 0x00, 0x04, 0xfd, 0xff, 0xff, 0x2d, 0x00, 0x00, 0x00,
  0x73, 0x65, 0x71, 0x75, 0x65, 0x6e, 0x74, 0x69, 0x61, 0x6c, 0x5f, 0x32,
  0x32, 0x2f, 0x64, 0x65, 0x6e, 0x73, 0x65, 0x5f, 0x35, 0x37, 0x2f, 0x42,
  0x69, 0x61, 0x73, 0x41, 0x64, 0x64, 0x2f, 0x52, 0x65, 0x61, 0x64, 0x56,
  0x61, 0x72, 0x69, 0x61, 0x62, 0x6c, 0x65, 0x4f, 0x70, 0x00, 0x00, 0x00,
  0x01, 0x00, 0x00, 0x00, 0x10, 0x00, 0x00, 0x00, 0xfa, 0xfd, 0xff, 0xff,
  0x00, 0x00, 0x00, 0x01, 0x10, 0x00, 0x00, 0x00, 0x10, 0x00, 0x00, 0x00,
  0x08, 0x00, 0x00, 0x00, 0x3c, 0x00, 0x00, 0x00, 0x5c, 0xfd, 0xff, 0xff,
  0x2d, 0x00, 0x00, 0x00, 0x73, 0x65, 0x71, 0x75, 0x65, 0x6e, 0x74, 0x69,
  0x61, 0x6c, 0x5f, 0x32, 0x32, 0x2f, 0x64, 0x65, 0x6e, 0x73, 0x65, 0x5f,
  0x35, 0x38, 0x2f, 0x42, 0x69, 0x61, 0x73, 0x41, 0x64, 0x64, 0x2f, 0x52,
  0x65, 0x61, 0x64, 0x56, 0x61, 0x72, 0x69, 0x61, 0x62, 0x6c, 0x65, 0x4f,
  0x70, 0x00, 0x00, 0x00, 0x01, 0x00, 0x00, 0x00, 0x03, 0x00, 0x00, 0x00,
  0x52, 0xfe, 0xff, 0xff, 0x00, 0x00, 0x00, 0x01, 0x10, 0x00, 0x00, 0x00,
  0x10, 0x00, 0x00, 0x00, 0x07, 0x00, 0x00, 0x00, 0x2c, 0x00, 0x00, 0x00,
  0xb4, 0xfd, 0xff, 0xff, 0x1e, 0x00, 0x00, 0x00, 0x73, 0x65, 0x71, 0x75,
  0x65, 0x6e, 0x74, 0x69, 0x61, 0x6c, 0x5f, 0x32, 0x32, 0x2f, 0x63, 0x6f,
  0x6e, 0x76, 0x32, 0x64, 0x5f, 0x32, 0x38, 0x2f, 0x43, 0x6f, 0x6e, 0x76,
  0x32, 0x44, 0x00, 0x00, 0x04, 0x00, 0x00, 0x00, 0x04, 0x00, 0x00, 0x00,
  0x03, 0x00, 0x00, 0x00, 0x01, 0x00, 0x00, 0x00, 0x04, 0x00, 0x00, 0x00,
  0xa6, 0xfe, 0xff, 0xff, 0x00, 0x00, 0x00, 0x01, 0x10, 0x00, 0x00, 0x00,
  0x10, 0x00, 0x00, 0x00, 0x06, 0x00, 0x00, 0x00, 0x2c, 0x00, 0x00, 0x00,
  0x08, 0xfe, 0xff, 0xff, 0x1e, 0x00, 0x00, 0x00, 0x73, 0x65, 0x71, 0x75,
  0x65, 0x6e, 0x74, 0x69, 0x61, 0x6c, 0x5f, 0x32, 0x32, 0x2f, 0x63, 0x6f,
  0x6e, 0x76, 0x32, 0x64, 0x5f, 0x32, 0x37, 0x2f, 0x43, 0x6f, 0x6e, 0x76,
  0x32, 0x44, 0x00, 0x00, 0x04, 0x00, 0x00, 0x00, 0x04, 0x00, 0x00, 0x00,
  0x03, 0x00, 0x00, 0x00, 0x01, 0x00, 0x00, 0x00, 0x04, 0x00, 0x00, 0x00,
  0xfa, 0xfe, 0xff, 0xff, 0x00, 0x00, 0x00, 0x01, 0x10, 0x00, 0x00, 0x00,
  0x10, 0x00, 0x00, 0x00, 0x05, 0x00, 0x00, 0x00, 0x2c, 0x00, 0x00, 0x00,
  0x5c, 0xfe, 0xff, 0xff, 0x1e, 0x00, 0x00, 0x00, 0x73, 0x65, 0x71, 0x75,
  0x65, 0x6e, 0x74, 0x69, 0x61, 0x6c, 0x5f, 0x32, 0x32, 0x2f, 0x63, 0x6f,
  0x6e, 0x76, 0x32, 0x64, 0x5f, 0x32, 0x36, 0x2f, 0x43, 0x6f, 0x6e, 0x76,
  0x32, 0x44, 0x00, 0x00, 0x04, 0x00, 0x00, 0x00, 0x04, 0x00, 0x00, 0x00,
  0x03, 0x00, 0x00, 0x00, 0x01, 0x00, 0x00, 0x00, 0x01, 0x00, 0x00, 0x00,
  0x4e, 0xff, 0xff, 0xff, 0x00, 0x00, 0x00, 0x01, 0x10, 0x00, 0x00, 0x00,
  0x10, 0x00, 0x00, 0x00, 0x04, 0x00, 0x00, 0x00, 0x3c, 0x00, 0x00, 0x00,
  0xb0, 0xfe, 0xff, 0xff, 0x2e, 0x00, 0x00, 0x00, 0x73, 0x65, 0x71, 0x75,
  0x65, 0x6e, 0x74, 0x69, 0x61, 0x6c, 0x5f, 0x32, 0x32, 0x2f, 0x63, 0x6f,
  0x6e, 0x76, 0x32, 0x64, 0x5f, 0x32, 0x38, 0x2f, 0x42, 0x69, 0x61, 0x73,
  0x41, 0x64, 0x64, 0x2f, 0x52, 0x65, 0x61, 0x64, 0x56, 0x61, 0x72, 0x69,
  0x61, 0x62, 0x6c, 0x65, 0x4f, 0x70, 0x00, 0x00, 0x01, 0x00, 0x00, 0x00,
  0x04, 0x00, 0x00, 0x00, 0xa6, 0xff, 0xff, 0xff, 0x00, 0x00, 0x00, 0x01,
  0x10, 0x00, 0x00, 0x00, 0x10, 0x00, 0x00, 0x00, 0x03, 0x00, 0x00, 0x00,
  0x3c, 0x00, 0x00, 0x00, 0x08, 0xff, 0xff, 0xff, 0x2e, 0x00, 0x00, 0x00,
  0x73, 0x65, 0x71, 0x75, 0x65, 0x6e, 0x74, 0x69, 0x61, 0x6c, 0x5f, 0x32,
  0x32, 0x2f, 0x63, 0x6f, 0x6e, 0x76, 0x32, 0x64, 0x5f, 0x32, 0x37, 0x2f,
  0x42, 0x69, 0x61, 0x73, 0x41, 0x64, 0x64, 0x2f, 0x52, 0x65, 0x61, 0x64,
  0x56, 0x61, 0x72, 0x69, 0x61, 0x62, 0x6c, 0x65, 0x4f, 0x70, 0x00, 0x00,
  0x01, 0x00, 0x00, 0x00, 0x04, 0x00, 0x00, 0x00, 0x00, 0x00, 0x16, 0x00,
  0x18, 0x00, 0x14, 0x00, 0x00, 0x00, 0x10, 0x00, 0x0c, 0x00, 0x08, 0x00,
  0x00, 0x00, 0x00, 0x00, 0x00, 0x00, 0x07, 0x00, 0x16, 0x00, 0x00, 0x00,
  0x00, 0x00, 0x00, 0x01, 0x10, 0x00, 0x00, 0x00, 0x10, 0x00, 0x00, 0x00,
  0x02, 0x00, 0x00, 0x00, 0x3c, 0x00, 0x00, 0x00, 0x78, 0xff, 0xff, 0xff,
  0x2e, 0x00, 0x00, 0x00, 0x73, 0x65, 0x71, 0x75, 0x65, 0x6e, 0x74, 0x69,
  0x61, 0x6c, 0x5f, 0x32, 0x32, 0x2f, 0x63, 0x6f, 0x6e, 0x76, 0x32, 0x64,
  0x5f, 0x32, 0x36, 0x2f, 0x42, 0x69, 0x61, 0x73, 0x41, 0x64, 0x64, 0x2f,
  0x52, 0x65, 0x61, 0x64, 0x56, 0x61, 0x72, 0x69, 0x61, 0x62, 0x6c, 0x65,
  0x4f, 0x70, 0x00, 0x00, 0x01, 0x00, 0x00, 0x00, 0x04, 0x00, 0x00, 0x00,
  0x00, 0x00, 0x16, 0x00, 0x1c, 0x00, 0x18, 0x00, 0x00, 0x00, 0x14, 0x00,
  0x10, 0x00, 0x0c, 0x00, 0x00, 0x00, 0x00, 0x00, 0x08, 0x00, 0x07, 0x00,
  0x16, 0x00, 0x00, 0x00, 0x00, 0x00, 0x00, 0x01, 0x14, 0x00, 0x00, 0x00,
  0x28, 0x00, 0x00, 0x00, 0x28, 0x00, 0x00, 0x00, 0x01, 0x00, 0x00, 0x00,
  0x40, 0x00, 0x00, 0x00, 0x04, 0x00, 0x00, 0x00, 0xff, 0xff, 0xff, 0xff,
  0x50, 0x00, 0x00, 0x00, 0x03, 0x00, 0x00, 0x00, 0x01, 0x00, 0x00, 0x00,
  0x04, 0x00, 0x04, 0x00, 0x04, 0x00, 0x00, 0x00, 0x1a, 0x00, 0x00, 0x00,
  0x73, 0x65, 0x72, 0x76, 0x69, 0x6e, 0x67, 0x5f, 0x64, 0x65, 0x66, 0x61,
  0x75, 0x6c, 0x74, 0x5f, 0x69, 0x6e, 0x70, 0x75, 0x74, 0x5f, 0x32, 0x33,
  0x3a, 0x30, 0x00, 0x00, 0x04, 0x00, 0x00, 0x00, 0x01, 0x00, 0x00, 0x00,
  0x50, 0x00, 0x00, 0x00, 0x03, 0x00, 0x00, 0x00, 0x01, 0x00, 0x00, 0x00,
  0x05, 0x00, 0x00, 0x00, 0x50, 0x00, 0x00, 0x00, 0x34, 0x00, 0x00, 0x00,
  0x24, 0x00, 0x00, 0x00, 0x14, 0x00, 0x00, 0x00, 0x04, 0x00, 0x00, 0x00,
  0xd0, 0xff, 0xff, 0xff, 0x19, 0x00, 0x00, 0x00, 0x00, 0x00, 0x00, 0x19,
  0xdc, 0xff, 0xff, 0xff, 0x09, 0x00, 0x00, 0x00, 0x00, 0x00, 0x00, 0x09,
  0xe8, 0xff, 0xff, 0xff, 0x16, 0x00, 0x00, 0x00, 0x00, 0x00, 0x00, 0x16,
  0xf4, 0xff, 0xff, 0xff, 0x11, 0x00, 0x00, 0x00, 0x00, 0x00, 0x00, 0x11,
  0x0c, 0x00, 0x0c, 0x00, 0x0b, 0x00, 0x00, 0x00, 0x00, 0x00, 0x04, 0x00,
  0x0c, 0x00, 0x00, 0x00, 0x03, 0x00, 0x00, 0x00, 0x00, 0x00, 0x00, 0x03
};
