const unsigned char model[] __attribute__((aligned(4))) = {
  0x1c, 0x00, 0x00, 0x00, 0x54, 0x46, 0x4c, 0x33, 0x14, 0x00, 0x20, 0x00,
  0x1c, 0x00, 0x18, 0x00, 0x14, 0x00, 0x10, 0x00, 0x0c, 0x00, 0x00, 0x00,
  0x08, 0x00, 0x04, 0x00, 0x14, 0x00, 0x00, 0x00, 0x1c, 0x00, 0x00, 0x00,
  0x90, 0x00, 0x00, 0x00, 0xe8, 0x00, 0x00, 0x00, 0x30, 0x12, 0x00, 0x00,
  0x40, 0x12, 0x00, 0x00, 0xb8, 0x1a, 0x00, 0x00, 0x03, 0x00, 0x00, 0x00,
  0x01, 0x00, 0x00, 0x00, 0x10, 0x00, 0x00, 0x00, 0x00, 0x00, 0x0a, 0x00,
  0x10, 0x00, 0x0c, 0x00, 0x08, 0x00, 0x04, 0x00, 0x0a, 0x00, 0x00, 0x00,
  0x0c, 0x00, 0x00, 0x00, 0x1c, 0x00, 0x00, 0x00, 0x3c, 0x00, 0x00, 0x00,
  0x0f, 0x00, 0x00, 0x00, 0x73, 0x65, 0x72, 0x76, 0x69, 0x6e, 0x67, 0x5f,
  0x64, 0x65, 0x66, 0x61, 0x75, 0x6c, 0x74, 0x00, 0x01, 0x00, 0x00, 0x00,
  0x04, 0x00, 0x00, 0x00, 0x98, 0xff, 0xff, 0xff, 0x0f, 0x00, 0x00, 0x00,
  0x04, 0x00, 0x00, 0x00, 0x08, 0x00, 0x00, 0x00, 0x64, 0x65, 0x6e, 0x73,
  0x65, 0x5f, 0x32, 0x34, 0x00, 0x00, 0x00, 0x00, 0x01, 0x00, 0x00, 0x00,
  0x04, 0x00, 0x00, 0x00, 0xbe, 0xed, 0xff, 0xff, 0x04, 0x00, 0x00, 0x00,
  0x07, 0x00, 0x00, 0x00, 0x69, 0x6e, 0x70, 0x75, 0x74, 0x5f, 0x38, 0x00,
  0x02, 0x00, 0x00, 0x00, 0x34, 0x00, 0x00, 0x00, 0x04, 0x00, 0x00, 0x00,
  0xdc, 0xff, 0xff, 0xff, 0x12, 0x00, 0x00, 0x00, 0x04, 0x00, 0x00, 0x00,
  0x13, 0x00, 0x00, 0x00, 0x43, 0x4f, 0x4e, 0x56, 0x45, 0x52, 0x53, 0x49,
  0x4f, 0x4e, 0x5f, 0x4d, 0x45, 0x54, 0x41, 0x44, 0x41, 0x54, 0x41, 0x00,
  0x08, 0x00, 0x0c, 0x00, 0x08, 0x00, 0x04, 0x00, 0x08, 0x00, 0x00, 0x00,
  0x11, 0x00, 0x00, 0x00, 0x04, 0x00, 0x00, 0x00, 0x13, 0x00, 0x00, 0x00,
  0x6d, 0x69, 0x6e, 0x5f, 0x72, 0x75, 0x6e, 0x74, 0x69, 0x6d, 0x65, 0x5f,
  0x76, 0x65, 0x72, 0x73, 0x69, 0x6f, 0x6e, 0x00, 0x13, 0x00, 0x00, 0x00,
  0x44, 0x11, 0x00, 0x00, 0x3c, 0x11, 0x00, 0x00, 0x20, 0x11, 0x00, 0x00,
  0x00, 0x11, 0x00, 0x00, 0xe0, 0x10, 0x00, 0x00, 0xc0, 0x10, 0x00, 0x00,
  0xa8, 0x10, 0x00, 0x00, 0x98, 0x01, 0x00, 0x00, 0x48, 0x01, 0x00, 0x00,
  0xf8, 0x00, 0x00, 0x00, 0xb8, 0x00, 0x00, 0x00, 0xb0, 0x00, 0x00, 0x00,
  0xa8, 0x00, 0x00, 0x00, 0xa0, 0x00, 0x00, 0x00, 0x98, 0x00, 0x00, 0x00,
  0x90, 0x00, 0x00, 0x00, 0x88, 0x00, 0x00, 0x00, 0x68, 0x00, 0x00, 0x00,
  0x04, 0x00, 0x00, 0x00, 0x7e, 0xee, 0xff, 0xff, 0x04, 0x00, 0x00, 0x00,
  0x54, 0x00, 0x00, 0x00, 0x0c, 0x00, 0x00, 0x00, 0x08, 0x00, 0x0e, 0x00,
  0x08, 0x00, 0x04, 0x00, 0x08, 0x00, 0x00, 0x00, 0x10, 0x00, 0x00, 0x00,
  0x24, 0x00, 0x00, 0x00, 0x00, 0x00, 0x06, 0x00, 0x08, 0x00, 0x04, 0x00,
  0x06, 0x00, 0x00, 0x00, 0x04, 0x00, 0x00, 0x00, 0x00, 0x00, 0x00, 0x00,
  0x00, 0x00, 0x0a, 0x00, 0x10, 0x00, 0x0c, 0x00, 0x08, 0x00, 0x04, 0x00,
  0x0a, 0x00, 0x00, 0x00, 0x02, 0x00, 0x00, 0x00, 0x02, 0x00, 0x00, 0x00,
  0x04, 0x00, 0x00, 0x00, 0x06, 0x00, 0x00, 0x00, 0x32, 0x2e, 0x31, 0x30,
  0x2e, 0x30, 0x00, 0x00, 0xde, 0xee, 0xff, 0xff, 0x04, 0x00, 0x00, 0x00,
  0x10, 0x00, 0x00, 0x00, 0x31, 0x2e, 0x35, 0x2e, 0x30, 0x00, 0x00, 0x00,
  0x00, 0x00, 0x00, 0x00, 0x00, 0x00, 0x00, 0x00, 0x2c, 0xe7, 0xff, 0xff,
  0x30, 0xe7, 0xff, 0xff, 0x34, 0xe7, 0xff, 0xff, 0x38, 0xe7, 0xff, 0xff,
  0x3c, 0xe7, 0xff, 0xff, 0x40, 0xe7, 0xff, 0xff, 0x12, 0xef, 0xff, 0xff,
  0x04, 0x00, 0x00, 0x00, 0x30, 0x00, 0x00, 0x00, 0x3b, 0xe4, 0xb3, 0x3e,
  0x5d, 0xe8, 0x88, 0x3f, 0xc2, 0xef, 0xad, 0xbf, 0xc7, 0x97, 0x9c, 0xbf,
  0xbb, 0x5d, 0xb3, 0x3e, 0x6a, 0x6e, 0x4e, 0x3e, 0xf5, 0xe0, 0x3c, 0xbe,
  0x48, 0x8d, 0x99, 0xbe, 0xfa, 0xe9, 0xd2, 0x3d, 0x3e, 0x15, 0xdf, 0xbf,
  0x42, 0x6c, 0xf3, 0x3e, 0xff, 0x30, 0x88, 0x3f, 0x4e, 0xef, 0xff, 0xff,
  0x04, 0x00, 0x00, 0x00, 0x40, 0x00, 0x00, 0x00, 0x4d, 0x47, 0x4b, 0xbe,
  0x38, 0x57, 0x30, 0xbb, 0x41, 0xaa, 0xc0, 0xbe, 0xae, 0x5b, 0xca, 0xbe,
  0x35, 0x4d, 0x89, 0xbf, 0x8a, 0xa6, 0x9d, 0xbf, 0x00, 0xa2, 0x3d, 0x3f,
  0xe0, 0xb5, 0xab, 0xbf, 0x3a, 0x09, 0xcc, 0x3f, 0x22, 0xdf, 0x4a, 0x3f,
  0xbe, 0x19, 0x81, 0xbd, 0x65, 0x0c, 0xaa, 0x3f, 0xf2, 0x4a, 0x46, 0x3f,
  0x51, 0xa7, 0xa0, 0x3e, 0x28, 0xb7, 0x7b, 0xbf, 0xb9, 0xf0, 0x80, 0x3f,
  0x9a, 0xef, 0xff, 0xff, 0x04, 0x00, 0x00, 0x00, 0x40, 0x00, 0x00, 0x00,
  0xdf, 0x23, 0x1a, 0x3f, 0xac, 0xd2, 0x2e, 0x3f, 0x67, 0xa4, 0x11, 0x3f,
  0x46, 0xff, 0x2d, 0x3f, 0xd3, 0x70, 0x76, 0x3f, 0x90, 0xa2, 0x02, 0xbe,
  0x9a, 0x6f, 0x67, 0x3f, 0xef, 0xa1, 0x7b, 0x3e, 0x91, 0x12, 0xf1, 0xbe,
  0x74, 0x3d, 0x55, 0xbf, 0xa9, 0x5f, 0xea, 0xbe, 0x22, 0x6c, 0x53, 0xbf,
  0xd2, 0x8a, 0x67, 0x3f, 0x19, 0x80, 0x6a, 0x3f, 0x6e, 0x5b, 0x5f, 0x3f,
  0x45, 0x9d, 0x68, 0x3f, 0xe6, 0xef, 0xff, 0xff, 0x04, 0x00, 0x00, 0x00,
  0x00, 0x0f, 0x00, 0x00, 0xd1, 0x9a, 0x14, 0xbd, 0x24, 0x37, 0x35, 0x3e,
  0xec, 0x2b, 0x11, 0xbe, 0x19, 0xc4, 0x30, 0x3e, 0x6c, 0x92, 0x7a, 0x3c,
  0x71, 0x8d, 0x6d, 0xbd, 0xfc, 0x78, 0x42, 0x3f, 0x35, 0x05, 0xcf, 0x3e,
  0x0a, 0x08, 0x9d, 0x3d, 0x6c, 0xf3, 0xe3, 0xbd, 0x11, 0x54, 0xdb, 0xbe,
  0x52, 0xf7, 0xd8, 0xbe, 0xbe, 0x14, 0xb5, 0xbd, 0x81, 0x7c, 0xf2, 0xbe,
  0x35, 0x34, 0xfd, 0xbd, 0x1a, 0x52, 0x22, 0xbd, 0x9d, 0x0d, 0x82, 0xbd,
  0xf6, 0x47, 0x13, 0xbe, 0xff, 0xdf, 0x5c, 0xbf, 0x97, 0xcd, 0x45, 0xbf,
  0x89, 0xa1, 0xa4, 0xbe, 0xe7, 0x4d, 0x02, 0xbe, 0x46, 0xf8, 0x32, 0x3e,
  0x4f, 0x3d, 0x2d, 0xbe, 0x8c, 0x6b, 0xdf, 0xbe, 0xb4, 0x63, 0xe9, 0xbe,
  0x01, 0xd0, 0x1d, 0x3e, 0x05, 0x3b, 0xdc, 0x3c, 0x5a, 0x38, 0xae, 0x3e,
  0xa9, 0xe1, 0x3e, 0x3e, 0x5a, 0xef, 0x71, 0xbe, 0x45, 0xeb, 0xf5, 0x3b,
  0xc4, 0x61, 0x2c, 0x3e, 0x5f, 0x32, 0xc1, 0xbe, 0xb3, 0x4e, 0x08, 0x3e,
  0x4a, 0x4c, 0x80, 0xb9, 0x20, 0x83, 0xb6, 0xbd, 0x29, 0x78, 0x3f, 0x3d,
  0x79, 0xfc, 0xb0, 0x3c, 0x33, 0xcd, 0x1f, 0xbe, 0xaf, 0x98, 0x32, 0xbd,
  0x31, 0xb1, 0xc8, 0xbd, 0x0f, 0xba, 0xf3, 0xbc, 0x53, 0x80, 0xc2, 0x3c,
  0x5d, 0x93, 0xd8, 0xbc, 0xe4, 0x0b, 0x34, 0xbe, 0xdd, 0xe1, 0x46, 0x3c,
  0x6d, 0xfd, 0x3b, 0xbe, 0x82, 0x8b, 0x82, 0x3d, 0xf9, 0xd7, 0x5c, 0xbd,
  0x59, 0xac, 0xc4, 0xbd, 0xbd, 0xc8, 0x26, 0xbc, 0x71, 0x3b, 0x1a, 0xbd,
  0x2e, 0x8f, 0x12, 0xbe, 0x6b, 0x0f, 0x04, 0x3d, 0xb9, 0xb6, 0x85, 0xbb,
  0x9b, 0xfe, 0x13, 0xbe, 0x29, 0x4c, 0xa6, 0x3d, 0x0a, 0x98, 0xbc, 0xbb,
  0x37, 0xe5, 0x27, 0xbe, 0x05, 0xd1, 0x8a, 0x3d, 0x48, 0x36, 0xac, 0xbc,
  0x39, 0x55, 0xdb, 0xbd, 0xf6, 0x6f, 0x0b, 0x3e, 0xdb, 0xdd, 0x95, 0x3c,
  0x8f, 0x88, 0xbf, 0xbd, 0x1c, 0x4d, 0x29, 0x3e, 0x7c, 0x39, 0xa0, 0xbc,
  0x6d, 0xa0, 0x30, 0xbd, 0xbf, 0xca, 0x04, 0x3e, 0x8d, 0x53, 0x41, 0x3b,
  0x2c, 0x1c, 0x2c, 0x3d, 0x47, 0x94, 0x17, 0x3e, 0xc5, 0xb0, 0xca, 0x3d,
  0x80, 0x86, 0x9d, 0x3d, 0xa2, 0xbf, 0xb6, 0x3d, 0x30, 0x23, 0x1f, 0x3d,
  0x34, 0x14, 0xc0, 0x3d, 0x66, 0x7a, 0xd7, 0x3d, 0x08, 0xad, 0x82, 0x3c,
  0x5b, 0x4b, 0xd9, 0x3d, 0x8b, 0xa2, 0xc8, 0x3c, 0x4d, 0x31, 0x48, 0x3d,
  0xa5, 0x0b, 0x18, 0x3e, 0x00, 0xd0, 0xc9, 0x3d, 0x15, 0xa8, 0xcc, 0x3c,
  0xc2, 0xcb, 0x03, 0x3e, 0xd4, 0x18, 0xa0, 0x3d, 0x0b, 0x11, 0x8f, 0x3c,
  0x22, 0xc6, 0x13, 0x3e, 0x8f, 0x51, 0x98, 0x3d, 0x98, 0x20, 0x00, 0x3d,
  0xd8, 0x1d, 0x22, 0x3e, 0x3b, 0x64, 0x50, 0x3d, 0xc7, 0xe5, 0x29, 0x3d,
  0x0b, 0x53, 0x11, 0x3e, 0x25, 0x21, 0x0e, 0x3d, 0xfc, 0xe4, 0x1d, 0x3d,
  0xc0, 0xae, 0xfb, 0x3d, 0x71, 0xc8, 0x2a, 0x3d, 0x81, 0xde, 0x82, 0x3c,
  0x6b, 0xd6, 0x3b, 0x3e, 0xc8, 0x94, 0x86, 0x3d, 0x71, 0x91, 0x4f, 0x3d,
  0x73, 0xdd, 0x09, 0x3e, 0xa7, 0x12, 0x5e, 0x3c, 0x57, 0xe6, 0xd3, 0x3d,
  0xfa, 0xcb, 0x1f, 0x3e, 0x95, 0x8e, 0x38, 0x3d, 0x1c, 0x67, 0xca, 0x3d,
  0xf7, 0xef, 0x41, 0x3e, 0x14, 0xa9, 0xa0, 0x3c, 0xea, 0xef, 0xd0, 0x3d,
  0xfa, 0xf8, 0x01, 0x3e, 0xb7, 0x0b, 0x60, 0x3d, 0x73, 0xda, 0x14, 0x3e,
  0xcb, 0xf0, 0x05, 0x3e, 0xe0, 0xc7, 0x31, 0x3d, 0x98, 0xc3, 0x8d, 0x3d,
  0x14, 0x14, 0xea, 0x3d, 0xe2, 0xe3, 0x9f, 0x3d, 0x90, 0x74, 0x19, 0x3e,
  0x37, 0xe9, 0xa0, 0x3d, 0x4f, 0x85, 0x25, 0x3d, 0x44, 0x47, 0xd6, 0x3d,
  0x87, 0x9a, 0x73, 0x3d, 0x87, 0x05, 0x98, 0x3d, 0xf8, 0xbe, 0xe6, 0x3d,
  0xcf, 0x4d, 0x25, 0x3b, 0xcc, 0x5c, 0x2b, 0x3d, 0xc8, 0x68, 0x7c, 0x3d,
  0x6f, 0xf6, 0x19, 0xbd, 0x79, 0x35, 0x1b, 0x3d, 0x98, 0xfe, 0x30, 0x3d,
  0x19, 0x5a, 0x63, 0xbd, 0xda, 0x40, 0x34, 0x3c, 0x37, 0x3f, 0x77, 0xbc,
  0x8a, 0xe7, 0x02, 0xbe, 0x13, 0xb6, 0xd3, 0x3c, 0x2f, 0x90, 0x68, 0xbc,
  0x9e, 0x5d, 0x06, 0xbe, 0xc2, 0x96, 0xfb, 0xb9, 0xc7, 0xc3, 0x42, 0xbd,
  0x1c, 0xce, 0x34, 0xbe, 0xe0, 0x61, 0xa4, 0x3b, 0xeb, 0xee, 0x29, 0xbd,
  0xe2, 0x9e, 0x4c, 0xbe, 0x79, 0x59, 0x11, 0xbd, 0x47, 0xee, 0xc7, 0xbd,
  0x7f, 0x14, 0x34, 0xbe, 0x8f, 0x67, 0xc5, 0xbc, 0xf7, 0x6d, 0xb5, 0xbd,
  0xcf, 0x17, 0x53, 0xbe, 0xc9, 0x16, 0x98, 0xbd, 0x39, 0x1d, 0xd4, 0xbd,
  0x36, 0x53, 0x12, 0xbe, 0xc9, 0xa4, 0x96, 0xbd, 0x59, 0xbe, 0xb3, 0xbd,
  0xa0, 0xa8, 0x03, 0xbe, 0x32, 0xa6, 0xdc, 0xbd, 0x3b, 0xd9, 0xaa, 0xbd,
  0x05, 0xd5, 0xbe, 0xbd, 0x04, 0x6a, 0xa2, 0xbd, 0xd0, 0xcf, 0x4d, 0xbd,
  0x8e, 0x4b, 0x8a, 0xbd, 0x64, 0xce, 0x7d, 0xbd, 0xd8, 0x4f, 0xbe, 0xbd,
  0xb3, 0x57, 0x19, 0xbd, 0xbe, 0x05, 0xca, 0xbd, 0x80, 0x7e, 0xaa, 0xbd,
  0x40, 0xd5, 0xe7, 0xbc, 0x9b, 0xea, 0xb2, 0xbd, 0x6f, 0x27, 0xb0, 0xbd,
  0x98, 0xcf, 0x6a, 0xbc, 0x42, 0x4d, 0xc8, 0xbd, 0x3a, 0x36, 0x72, 0xbd,
  0x8b, 0xe4, 0xc9, 0xbb, 0x61, 0x72, 0xd3, 0xbd, 0xb7, 0xb7, 0xce, 0xbd,
  0xb8, 0xbf, 0x28, 0x3b, 0x0b, 0x5d, 0x9b, 0xbd, 0xb6, 0x51, 0x6d, 0xbd,
  0xc0, 0xce, 0x9f, 0x3c, 0x51, 0xfd, 0x76, 0xbd, 0x79, 0xc4, 0x0d, 0xbd,
  0xc6, 0x8b, 0x15, 0x3d, 0x19, 0xa5, 0x4b, 0xbd, 0xf0, 0x2d, 0xf5, 0xbc,
  0x37, 0x95, 0x61, 0x3d, 0x7d, 0x67, 0x10, 0xbc, 0x76, 0x05, 0x81, 0xbc,
  0xb3, 0xdd, 0x57, 0x3d, 0x3b, 0x17, 0x2d, 0xbc, 0x03, 0x91, 0x95, 0x3b,
  0x09, 0x9c, 0x89, 0x3d, 0x87, 0x30, 0x30, 0x3c, 0xe5, 0x8d, 0x04, 0xbc,
  0x23, 0xc1, 0xc3, 0x3d, 0x46, 0x67, 0xf8, 0x3c, 0xf7, 0x50, 0xd9, 0x3c,
  0xfd, 0x94, 0x95, 0x3d, 0x46, 0x5b, 0x73, 0x3d, 0xd9, 0xc4, 0x66, 0x3d,
  0xff, 0xf3, 0xb5, 0x3d, 0x79, 0xe4, 0x9c, 0x3d, 0x3a, 0x35, 0x53, 0x3d,
  0xf8, 0x0b, 0xa7, 0x3d, 0x22, 0x73, 0x8d, 0x3d, 0x34, 0x41, 0x7d, 0x3d,
  0x84, 0xe1, 0xa9, 0x3d, 0xa5, 0xfd, 0xf5, 0x3d, 0x01, 0xc6, 0x75, 0x3d,
  0xca, 0x39, 0xb3, 0x3d, 0x1d, 0x17, 0xeb, 0x3d, 0x2d, 0x81, 0x8c, 0x3d,
  0x44, 0x0f, 0x9f, 0x3d, 0x5d, 0xcc, 0xc7, 0x3d, 0x4f, 0x64, 0x8e, 0x3d,
  0x40, 0x32, 0xa4, 0x3d, 0x49, 0x34, 0xcf, 0x3d, 0xbb, 0xac, 0x86, 0x3d,
  0x46, 0x9e, 0x99, 0x3d, 0xb1, 0xbf, 0xa6, 0x3d, 0x44, 0x85, 0xad, 0x3d,
  0x67, 0xc9, 0x91, 0x3d, 0x07, 0x66, 0x90, 0x3d, 0x3e, 0x54, 0x36, 0x3d,
  0x90, 0xda, 0x96, 0x3d, 0x0b, 0xc4, 0x58, 0x3d, 0xcf, 0xb5, 0x7a, 0x3d,
  0xf6, 0x79, 0x87, 0x3c, 0x21, 0x3b, 0x2a, 0x3d, 0x65, 0xad, 0x55, 0x3b,
  0x56, 0x15, 0x30, 0x3d, 0x6b, 0x4e, 0x84, 0x3b, 0x04, 0xbc, 0x67, 0x3d,
  0xa7, 0xd5, 0x81, 0xbc, 0x36, 0x99, 0xc1, 0x3c, 0x09, 0x30, 0xa7, 0xbc,
  0x65, 0x10, 0x11, 0x3d, 0x5e, 0xce, 0x52, 0x3d, 0x67, 0xd4, 0x20, 0xbc,
  0xe1, 0x07, 0xb6, 0x3c, 0xb0, 0x8c, 0x9e, 0xbe, 0x9c, 0x58, 0xc6, 0x3e,
  0x40, 0x67, 0xcb, 0xbd, 0x37, 0x89, 0xc6, 0xbe, 0x1a, 0xa7, 0x60, 0xbe,
  0x3f, 0x48, 0x44, 0x3e, 0xa5, 0x3d, 0x91, 0xbe, 0xc2, 0x9e, 0x75, 0xbd,
  0x09, 0x56, 0x94, 0x3e, 0xaf, 0xc9, 0x3a, 0xbe, 0xbb, 0x76, 0x63, 0xbe,
  0x25, 0xef, 0x90, 0x3c, 0x01, 0x26, 0x0b, 0xbf, 0x7f, 0xcb, 0x71, 0xbf,
  0x1c, 0x69, 0xe5, 0xbe, 0xe3, 0x1c, 0x89, 0x3e, 0x38, 0xa6, 0x77, 0x3e,
  0x02, 0x86, 0x52, 0xbd, 0x61, 0xb2, 0x0f, 0x3f, 0xe5, 0x9b, 0xb7, 0xbe,
  0xae, 0x64, 0xae, 0x3d, 0x43, 0x8e, 0xc6, 0x3d, 0xc0, 0x03, 0x1a, 0xbe,
  0x8b, 0xe3, 0xc9, 0xbe, 0xca, 0xc5, 0x1d, 0x3f, 0x0f, 0x1e, 0x4e, 0x3e,
  0x19, 0x93, 0x2b, 0x3e, 0xbc, 0xfc, 0x13, 0x3d, 0xdb, 0x4e, 0x16, 0x3d,
  0x47, 0x58, 0xa4, 0x3d, 0x68, 0xec, 0x41, 0x3f, 0x17, 0xba, 0xb1, 0x3e,
  0x79, 0x6b, 0x64, 0x3e, 0xe0, 0x26, 0x8b, 0xbd, 0x95, 0xe5, 0xac, 0x3d,
  0xd7, 0x98, 0x7b, 0xbd, 0xba, 0xc1, 0x15, 0x3e, 0x5c, 0xaf, 0x48, 0x3e,
  0x8d, 0x9b, 0x39, 0x3e, 0xfd, 0xce, 0xe2, 0xbd, 0xd3, 0x0a, 0x48, 0x3d,
  0x5e, 0x32, 0xbc, 0xbd, 0xaf, 0xca, 0x1a, 0xbe, 0x0f, 0xd6, 0xfc, 0x3b,
  0x45, 0x73, 0xd3, 0xbb, 0x90, 0x54, 0x11, 0xbe, 0x63, 0x83, 0x82, 0x3d,
  0x48, 0x3e, 0xc1, 0x3b, 0xc9, 0x15, 0xed, 0xbc, 0xd7, 0x95, 0x44, 0x3d,
  0xa9, 0x74, 0x66, 0xbd, 0x11, 0x14, 0x4f, 0xbc, 0x28, 0x9b, 0x84, 0x3d,
  0xd9, 0x06, 0x8b, 0x3d, 0x3e, 0x07, 0xd6, 0xbb, 0xa2, 0x4e, 0x1c, 0x3d,
  0xfd, 0x57, 0x5e, 0x3c, 0x15, 0xce, 0xfe, 0x3d, 0xfc, 0x41, 0xd0, 0x3d,
  0x15, 0x39, 0x52, 0x3d, 0xcf, 0x73, 0x02, 0x3e, 0x2b, 0x9c, 0x14, 0x3e,
  0x27, 0x07, 0x74, 0x3d, 0x68, 0xee, 0xc8, 0x3d, 0x7f, 0x51, 0x9b, 0x3d,
  0x9d, 0xb4, 0xa1, 0x3d, 0x54, 0x99, 0x2f, 0x3e, 0x68, 0xc1, 0xaa, 0x3d,
  0x03, 0x7d, 0x05, 0x3e, 0xdf, 0x1e, 0x40, 0x3e, 0xce, 0x8c, 0xd8, 0x3d,
  0xcb, 0x97, 0xb3, 0x3d, 0x16, 0x9e, 0x0a, 0x3e, 0x55, 0xb0, 0x92, 0x3d,
  0x7c, 0x1a, 0x09, 0x3e, 0x61, 0xda, 0xf7, 0x3d, 0x8d, 0x0f, 0xa2, 0x3d,
  0xc3, 0x2d, 0xe9, 0x3d, 0x95, 0x13, 0xe3, 0x3d, 0x88, 0xc4, 0xb2, 0x3b,
  0x94, 0x10, 0xfe, 0x3d, 0x2e, 0x5c, 0x5c, 0x3d, 0xb4, 0xab, 0xc0, 0x3d,
  0x84, 0xad, 0x10, 0x3e, 0x46, 0x05, 0x52, 0xbc, 0xc9, 0xbc, 0x94, 0x3d,
  0x31, 0xda, 0xc3, 0x3d, 0x22, 0x0d, 0x67, 0xbd, 0xe9, 0x8d, 0xd4, 0x3d,
  0x01, 0xbd, 0xf5, 0x3d, 0xc5, 0xda, 0xa4, 0xbd, 0x72, 0xcf, 0xc4, 0x3d,
  0x5d, 0x77, 0x0c, 0x3e, 0x87, 0x22, 0xf1, 0xbd, 0x8d, 0x32, 0x6d, 0x3d,
  0xd2, 0x1d, 0x52, 0x3d, 0xde, 0xba, 0x0e, 0xbe, 0x20, 0xaa, 0x7f, 0x3d,
  0x92, 0x77, 0x37, 0x3d, 0xa7, 0xa9, 0x54, 0xbe, 0xa6, 0x13, 0x17, 0x3b,
  0x9e, 0x08, 0x23, 0xbd, 0xc9, 0x0b, 0x2f, 0xbe, 0x77, 0x08, 0x9b, 0x3a,
  0x9f, 0xef, 0x61, 0xbd, 0x32, 0x2d, 0x64, 0xbe, 0xd8, 0x6a, 0x9b, 0xbd,
  0x34, 0xac, 0x13, 0xbe, 0x09, 0x8f, 0x26, 0xbe, 0x8b, 0xc4, 0x06, 0xbe,
  0x48, 0xfc, 0x54, 0xbe, 0x62, 0x35, 0x31, 0xbe, 0x47, 0x9a, 0x42, 0xbe,
  0x6f, 0xed, 0x5d, 0xbe, 0xec, 0x29, 0x32, 0xbe, 0x36, 0xea, 0x6b, 0xbe,
  0x00, 0xd7, 0x60, 0xbe, 0x7a, 0x6d, 0x35, 0xbe, 0x73, 0xef, 0x52, 0xbe,
  0x00, 0xd9, 0x57, 0xbe, 0x94, 0x69, 0x12, 0xbe, 0x0d, 0x7f, 0x8c, 0xbe,
  0x02, 0xd0, 0x7d, 0xbe, 0x7e, 0xa1, 0x56, 0xbe, 0x7c, 0x4f, 0x69, 0xbe,
  0xe2, 0xe2, 0x56, 0xbe, 0x07, 0x9b, 0x39, 0xbe, 0x25, 0x0b, 0x86, 0xbe,
  0x8f, 0xe4, 0x73, 0xbe, 0x55, 0x62, 0x0c, 0xbe, 0x1f, 0xf2, 0x71, 0xbe,
  0xfa, 0x25, 0x4e, 0xbe, 0x82, 0x65, 0xb3, 0xbd, 0xad, 0xa1, 0x3b, 0xbe,
  0xbe, 0xa7, 0x11, 0xbe, 0x89, 0xf8, 0x8d, 0xbd, 0x55, 0xc2, 0x19, 0xbe,
  0xde, 0x15, 0x0e, 0xbe, 0x49, 0x18, 0x27, 0x3c, 0x5f, 0x1b, 0x4f, 0xbd,
  0x2a, 0x32, 0xaa, 0xbd, 0x4d, 0x4e, 0x02, 0x3c, 0x26, 0x7f, 0xd4, 0xbc,
  0xac, 0x0c, 0x9c, 0xbc, 0x00, 0xbf, 0x77, 0x3d, 0x03, 0x67, 0xf1, 0x3c,
  0x5a, 0x9c, 0x26, 0x3c, 0xc1, 0xb2, 0x58, 0x3d, 0xed, 0x80, 0xd1, 0x3d,
  0x36, 0x43, 0x46, 0x3b, 0x7f, 0xda, 0xe4, 0x3d, 0xfb, 0x44, 0xd3, 0x3d,
  0x43, 0xd3, 0x44, 0x3d, 0xbe, 0x8b, 0xdb, 0x3d, 0x24, 0xac, 0x1a, 0x3e,
  0x43, 0x34, 0x86, 0x3d, 0xe8, 0xb4, 0xf1, 0x3d, 0x37, 0x9c, 0x0e, 0x3e,
  0x46, 0xf5, 0xd2, 0x3d, 0x4b, 0x5f, 0xde, 0x3d, 0xe7, 0x69, 0x17, 0x3e,
  0x5e, 0x11, 0xe8, 0x3d, 0xd4, 0x80, 0xb5, 0x3d, 0x2c, 0xfa, 0x47, 0x3e,
  0xd6, 0xd8, 0xe6, 0x3d, 0x47, 0x06, 0xf0, 0x3d, 0xb0, 0x20, 0x3b, 0x3e,
  0x98, 0x9b, 0xd9, 0x3d, 0xe6, 0x19, 0x09, 0x3e, 0xa0, 0x07, 0x31, 0x3e,
  0x3d, 0xdc, 0xc9, 0x3d, 0x2c, 0x08, 0x1e, 0x3e, 0xa6, 0x04, 0x25, 0x3e,
  0x31, 0x15, 0xfe, 0x3d, 0x19, 0x02, 0xee, 0x3d, 0x40, 0x85, 0x22, 0x3e,
  0x7a, 0x15, 0x00, 0x3e, 0x24, 0x72, 0x0a, 0x3e, 0x19, 0x58, 0xe5, 0x3d,
  0x9b, 0xfc, 0xd9, 0x3d, 0xff, 0x30, 0xee, 0x3d, 0x91, 0x6c, 0xd0, 0x3d,
  0xff, 0x68, 0x04, 0x3e, 0xc2, 0x35, 0xce, 0x3d, 0x6e, 0x41, 0x80, 0x3d,
  0x5c, 0x76, 0xc1, 0x3d, 0x36, 0x0c, 0x85, 0x3d, 0x1b, 0x93, 0x05, 0x3d,
  0xc2, 0x8e, 0x92, 0x3d, 0x11, 0x7f, 0x98, 0x3d, 0x76, 0xe4, 0x9d, 0xbc,
  0x38, 0x69, 0x3e, 0x3d, 0x5d, 0xf1, 0x11, 0x3d, 0xa7, 0x3c, 0x8b, 0xbc,
  0x9f, 0x38, 0x0f, 0x3d, 0xd4, 0xca, 0x3b, 0x3d, 0x37, 0xf9, 0x00, 0xbd,
  0x9a, 0x7e, 0x2f, 0x3d, 0xe8, 0xa3, 0x9e, 0x3c, 0x58, 0x48, 0x9e, 0xbc,
  0x97, 0x87, 0x94, 0x3c, 0x37, 0xf9, 0xaa, 0xb9, 0x5a, 0x81, 0x53, 0xbd,
  0x52, 0xcc, 0xc6, 0x3c, 0x0c, 0x02, 0xec, 0xbc, 0x53, 0x24, 0x33, 0xbd,
  0x57, 0xff, 0x6a, 0xbb, 0xf6, 0x7c, 0x36, 0xbb, 0x11, 0xe6, 0x6d, 0xbd,
  0x27, 0xeb, 0xb9, 0x3b, 0x5c, 0x8e, 0x4e, 0xbd, 0xbd, 0xe9, 0xfd, 0xbc,
  0x6c, 0x0a, 0x9f, 0xbc, 0x09, 0x60, 0x87, 0xbc, 0x66, 0x6c, 0x14, 0xbd,
  0xbf, 0x16, 0x7c, 0x3b, 0x13, 0x16, 0x24, 0xbd, 0x8e, 0x38, 0xcb, 0xbb,
  0x00, 0xe3, 0x10, 0xbc, 0xcb, 0xfc, 0x88, 0xbc, 0x36, 0xdc, 0xdd, 0xbc,
  0x23, 0xba, 0x84, 0xbc, 0x9c, 0x45, 0x20, 0xbc, 0x1c, 0x78, 0xce, 0xbb,
  0x13, 0xb5, 0x80, 0xbb, 0xe0, 0x46, 0x22, 0x3c, 0xad, 0x4b, 0xf9, 0xbc,
  0x6e, 0x22, 0xa1, 0x3c, 0x29, 0x07, 0x20, 0xbd, 0xcb, 0xdb, 0x3b, 0x3c,
  0xf1, 0x86, 0xa9, 0xbb, 0xdc, 0x52, 0xb2, 0x3c, 0x69, 0x12, 0x9f, 0xbc,
  0x6e, 0xeb, 0xd9, 0x3c, 0xde, 0x3c, 0xd2, 0xbc, 0xd5, 0x7a, 0x9c, 0x3c,
  0x6f, 0xa7, 0x1f, 0x3b, 0xb1, 0x6b, 0xb5, 0xbe, 0x19, 0xe4, 0xcb, 0xbe,
  0x48, 0xc7, 0x22, 0xbd, 0xcd, 0x9b, 0x14, 0xbe, 0x12, 0xa2, 0x17, 0xbf,
  0xa9, 0x47, 0xa7, 0xbd, 0xe4, 0x11, 0x39, 0xbe, 0x4f, 0xc6, 0xad, 0xbd,
  0x53, 0x7f, 0xc8, 0xbe, 0x86, 0xf3, 0x33, 0xbe, 0xa2, 0x5a, 0x57, 0xbe,
  0x32, 0x1e, 0x06, 0xbe, 0x60, 0xbe, 0x88, 0x3e, 0xde, 0xd4, 0xa6, 0x3e,
  0x1f, 0x67, 0x52, 0xbd, 0x1b, 0x83, 0x40, 0xbe, 0xe5, 0x9f, 0x08, 0x3f,
  0x60, 0x53, 0x81, 0x3e, 0x88, 0xb4, 0xf8, 0x3e, 0xe5, 0x7d, 0x17, 0x3f,
  0x47, 0x3c, 0x11, 0x3f, 0xfc, 0xa3, 0x36, 0xbf, 0x3a, 0x1e, 0x07, 0xbe,
  0x98, 0x7f, 0x1a, 0xbe, 0xf5, 0x9b, 0x9a, 0x3e, 0x80, 0x54, 0x86, 0x3e,
  0xf6, 0x9c, 0xb2, 0x3e, 0x27, 0x8d, 0x56, 0x3d, 0x22, 0xe5, 0xed, 0xbd,
  0x08, 0xb1, 0xe8, 0x3d, 0xfa, 0x66, 0xa9, 0x3e, 0x7e, 0xa8, 0x48, 0xbd,
  0xd0, 0xdc, 0x10, 0xbe, 0x55, 0x03, 0x97, 0x3c, 0x15, 0x76, 0x1a, 0xbe,
  0x77, 0xed, 0x0d, 0xbd, 0x4b, 0x17, 0x32, 0x3e, 0xd2, 0x2c, 0x8b, 0x3c,
  0xf6, 0xfc, 0xc6, 0x3c, 0x2e, 0xd9, 0x98, 0x3d, 0x66, 0x5d, 0x0c, 0xbd,
  0xc0, 0x7c, 0x6a, 0xbc, 0x9b, 0xfd, 0xbd, 0x3d, 0xa6, 0x31, 0xa1, 0x3d,
  0x8a, 0x29, 0x06, 0x3e, 0xe1, 0x72, 0xab, 0x3e, 0x8e, 0x1d, 0xe9, 0x3d,
  0x80, 0x67, 0xad, 0x3d, 0x5f, 0x84, 0x74, 0x3e, 0x6c, 0xac, 0xf4, 0x3d,
  0xe0, 0x1c, 0x1a, 0x3e, 0xb2, 0x4a, 0x8b, 0x3e, 0x97, 0xca, 0x16, 0x3e,
  0x6c, 0xd2, 0x0b, 0x3e, 0x51, 0xe3, 0x25, 0x3e, 0xd4, 0xb1, 0xfd, 0x3d,
  0xa3, 0x3d, 0xe1, 0x3d, 0x3c, 0x57, 0xa3, 0x3e, 0x6d, 0x2d, 0x3e, 0x3e,
  0xf0, 0x53, 0x4f, 0x3e, 0x83, 0x47, 0x5d, 0x3d, 0x43, 0x78, 0xe0, 0x3d,
  0xfd, 0x87, 0x0d, 0x3e, 0x53, 0x04, 0xf3, 0x3c, 0xd2, 0xb0, 0x02, 0x3e,
  0xb8, 0x0f, 0xc6, 0x3d, 0x5a, 0x6b, 0x5c, 0xbd, 0x0b, 0x8b, 0xfb, 0x3c,
  0x71, 0xc2, 0xa0, 0x3c, 0xc0, 0xcd, 0xbe, 0xbd, 0x8d, 0x46, 0xa3, 0x3d,
  0xce, 0xae, 0x8d, 0xba, 0x48, 0x52, 0xce, 0xbd, 0x7d, 0x01, 0x08, 0xbc,
  0x47, 0x46, 0x2e, 0xbc, 0xae, 0xcf, 0x1c, 0xbe, 0x50, 0xa4, 0x70, 0x3c,
  0x05, 0xd9, 0xee, 0xbd, 0x50, 0xde, 0xdf, 0xbd, 0x88, 0x87, 0x98, 0xbd,
  0x08, 0x3f, 0xc3, 0xbd, 0xe0, 0x3b, 0xc1, 0xbd, 0x85, 0xed, 0xb0, 0xbd,
  0xeb, 0x92, 0x27, 0xbe, 0x23, 0x0f, 0xd3, 0xbd, 0xf9, 0x73, 0x19, 0xbe,
  0x13, 0xe3, 0x34, 0xbe, 0x5e, 0xbd, 0xe9, 0xbd, 0x16, 0x5e, 0xe9, 0xbd,
  0x4b, 0x00, 0x35, 0xbe, 0xee, 0x37, 0x84, 0xbd, 0xf3, 0xeb, 0x2e, 0xbe,
  0xd0, 0x89, 0x51, 0xbe, 0xca, 0x3c, 0x14, 0xbe, 0x4a, 0xe2, 0x1d, 0xbe,
  0x0d, 0x10, 0x58, 0xbe, 0x41, 0x24, 0x60, 0xbd, 0x22, 0x1d, 0x2d, 0xbe,
  0xfe, 0x09, 0x0e, 0xbe, 0x0b, 0x2f, 0xe3, 0xbc, 0xbe, 0x6f, 0x20, 0xbe,
  0x5c, 0x30, 0x10, 0xbe, 0xf6, 0x6f, 0x52, 0x3b, 0x3e, 0x0f, 0x5c, 0xbe,
  0xba, 0xce, 0x01, 0xbe, 0x1d, 0x48, 0x32, 0xbd, 0x64, 0x5e, 0x2e, 0xbe,
  0x7b, 0x3f, 0x0b, 0xbe, 0x99, 0xb1, 0xf1, 0xbb, 0x59, 0x11, 0x1a, 0xbe,
  0x08, 0x66, 0xad, 0xbd, 0x98, 0x82, 0x7b, 0xbd, 0xf7, 0xd2, 0x90, 0xbd,
  0x98, 0xfe, 0x44, 0xbd, 0xcd, 0x75, 0x8e, 0xbd, 0xe3, 0x35, 0x85, 0xbd,
  0x05, 0x87, 0x7f, 0xbd, 0x01, 0x60, 0xae, 0xbd, 0xe7, 0xbf, 0x1c, 0xbd,
  0x50, 0xac, 0xdc, 0xbc, 0x6e, 0xef, 0x9e, 0xbd, 0x4b, 0x7f, 0xff, 0xbc,
  0x1c, 0xb6, 0x59, 0xbd, 0x5f, 0xf5, 0x24, 0xbd, 0x2a, 0xa1, 0xf8, 0x3c,
  0xba, 0xa3, 0xf6, 0x3c, 0xda, 0xa6, 0x6d, 0xbd, 0xf3, 0x6d, 0x74, 0x3d,
  0xfd, 0x87, 0x29, 0x3d, 0x32, 0xed, 0x3c, 0x3b, 0xf4, 0xdc, 0xc8, 0x3d,
  0xfc, 0x42, 0x9a, 0x3d, 0xa8, 0x09, 0xab, 0xbc, 0xd3, 0x4e, 0xe9, 0x3d,
  0xbd, 0x74, 0x9d, 0x3d, 0x00, 0x20, 0x70, 0x3d, 0x36, 0x42, 0xf7, 0x3d,
  0x55, 0x97, 0x05, 0x3e, 0x5d, 0x58, 0xdb, 0x3c, 0xb0, 0x94, 0x02, 0x3e,
  0x04, 0xaf, 0x01, 0x3e, 0x83, 0x3d, 0x5c, 0x3d, 0x54, 0x6e, 0xd7, 0x3d,
  0xb4, 0x9a, 0x23, 0x3e, 0xd0, 0x54, 0x53, 0x3d, 0xf7, 0x11, 0x8e, 0x3d,
  0x60, 0x91, 0x23, 0x3e, 0xfb, 0x7d, 0x61, 0x3d, 0x19, 0xf1, 0xd4, 0x3d,
  0x57, 0x71, 0x39, 0x3e, 0xea, 0xbb, 0x31, 0x3d, 0xaf, 0x89, 0x6d, 0x3d,
  0x74, 0x87, 0x30, 0x3e, 0x8d, 0x6a, 0x59, 0x3d, 0xf4, 0xb5, 0x5f, 0x3d,
  0xab, 0x0b, 0x16, 0x3e, 0x23, 0x49, 0xbd, 0x3d, 0x86, 0x9d, 0x41, 0x3d,
  0x1b, 0xe9, 0x24, 0x3e, 0x30, 0x95, 0x06, 0x3e, 0x02, 0xb0, 0x8a, 0x3d,
  0x8e, 0x9e, 0xf8, 0x3d, 0xce, 0xd5, 0xed, 0x3d, 0x14, 0x99, 0x4b, 0x3d,
  0x61, 0x43, 0xf3, 0x3d, 0x26, 0xfe, 0xef, 0x3d, 0x11, 0x5e, 0x5e, 0x3d,
  0xb2, 0xa2, 0xa9, 0x3d, 0x7a, 0x30, 0xcb, 0x3d, 0xe0, 0x33, 0x4f, 0x3d,
  0xb2, 0x32, 0x8f, 0x3d, 0xdb, 0xb8, 0x99, 0x3d, 0xd4, 0x5a, 0x12, 0x3d,
  0x70, 0x20, 0x9d, 0x3d, 0x7a, 0xbf, 0x60, 0x3d, 0x25, 0x72, 0x39, 0x3d,
  0x29, 0x8a, 0xa8, 0x3c, 0xc6, 0x7d, 0xe3, 0x3c, 0x8e, 0x67, 0xf4, 0x3c,
  0x5a, 0x77, 0x5c, 0x3c, 0x6e, 0x31, 0xeb, 0x3a, 0x54, 0x84, 0x08, 0x3d,
  0x91, 0x2e, 0x0b, 0xbc, 0x40, 0xce, 0xbe, 0xbc, 0xd3, 0x7a, 0xe9, 0xbb,
  0xa8, 0xe3, 0x64, 0xbd, 0x6c, 0x7d, 0x6c, 0xbd, 0x13, 0x63, 0x90, 0x3c,
  0x6c, 0xb3, 0xa2, 0xbd, 0xa7, 0xc6, 0x20, 0xbd, 0xfa, 0x69, 0x19, 0xb9,
  0x78, 0x34, 0x8b, 0xbd, 0xa2, 0xb5, 0x80, 0xbd, 0x5b, 0x62, 0x32, 0x3d,
  0x74, 0x34, 0xd4, 0xbd, 0x2f, 0x43, 0x5f, 0xbd, 0x25, 0x29, 0x46, 0x3c,
  0xd3, 0x1e, 0xe3, 0xbd, 0x71, 0x9b, 0xa1, 0xbd, 0xf5, 0xa0, 0x74, 0xbb,
  0x4c, 0x2e, 0x06, 0xbe, 0x5d, 0xa8, 0x8e, 0xbd, 0xba, 0x57, 0xa0, 0x3b,
  0xa4, 0xb7, 0x05, 0xbe, 0xb5, 0x19, 0x8e, 0xbd, 0xaa, 0x7a, 0x57, 0xbc,
  0x0b, 0xee, 0xe5, 0xbd, 0xe7, 0x95, 0xaa, 0xbd, 0x97, 0x7c, 0x10, 0xbd,
  0x0e, 0x9b, 0xfa, 0xbd, 0x7d, 0xc0, 0xb2, 0xbd, 0xc9, 0xd8, 0x74, 0xbd,
  0x03, 0x76, 0xdd, 0xbd, 0xaa, 0x66, 0x68, 0xbd, 0x64, 0x00, 0xad, 0xbd,
  0xef, 0x20, 0xc4, 0xbd, 0x67, 0xd3, 0xcc, 0xbd, 0xe6, 0x33, 0xa3, 0xbd,
  0xe8, 0x3d, 0x88, 0xbd, 0xba, 0x66, 0x74, 0xbd, 0x48, 0x5d, 0xb4, 0xbd,
  0x5d, 0x40, 0x5c, 0xbd, 0x0c, 0xf2, 0xaf, 0xbd, 0x31, 0x14, 0xae, 0xbd,
  0x5b, 0x6f, 0xf2, 0xbc, 0x68, 0x42, 0x18, 0xbd, 0xd3, 0x33, 0x5b, 0xbd,
  0x56, 0xf0, 0x06, 0xbd, 0x6b, 0xe5, 0x95, 0xbd, 0x74, 0xf3, 0xbe, 0xbd,
  0x77, 0x4f, 0x5c, 0xbc, 0x20, 0xee, 0xab, 0xbc, 0x4c, 0xe0, 0x22, 0xbd,
  0xe6, 0xda, 0x17, 0xbb, 0x21, 0xff, 0x86, 0xbd, 0xa7, 0x2b, 0xad, 0xbd,
  0xba, 0x80, 0xdc, 0xbb, 0x6b, 0x95, 0x7f, 0x3d, 0x5c, 0x53, 0x23, 0x3d,
  0x57, 0xe9, 0x51, 0x3c, 0x0c, 0xdd, 0xce, 0x3e, 0x37, 0xef, 0x94, 0x3e,
  0xba, 0xc6, 0x64, 0x3e, 0x80, 0xa6, 0xab, 0x3e, 0x26, 0xd2, 0xa3, 0x3e,
  0xe4, 0xa5, 0x33, 0x3e, 0xb0, 0xc7, 0x41, 0xbe, 0x41, 0x47, 0xa1, 0xbd,
  0x89, 0xde, 0x1a, 0x3b, 0xe4, 0xd3, 0x11, 0x3f, 0xde, 0x13, 0x4e, 0x3f,
  0x7e, 0x15, 0x6d, 0x3e, 0xbd, 0xa5, 0xda, 0x3c, 0x2c, 0xee, 0xce, 0x3e,
  0x37, 0x6d, 0xfb, 0x3d, 0x90, 0xf5, 0x4f, 0x3f, 0xd5, 0x5f, 0xe6, 0x3e,
  0x98, 0x85, 0xc2, 0x3e, 0x82, 0x48, 0x78, 0x3e, 0x11, 0xc6, 0x61, 0x3d,
  0x9c, 0x51, 0x8b, 0xbd, 0x92, 0x7d, 0xbc, 0x3e, 0x4c, 0x25, 0x95, 0x3e,
  0x67, 0x99, 0x77, 0x3e, 0xfc, 0x07, 0x4d, 0x3d, 0x2d, 0x07, 0xe3, 0x3e,
  0xd2, 0x54, 0x45, 0xbe, 0xf1, 0xb0, 0x28, 0xbf, 0x41, 0x9f, 0xbd, 0xbe,
  0xd3, 0xe5, 0x02, 0xbf, 0xc2, 0xfa, 0xbc, 0xbd, 0x8e, 0x2b, 0xb7, 0x3d,
  0xa9, 0xe7, 0x31, 0xbe, 0x01, 0xa8, 0xa5, 0xbe, 0x4f, 0xfa, 0x46, 0xbe,
  0x8c, 0x93, 0x17, 0xbe, 0x83, 0xf6, 0x23, 0x3d, 0x89, 0x6d, 0x30, 0xbe,
  0x52, 0xcc, 0x93, 0xbb, 0xf2, 0x2f, 0x82, 0xbc, 0x89, 0x17, 0xe1, 0xbc,
  0xdf, 0x81, 0x65, 0xbc, 0x10, 0xc8, 0x90, 0x3d, 0xb5, 0x5d, 0x81, 0xbd,
  0x0d, 0x6e, 0xdc, 0x3c, 0x04, 0xe5, 0x7b, 0xbd, 0xe2, 0xb8, 0xa5, 0xbd,
  0xe7, 0x0d, 0xbf, 0x3d, 0x7f, 0x23, 0x1d, 0xbe, 0x59, 0xf9, 0xfb, 0xbd,
  0x1c, 0xc4, 0x1f, 0xbd, 0x8e, 0xe3, 0x52, 0xbe, 0xde, 0xf5, 0x0a, 0xbe,
  0x4e, 0x1e, 0x86, 0x38, 0xe2, 0x54, 0x83, 0xbe, 0x0a, 0xf2, 0x0d, 0xbe,
  0xae, 0x31, 0x46, 0xbd, 0x61, 0xe6, 0x9d, 0xbe, 0x85, 0x26, 0x91, 0xbe,
  0xf1, 0x70, 0xdb, 0xbd, 0x88, 0x78, 0x5c, 0xbe, 0x13, 0x96, 0xfb, 0xbd,
  0x6b, 0x3e, 0x36, 0xbd, 0xa2, 0x88, 0x9a, 0xbe, 0xfe, 0x94, 0x83, 0xbe,
  0x26, 0x6d, 0xa2, 0xbd, 0x18, 0x01, 0x43, 0xbe, 0xbc, 0x77, 0xe8, 0xbd,
  0xc1, 0x79, 0x53, 0xbd, 0xf8, 0x12, 0x3b, 0xbe, 0xf0, 0xa6, 0x31, 0xbe,
  0x40, 0x01, 0xfe, 0xbd, 0x6f, 0xf1, 0x63, 0xbe, 0xf8, 0x09, 0x1b, 0xbe,
  0xb9, 0x76, 0x12, 0xbe, 0x38, 0x59, 0x89, 0xbd, 0x8d, 0xf3, 0x11, 0xbe,
  0x63, 0x77, 0x13, 0xbe, 0xa6, 0x88, 0x03, 0xbe, 0xed, 0xa0, 0x8d, 0xbd,
  0x3e, 0x08, 0xa6, 0xbd, 0xdc, 0x3e, 0x57, 0xbd, 0xcc, 0xcc, 0x04, 0xbd,
  0x12, 0x34, 0xb1, 0xbd, 0xb7, 0xe0, 0x4b, 0xbd, 0xa1, 0x96, 0x02, 0xbd,
  0x97, 0x4d, 0xa7, 0xbd, 0x8b, 0xcc, 0x1b, 0x3d, 0x75, 0x9b, 0x29, 0x3c,
  0xf1, 0xb6, 0x4d, 0xbd, 0x1a, 0x47, 0x74, 0x3d, 0x86, 0x92, 0xcd, 0x3c,
  0x38, 0x9b, 0x83, 0xbd, 0x3b, 0x31, 0xc0, 0x3d, 0xb2, 0xde, 0x51, 0x3d,
  0x5c, 0x5c, 0x8c, 0xbd, 0x7f, 0x9f, 0xff, 0x3d, 0xc4, 0x46, 0xbc, 0x3d,
  0x90, 0x83, 0x04, 0xbd, 0x7a, 0xf6, 0x15, 0x3e, 0x96, 0xab, 0xd7, 0x3d,
  0xaf, 0x99, 0x8d, 0xbc, 0x3e, 0xb6, 0x3e, 0x3e, 0xec, 0xcc, 0xe0, 0x3d,
  0x9a, 0x5c, 0x8d, 0xbc, 0x50, 0xe1, 0x3c, 0x3e, 0x54, 0x83, 0xbe, 0x3d,
  0xea, 0x86, 0x8c, 0x3c, 0x3d, 0x2d, 0x24, 0x3e, 0x3b, 0x86, 0x86, 0x3d,
  0x53, 0xa8, 0xda, 0x3c, 0x02, 0xe7, 0x84, 0x3e, 0x2f, 0x62, 0xf5, 0x3d,
  0x86, 0xfb, 0xc6, 0x3d, 0x29, 0x1a, 0x4d, 0x3e, 0x94, 0x34, 0x19, 0x3e,
  0x4f, 0x0e, 0x04, 0x3e, 0xc4, 0xea, 0x7b, 0x3e, 0x91, 0xec, 0x41, 0x3e,
  0xec, 0xfe, 0x22, 0x3e, 0x6b, 0xbb, 0x69, 0x3e, 0x42, 0xaf, 0x20, 0x3e,
  0x65, 0xff, 0x53, 0x3e, 0x9d, 0xba, 0x5d, 0x3e, 0x70, 0xc6, 0x2f, 0x3e,
  0x67, 0x2a, 0x38, 0x3e, 0x09, 0x3c, 0x1d, 0x3e, 0xe9, 0x78, 0xea, 0x3d,
  0x51, 0x88, 0x60, 0x3e, 0xec, 0xc0, 0x27, 0x3e, 0xa1, 0x5e, 0xf8, 0x3d,
  0x80, 0x06, 0x38, 0x3e, 0x9b, 0x48, 0xf8, 0x3d, 0x0c, 0xe2, 0xa5, 0x3d,
  0x52, 0x6b, 0x2f, 0x3e, 0x0c, 0x53, 0x9b, 0x3d, 0xce, 0x95, 0xd8, 0x3d,
  0x62, 0x19, 0x24, 0x3e, 0x78, 0xe1, 0x9b, 0x3d, 0x07, 0x60, 0x3f, 0x3d,
  0x21, 0x74, 0xe4, 0x3d, 0x5e, 0x9e, 0xf5, 0x3c, 0x6c, 0xbf, 0xea, 0x3c,
  0x7a, 0x9e, 0xe9, 0x3d, 0xe6, 0xdb, 0x60, 0xbb, 0x81, 0x96, 0xc5, 0x3c,
  0x11, 0xf7, 0x7a, 0x3d, 0x1c, 0x53, 0x2a, 0xbd, 0x7f, 0x9d, 0xd2, 0xbc,
  0x67, 0xd2, 0xce, 0x3c, 0xa0, 0xe0, 0x86, 0xbd, 0x98, 0x7a, 0x17, 0xbd,
  0xb3, 0xf3, 0xb2, 0xbb, 0x19, 0x36, 0xb8, 0xbd, 0x84, 0x58, 0x7d, 0xbc,
  0x7d, 0xee, 0x63, 0xbd, 0xa3, 0x63, 0x0a, 0xbe, 0x51, 0xa7, 0x85, 0xbd,
  0x04, 0x68, 0xe3, 0xbd, 0xdb, 0xbe, 0xee, 0xbd, 0x19, 0x16, 0x35, 0xbd,
  0x45, 0xb5, 0xe1, 0xbd, 0x1c, 0xf4, 0x0f, 0xbe, 0x98, 0x8d, 0xe7, 0xbd,
  0x2e, 0xe3, 0x0e, 0xbe, 0xc1, 0x94, 0xff, 0xbd, 0xe4, 0xdb, 0xb7, 0xbd,
  0xd6, 0x44, 0x33, 0xbe, 0x5a, 0x6a, 0xe9, 0xbd, 0xf7, 0x2c, 0xfd, 0xbd,
  0x7e, 0x1d, 0x25, 0xbe, 0x91, 0x60, 0xcd, 0xbd, 0x3e, 0x1b, 0xb9, 0xbd,
  0x77, 0x3b, 0x22, 0xbe, 0x57, 0x3b, 0xf6, 0xbd, 0xf1, 0xd9, 0x99, 0xbd,
  0x2a, 0x47, 0x17, 0xbe, 0xb5, 0x8a, 0x1c, 0xbd, 0xfd, 0xb7, 0x83, 0xbd,
  0xab, 0x1f, 0xe8, 0xbd, 0xcc, 0xdd, 0x7b, 0xbd, 0x23, 0x41, 0x67, 0xbd,
  0x59, 0x4e, 0xa5, 0xbd, 0xb3, 0x29, 0xe3, 0x3a, 0xd5, 0x8d, 0x81, 0xbd,
  0xbe, 0x19, 0x4a, 0xbd, 0xc9, 0x08, 0x3f, 0xbc, 0x07, 0xb1, 0x7c, 0xbd,
  0x78, 0x35, 0x32, 0xbd, 0x55, 0x5b, 0xeb, 0x3c, 0xb4, 0x74, 0x6f, 0xbd,
  0x09, 0xa0, 0x74, 0xbd, 0x20, 0x75, 0x19, 0x3d, 0xbe, 0xfd, 0x29, 0xbc,
  0x6d, 0xce, 0x0e, 0xbc, 0x40, 0xc1, 0xf5, 0x3c, 0x3e, 0xd8, 0x20, 0xbc,
  0xb1, 0xf0, 0x06, 0xbc, 0x88, 0x44, 0x35, 0x3c, 0xc1, 0x3a, 0x2f, 0xbc,
  0x95, 0x6d, 0x40, 0xbc, 0x30, 0x25, 0x43, 0x3c, 0x2a, 0x2c, 0x7c, 0x3a,
  0x26, 0xe6, 0x46, 0x39, 0xe2, 0x38, 0x53, 0x3c, 0x57, 0xcb, 0x78, 0x3c,
  0xa7, 0x36, 0xe2, 0x3c, 0x28, 0x7f, 0x14, 0xba, 0x28, 0x4c, 0x94, 0x3c,
  0xd2, 0xe0, 0x1a, 0x3d, 0x5d, 0x36, 0x29, 0x3d, 0x74, 0x27, 0x25, 0x3d,
  0xeb, 0x76, 0xbf, 0x3c, 0x53, 0x51, 0x93, 0x3c, 0x7f, 0xc8, 0x25, 0x3d,
  0x33, 0x9c, 0x79, 0x3d, 0x1e, 0x32, 0xb7, 0x3c, 0x94, 0x10, 0xf2, 0x3c,
  0x98, 0x6b, 0x4d, 0x3d, 0x76, 0xfd, 0x9e, 0x3c, 0x7e, 0x55, 0x99, 0x3c,
  0x54, 0x88, 0x20, 0x3d, 0xde, 0xcc, 0x04, 0x3d, 0x33, 0x72, 0xd0, 0x3c,
  0x13, 0x18, 0x76, 0x3d, 0x92, 0xd0, 0x3d, 0x3c, 0x58, 0x5f, 0xa5, 0x3c,
  0x96, 0x8a, 0xd7, 0x3c, 0x46, 0x50, 0x8d, 0x3d, 0xac, 0x34, 0xe6, 0x3c,
  0x10, 0x83, 0x7d, 0x3d, 0x19, 0x4c, 0x84, 0x3d, 0xdd, 0x95, 0x3f, 0x3d,
  0xcc, 0x5a, 0x37, 0x3d, 0x3a, 0x50, 0xb7, 0x3d, 0x00, 0x84, 0x48, 0x3d,
  0x0f, 0x54, 0x67, 0x3d, 0x1b, 0xd4, 0xcc, 0xbc, 0x18, 0xc1, 0xdd, 0xbb,
  0xa2, 0xea, 0xa0, 0xbc, 0xf2, 0xfe, 0xff, 0xff, 0x04, 0x00, 0x00, 0x00,
  0x08, 0x00, 0x00, 0x00, 0xff, 0xff, 0xff, 0xff, 0xf0, 0x00, 0x00, 0x00,
  0x06, 0xff, 0xff, 0xff, 0x04, 0x00, 0x00, 0x00, 0x10, 0x00, 0x00, 0x00,
  0xa2, 0x90, 0x12, 0xbe, 0x9d, 0x7a, 0x08, 0xbe, 0x81, 0xab, 0x0d, 0xbe,
  0x46, 0x70, 0x03, 0xbe, 0x22, 0xff, 0xff, 0xff, 0x04, 0x00, 0x00, 0x00,
  0x10, 0x00, 0x00, 0x00, 0xe1, 0x47, 0xd6, 0xbc, 0x0a, 0x34, 0x94, 0xb9,
  0x36, 0xba, 0x85, 0x3e, 0x95, 0xfc, 0x8a, 0xbe, 0x3e, 0xff, 0xff, 0xff,
  0x04, 0x00, 0x00, 0x00, 0x10, 0x00, 0x00, 0x00, 0x5b, 0x48, 0x92, 0xbd,
  0x82, 0x7c, 0xaa, 0x3e, 0x87, 0xa9, 0x57, 0x3c, 0x75, 0x7b, 0x8b, 0xbc,
  0x5a, 0xff, 0xff, 0xff, 0x04, 0x00, 0x00, 0x00, 0x0c, 0x00, 0x00, 0x00,
  0xbb, 0x23, 0x89, 0x3d, 0x6d, 0x8a, 0x48, 0x3e, 0x11, 0xb8, 0x92, 0xbe,
  0xa4, 0xf7, 0xff, 0xff, 0xa8, 0xf7, 0xff, 0xff, 0x0f, 0x00, 0x00, 0x00,
  0x4d, 0x4c, 0x49, 0x52, 0x20, 0x43, 0x6f, 0x6e, 0x76, 0x65, 0x72, 0x74,
  0x65, 0x64, 0x2e, 0x00, 0x01, 0x00, 0x00, 0x00, 0x14, 0x00, 0x00, 0x00,
  0x00, 0x00, 0x0e, 0x00, 0x18, 0x00, 0x14, 0x00, 0x10, 0x00, 0x0c, 0x00,
  0x08, 0x00, 0x04, 0x00, 0x0e, 0x00, 0x00, 0x00, 0x14, 0x00, 0x00, 0x00,
  0x1c, 0x00, 0x00, 0x00, 0x8c, 0x01, 0x00, 0x00, 0x90, 0x01, 0x00, 0x00,
  0x94, 0x01, 0x00, 0x00, 0x04, 0x00, 0x00, 0x00, 0x6d, 0x61, 0x69, 0x6e,
  0x00, 0x00, 0x00, 0x00, 0x06, 0x00, 0x00, 0x00, 0x50, 0x01, 0x00, 0x00,
  0x00, 0x01, 0x00, 0x00, 0xb4, 0x00, 0x00, 0x00, 0x78, 0x00, 0x00, 0x00,
  0x40, 0x00, 0x00, 0x00, 0x04, 0x00, 0x00, 0x00, 0x22, 0xff, 0xff, 0xff,
  0x1c, 0x00, 0x00, 0x00, 0x00, 0x00, 0x00, 0x09, 0x1c, 0x00, 0x00, 0x00,
  0x20, 0x00, 0x00, 0x00, 0x02, 0x00, 0x00, 0x00, 0x00, 0x00, 0x06, 0x00,
  0x08, 0x00, 0x04, 0x00, 0x06, 0x00, 0x00, 0x00, 0x00, 0x00, 0x80, 0x3f,
  0x01, 0x00, 0x00, 0x00, 0x0f, 0x00, 0x00, 0x00, 0x01, 0x00, 0x00, 0x00,
  0x0e, 0x00, 0x00, 0x00, 0x5a, 0xff, 0xff, 0xff, 0x14, 0x00, 0x00, 0x00,
  0x00, 0x00, 0x00, 0x08, 0x10, 0x00, 0x00, 0x00, 0x14, 0x00, 0x00, 0x00,
  0x01, 0x00, 0x00, 0x00, 0x68, 0xf8, 0xff, 0xff, 0x01, 0x00, 0x00, 0x00,
  0x0e, 0x00, 0x00, 0x00, 0x03, 0x00, 0x00, 0x00, 0x0d, 0x00, 0x00, 0x00,
  0x09, 0x00, 0x00, 0x00, 0x01, 0x00, 0x00, 0x00, 0x8e, 0xff, 0xff, 0xff,
  0x14, 0x00, 0x00, 0x00, 0x00, 0x00, 0x00, 0x08, 0x14, 0x00, 0x00, 0x00,
  0x18, 0x00, 0x00, 0x00, 0x01, 0x00, 0x00, 0x00, 0x7e, 0xff, 0xff, 0xff,
  0x00, 0x00, 0x00, 0x01, 0x01, 0x00, 0x00, 0x00, 0x0d, 0x00, 0x00, 0x00,
  0x03, 0x00, 0x00, 0x00, 0x0c, 0x00, 0x00, 0x00, 0x08, 0x00, 0x00, 0x00,
  0x02, 0x00, 0x00, 0x00, 0xc6, 0xff, 0xff, 0xff, 0x14, 0x00, 0x00, 0x00,
  0x00, 0x00, 0x00, 0x08, 0x14, 0x00, 0x00, 0x00, 0x18, 0x00, 0x00, 0x00,
  0x01, 0x00, 0x00, 0x00, 0xb6, 0xff, 0xff, 0xff, 0x00, 0x00, 0x00, 0x01,
  0x01, 0x00, 0x00, 0x00, 0x0c, 0x00, 0x00, 0x00, 0x03, 0x00, 0x00, 0x00,
  0x0b, 0x00, 0x00, 0x00, 0x07, 0x00, 0x00, 0x00, 0x03, 0x00, 0x00, 0x00,
  0x00, 0x00, 0x0e, 0x00, 0x1a, 0x00, 0x14, 0x00, 0x10, 0x00, 0x0c, 0x00,
  0x0b, 0x00, 0x04, 0x00, 0x0e, 0x00, 0x00, 0x00, 0x1c, 0x00, 0x00, 0x00,
  0x00, 0x00, 0x00, 0x08, 0x1c, 0x00, 0x00, 0x00, 0x20, 0x00, 0x00, 0x00,
  0x01, 0x00, 0x00, 0x00, 0x00, 0x00, 0x06, 0x00, 0x08, 0x00, 0x07, 0x00,
  0x06, 0x00, 0x00, 0x00, 0x00, 0x00, 0x00, 0x01, 0x01, 0x00, 0x00, 0x00,
  0x0b, 0x00, 0x00, 0x00, 0x03, 0x00, 0x00, 0x00, 0x0a, 0x00, 0x00, 0x00,
  0x06, 0x00, 0x00, 0x00, 0x04, 0x00, 0x00, 0x00, 0x00, 0x00, 0x0a, 0x00,
  0x0c, 0x00, 0x00, 0x00, 0x08, 0x00, 0x04, 0x00, 0x0a, 0x00, 0x00, 0x00,
  0x08, 0x00, 0x00, 0x00, 0x0c, 0x00, 0x00, 0x00, 0x01, 0x00, 0x00, 0x00,
  0x0a, 0x00, 0x00, 0x00, 0x02, 0x00, 0x00, 0x00, 0x00, 0x00, 0x00, 0x00,
  0x05, 0x00, 0x00, 0x00, 0x01, 0x00, 0x00, 0x00, 0x0f, 0x00, 0x00, 0x00,
  0x01, 0x00, 0x00, 0x00, 0x00, 0x00, 0x00, 0x00, 0x10, 0x00, 0x00, 0x00,
  0x4c, 0x06, 0x00, 0x00, 0xd8, 0x05, 0x00, 0x00, 0x64, 0x05, 0x00, 0x00,
  0x08, 0x05, 0x00, 0x00, 0xac, 0x04, 0x00, 0x00, 0x5c, 0x04, 0x00, 0x00,
  0xf4, 0x03, 0x00, 0x00, 0xa4, 0x03, 0x00, 0x00, 0x54, 0x03, 0x00, 0x00,
  0x04, 0x03, 0x00, 0x00, 0xa4, 0x02, 0x00, 0x00, 0x0c, 0x02, 0x00, 0x00,
  0x74, 0x01, 0x00, 0x00, 0xdc, 0x00, 0x00, 0x00, 0x60, 0x00, 0x00, 0x00,
  0x04, 0x00, 0x00, 0x00, 0x0a, 0xfa, 0xff, 0xff, 0x00, 0x00, 0x00, 0x01,
  0x14, 0x00, 0x00, 0x00, 0x1c, 0x00, 0x00, 0x00, 0x1c, 0x00, 0x00, 0x00,
  0x10, 0x00, 0x00, 0x00, 0x34, 0x00, 0x00, 0x00, 0x02, 0x00, 0x00, 0x00,
  0xff, 0xff, 0xff, 0xff, 0x03, 0x00, 0x00, 0x00, 0xec, 0xf9, 0xff, 0xff,
  0x19, 0x00, 0x00, 0x00, 0x53, 0x74, 0x61, 0x74, 0x65, 0x66, 0x75, 0x6c,
  0x50, 0x61, 0x72, 0x74, 0x69, 0x74, 0x69, 0x6f, 0x6e, 0x65, 0x64, 0x43,
  0x61, 0x6c, 0x6c, 0x3a, 0x30, 0x00, 0x00, 0x00, 0x02, 0x00, 0x00, 0x00,
  0x01, 0x00, 0x00, 0x00, 0x03, 0x00, 0x00, 0x00, 0x62, 0xfa, 0xff, 0xff,
  0x00, 0x00, 0x00, 0x01, 0x14, 0x00, 0x00, 0x00, 0x1c, 0x00, 0x00, 0x00,
  0x1c, 0x00, 0x00, 0x00, 0x0f, 0x00, 0x00, 0x00, 0x54, 0x00, 0x00, 0x00,
  0x02, 0x00, 0x00, 0x00, 0xff, 0xff, 0xff, 0xff, 0x03, 0x00, 0x00, 0x00,
  0x44, 0xfa, 0xff, 0xff, 0x3a, 0x00, 0x00, 0x00, 0x73, 0x65, 0x71, 0x75,
  0x65, 0x6e, 0x74, 0x69, 0x61, 0x6c, 0x5f, 0x37, 0x2f, 0x64, 0x65, 0x6e,
  0x73, 0x65, 0x5f, 0x32, 0x34, 0x2f, 0x4d, 0x61, 0x74, 0x4d, 0x75, 0x6c,
  0x3b, 0x73, 0x65, 0x71, 0x75, 0x65, 0x6e, 0x74, 0x69, 0x61, 0x6c, 0x5f,
  0x37, 0x2f, 0x64, 0x65, 0x6e, 0x73, 0x65, 0x5f, 0x32, 0x34, 0x2f, 0x42,
  0x69, 0x61, 0x73, 0x41, 0x64, 0x64, 0x00, 0x00, 0x02, 0x00, 0x00, 0x00,
  0x01, 0x00, 0x00, 0x00, 0x03, 0x00, 0x00, 0x00, 0xda, 0xfa, 0xff, 0xff,
  0x00, 0x00, 0x00, 0x01, 0x14, 0x00, 0x00, 0x00, 0x1c, 0x00, 0x00, 0x00,
  0x1c, 0x00, 0x00, 0x00, 0x0e, 0x00, 0x00, 0x00, 0x70, 0x00, 0x00, 0x00,
  0x02, 0x00, 0x00, 0x00, 0xff, 0xff, 0xff, 0xff, 0x04, 0x00, 0x00, 0x00,
  0xbc, 0xfa, 0xff, 0xff, 0x55, 0x00, 0x00, 0x00, 0x73, 0x65, 0x71, 0x75,
  0x65, 0x6e, 0x74, 0x69, 0x61, 0x6c, 0x5f, 0x37, 0x2f, 0x64, 0x65, 0x6e,
  0x73, 0x65, 0x5f, 0x32, 0x33, 0x2f, 0x4d, 0x61, 0x74, 0x4d, 0x75, 0x6c,
  0x3b, 0x73, 0x65, 0x71, 0x75, 0x65, 0x6e, 0x74, 0x69, 0x61, 0x6c, 0x5f,
  0x37, 0x2f, 0x64, 0x65, 0x6e, 0x73, 0x65, 0x5f, 0x32, 0x33, 0x2f, 0x52,
  0x65, 0x6c, 0x75, 0x3b, 0x73, 0x65, 0x71, 0x75, 0x65, 0x6e, 0x74, 0x69,
  0x61, 0x6c, 0x5f, 0x37, 0x2f, 0x64, 0x65, 0x6e, 0x73, 0x65, 0x5f, 0x32,
  0x33, 0x2f, 0x42, 0x69, 0x61, 0x73, 0x41, 0x64, 0x64, 0x00, 0x00, 0x00,
  0x02, 0x00, 0x00, 0x00, 0x01, 0x00, 0x00, 0x00, 0x04, 0x00, 0x00, 0x00,
  0x6e, 0xfb, 0xff, 0xff, 0x00, 0x00, 0x00, 0x01, 0x14, 0x00, 0x00, 0x00,
  0x1c, 0x00, 0x00, 0x00, 0x1c, 0x00, 0x00, 0x00, 0x0d, 0x00, 0x00, 0x00,
  0x70, 0x00, 0x00, 0x00, 0x02, 0x00, 0x00, 0x00, 0xff, 0xff, 0xff, 0xff,
  0x04, 0x00, 0x00, 0x00, 0x50, 0xfb, 0xff, 0xff, 0x55, 0x00, 0x00, 0x00,
  0x73, 0x65, 0x71, 0x75, 0x65, 0x6e, 0x74, 0x69, 0x61, 0x6c, 0x5f, 0x37,
  0x2f, 0x64, 0x65, 0x6e, 0x73, 0x65, 0x5f, 0x32, 0x32, 0x2f, 0x4d, 0x61,
  0x74, 0x4d, 0x75, 0x6c, 0x3b, 0x73, 0x65, 0x71, 0x75, 0x65, 0x6e, 0x74,
  0x69, 0x61, 0x6c, 0x5f, 0x37, 0x2f, 0x64, 0x65, 0x6e, 0x73, 0x65, 0x5f,
  0x32, 0x32, 0x2f, 0x52, 0x65, 0x6c, 0x75, 0x3b, 0x73, 0x65, 0x71, 0x75,
  0x65, 0x6e, 0x74, 0x69, 0x61, 0x6c, 0x5f, 0x37, 0x2f, 0x64, 0x65, 0x6e,
  0x73, 0x65, 0x5f, 0x32, 0x32, 0x2f, 0x42, 0x69, 0x61, 0x73, 0x41, 0x64,
  0x64, 0x00, 0x00, 0x00, 0x02, 0x00, 0x00, 0x00, 0x01, 0x00, 0x00, 0x00,
  0x04, 0x00, 0x00, 0x00, 0x02, 0xfc, 0xff, 0xff, 0x00, 0x00, 0x00, 0x01,
  0x14, 0x00, 0x00, 0x00, 0x1c, 0x00, 0x00, 0x00, 0x1c, 0x00, 0x00, 0x00,
  0x0c, 0x00, 0x00, 0x00, 0x70, 0x00, 0x00, 0x00, 0x02, 0x00, 0x00, 0x00,
  0xff, 0xff, 0xff, 0xff, 0x04, 0x00, 0x00, 0x00, 0xe4, 0xfb, 0xff, 0xff,
  0x55, 0x00, 0x00, 0x00, 0x73, 0x65, 0x71, 0x75, 0x65, 0x6e, 0x74, 0x69,
  0x61, 0x6c, 0x5f, 0x37, 0x2f, 0x64, 0x65, 0x6e, 0x73, 0x65, 0x5f, 0x32,
  0x31, 0x2f, 0x4d, 0x61, 0x74, 0x4d, 0x75, 0x6c, 0x3b, 0x73, 0x65, 0x71,
  0x75, 0x65, 0x6e, 0x74, 0x69, 0x61, 0x6c, 0x5f, 0x37, 0x2f, 0x64, 0x65,
  0x6e, 0x73, 0x65, 0x5f, 0x32, 0x31, 0x2f, 0x52, 0x65, 0x6c, 0x75, 0x3b,
  0x73, 0x65, 0x71, 0x75, 0x65, 0x6e, 0x74, 0x69, 0x61, 0x6c, 0x5f, 0x37,
  0x2f, 0x64, 0x65, 0x6e, 0x73, 0x65, 0x5f, 0x32, 0x31, 0x2f, 0x42, 0x69,
  0x61, 0x73, 0x41, 0x64, 0x64, 0x00, 0x00, 0x00, 0x02, 0x00, 0x00, 0x00,
  0x01, 0x00, 0x00, 0x00, 0x04, 0x00, 0x00, 0x00, 0x96, 0xfc, 0xff, 0xff,
  0x00, 0x00, 0x00, 0x01, 0x14, 0x00, 0x00, 0x00, 0x1c, 0x00, 0x00, 0x00,
  0x1c, 0x00, 0x00, 0x00, 0x0b, 0x00, 0x00, 0x00, 0x38, 0x00, 0x00, 0x00,
  0x02, 0x00, 0x00, 0x00, 0xff, 0xff, 0xff, 0xff, 0xf0, 0x00, 0x00, 0x00,
  0x78, 0xfc, 0xff, 0xff, 0x1e, 0x00, 0x00, 0x00, 0x73, 0x65, 0x71, 0x75,
  0x65, 0x6e, 0x74, 0x69, 0x61, 0x6c, 0x5f, 0x37, 0x2f, 0x66, 0x6c, 0x61,
  0x74, 0x74, 0x65, 0x6e, 0x5f, 0x37, 0x2f, 0x52, 0x65, 0x73, 0x68, 0x61,
  0x70, 0x65, 0x00, 0x00, 0x02, 0x00, 0x00, 0x00, 0x01, 0x00, 0x00, 0x00,
  0xf0, 0x00, 0x00, 0x00, 0x62, 0xfd, 0xff, 0xff, 0x00, 0x00, 0x00, 0x01,
  0x10, 0x00, 0x00, 0x00, 0x10, 0x00, 0x00, 0x00, 0x0a, 0x00, 0x00, 0x00,
  0x2c, 0x00, 0x00, 0x00, 0xc4, 0xfc, 0xff, 0xff, 0x1c, 0x00, 0x00, 0x00,
  0x73, 0x65, 0x71, 0x75, 0x65, 0x6e, 0x74, 0x69, 0x61, 0x6c, 0x5f, 0x37,
  0x2f, 0x64, 0x65, 0x6e, 0x73, 0x65, 0x5f, 0x32, 0x34, 0x2f, 0x4d, 0x61,
  0x74, 0x4d, 0x75, 0x6c, 0x00, 0x00, 0x00, 0x00, 0x02, 0x00, 0x00, 0x00,
  0x03, 0x00, 0x00, 0x00, 0x04, 0x00, 0x00, 0x00, 0xae, 0xfd, 0xff, 0xff,
  0x00, 0x00, 0x00, 0x01, 0x10, 0x00, 0x00, 0x00, 0x10, 0x00, 0x00, 0x00,
  0x09, 0x00, 0x00, 0x00, 0x2c, 0x00, 0x00, 0x00, 0x10, 0xfd, 0xff, 0xff,
  0x1c, 0x00, 0x00, 0x00, 0x73, 0x65, 0x71, 0x75, 0x65, 0x6e, 0x74, 0x69,
  0x61, 0x6c, 0x5f, 0x37, 0x2f, 0x64, 0x65, 0x6e, 0x73, 0x65, 0x5f, 0x32,
  0x33, 0x2f, 0x4d, 0x61, 0x74, 0x4d, 0x75, 0x6c, 0x00, 0x00, 0x00, 0x00,
  0x02, 0x00, 0x00, 0x00, 0x04, 0x00, 0x00, 0x00, 0x04, 0x00, 0x00, 0x00,
  0xfa, 0xfd, 0xff, 0xff, 0x00, 0x00, 0x00, 0x01, 0x10, 0x00, 0x00, 0x00,
  0x10, 0x00, 0x00, 0x00, 0x08, 0x00, 0x00, 0x00, 0x2c, 0x00, 0x00, 0x00,
  0x5c, 0xfd, 0xff, 0xff, 0x1c, 0x00, 0x00, 0x00, 0x73, 0x65, 0x71, 0x75,
  0x65, 0x6e, 0x74, 0x69, 0x61, 0x6c, 0x5f, 0x37, 0x2f, 0x64, 0x65, 0x6e,
  0x73, 0x65, 0x5f, 0x32, 0x32, 0x2f, 0x4d, 0x61, 0x74, 0x4d, 0x75, 0x6c,
  0x00, 0x00, 0x00, 0x00, 0x02, 0x00, 0x00, 0x00, 0x04, 0x00, 0x00, 0x00,
  0x04, 0x00, 0x00, 0x00, 0x46, 0xfe, 0xff, 0xff, 0x00, 0x00, 0x00, 0x01,
  0x10, 0x00, 0x00, 0x00, 0x10, 0x00, 0x00, 0x00, 0x07, 0x00, 0x00, 0x00,
  0x2c, 0x00, 0x00, 0x00, 0xa8, 0xfd, 0xff, 0xff, 0x1c, 0x00, 0x00, 0x00,
  0x73, 0x65, 0x71, 0x75, 0x65, 0x6e, 0x74, 0x69, 0x61, 0x6c, 0x5f, 0x37,
  0x2f, 0x64, 0x65, 0x6e, 0x73, 0x65, 0x5f, 0x32, 0x31, 0x2f, 0x4d, 0x61,
  0x74, 0x4d, 0x75, 0x6c, 0x00, 0x00, 0x00, 0x00, 0x02, 0x00, 0x00, 0x00,
  0x04, 0x00, 0x00, 0x00, 0xf0, 0x00, 0x00, 0x00, 0x00, 0x00, 0x16, 0x00,
  0x1c, 0x00, 0x18, 0x00, 0x17, 0x00, 0x10, 0x00, 0x0c, 0x00, 0x08, 0x00,
  0x00, 0x00, 0x00, 0x00, 0x00, 0x00, 0x07, 0x00, 0x16, 0x00, 0x00, 0x00,
  0x00, 0x00, 0x00, 0x01, 0x14, 0x00, 0x00, 0x00, 0x14, 0x00, 0x00, 0x00,
  0x06, 0x00, 0x00, 0x00, 0x00, 0x00, 0x00, 0x02, 0x2c, 0x00, 0x00, 0x00,
  0x10, 0xfe, 0xff, 0xff, 0x1c, 0x00, 0x00, 0x00, 0x73, 0x65, 0x71, 0x75,
  0x65, 0x6e, 0x74, 0x69, 0x61, 0x6c, 0x5f, 0x37, 0x2f, 0x66, 0x6c, 0x61,
  0x74, 0x74, 0x65, 0x6e, 0x5f, 0x37, 0x2f, 0x43, 0x6f, 0x6e, 0x73, 0x74,
  0x00, 0x00, 0x00, 0x00, 0x01, 0x00, 0x00, 0x00, 0x02, 0x00, 0x00, 0x00,
  0xf6, 0xfe, 0xff, 0xff, 0x00, 0x00, 0x00, 0x01, 0x10, 0x00, 0x00, 0x00,
  0x10, 0x00, 0x00, 0x00, 0x05, 0x00, 0x00, 0x00, 0x3c, 0x00, 0x00, 0x00,
  0x58, 0xfe, 0xff, 0xff, 0x2c, 0x00, 0x00, 0x00, 0x73, 0x65, 0x71, 0x75,
  0x65, 0x6e, 0x74, 0x69, 0x61, 0x6c, 0x5f, 0x37, 0x2f, 0x64, 0x65, 0x6e,
  0x73, 0x65, 0x5f, 0x32, 0x31, 0x2f, 0x42, 0x69, 0x61, 0x73, 0x41, 0x64,
  0x64, 0x2f, 0x52, 0x65, 0x61, 0x64, 0x56, 0x61, 0x72, 0x69, 0x61, 0x62,
  0x6c, 0x65, 0x4f, 0x70, 0x00, 0x00, 0x00, 0x00, 0x01, 0x00, 0x00, 0x00,
  0x04, 0x00, 0x00, 0x00, 0x4e, 0xff, 0xff, 0xff, 0x00, 0x00, 0x00, 0x01,
  0x10, 0x00, 0x00, 0x00, 0x10, 0x00, 0x00, 0x00, 0x04, 0x00, 0x00, 0x00,
  0x3c, 0x00, 0x00, 0x00, 0xb0, 0xfe, 0xff, 0xff, 0x2c, 0x00, 0x00, 0x00,
  0x73, 0x65, 0x71, 0x75, 0x65, 0x6e, 0x74, 0x69, 0x61, 0x6c, 0x5f, 0x37,
  0x2f, 0x64, 0x65, 0x6e, 0x73, 0x65, 0x5f, 0x32, 0x32, 0x2f, 0x42, 0x69,
  0x61, 0x73, 0x41, 0x64, 0x64, 0x2f, 0x52, 0x65, 0x61, 0x64, 0x56, 0x61,
  0x72, 0x69, 0x61, 0x62, 0x6c, 0x65, 0x4f, 0x70, 0x00, 0x00, 0x00, 0x00,
  0x01, 0x00, 0x00, 0x00, 0x04, 0x00, 0x00, 0x00, 0xa6, 0xff, 0xff, 0xff,
  0x00, 0x00, 0x00, 0x01, 0x10, 0x00, 0x00, 0x00, 0x10, 0x00, 0x00, 0x00,
  0x03, 0x00, 0x00, 0x00, 0x3c, 0x00, 0x00, 0x00, 0x08, 0xff, 0xff, 0xff,
  0x2c, 0x00, 0x00, 0x00, 0x73, 0x65, 0x71, 0x75, 0x65, 0x6e, 0x74, 0x69,
  0x61, 0x6c, 0x5f, 0x37, 0x2f, 0x64, 0x65, 0x6e, 0x73, 0x65, 0x5f, 0x32,
  0x33, 0x2f, 0x42, 0x69, 0x61, 0x73, 0x41, 0x64, 0x64, 0x2f, 0x52, 0x65,
  0x61, 0x64, 0x56, 0x61, 0x72, 0x69, 0x61, 0x62, 0x6c, 0x65, 0x4f, 0x70,
  0x00, 0x00, 0x00, 0x00, 0x01, 0x00, 0x00, 0x00, 0x04, 0x00, 0x00, 0x00,
  0x00, 0x00, 0x16, 0x00, 0x18, 0x00, 0x14, 0x00, 0x00, 0x00, 0x10, 0x00,
  0x0c, 0x00, 0x08, 0x00, 0x00, 0x00, 0x00, 0x00, 0x00, 0x00, 0x07, 0x00,
  0x16, 0x00, 0x00, 0x00, 0x00, 0x00, 0x00, 0x01, 0x10, 0x00, 0x00, 0x00,
  0x10, 0x00, 0x00, 0x00, 0x02, 0x00, 0x00, 0x00, 0x3c, 0x00, 0x00, 0x00,
  0x78, 0xff, 0xff, 0xff, 0x2c, 0x00, 0x00, 0x00, 0x73, 0x65, 0x71, 0x75,
  0x65, 0x6e, 0x74, 0x69, 0x61, 0x6c, 0x5f, 0x37, 0x2f, 0x64, 0x65, 0x6e,
  0x73, 0x65, 0x5f, 0x32, 0x34, 0x2f, 0x42, 0x69, 0x61, 0x73, 0x41, 0x64,
  0x64, 0x2f, 0x52, 0x65, 0x61, 0x64, 0x56, 0x61, 0x72, 0x69, 0x61, 0x62,
  0x6c, 0x65, 0x4f, 0x70, 0x00, 0x00, 0x00, 0x00, 0x01, 0x00, 0x00, 0x00,
  0x03, 0x00, 0x00, 0x00, 0x00, 0x00, 0x16, 0x00, 0x1c, 0x00, 0x18, 0x00,
  0x00, 0x00, 0x14, 0x00, 0x10, 0x00, 0x0c, 0x00, 0x00, 0x00, 0x00, 0x00,
  0x08, 0x00, 0x07, 0x00, 0x16, 0x00, 0x00, 0x00, 0x00, 0x00, 0x00, 0x01,
  0x14, 0x00, 0x00, 0x00, 0x28, 0x00, 0x00, 0x00, 0x28, 0x00, 0x00, 0x00,
  0x01, 0x00, 0x00, 0x00, 0x40, 0x00, 0x00, 0x00, 0x04, 0x00, 0x00, 0x00,
  0xff, 0xff, 0xff, 0xff, 0x50, 0x00, 0x00, 0x00, 0x03, 0x00, 0x00, 0x00,
  0x01, 0x00, 0x00, 0x00, 0x04, 0x00, 0x04, 0x00, 0x04, 0x00, 0x00, 0x00,
  0x19, 0x00, 0x00, 0x00, 0x73, 0x65, 0x72, 0x76, 0x69, 0x6e, 0x67, 0x5f,
  0x64, 0x65, 0x66, 0x61, 0x75, 0x6c, 0x74, 0x5f, 0x69, 0x6e, 0x70, 0x75,
  0x74, 0x5f, 0x38, 0x3a, 0x30, 0x00, 0x00, 0x00, 0x04, 0x00, 0x00, 0x00,
  0x01, 0x00, 0x00, 0x00, 0x50, 0x00, 0x00, 0x00, 0x03, 0x00, 0x00, 0x00,
  0x01, 0x00, 0x00, 0x00, 0x03, 0x00, 0x00, 0x00, 0x30, 0x00, 0x00, 0x00,
  0x14, 0x00, 0x00, 0x00, 0x04, 0x00, 0x00, 0x00, 0xe8, 0xff, 0xff, 0xff,
  0x19, 0x00, 0x00, 0x00, 0x00, 0x00, 0x00, 0x19, 0xf4, 0xff, 0xff, 0xff,
  0x09, 0x00, 0x00, 0x00, 0x00, 0x00, 0x00, 0x09, 0x0c, 0x00, 0x0c, 0x00,
  0x0b, 0x00, 0x00, 0x00, 0x00, 0x00, 0x04, 0x00, 0x0c, 0x00, 0x00, 0x00,
  0x16, 0x00, 0x00, 0x00, 0x00, 0x00, 0x00, 0x16
};
