const unsigned char model[] __attribute__((aligned(4))) = {
  0x1c, 0x00, 0x00, 0x00, 0x54, 0x46, 0x4c, 0x33, 0x14, 0x00, 0x20, 0x00,
  0x1c, 0x00, 0x18, 0x00, 0x14, 0x00, 0x10, 0x00, 0x0c, 0x00, 0x00, 0x00,
  0x08, 0x00, 0x04, 0x00, 0x14, 0x00, 0x00, 0x00, 0x1c, 0x00, 0x00, 0x00,
  0x8c, 0x00, 0x00, 0x00, 0xe4, 0x00, 0x00, 0x00, 0xb4, 0x11, 0x00, 0x00,
  0xc4, 0x11, 0x00, 0x00, 0x78, 0x18, 0x00, 0x00, 0x03, 0x00, 0x00, 0x00,
  0x01, 0x00, 0x00, 0x00, 0x10, 0x00, 0x00, 0x00, 0x00, 0x00, 0x0a, 0x00,
  0x10, 0x00, 0x0c, 0x00, 0x08, 0x00, 0x04, 0x00, 0x0a, 0x00, 0x00, 0x00,
  0x0c, 0x00, 0x00, 0x00, 0x1c, 0x00, 0x00, 0x00, 0x38, 0x00, 0x00, 0x00,
  0x0f, 0x00, 0x00, 0x00, 0x73, 0x65, 0x72, 0x76, 0x69, 0x6e, 0x67, 0x5f,
  0x64, 0x65, 0x66, 0x61, 0x75, 0x6c, 0x74, 0x00, 0x01, 0x00, 0x00, 0x00,
  0x04, 0x00, 0x00, 0x00, 0x9c, 0xff, 0xff, 0xff, 0x0c, 0x00, 0x00, 0x00,
  0x04, 0x00, 0x00, 0x00, 0x07, 0x00, 0x00, 0x00, 0x64, 0x65, 0x6e, 0x73,
  0x65, 0x5f, 0x32, 0x00, 0x01, 0x00, 0x00, 0x00, 0x04, 0x00, 0x00, 0x00,
  0x3a, 0xee, 0xff, 0xff, 0x04, 0x00, 0x00, 0x00, 0x07, 0x00, 0x00, 0x00,
  0x69, 0x6e, 0x70, 0x75, 0x74, 0x5f, 0x31, 0x00, 0x02, 0x00, 0x00, 0x00,
  0x34, 0x00, 0x00, 0x00, 0x04, 0x00, 0x00, 0x00, 0xdc, 0xff, 0xff, 0xff,
  0x0f, 0x00, 0x00, 0x00, 0x04, 0x00, 0x00, 0x00, 0x13, 0x00, 0x00, 0x00,
  0x43, 0x4f, 0x4e, 0x56, 0x45, 0x52, 0x53, 0x49, 0x4f, 0x4e, 0x5f, 0x4d,
  0x45, 0x54, 0x41, 0x44, 0x41, 0x54, 0x41, 0x00, 0x08, 0x00, 0x0c, 0x00,
  0x08, 0x00, 0x04, 0x00, 0x08, 0x00, 0x00, 0x00, 0x0e, 0x00, 0x00, 0x00,
  0x04, 0x00, 0x00, 0x00, 0x13, 0x00, 0x00, 0x00, 0x6d, 0x69, 0x6e, 0x5f,
  0x72, 0x75, 0x6e, 0x74, 0x69, 0x6d, 0x65, 0x5f, 0x76, 0x65, 0x72, 0x73,
  0x69, 0x6f, 0x6e, 0x00, 0x10, 0x00, 0x00, 0x00, 0xcc, 0x10, 0x00, 0x00,
  0xc4, 0x10, 0x00, 0x00, 0xa4, 0x10, 0x00, 0x00, 0x88, 0x10, 0x00, 0x00,
  0x68, 0x10, 0x00, 0x00, 0x50, 0x10, 0x00, 0x00, 0x40, 0x01, 0x00, 0x00,
  0xf0, 0x00, 0x00, 0x00, 0xb0, 0x00, 0x00, 0x00, 0xa8, 0x00, 0x00, 0x00,
  0xa0, 0x00, 0x00, 0x00, 0x98, 0x00, 0x00, 0x00, 0x90, 0x00, 0x00, 0x00,
  0x88, 0x00, 0x00, 0x00, 0x68, 0x00, 0x00, 0x00, 0x04, 0x00, 0x00, 0x00,
  0xee, 0xee, 0xff, 0xff, 0x04, 0x00, 0x00, 0x00, 0x54, 0x00, 0x00, 0x00,
  0x0c, 0x00, 0x00, 0x00, 0x08, 0x00, 0x0e, 0x00, 0x08, 0x00, 0x04, 0x00,
  0x08, 0x00, 0x00, 0x00, 0x10, 0x00, 0x00, 0x00, 0x24, 0x00, 0x00, 0x00,
  0x00, 0x00, 0x06, 0x00, 0x08, 0x00, 0x04, 0x00, 0x06, 0x00, 0x00, 0x00,
  0x04, 0x00, 0x00, 0x00, 0x00, 0x00, 0x00, 0x00, 0x00, 0x00, 0x0a, 0x00,
  0x10, 0x00, 0x0c, 0x00, 0x08, 0x00, 0x04, 0x00, 0x0a, 0x00, 0x00, 0x00,
  0x02, 0x00, 0x00, 0x00, 0x02, 0x00, 0x00, 0x00, 0x04, 0x00, 0x00, 0x00,
  0x06, 0x00, 0x00, 0x00, 0x32, 0x2e, 0x31, 0x30, 0x2e, 0x30, 0x00, 0x00,
  0x4e, 0xef, 0xff, 0xff, 0x04, 0x00, 0x00, 0x00, 0x10, 0x00, 0x00, 0x00,
  0x31, 0x2e, 0x35, 0x2e, 0x30, 0x00, 0x00, 0x00, 0x00, 0x00, 0x00, 0x00,
  0x00, 0x00, 0x00, 0x00, 0x5c, 0xe9, 0xff, 0xff, 0x60, 0xe9, 0xff, 0xff,
  0x64, 0xe9, 0xff, 0xff, 0x68, 0xe9, 0xff, 0xff, 0x6c, 0xe9, 0xff, 0xff,
  0x7e, 0xef, 0xff, 0xff, 0x04, 0x00, 0x00, 0x00, 0x30, 0x00, 0x00, 0x00,
  0xf1, 0x9b, 0xfa, 0x3e, 0x78, 0x2e, 0x19, 0xc0, 0x22, 0xd3, 0x0e, 0xc0,
  0xc2, 0x04, 0x41, 0x3f, 0x8d, 0x29, 0x0c, 0x3f, 0x90, 0x88, 0x14, 0xbf,
  0xd6, 0x30, 0x0e, 0xbf, 0x13, 0x20, 0x4e, 0x3f, 0x5e, 0x48, 0x40, 0xbf,
  0x69, 0x7b, 0xbc, 0x3f, 0x52, 0xa0, 0x78, 0x3f, 0xf3, 0x84, 0x49, 0xbf,
  0xba, 0xef, 0xff, 0xff, 0x04, 0x00, 0x00, 0x00, 0x40, 0x00, 0x00, 0x00,
  0xa3, 0x7b, 0x6d, 0xbe, 0xa8, 0xf8, 0x22, 0xbd, 0xca, 0x65, 0x87, 0xbd,
  0x5c, 0x81, 0xc7, 0x3e, 0x35, 0xa4, 0x78, 0x3f, 0xb7, 0x82, 0xd6, 0x3f,
  0x30, 0xf8, 0xaf, 0x3f, 0x3f, 0x1d, 0x99, 0xbd, 0x2b, 0x1c, 0xa7, 0x3f,
  0xde, 0xf2, 0x8b, 0x3f, 0xe4, 0x83, 0x61, 0xbf, 0x56, 0x8c, 0x1c, 0x3d,
  0x82, 0x19, 0xfb, 0xbe, 0xe7, 0x6f, 0xac, 0xbe, 0x9d, 0x7b, 0xc4, 0xbd,
  0x14, 0x43, 0x37, 0x3f, 0x06, 0xf0, 0xff, 0xff, 0x04, 0x00, 0x00, 0x00,
  0x00, 0x0f, 0x00, 0x00, 0x9b, 0xa9, 0x96, 0xbe, 0x61, 0x35, 0xc3, 0xbe,
  0x60, 0x1c, 0xc8, 0xbd, 0x0a, 0x2a, 0x21, 0x3e, 0xd8, 0xfc, 0x73, 0x3d,
  0x1f, 0x68, 0xe9, 0x3b, 0xc1, 0x1c, 0xbd, 0x3e, 0xa9, 0x34, 0xd3, 0x3d,
  0xa3, 0x6d, 0xe7, 0xbd, 0x1f, 0x0b, 0xae, 0x3e, 0x06, 0xba, 0x72, 0xbe,
  0xec, 0x19, 0x90, 0xbe, 0x3e, 0x3c, 0xa6, 0x3e, 0x1d, 0xaf, 0x1d, 0x3f,
  0x00, 0x80, 0x64, 0xbe, 0x91, 0x7e, 0x22, 0x3f, 0x01, 0xc5, 0xb7, 0x3e,
  0x60, 0x0a, 0xf2, 0x3e, 0x96, 0x64, 0xd9, 0x3e, 0x88, 0x2d, 0xb7, 0x3e,
  0x0d, 0x37, 0x8a, 0x3c, 0xe4, 0x65, 0x11, 0x3d, 0x50, 0x35, 0xc7, 0x3e,
  0xe2, 0x15, 0x27, 0xbe, 0x6c, 0x22, 0x77, 0x3f, 0x9b, 0x8c, 0x95, 0x3f,
  0x85, 0xe3, 0x13, 0x3f, 0xff, 0x89, 0xc9, 0x3d, 0xa5, 0x56, 0xe4, 0x3d,
  0xd6, 0x9c, 0x56, 0x3b, 0x07, 0x6a, 0x5a, 0x3f, 0x21, 0xbc, 0x11, 0x3f,
  0xf7, 0x8d, 0xb7, 0x3e, 0x9d, 0x90, 0xb8, 0xbe, 0x6c, 0x11, 0xcc, 0xbb,
  0xe5, 0xc4, 0x02, 0x3d, 0x33, 0x1b, 0x52, 0xbe, 0x60, 0x2c, 0x14, 0xbd,
  0x0b, 0xcb, 0xd0, 0x3d, 0x79, 0x4f, 0x20, 0xbf, 0x80, 0x05, 0xd6, 0xbe,
  0x06, 0x11, 0xb7, 0xbd, 0xd3, 0x4a, 0x86, 0xbe, 0x7a, 0x33, 0x89, 0xbe,
  0x67, 0x90, 0x80, 0x3d, 0x18, 0xd0, 0xdf, 0xbe, 0xd6, 0x92, 0xaa, 0xbe,
  0x66, 0x99, 0x49, 0xbc, 0xc5, 0xa5, 0xf8, 0xbe, 0xfd, 0x7e, 0x91, 0xbe,
  0x29, 0xfc, 0xbd, 0xbc, 0xca, 0x72, 0xce, 0xbe, 0x63, 0x92, 0x8a, 0xbe,
  0x9b, 0x1e, 0x5b, 0xbd, 0x8b, 0xa0, 0xda, 0xbe, 0x43, 0xc5, 0x8c, 0xbe,
  0x3c, 0xdd, 0x0f, 0xbc, 0x5f, 0x3e, 0xb1, 0xbe, 0x16, 0x86, 0x86, 0xbe,
  0xe4, 0x69, 0x64, 0x3c, 0x60, 0xd2, 0x94, 0xbe, 0x87, 0x21, 0x23, 0xbe,
  0xb0, 0x65, 0x9a, 0x3d, 0x62, 0xb9, 0x0c, 0xbe, 0xb4, 0x46, 0x05, 0xbe,
  0x0b, 0x60, 0x5d, 0x3d, 0xe8, 0xf6, 0xfe, 0xbd, 0xdb, 0x27, 0x51, 0xbe,
  0xd4, 0x4c, 0x3e, 0x3d, 0x24, 0xb3, 0xc3, 0x3c, 0x4d, 0x3f, 0x8b, 0xbd,
  0xe8, 0x12, 0x1d, 0x3d, 0xc4, 0xd9, 0xe6, 0x3d, 0x7a, 0x2e, 0xd5, 0xbd,
  0xa8, 0xb3, 0xcf, 0x3d, 0x10, 0x63, 0x51, 0x3e, 0x6a, 0x9b, 0x1d, 0xbd,
  0xf0, 0x44, 0xa6, 0x3d, 0xcf, 0x55, 0x7b, 0x3e, 0x6a, 0x26, 0xba, 0x3c,
  0x12, 0x0d, 0x93, 0x3d, 0x81, 0xcc, 0x91, 0x3e, 0x8e, 0x7c, 0x41, 0xbd,
  0xcb, 0xb1, 0xae, 0x3d, 0xf5, 0xa8, 0x5f, 0x3e, 0x0c, 0x46, 0x88, 0x3d,
  0x87, 0xb2, 0xc0, 0x3c, 0x0a, 0x6c, 0x81, 0x3e, 0x3b, 0xb9, 0x0d, 0x3e,
  0x38, 0x32, 0x8f, 0x3d, 0x02, 0x0a, 0x21, 0x3e, 0x89, 0x51, 0xae, 0x3d,
  0x70, 0x2f, 0xc9, 0xbb, 0xc2, 0x3e, 0xa3, 0x3d, 0x4e, 0x12, 0x71, 0x3b,
  0x53, 0x9b, 0x9b, 0xbd, 0x4e, 0x0c, 0xa9, 0x3b, 0xa9, 0xbc, 0xf4, 0x3c,
  0x8b, 0x6c, 0xc1, 0xbd, 0xc7, 0xcc, 0xd9, 0xbd, 0x71, 0x00, 0x41, 0xbd,
  0x78, 0x9f, 0x4a, 0xbe, 0x9f, 0x2b, 0x82, 0xbd, 0x86, 0x0c, 0xce, 0xbd,
  0x24, 0xb2, 0x65, 0xbe, 0xcb, 0x9e, 0x21, 0xbe, 0x22, 0xbe, 0xec, 0xbd,
  0xbf, 0x5e, 0xa8, 0xbe, 0xae, 0x8c, 0x0f, 0xbe, 0x3c, 0xd4, 0x03, 0xbe,
  0x5e, 0x24, 0x99, 0xbe, 0x45, 0xca, 0x39, 0xbe, 0xec, 0x92, 0x27, 0xbe,
  0x34, 0x13, 0xa1, 0xbe, 0x1d, 0xfb, 0x66, 0xbe, 0xa9, 0x88, 0x15, 0xbe,
  0xaf, 0x73, 0x89, 0xbe, 0x0b, 0x41, 0x6d, 0xbe, 0x56, 0x0b, 0x10, 0xbe,
  0xb5, 0x7c, 0x91, 0xbe, 0xc9, 0x63, 0x40, 0xbe, 0xe1, 0xc6, 0xd0, 0xbd,
  0x51, 0x2d, 0x43, 0xbe, 0x1f, 0xfd, 0x2d, 0xbe, 0x96, 0x77, 0x42, 0xbd,
  0x0a, 0xc2, 0x10, 0xbe, 0x58, 0xda, 0x0a, 0xbe, 0xc2, 0x75, 0x8c, 0xbd,
  0x59, 0xc7, 0xbe, 0xbd, 0x8b, 0xab, 0xf3, 0xbc, 0x5d, 0xc0, 0x5c, 0xbc,
  0xef, 0x80, 0x2d, 0xbd, 0x59, 0x3b, 0x25, 0xbd, 0x85, 0x0c, 0xc3, 0xbc,
  0x07, 0x36, 0xb2, 0xbc, 0x63, 0xf5, 0xf2, 0x3c, 0x34, 0x31, 0xb9, 0x3d,
  0x0b, 0x9e, 0x1c, 0x3d, 0xe7, 0xe0, 0x42, 0x3c, 0x49, 0xb1, 0xa8, 0x3d,
  0xd3, 0x17, 0x68, 0x3c, 0x77, 0x87, 0xb7, 0x3d, 0x6f, 0x25, 0x28, 0x3e,
  0x47, 0xbf, 0x0c, 0x3e, 0xad, 0x95, 0xa7, 0x3d, 0x8e, 0x3e, 0x09, 0x3e,
  0xa3, 0x5b, 0x0d, 0x3e, 0x0a, 0x1e, 0xd4, 0x3d, 0x21, 0x1b, 0xf3, 0x3d,
  0x2f, 0xd7, 0x2a, 0x3e, 0x17, 0x03, 0xf0, 0x3d, 0x89, 0xbf, 0x14, 0x3e,
  0x50, 0xf1, 0x51, 0x3e, 0xde, 0x37, 0xf6, 0x3d, 0x70, 0x3d, 0x15, 0x3e,
  0x70, 0xec, 0x69, 0x3e, 0x29, 0xbe, 0x1d, 0x3e, 0xd3, 0x03, 0xcc, 0x3d,
  0xe7, 0x17, 0x6d, 0x3e, 0x09, 0xfd, 0x2c, 0x3e, 0xb2, 0x31, 0x03, 0x3e,
  0x35, 0xdf, 0x61, 0x3e, 0x09, 0x78, 0x12, 0x3e, 0xdd, 0x75, 0xe1, 0x3d,
  0x4f, 0x95, 0x24, 0x3e, 0xcd, 0xbd, 0x0f, 0x3e, 0x16, 0x81, 0xa8, 0x3d,
  0x6e, 0x20, 0x16, 0x3e, 0x56, 0x2f, 0x22, 0x3e, 0x9c, 0x35, 0xae, 0x3d,
  0xe5, 0x78, 0xc0, 0x3d, 0xe9, 0x91, 0x06, 0x3e, 0x78, 0x26, 0x8c, 0x3d,
  0x45, 0x52, 0xa4, 0x3d, 0x9a, 0x20, 0xb9, 0x3d, 0xd1, 0x29, 0x72, 0x3d,
  0xf4, 0x3f, 0x7c, 0x3d, 0x1b, 0x85, 0x89, 0x3d, 0x94, 0xd6, 0x44, 0x3c,
  0x5c, 0x50, 0xa2, 0x3d, 0x25, 0xec, 0x70, 0x3d, 0x87, 0x04, 0x7b, 0xbc,
  0x14, 0x0d, 0x3c, 0x3d, 0xe4, 0x70, 0xf7, 0x3c, 0x98, 0xb9, 0x02, 0xbd,
  0x9d, 0xbd, 0xf2, 0x3c, 0x5d, 0xa0, 0x08, 0xbd, 0x14, 0xc3, 0x43, 0xbd,
  0x9f, 0x56, 0xc1, 0xbb, 0x77, 0x2e, 0x85, 0xbb, 0x0f, 0xeb, 0x90, 0xbc,
  0xac, 0xe4, 0x1a, 0x3d, 0x0e, 0x6d, 0xce, 0xbc, 0xf9, 0xc6, 0xec, 0xbc,
  0x07, 0xac, 0xc9, 0xbc, 0x97, 0x70, 0xa3, 0xbb, 0x7b, 0xa1, 0x36, 0xbb,
  0xa5, 0x39, 0x56, 0xba, 0xd1, 0x1e, 0x97, 0xbd, 0x9c, 0xb5, 0xd5, 0xbc,
  0xe3, 0x65, 0x52, 0xbd, 0x51, 0x69, 0x4d, 0xbd, 0xf0, 0x36, 0x9c, 0x3c,
  0x10, 0x03, 0x52, 0xbc, 0x19, 0xb2, 0x8b, 0xbd, 0x09, 0x5f, 0x55, 0xbc,
  0x92, 0xf4, 0x1f, 0xbd, 0x34, 0x6a, 0x4e, 0xbd, 0x40, 0x99, 0x72, 0x3b,
  0xfa, 0xa0, 0x00, 0xbd, 0xcf, 0x73, 0x27, 0xbd, 0x9b, 0xe1, 0xfa, 0x3b,
  0x8f, 0x4a, 0x35, 0xbd, 0x64, 0xa0, 0xa0, 0xbd, 0xe0, 0xad, 0x14, 0x3d,
  0x28, 0x63, 0x18, 0xbc, 0xae, 0xff, 0x8e, 0xbd, 0x60, 0xcb, 0x44, 0x3d,
  0x65, 0xc5, 0x9f, 0xbc, 0x22, 0x01, 0xd0, 0x3c, 0x1e, 0x9d, 0x6a, 0x3c,
  0x05, 0xed, 0xb9, 0xbb, 0x37, 0x85, 0x76, 0xbd, 0x24, 0x2b, 0xd6, 0xba,
  0x72, 0xd6, 0xb4, 0xbc, 0x9b, 0x76, 0xb2, 0xbc, 0x07, 0x5f, 0x54, 0x3d,
  0x6e, 0x70, 0xbd, 0xbb, 0xf4, 0x6b, 0x77, 0xbd, 0xa2, 0x6b, 0xc8, 0xbc,
  0xfc, 0x2c, 0xf8, 0x3b, 0xad, 0xc0, 0xd0, 0x3b, 0x2a, 0xdd, 0x1c, 0x3d,
  0x26, 0x5d, 0x0f, 0x3d, 0xca, 0x5a, 0x97, 0xbd, 0x4f, 0xdb, 0x86, 0xbd,
  0xe9, 0x78, 0x81, 0xbc, 0x10, 0x06, 0x4b, 0x3d, 0xa6, 0x9a, 0xa6, 0x3d,
  0xf6, 0x16, 0xba, 0x3c, 0x90, 0xcd, 0x0b, 0xbd, 0xd9, 0xb7, 0x86, 0x3e,
  0x75, 0x84, 0x45, 0x3e, 0x9f, 0xd0, 0x82, 0x3e, 0x66, 0x87, 0x27, 0x3f,
  0x9b, 0xc6, 0xc1, 0x3e, 0xc1, 0xd4, 0x88, 0x3e, 0x98, 0x87, 0x13, 0x3f,
  0x5f, 0x93, 0xc4, 0x3e, 0x96, 0x85, 0xd8, 0xbd, 0x9a, 0x74, 0x01, 0x3f,
  0xba, 0xc8, 0xeb, 0x3e, 0xec, 0x0f, 0x13, 0x3f, 0xfd, 0x02, 0x9d, 0x3e,
  0xfc, 0xc3, 0x82, 0x3e, 0xcc, 0x06, 0x90, 0xbe, 0xd0, 0xcd, 0x76, 0xbd,
  0x32, 0x80, 0xc4, 0x3c, 0x7e, 0x3a, 0x15, 0x3f, 0x14, 0xeb, 0xf0, 0x3e,
  0xa3, 0x9e, 0xf5, 0x3e, 0xf7, 0x17, 0x15, 0xbc, 0x60, 0x17, 0x04, 0xbf,
  0x83, 0x78, 0x12, 0x3d, 0x52, 0xbe, 0x68, 0x3e, 0x93, 0xf7, 0x9b, 0xbe,
  0x69, 0x9b, 0x0a, 0x3e, 0x11, 0x9f, 0x9b, 0x3e, 0x88, 0x10, 0x80, 0x3e,
  0xf9, 0xe0, 0x08, 0x3f, 0x4e, 0xf1, 0x3b, 0xbf, 0xac, 0x02, 0xcf, 0xbe,
  0x82, 0xaf, 0x5a, 0x3b, 0x09, 0x01, 0x5b, 0x3e, 0x97, 0x99, 0x92, 0x3d,
  0xcc, 0x97, 0x67, 0x3e, 0xcd, 0x43, 0x75, 0xbe, 0x0b, 0xec, 0xd8, 0xbd,
  0x7c, 0xa1, 0x11, 0x3d, 0x47, 0x46, 0xd4, 0x3d, 0x62, 0x3f, 0x3c, 0x3e,
  0x1e, 0x23, 0x11, 0x3e, 0x22, 0x38, 0x8e, 0xbe, 0xaa, 0x73, 0x19, 0xbe,
  0x90, 0x87, 0x44, 0xbe, 0x5d, 0x8f, 0x21, 0xbe, 0xe5, 0x23, 0x42, 0xbd,
  0xdd, 0x46, 0x83, 0xbe, 0xd3, 0x46, 0x70, 0xbe, 0x78, 0xc4, 0x0c, 0xbe,
  0x1d, 0xd3, 0x93, 0xbe, 0x68, 0x23, 0x85, 0xbd, 0x16, 0x30, 0x5c, 0xbd,
  0x18, 0x39, 0x69, 0xbe, 0xab, 0x9d, 0x85, 0xbd, 0x5b, 0xe3, 0xbd, 0xbd,
  0x13, 0x51, 0x98, 0xbe, 0xd6, 0x92, 0xd9, 0x3c, 0x24, 0xc8, 0x00, 0xbe,
  0x88, 0x1c, 0x99, 0xbe, 0x90, 0xea, 0x85, 0x3d, 0x0b, 0xb0, 0x82, 0xbd,
  0x42, 0xbd, 0x80, 0xbe, 0xe8, 0x4d, 0x38, 0x3d, 0x38, 0x06, 0xd8, 0xbd,
  0x26, 0x47, 0x69, 0xbe, 0x0f, 0x8a, 0xe0, 0x3c, 0xd1, 0xae, 0x01, 0xbe,
  0x91, 0xbc, 0x3c, 0xbe, 0x91, 0x61, 0x1d, 0x3c, 0x3d, 0xc2, 0xbd, 0xbd,
  0xbc, 0x4f, 0x25, 0xbe, 0x96, 0x99, 0x3f, 0x3c, 0xa3, 0x20, 0x02, 0xbe,
  0x28, 0xaf, 0x05, 0xbe, 0xcd, 0x68, 0x38, 0xbc, 0x16, 0xe7, 0x64, 0xbd,
  0x82, 0xcb, 0x27, 0xbe, 0x9f, 0x6c, 0xbb, 0xbd, 0xf6, 0x85, 0x3e, 0xbe,
  0x9e, 0x7a, 0x01, 0xbe, 0x79, 0x96, 0xc5, 0xbd, 0xf3, 0xb4, 0x07, 0xbe,
  0x75, 0xbe, 0xad, 0xbd, 0xa6, 0xe5, 0xef, 0xbd, 0x67, 0xc2, 0x31, 0xbe,
  0xa5, 0x36, 0x60, 0xbd, 0xad, 0xdf, 0xc0, 0xbd, 0x7b, 0xd7, 0x0a, 0xbe,
  0xa7, 0x57, 0xe8, 0xbc, 0x30, 0x0e, 0x84, 0xbc, 0xd2, 0x5c, 0x86, 0xbd,
  0xf8, 0xf1, 0xf9, 0x3c, 0xe1, 0x42, 0x0f, 0xbc, 0x8c, 0x6e, 0x3d, 0xbd,
  0xc2, 0x3e, 0xb3, 0x3d, 0xf5, 0x63, 0x46, 0x3d, 0xe6, 0xd0, 0xdd, 0xbc,
  0xc6, 0x5b, 0x15, 0x3e, 0xe7, 0xd5, 0x7e, 0x3d, 0xcc, 0xe9, 0x91, 0x3d,
  0xb8, 0x9b, 0x25, 0x3e, 0x97, 0x4b, 0x1b, 0x3d, 0x45, 0xd2, 0x3a, 0x3d,
  0x9f, 0xf0, 0x4a, 0x3e, 0x74, 0xe9, 0xd0, 0x3d, 0xce, 0x95, 0x1e, 0x3e,
  0x03, 0x0c, 0x55, 0x3e, 0x29, 0x5f, 0x56, 0x3d, 0x9f, 0x17, 0x99, 0x3d,
  0x7e, 0x4f, 0x6a, 0x3e, 0x51, 0xa2, 0x00, 0x3e, 0x93, 0xbd, 0x3d, 0x3e,
  0x1d, 0xa9, 0x30, 0x3e, 0x5b, 0x00, 0x07, 0x3e, 0x33, 0xba, 0x0a, 0x3e,
  0x79, 0x51, 0x6a, 0x3e, 0xb8, 0xf6, 0x1a, 0x3e, 0x05, 0xff, 0x5e, 0x3e,
  0x7f, 0xc1, 0x44, 0x3e, 0x8a, 0xae, 0x17, 0x3e, 0x5c, 0xf7, 0x31, 0x3e,
  0x21, 0xa1, 0x1f, 0x3e, 0xd3, 0x97, 0x00, 0x3e, 0x09, 0xd8, 0x48, 0x3e,
  0x88, 0x5c, 0x39, 0x3e, 0xfe, 0x63, 0x26, 0x3d, 0xf7, 0x0d, 0x2a, 0x3e,
  0xc7, 0xaf, 0xd7, 0x3d, 0x62, 0x95, 0x36, 0x3d, 0x5c, 0x93, 0xea, 0x3d,
  0xd5, 0x4a, 0x9c, 0x3d, 0xb7, 0x8d, 0x66, 0xbd, 0x30, 0x1f, 0x98, 0x3d,
  0x77, 0x23, 0x1e, 0x3d, 0xe4, 0x6a, 0x65, 0xbd, 0x51, 0x89, 0x3b, 0x3d,
  0x78, 0x13, 0xc2, 0xbc, 0x5d, 0xa0, 0x96, 0xbd, 0xb1, 0x2a, 0x16, 0x3d,
  0x54, 0x91, 0x15, 0xbc, 0x9c, 0x78, 0x13, 0xbe, 0x4d, 0x71, 0xf8, 0x3b,
  0x71, 0xd9, 0x7c, 0xbd, 0xc4, 0x83, 0x2d, 0xbe, 0xcb, 0xc5, 0x87, 0xbd,
  0x10, 0xe4, 0xa9, 0xbd, 0x3f, 0x62, 0x15, 0xbe, 0xbb, 0xb9, 0xa0, 0xbd,
  0x67, 0x32, 0xb8, 0xbd, 0xa2, 0x54, 0x35, 0xbe, 0x30, 0x53, 0xe3, 0xbd,
  0x1d, 0x1c, 0x1f, 0xbe, 0x08, 0x1a, 0x46, 0xbe, 0xed, 0x08, 0xf2, 0xbd,
  0x5a, 0xef, 0x1b, 0xbe, 0x21, 0xf2, 0x38, 0xbe, 0x83, 0x22, 0x17, 0xbe,
  0xaf, 0xca, 0x17, 0xbe, 0xe5, 0x73, 0x3e, 0xbe, 0x1d, 0x93, 0x21, 0xbe,
  0xcc, 0xb5, 0x43, 0xbe, 0x3e, 0x24, 0x2b, 0xbe, 0x3b, 0x9e, 0x12, 0xbe,
  0xdd, 0x4e, 0x0b, 0xbe, 0x3d, 0xd1, 0x1b, 0xbe, 0x93, 0x6b, 0xeb, 0xbd,
  0xbc, 0x95, 0x29, 0xbe, 0x50, 0xac, 0xd1, 0xbd, 0x74, 0x52, 0xd5, 0xbd,
  0x91, 0x43, 0x1e, 0xbe, 0x70, 0xa6, 0x94, 0xbd, 0xdf, 0x04, 0xb4, 0xbd,
  0xa5, 0x69, 0x10, 0xbe, 0xaa, 0x1f, 0xbd, 0xbd, 0x50, 0x07, 0x6c, 0xbd,
  0x02, 0xc2, 0x01, 0xbe, 0x31, 0xdc, 0x5a, 0xbd, 0x18, 0xb1, 0x10, 0xbd,
  0xc0, 0x4e, 0x44, 0xbd, 0xba, 0x17, 0x99, 0x3c, 0xff, 0x82, 0xcd, 0x3c,
  0x93, 0xa7, 0xdd, 0xbc, 0x2c, 0x9e, 0x87, 0x3d, 0xb7, 0xfa, 0xd9, 0x3c,
  0xdc, 0xbe, 0x05, 0x3d, 0x42, 0xb9, 0xb0, 0x3d, 0xe9, 0x4e, 0x18, 0x3d,
  0xcc, 0x85, 0x6c, 0xbb, 0x6e, 0x34, 0x11, 0x3e, 0xbf, 0xf6, 0x3f, 0x3d,
  0xe4, 0xa8, 0x29, 0x3d, 0xfe, 0xe8, 0x35, 0x3e, 0x4f, 0x22, 0xd6, 0x3c,
  0xb8, 0xc1, 0x94, 0x3d, 0x67, 0x30, 0x45, 0x3e, 0xb1, 0x5a, 0x99, 0x3c,
  0xf7, 0x57, 0x76, 0x3d, 0x32, 0xb8, 0x42, 0x3e, 0x0d, 0xd4, 0x11, 0x3d,
  0xb6, 0x2f, 0xcc, 0x3d, 0xb3, 0x05, 0x1e, 0x3e, 0x55, 0x68, 0x18, 0x3d,
  0x75, 0xca, 0xc5, 0x3d, 0x33, 0xc1, 0x4b, 0x3e, 0xfc, 0x75, 0x3e, 0x3d,
  0x65, 0xd0, 0xe4, 0x3d, 0x69, 0x12, 0x31, 0x3e, 0xd5, 0x96, 0x91, 0x3c,
  0x72, 0x65, 0xc8, 0x3d, 0x59, 0xf6, 0x1f, 0x3e, 0x3b, 0xb1, 0x68, 0x3d,
  0xad, 0xce, 0xb7, 0x3d, 0x42, 0x30, 0x0c, 0x3e, 0xa2, 0x15, 0x55, 0x3d,
  0xb4, 0x46, 0xce, 0x3d, 0x0a, 0xdd, 0x1a, 0x3e, 0x99, 0x3c, 0x3a, 0x3d,
  0xef, 0x8b, 0x9d, 0x3d, 0x4c, 0xbe, 0xfa, 0x3d, 0x83, 0x5c, 0x31, 0x3c,
  0x69, 0xc3, 0xaa, 0x3d, 0xe9, 0x70, 0xf6, 0x3d, 0x9d, 0x78, 0x22, 0x3d,
  0x4f, 0x22, 0xaf, 0x3d, 0xc3, 0xd6, 0x88, 0x3d, 0x18, 0x7d, 0x19, 0x3d,
  0x3b, 0x9a, 0xae, 0x3d, 0x7c, 0x7d, 0x7c, 0x3d, 0xbc, 0x0f, 0x90, 0x3d,
  0x8e, 0xe5, 0x80, 0x3d, 0x3b, 0x40, 0x2d, 0x3d, 0x8d, 0x8c, 0xf5, 0x3c,
  0x96, 0x1d, 0x2c, 0x3d, 0x7a, 0x9a, 0x95, 0x3d, 0xa3, 0x5f, 0x30, 0x3d,
  0xa9, 0x28, 0x83, 0x3d, 0x3b, 0x6b, 0x22, 0x3d, 0x37, 0x3b, 0x2c, 0x3b,
  0x37, 0x98, 0x5b, 0x3c, 0x95, 0x82, 0x92, 0x3e, 0xeb, 0x1b, 0x74, 0x3d,
  0xc3, 0xfe, 0x8a, 0xbd, 0xba, 0x23, 0xbe, 0xbe, 0xf7, 0xd5, 0x24, 0xbf,
  0x5e, 0x38, 0xe7, 0xbe, 0xcf, 0x87, 0xff, 0xbe, 0xf4, 0xaf, 0x25, 0xbf,
  0xbd, 0x53, 0xd5, 0xbe, 0x67, 0xd6, 0x15, 0xbe, 0x89, 0x49, 0xc3, 0xbe,
  0xaa, 0x9c, 0x27, 0xbe, 0x98, 0x32, 0x5b, 0xbf, 0x1f, 0xca, 0x34, 0xbf,
  0xa3, 0x51, 0x82, 0xbd, 0xcb, 0xb0, 0x29, 0xbe, 0xa8, 0x7c, 0x8a, 0xbe,
  0xc7, 0xc1, 0x99, 0xbe, 0x7c, 0xfb, 0x51, 0xbf, 0x60, 0xee, 0x2c, 0xbf,
  0xac, 0x17, 0xce, 0xbe, 0xbc, 0xbc, 0xac, 0x3d, 0xe6, 0x88, 0x95, 0x3e,
  0x8a, 0xc1, 0x9e, 0x3d, 0xe9, 0x5f, 0x6d, 0xbf, 0xc8, 0x1b, 0x18, 0xbf,
  0x83, 0x5c, 0x17, 0xbf, 0xa0, 0x99, 0xbb, 0xbe, 0x48, 0x23, 0xca, 0xbe,
  0xb9, 0xd5, 0x04, 0xbf, 0x94, 0xb3, 0x9a, 0x3b, 0x97, 0x9d, 0x3c, 0x3c,
  0xbc, 0xe7, 0x70, 0xbe, 0x22, 0x2b, 0x09, 0x3c, 0x1b, 0x7f, 0x16, 0xbe,
  0x0a, 0x7b, 0x3b, 0xbe, 0xe6, 0x99, 0xef, 0x3e, 0xa9, 0xf2, 0x4c, 0x3e,
  0x3c, 0x4e, 0x56, 0xbd, 0x74, 0x50, 0x9b, 0x3e, 0x27, 0xdc, 0xc0, 0x3d,
  0x1a, 0x39, 0xc8, 0x3c, 0x49, 0x92, 0xf5, 0x3e, 0xc8, 0xd3, 0xbd, 0x3e,
  0x91, 0xd3, 0x53, 0x3e, 0x77, 0x03, 0xd1, 0x3e, 0x9e, 0xd0, 0xc8, 0x3e,
  0xae, 0x59, 0x4e, 0x3e, 0x57, 0xfc, 0x08, 0x3f, 0xbc, 0x5e, 0xb3, 0x3e,
  0xd6, 0x7b, 0x8a, 0x3e, 0x0c, 0x47, 0x9d, 0x3e, 0x63, 0x07, 0xae, 0x3e,
  0x7a, 0x24, 0x40, 0x3e, 0xd5, 0x27, 0x95, 0x3e, 0xb7, 0xc1, 0xb0, 0x3e,
  0x1e, 0x3b, 0x8a, 0x3e, 0x57, 0x4d, 0x89, 0x3e, 0x73, 0x70, 0xa3, 0x3e,
  0x50, 0xd2, 0x6a, 0x3e, 0xae, 0xb1, 0xe9, 0x3d, 0x2b, 0xd3, 0x80, 0x3e,
  0xcf, 0x80, 0x51, 0x3e, 0xd8, 0xf6, 0x8d, 0x3d, 0xa2, 0xe1, 0x44, 0x3e,
  0xbb, 0x0f, 0x21, 0x3e, 0xf9, 0x04, 0x87, 0x3d, 0x89, 0xf8, 0x4f, 0x3e,
  0xe2, 0x4e, 0x1a, 0x3e, 0x2a, 0x85, 0x1f, 0xbd, 0xf5, 0x12, 0xb9, 0x3d,
  0x52, 0x3c, 0xcf, 0x3d, 0x40, 0x14, 0x6e, 0xbc, 0x33, 0x75, 0xe4, 0x3d,
  0xc2, 0xc2, 0xaa, 0x3d, 0xe0, 0x47, 0x63, 0xbd, 0x16, 0xf0, 0x09, 0x3d,
  0x29, 0xda, 0x37, 0x3d, 0x07, 0xf7, 0xae, 0xbd, 0x50, 0xea, 0x86, 0x3d,
  0xa1, 0x24, 0x02, 0x3d, 0xa5, 0xf0, 0x94, 0xbd, 0x9e, 0x73, 0x4f, 0x3d,
  0x5f, 0xf2, 0x04, 0x3d, 0x45, 0xe2, 0x95, 0xbd, 0x73, 0x01, 0x07, 0x3d,
  0xff, 0xfc, 0x08, 0x3d, 0xfc, 0xd4, 0x07, 0xbe, 0x15, 0xab, 0x96, 0x3d,
  0x93, 0x0e, 0x8d, 0x3c, 0xde, 0x80, 0xd3, 0xbd, 0x6a, 0xe7, 0xe6, 0x3b,
  0xf9, 0xc1, 0x56, 0xbb, 0xf8, 0xed, 0x8c, 0xbd, 0xc5, 0x94, 0x94, 0x3d,
  0x1b, 0x11, 0xa5, 0x3c, 0xf9, 0x38, 0x61, 0xbd, 0x09, 0x05, 0x9f, 0x3a,
  0xc3, 0x74, 0x5d, 0x3c, 0x53, 0x31, 0x0f, 0xbd, 0x81, 0xea, 0x39, 0xbd,
  0x6e, 0x5f, 0x04, 0x3d, 0xab, 0x10, 0x53, 0x3d, 0x27, 0xb5, 0x62, 0xbc,
  0xa0, 0x21, 0x30, 0xbc, 0xfa, 0x19, 0x25, 0x3d, 0xa8, 0x11, 0xaa, 0xbd,
  0x61, 0x49, 0x95, 0x3c, 0x56, 0x52, 0x03, 0x3d, 0xe7, 0xea, 0x3a, 0xbd,
  0x96, 0x79, 0x5d, 0xbc, 0xeb, 0x23, 0x86, 0x3d, 0xd7, 0xea, 0x3d, 0xbd,
  0x09, 0xef, 0x86, 0xbb, 0x7f, 0xa4, 0xa0, 0x3d, 0x1e, 0x69, 0x2b, 0xbd,
  0x82, 0xdb, 0x8d, 0x3c, 0xaa, 0xbf, 0x5c, 0x3d, 0xca, 0x31, 0x99, 0xbd,
  0x27, 0xc1, 0xdb, 0x3b, 0xff, 0x42, 0x6d, 0x3d, 0x6e, 0x90, 0xa9, 0xbd,
  0x5a, 0xde, 0x3a, 0x3c, 0xf7, 0xd6, 0x8d, 0x3d, 0x82, 0xed, 0xcd, 0xbd,
  0x7c, 0xbd, 0xf2, 0xbb, 0x7e, 0x46, 0x32, 0x3d, 0xc0, 0x28, 0xcd, 0xbd,
  0xbd, 0x7c, 0x09, 0xbc, 0x52, 0x0f, 0x29, 0x3d, 0x57, 0xaf, 0xf0, 0xbd,
  0xb7, 0x5d, 0xc0, 0xbc, 0x01, 0xda, 0x96, 0x3d, 0xf7, 0x5a, 0xa8, 0xbd,
  0x6d, 0x79, 0xe8, 0xbc, 0x1a, 0x98, 0x88, 0x3d, 0x9a, 0x0d, 0xf7, 0xbd,
  0x46, 0xdc, 0x13, 0xbd, 0x5f, 0xf8, 0xe5, 0x3d, 0x81, 0x59, 0xa2, 0xbd,
  0x15, 0xa7, 0x30, 0xbd, 0xd8, 0x22, 0xc1, 0x3d, 0xe1, 0xbb, 0x90, 0xbd,
  0x55, 0x53, 0x5d, 0xbd, 0xbc, 0xf0, 0xdb, 0x3d, 0x4c, 0xb8, 0x0e, 0xbd,
  0x7e, 0x15, 0x88, 0xbc, 0xe4, 0xb6, 0x91, 0x3d, 0xd6, 0x72, 0xf4, 0xbc,
  0xb3, 0xce, 0x0e, 0xbd, 0x4c, 0x8e, 0x7a, 0x3d, 0xfd, 0x83, 0x0b, 0x3c,
  0x5e, 0xb1, 0x05, 0xbd, 0xd0, 0x5d, 0x1f, 0x3d, 0x4e, 0x12, 0xcc, 0x3c,
  0x6a, 0x8d, 0xb0, 0xbc, 0xd7, 0xc5, 0x2e, 0x3d, 0x8b, 0x80, 0x1c, 0x3d,
  0xd3, 0x52, 0x69, 0xbc, 0x50, 0x5b, 0x0b, 0x3c, 0x11, 0x0e, 0x18, 0x3d,
  0xda, 0x0b, 0x57, 0xbb, 0x87, 0xbc, 0x85, 0x3b, 0x22, 0x02, 0x2c, 0x3d,
  0xb3, 0xed, 0xa8, 0x3b, 0x25, 0x27, 0xae, 0xbc, 0x58, 0xdd, 0x40, 0x3d,
  0x30, 0xd2, 0x29, 0xbc, 0x1c, 0x01, 0x84, 0xbc, 0x89, 0x73, 0x25, 0x3d,
  0xb0, 0xf4, 0x69, 0xbb, 0x6f, 0x86, 0xf9, 0xbc, 0x6c, 0x63, 0x1c, 0x3d,
  0x72, 0xaf, 0x27, 0xbc, 0x9b, 0xa8, 0xfd, 0xbc, 0x74, 0x77, 0x23, 0x3d,
  0x86, 0x8a, 0x42, 0x3c, 0x66, 0x64, 0x70, 0xbd, 0x80, 0xae, 0x93, 0x3c,
  0xe6, 0x2e, 0x07, 0x3b, 0x60, 0x8d, 0x90, 0xbd, 0x02, 0x34, 0x80, 0x3b,
  0xbb, 0x03, 0x9e, 0xbc, 0x95, 0xeb, 0x90, 0xbd, 0x09, 0x98, 0xb8, 0xbc,
  0xcd, 0x06, 0x5b, 0xbc, 0x61, 0x36, 0xce, 0xbd, 0xbf, 0xd8, 0x12, 0xbd,
  0x57, 0x21, 0x32, 0xbc, 0x8b, 0x08, 0x00, 0xbe, 0x1a, 0x1c, 0x93, 0xbc,
  0x5c, 0xfb, 0xa9, 0xbc, 0x1c, 0x82, 0xdc, 0xbd, 0xfb, 0x51, 0x5d, 0xbd,
  0xfa, 0xab, 0xf9, 0xbc, 0x73, 0x42, 0xe6, 0xbd, 0xac, 0x96, 0x88, 0xbd,
  0x80, 0x04, 0x5b, 0xbd, 0xe4, 0x65, 0xec, 0xbd, 0x21, 0x29, 0x95, 0xbd,
  0xbf, 0x79, 0x83, 0xbd, 0xc0, 0xe1, 0xec, 0xbd, 0x92, 0xb8, 0x83, 0xbd,
  0x4e, 0xaa, 0x8c, 0xbd, 0xe1, 0x85, 0xc8, 0xbd, 0x10, 0x8c, 0x9c, 0xbd,
  0x06, 0xd7, 0x89, 0xbd, 0x20, 0xc4, 0xec, 0xbd, 0x27, 0x0b, 0xa5, 0xbd,
  0xcb, 0x6e, 0x96, 0xbd, 0xe3, 0x5c, 0xca, 0xbd, 0x15, 0xe0, 0x63, 0xbd,
  0xef, 0x07, 0x87, 0xbd, 0x6c, 0x40, 0x02, 0xbe, 0x56, 0x4a, 0x70, 0xbd,
  0xd3, 0xd5, 0x66, 0xbd, 0xed, 0xe8, 0xa5, 0xbd, 0x84, 0x18, 0x5a, 0xbd,
  0x1c, 0x3d, 0x5a, 0xbd, 0x46, 0xbb, 0x50, 0xbd, 0xc3, 0x1d, 0x9b, 0xbd,
  0x3a, 0xb1, 0x49, 0xbd, 0xf5, 0x96, 0x07, 0xbd, 0x31, 0x58, 0x23, 0xbd,
  0x96, 0x43, 0xaf, 0xbc, 0xd5, 0x21, 0x5c, 0xbd, 0x8e, 0x53, 0x2a, 0xbd,
  0xc5, 0x63, 0xb3, 0xbc, 0x8f, 0x32, 0x3f, 0xbc, 0x74, 0x55, 0xfe, 0x3a,
  0xc7, 0xaa, 0xd2, 0x3a, 0xde, 0xbd, 0x30, 0xbd, 0xcf, 0xd8, 0x2b, 0xbd,
  0x12, 0xe1, 0x35, 0x3a, 0xd2, 0xbe, 0x52, 0x3d, 0x0e, 0xc1, 0x10, 0xbc,
  0x3e, 0x51, 0x13, 0x3a, 0x6e, 0x03, 0x7c, 0xbd, 0xbc, 0xe9, 0xaa, 0xbc,
  0xa8, 0xb5, 0xeb, 0x3b, 0xf9, 0x1a, 0x30, 0xbd, 0x19, 0xcd, 0xac, 0x3c,
  0x36, 0xe1, 0xb1, 0x3b, 0x4d, 0x2f, 0xa4, 0xbc, 0x27, 0x59, 0x15, 0x3d,
  0xde, 0x31, 0x0a, 0x3d, 0x49, 0xac, 0x8e, 0x3d, 0x17, 0xfd, 0x76, 0x3c,
  0x2a, 0x41, 0xa8, 0xbb, 0x8a, 0xda, 0x8a, 0x3c, 0x18, 0x3f, 0x36, 0xbb,
  0x14, 0xcf, 0x04, 0x3d, 0xe6, 0x68, 0x44, 0x3d, 0xcb, 0x27, 0x49, 0x3d,
  0xdf, 0x32, 0x05, 0xbd, 0x13, 0x91, 0x06, 0x3d, 0x2c, 0x00, 0x48, 0xb9,
  0x41, 0x76, 0x1d, 0x3d, 0x09, 0xa9, 0x56, 0x3d, 0x20, 0xef, 0x54, 0x3d,
  0x26, 0x12, 0x0e, 0xbb, 0x97, 0xac, 0x9d, 0x3c, 0x3b, 0x1e, 0xfb, 0xbb,
  0xb3, 0x4c, 0x33, 0x3c, 0x65, 0x24, 0xd4, 0x3d, 0x1a, 0xa0, 0x40, 0xbc,
  0xba, 0xfd, 0xfa, 0xbb, 0xa1, 0x04, 0xdc, 0x3c, 0x97, 0x61, 0xe5, 0xbb,
  0xc8, 0x75, 0x8b, 0x3c, 0xe3, 0x19, 0xa8, 0xbc, 0xae, 0x72, 0x75, 0x3d,
  0xc4, 0x94, 0x17, 0xbc, 0x3d, 0x0b, 0xb3, 0xbc, 0xc3, 0x6b, 0x0f, 0xbd,
  0x82, 0x43, 0x97, 0x3c, 0x4a, 0x50, 0x91, 0xbc, 0xf1, 0x43, 0xf3, 0x3b,
  0x50, 0xd6, 0xdd, 0x3c, 0x95, 0xca, 0x15, 0xbd, 0xa6, 0xc7, 0xa7, 0xbc,
  0xda, 0x64, 0x71, 0x3d, 0x0a, 0x8d, 0xa5, 0xbc, 0x56, 0xaf, 0x97, 0x3a,
  0x5f, 0xbe, 0x72, 0xbb, 0x4e, 0xb2, 0x98, 0xbc, 0xcf, 0x91, 0x81, 0x3a,
  0x0e, 0xaa, 0x6c, 0xbc, 0x81, 0x96, 0xfa, 0xbc, 0xb7, 0x3f, 0x1b, 0xbd,
  0x12, 0xd5, 0xc4, 0xbc, 0x7f, 0x2a, 0x94, 0xbc, 0x5f, 0x5a, 0xf6, 0xbc,
  0xb6, 0x79, 0x0d, 0x3b, 0x44, 0x02, 0x68, 0xbc, 0x5a, 0xb1, 0x03, 0xbb,
  0x42, 0x92, 0xb3, 0xbc, 0xe9, 0x91, 0x5d, 0x3d, 0x29, 0x40, 0x1d, 0xbd,
  0xe4, 0x89, 0x30, 0xbc, 0x84, 0x65, 0xbf, 0x3c, 0xfb, 0x20, 0x0b, 0xbc,
  0x9b, 0xa2, 0x26, 0xbc, 0x79, 0xe0, 0xd1, 0x3c, 0x3a, 0x1f, 0x38, 0xbd,
  0xb6, 0x2a, 0x96, 0xbb, 0x8c, 0x70, 0x03, 0x3d, 0xc0, 0x1f, 0x98, 0xbc,
  0xcb, 0x8c, 0x83, 0xbc, 0x27, 0xcf, 0xc3, 0xbb, 0xfd, 0xd5, 0xab, 0x3b,
  0xbc, 0xce, 0x90, 0x3c, 0x96, 0xa2, 0x02, 0x3d, 0x0a, 0xed, 0xb3, 0xbd,
  0x11, 0x77, 0x09, 0x3c, 0x5c, 0xdc, 0x57, 0x3d, 0x1d, 0xe6, 0x92, 0xbc,
  0x33, 0x55, 0xff, 0xbc, 0x1c, 0x73, 0xc7, 0x3c, 0x31, 0x06, 0x2c, 0x3d,
  0xbc, 0x6a, 0xdf, 0xbc, 0xcd, 0xa0, 0x9d, 0x3d, 0xd0, 0x72, 0xd3, 0xbd,
  0x0c, 0x75, 0xab, 0x3c, 0x0c, 0xdc, 0xd0, 0x3c, 0x27, 0x16, 0xaa, 0xbd,
  0x16, 0x05, 0x49, 0x3d, 0xe7, 0xfe, 0x86, 0xbc, 0x66, 0x17, 0x2d, 0x3d,
  0xd0, 0x76, 0xaf, 0xbc, 0xed, 0x42, 0x35, 0x3d, 0x35, 0x69, 0x0a, 0xbc,
  0x0c, 0xdc, 0xd9, 0xbc, 0xf6, 0x65, 0xef, 0x3d, 0x62, 0x66, 0xa1, 0xbd,
  0xa8, 0x72, 0x4d, 0xbc, 0x17, 0xb9, 0x82, 0xbc, 0x1c, 0xfb, 0x72, 0xbc,
  0x6e, 0x27, 0x14, 0x3b, 0x33, 0x73, 0x88, 0xbd, 0x90, 0xbd, 0xc0, 0x3b,
  0x0f, 0x73, 0x48, 0x3d, 0x33, 0x0c, 0x93, 0x3d, 0x31, 0x9e, 0xed, 0xbc,
  0x3e, 0x6a, 0xe2, 0x3b, 0x85, 0x56, 0xfb, 0x3d, 0xc5, 0x14, 0x4e, 0xbd,
  0x0b, 0xf7, 0x80, 0xbd, 0xd4, 0x51, 0x0d, 0x3d, 0xe6, 0x58, 0xea, 0xbb,
  0x44, 0xc0, 0xfc, 0xbc, 0x77, 0xd0, 0xc2, 0xbd, 0x29, 0x5b, 0x02, 0x3c,
  0xd3, 0x31, 0x0e, 0xbd, 0x73, 0xbf, 0x42, 0xbd, 0x18, 0xc2, 0xad, 0xbd,
  0x08, 0x90, 0x05, 0x3e, 0xcb, 0x35, 0x07, 0x3e, 0xa2, 0x51, 0xf0, 0x3b,
  0x5c, 0x46, 0x83, 0xbd, 0xed, 0x25, 0x39, 0x3d, 0x14, 0xc3, 0x1f, 0xbd,
  0x19, 0x44, 0x07, 0x3d, 0xe0, 0xc8, 0xdf, 0xbc, 0x45, 0xbc, 0x39, 0x3d,
  0x70, 0x53, 0x47, 0x3d, 0x58, 0xf0, 0xd2, 0x3b, 0xb0, 0x82, 0xe6, 0x3c,
  0x16, 0x61, 0x71, 0xbd, 0x1b, 0x83, 0x9f, 0x3c, 0xc1, 0x2d, 0x34, 0xbd,
  0xea, 0x0a, 0x72, 0xbd, 0x1e, 0x5b, 0xd3, 0xbd, 0x8b, 0xad, 0x46, 0x3c,
  0x5d, 0xd7, 0x5d, 0x3d, 0x63, 0x5d, 0x93, 0x3c, 0x1d, 0x01, 0xfc, 0xbc,
  0xfc, 0x60, 0x8e, 0x3c, 0xe0, 0xdc, 0xda, 0x3d, 0x92, 0x52, 0x58, 0xbc,
  0x58, 0xa7, 0x33, 0xbd, 0xcb, 0x6c, 0x9c, 0xbc, 0x97, 0x48, 0xc9, 0x3d,
  0x51, 0x3b, 0x0b, 0x3c, 0xc6, 0x0d, 0x03, 0xbc, 0x24, 0x06, 0xa1, 0xbd,
  0x49, 0xa2, 0x03, 0x3d, 0x59, 0xf1, 0x72, 0x3d, 0xa1, 0x07, 0x93, 0xbd,
  0xe5, 0x66, 0x50, 0xbc, 0xd1, 0x84, 0x7e, 0xbd, 0x90, 0xf6, 0xaa, 0x3d,
  0x6a, 0xfa, 0xb3, 0xbc, 0xd2, 0xe6, 0xe5, 0xbc, 0x3c, 0x37, 0x70, 0xbc,
  0xe8, 0xe8, 0xa9, 0x3d, 0xfe, 0xc6, 0x23, 0x3e, 0x81, 0x20, 0xe6, 0xbd,
  0x33, 0x53, 0xbe, 0xbc, 0xd9, 0xe7, 0x83, 0x3d, 0x02, 0x1e, 0xa4, 0xbd,
  0xdd, 0x0b, 0x85, 0xbd, 0x7a, 0xb1, 0xfb, 0xbd, 0xc2, 0x01, 0xe6, 0x3d,
  0x68, 0x38, 0xf9, 0x3c, 0x04, 0x61, 0x03, 0xbe, 0xe4, 0x94, 0xe3, 0x3d,
  0x5c, 0x78, 0x48, 0x3d, 0x90, 0xe8, 0x4c, 0x3e, 0x3a, 0x94, 0x90, 0xbd,
  0xa1, 0xb2, 0x1c, 0xbe, 0x5d, 0x60, 0x0b, 0x3e, 0x74, 0x55, 0x77, 0x3c,
  0xde, 0x3f, 0x98, 0xbd, 0xbb, 0xc1, 0x03, 0xbe, 0xfb, 0x60, 0xb3, 0x3c,
  0x9d, 0xec, 0x66, 0x3d, 0x8e, 0x4e, 0x0a, 0xbd, 0xc9, 0xb5, 0x1a, 0x3d,
  0x71, 0xea, 0x3b, 0xbb, 0xee, 0xc8, 0x0e, 0x3e, 0x7a, 0xcf, 0x8e, 0xbc,
  0x30, 0xd5, 0x97, 0xbd, 0x45, 0x94, 0xbd, 0x3d, 0x98, 0xa1, 0xcd, 0xbd,
  0xcf, 0x26, 0xcf, 0xbc, 0x36, 0x93, 0x5f, 0xbc, 0x45, 0x99, 0xa2, 0xbd,
  0x5e, 0x5e, 0xa1, 0x3d, 0x7e, 0xb5, 0x20, 0xbe, 0xb8, 0x1c, 0x1e, 0x3e,
  0xc4, 0x5b, 0xf5, 0x3c, 0xbb, 0x02, 0x18, 0x3e, 0x3e, 0x93, 0x17, 0x3d,
  0xe4, 0xef, 0x26, 0xbd, 0x9d, 0x13, 0x94, 0x3e, 0x08, 0x8b, 0x6f, 0xbe,
  0xf2, 0x4b, 0x91, 0xbd, 0xe5, 0x4a, 0x28, 0xbe, 0xa8, 0x0c, 0x9d, 0x3d,
  0xe3, 0x71, 0xcc, 0xba, 0xdd, 0x4b, 0xf2, 0xbd, 0x61, 0x2a, 0x5e, 0x3d,
  0x38, 0xa5, 0x16, 0x3d, 0xe7, 0x1e, 0x20, 0x3e, 0xde, 0x92, 0xa5, 0xbd,
  0x07, 0x3c, 0x0c, 0x3c, 0xd0, 0x7b, 0x90, 0x3e, 0xb4, 0x4e, 0x2b, 0xbe,
  0x72, 0xad, 0x07, 0xbe, 0x44, 0xd7, 0x1f, 0xbd, 0x4b, 0xe4, 0x1f, 0xbc,
  0x6c, 0x31, 0x8c, 0x3d, 0x1f, 0x2a, 0xd5, 0xbe, 0xb4, 0x2e, 0x95, 0x3e,
  0xd9, 0xc1, 0x14, 0x3e, 0x91, 0xdd, 0xea, 0x3c, 0xb1, 0xc4, 0xd8, 0x3d,
  0x28, 0x19, 0xc2, 0xbd, 0x3c, 0x64, 0x01, 0x3f, 0xd6, 0x83, 0xc7, 0xbe,
  0x1d, 0x9c, 0xbf, 0xbd, 0x20, 0x46, 0x83, 0x3e, 0xe8, 0x95, 0x75, 0xbe,
  0xa7, 0x66, 0xf4, 0xbc, 0x22, 0x21, 0x72, 0xbe, 0x1d, 0x14, 0x77, 0x3e,
  0x16, 0x3b, 0x60, 0x3c, 0x57, 0x94, 0xd9, 0xbe, 0x78, 0xf3, 0xd5, 0x3e,
  0x8f, 0x34, 0x99, 0x3d, 0x38, 0x16, 0xd8, 0x3d, 0x4f, 0x3d, 0x51, 0xbe,
  0x09, 0x1e, 0xb9, 0x3d, 0xb1, 0xae, 0xd1, 0x3e, 0x49, 0xed, 0xba, 0xbe,
  0xea, 0x0f, 0x9d, 0xbd, 0x55, 0x39, 0xc5, 0xbd, 0xf5, 0x85, 0x8d, 0x3d,
  0xcf, 0x0f, 0x6b, 0x3c, 0x12, 0xff, 0xff, 0xff, 0x04, 0x00, 0x00, 0x00,
  0x08, 0x00, 0x00, 0x00, 0xff, 0xff, 0xff, 0xff, 0xf0, 0x00, 0x00, 0x00,
  0x26, 0xff, 0xff, 0xff, 0x04, 0x00, 0x00, 0x00, 0x10, 0x00, 0x00, 0x00,
  0x2a, 0x25, 0x83, 0xbe, 0xee, 0xc4, 0x2f, 0xbf, 0x64, 0x47, 0xa3, 0x3e,
  0xf6, 0x08, 0x7a, 0xbd, 0x42, 0xff, 0xff, 0xff, 0x04, 0x00, 0x00, 0x00,
  0x0c, 0x00, 0x00, 0x00, 0xd6, 0x00, 0x19, 0x3f, 0x5d, 0x04, 0x56, 0x3e,
  0x94, 0x77, 0x1f, 0xbf, 0x5a, 0xff, 0xff, 0xff, 0x04, 0x00, 0x00, 0x00,
  0x10, 0x00, 0x00, 0x00, 0x89, 0x95, 0x48, 0xbe, 0x2a, 0x59, 0x0c, 0xbe,
  0xdc, 0x99, 0xc2, 0x3e, 0x54, 0xb9, 0x00, 0x3d, 0x68, 0xf9, 0xff, 0xff,
  0x6c, 0xf9, 0xff, 0xff, 0x0f, 0x00, 0x00, 0x00, 0x4d, 0x4c, 0x49, 0x52,
  0x20, 0x43, 0x6f, 0x6e, 0x76, 0x65, 0x72, 0x74, 0x65, 0x64, 0x2e, 0x00,
  0x01, 0x00, 0x00, 0x00, 0x14, 0x00, 0x00, 0x00, 0x00, 0x00, 0x0e, 0x00,
  0x18, 0x00, 0x14, 0x00, 0x10, 0x00, 0x0c, 0x00, 0x08, 0x00, 0x04, 0x00,
  0x0e, 0x00, 0x00, 0x00, 0x14, 0x00, 0x00, 0x00, 0x1c, 0x00, 0x00, 0x00,
  0x50, 0x01, 0x00, 0x00, 0x54, 0x01, 0x00, 0x00, 0x58, 0x01, 0x00, 0x00,
  0x04, 0x00, 0x00, 0x00, 0x6d, 0x61, 0x69, 0x6e, 0x00, 0x00, 0x00, 0x00,
  0x05, 0x00, 0x00, 0x00, 0x14, 0x01, 0x00, 0x00, 0xc4, 0x00, 0x00, 0x00,
  0x78, 0x00, 0x00, 0x00, 0x40, 0x00, 0x00, 0x00, 0x04, 0x00, 0x00, 0x00,
  0x5a, 0xff, 0xff, 0xff, 0x1c, 0x00, 0x00, 0x00, 0x00, 0x00, 0x00, 0x09,
  0x1c, 0x00, 0x00, 0x00, 0x20, 0x00, 0x00, 0x00, 0x02, 0x00, 0x00, 0x00,
  0x00, 0x00, 0x06, 0x00, 0x08, 0x00, 0x04, 0x00, 0x06, 0x00, 0x00, 0x00,
  0x00, 0x00, 0x80, 0x3f, 0x01, 0x00, 0x00, 0x00, 0x0c, 0x00, 0x00, 0x00,
  0x01, 0x00, 0x00, 0x00, 0x0b, 0x00, 0x00, 0x00, 0x92, 0xff, 0xff, 0xff,
  0x14, 0x00, 0x00, 0x00, 0x00, 0x00, 0x00, 0x08, 0x10, 0x00, 0x00, 0x00,
  0x14, 0x00, 0x00, 0x00, 0x01, 0x00, 0x00, 0x00, 0x28, 0xfa, 0xff, 0xff,
  0x01, 0x00, 0x00, 0x00, 0x0b, 0x00, 0x00, 0x00, 0x03, 0x00, 0x00, 0x00,
  0x0a, 0x00, 0x00, 0x00, 0x07, 0x00, 0x00, 0x00, 0x02, 0x00, 0x00, 0x00,
  0xc6, 0xff, 0xff, 0xff, 0x14, 0x00, 0x00, 0x00, 0x00, 0x00, 0x00, 0x08,
  0x14, 0x00, 0x00, 0x00, 0x18, 0x00, 0x00, 0x00, 0x01, 0x00, 0x00, 0x00,
  0xb6, 0xff, 0xff, 0xff, 0x00, 0x00, 0x00, 0x01, 0x01, 0x00, 0x00, 0x00,
  0x0a, 0x00, 0x00, 0x00, 0x03, 0x00, 0x00, 0x00, 0x09, 0x00, 0x00, 0x00,
  0x06, 0x00, 0x00, 0x00, 0x03, 0x00, 0x00, 0x00, 0x00, 0x00, 0x0e, 0x00,
  0x1a, 0x00, 0x14, 0x00, 0x10, 0x00, 0x0c, 0x00, 0x0b, 0x00, 0x04, 0x00,
  0x0e, 0x00, 0x00, 0x00, 0x1c, 0x00, 0x00, 0x00, 0x00, 0x00, 0x00, 0x08,
  0x1c, 0x00, 0x00, 0x00, 0x20, 0x00, 0x00, 0x00, 0x01, 0x00, 0x00, 0x00,
  0x00, 0x00, 0x06, 0x00, 0x08, 0x00, 0x07, 0x00, 0x06, 0x00, 0x00, 0x00,
  0x00, 0x00, 0x00, 0x01, 0x01, 0x00, 0x00, 0x00, 0x09, 0x00, 0x00, 0x00,
  0x03, 0x00, 0x00, 0x00, 0x08, 0x00, 0x00, 0x00, 0x05, 0x00, 0x00, 0x00,
  0x01, 0x00, 0x00, 0x00, 0x00, 0x00, 0x0a, 0x00, 0x0c, 0x00, 0x00, 0x00,
  0x08, 0x00, 0x04, 0x00, 0x0a, 0x00, 0x00, 0x00, 0x08, 0x00, 0x00, 0x00,
  0x0c, 0x00, 0x00, 0x00, 0x01, 0x00, 0x00, 0x00, 0x08, 0x00, 0x00, 0x00,
  0x02, 0x00, 0x00, 0x00, 0x00, 0x00, 0x00, 0x00, 0x04, 0x00, 0x00, 0x00,
  0x01, 0x00, 0x00, 0x00, 0x0c, 0x00, 0x00, 0x00, 0x01, 0x00, 0x00, 0x00,
  0x00, 0x00, 0x00, 0x00, 0x0d, 0x00, 0x00, 0x00, 0xc4, 0x04, 0x00, 0x00,
  0x58, 0x04, 0x00, 0x00, 0xe8, 0x03, 0x00, 0x00, 0x90, 0x03, 0x00, 0x00,
  0x44, 0x03, 0x00, 0x00, 0xe4, 0x02, 0x00, 0x00, 0x98, 0x02, 0x00, 0x00,
  0x4c, 0x02, 0x00, 0x00, 0xf0, 0x01, 0x00, 0x00, 0x68, 0x01, 0x00, 0x00,
  0xd8, 0x00, 0x00, 0x00, 0x60, 0x00, 0x00, 0x00, 0x04, 0x00, 0x00, 0x00,
  0x86, 0xfb, 0xff, 0xff, 0x00, 0x00, 0x00, 0x01, 0x14, 0x00, 0x00, 0x00,
  0x1c, 0x00, 0x00, 0x00, 0x1c, 0x00, 0x00, 0x00, 0x0d, 0x00, 0x00, 0x00,
  0x34, 0x00, 0x00, 0x00, 0x02, 0x00, 0x00, 0x00, 0xff, 0xff, 0xff, 0xff,
  0x03, 0x00, 0x00, 0x00, 0x68, 0xfb, 0xff, 0xff, 0x19, 0x00, 0x00, 0x00,
  0x53, 0x74, 0x61, 0x74, 0x65, 0x66, 0x75, 0x6c, 0x50, 0x61, 0x72, 0x74,
  0x69, 0x74, 0x69, 0x6f, 0x6e, 0x65, 0x64, 0x43, 0x61, 0x6c, 0x6c, 0x3a,
  0x30, 0x00, 0x00, 0x00, 0x02, 0x00, 0x00, 0x00, 0x01, 0x00, 0x00, 0x00,
  0x03, 0x00, 0x00, 0x00, 0xde, 0xfb, 0xff, 0xff, 0x00, 0x00, 0x00, 0x01,
  0x14, 0x00, 0x00, 0x00, 0x1c, 0x00, 0x00, 0x00, 0x1c, 0x00, 0x00, 0x00,
  0x0c, 0x00, 0x00, 0x00, 0x50, 0x00, 0x00, 0x00, 0x02, 0x00, 0x00, 0x00,
  0xff, 0xff, 0xff, 0xff, 0x03, 0x00, 0x00, 0x00, 0xc0, 0xfb, 0xff, 0xff,
  0x34, 0x00, 0x00, 0x00, 0x73, 0x65, 0x71, 0x75, 0x65, 0x6e, 0x74, 0x69,
  0x61, 0x6c, 0x2f, 0x64, 0x65, 0x6e, 0x73, 0x65, 0x5f, 0x32, 0x2f, 0x4d,
  0x61, 0x74, 0x4d, 0x75, 0x6c, 0x3b, 0x73, 0x65, 0x71, 0x75, 0x65, 0x6e,
  0x74, 0x69, 0x61, 0x6c, 0x2f, 0x64, 0x65, 0x6e, 0x73, 0x65, 0x5f, 0x32,
  0x2f, 0x42, 0x69, 0x61, 0x73, 0x41, 0x64, 0x64, 0x00, 0x00, 0x00, 0x00,
  0x02, 0x00, 0x00, 0x00, 0x01, 0x00, 0x00, 0x00, 0x03, 0x00, 0x00, 0x00,
  0x52, 0xfc, 0xff, 0xff, 0x00, 0x00, 0x00, 0x01, 0x14, 0x00, 0x00, 0x00,
  0x1c, 0x00, 0x00, 0x00, 0x1c, 0x00, 0x00, 0x00, 0x0b, 0x00, 0x00, 0x00,
  0x68, 0x00, 0x00, 0x00, 0x02, 0x00, 0x00, 0x00, 0xff, 0xff, 0xff, 0xff,
  0x04, 0x00, 0x00, 0x00, 0x34, 0xfc, 0xff, 0xff, 0x4c, 0x00, 0x00, 0x00,
  0x73, 0x65, 0x71, 0x75, 0x65, 0x6e, 0x74, 0x69, 0x61, 0x6c, 0x2f, 0x64,
  0x65, 0x6e, 0x73, 0x65, 0x5f, 0x31, 0x2f, 0x4d, 0x61, 0x74, 0x4d, 0x75,
  0x6c, 0x3b, 0x73, 0x65, 0x71, 0x75, 0x65, 0x6e, 0x74, 0x69, 0x61, 0x6c,
  0x2f, 0x64, 0x65, 0x6e, 0x73, 0x65, 0x5f, 0x31, 0x2f, 0x52, 0x65, 0x6c,
  0x75, 0x3b, 0x73, 0x65, 0x71, 0x75, 0x65, 0x6e, 0x74, 0x69, 0x61, 0x6c,
  0x2f, 0x64, 0x65, 0x6e, 0x73, 0x65, 0x5f, 0x31, 0x2f, 0x42, 0x69, 0x61,
  0x73, 0x41, 0x64, 0x64, 0x00, 0x00, 0x00, 0x00, 0x02, 0x00, 0x00, 0x00,
  0x01, 0x00, 0x00, 0x00, 0x04, 0x00, 0x00, 0x00, 0xde, 0xfc, 0xff, 0xff,
  0x00, 0x00, 0x00, 0x01, 0x14, 0x00, 0x00, 0x00, 0x1c, 0x00, 0x00, 0x00,
  0x1c, 0x00, 0x00, 0x00, 0x0a, 0x00, 0x00, 0x00, 0x60, 0x00, 0x00, 0x00,
  0x02, 0x00, 0x00, 0x00, 0xff, 0xff, 0xff, 0xff, 0x04, 0x00, 0x00, 0x00,
  0xc0, 0xfc, 0xff, 0xff, 0x46, 0x00, 0x00, 0x00, 0x73, 0x65, 0x71, 0x75,
  0x65, 0x6e, 0x74, 0x69, 0x61, 0x6c, 0x2f, 0x64, 0x65, 0x6e, 0x73, 0x65,
  0x2f, 0x4d, 0x61, 0x74, 0x4d, 0x75, 0x6c, 0x3b, 0x73, 0x65, 0x71, 0x75,
  0x65, 0x6e, 0x74, 0x69, 0x61, 0x6c, 0x2f, 0x64, 0x65, 0x6e, 0x73, 0x65,
  0x2f, 0x52, 0x65, 0x6c, 0x75, 0x3b, 0x73, 0x65, 0x71, 0x75, 0x65, 0x6e,
  0x74, 0x69, 0x61, 0x6c, 0x2f, 0x64, 0x65, 0x6e, 0x73, 0x65, 0x2f, 0x42,
  0x69, 0x61, 0x73, 0x41, 0x64, 0x64, 0x00, 0x00, 0x02, 0x00, 0x00, 0x00,
  0x01, 0x00, 0x00, 0x00, 0x04, 0x00, 0x00, 0x00, 0x62, 0xfd, 0xff, 0xff,
  0x00, 0x00, 0x00, 0x01, 0x14, 0x00, 0x00, 0x00, 0x1c, 0x00, 0x00, 0x00,
  0x1c, 0x00, 0x00, 0x00, 0x09, 0x00, 0x00, 0x00, 0x34, 0x00, 0x00, 0x00,
  0x02, 0x00, 0x00, 0x00, 0xff, 0xff, 0xff, 0xff, 0xf0, 0x00, 0x00, 0x00,
  0x44, 0xfd, 0xff, 0xff, 0x1a, 0x00, 0x00, 0x00, 0x73, 0x65, 0x71, 0x75,
  0x65, 0x6e, 0x74, 0x69, 0x61, 0x6c, 0x2f, 0x66, 0x6c, 0x61, 0x74, 0x74,
  0x65, 0x6e, 0x2f, 0x52, 0x65, 0x73, 0x68, 0x61, 0x70, 0x65, 0x00, 0x00,
  0x02, 0x00, 0x00, 0x00, 0x01, 0x00, 0x00, 0x00, 0xf0, 0x00, 0x00, 0x00,
  0x22, 0xfe, 0xff, 0xff, 0x00, 0x00, 0x00, 0x01, 0x10, 0x00, 0x00, 0x00,
  0x10, 0x00, 0x00, 0x00, 0x08, 0x00, 0x00, 0x00, 0x28, 0x00, 0x00, 0x00,
  0x8c, 0xfd, 0xff, 0xff, 0x19, 0x00, 0x00, 0x00, 0x73, 0x65, 0x71, 0x75,
  0x65, 0x6e, 0x74, 0x69, 0x61, 0x6c, 0x2f, 0x64, 0x65, 0x6e, 0x73, 0x65,
  0x5f, 0x32, 0x2f, 0x4d, 0x61, 0x74, 0x4d, 0x75, 0x6c, 0x00, 0x00, 0x00,
  0x02, 0x00, 0x00, 0x00, 0x03, 0x00, 0x00, 0x00, 0x04, 0x00, 0x00, 0x00,
  0x6a, 0xfe, 0xff, 0xff, 0x00, 0x00, 0x00, 0x01, 0x10, 0x00, 0x00, 0x00,
  0x10, 0x00, 0x00, 0x00, 0x07, 0x00, 0x00, 0x00, 0x28, 0x00, 0x00, 0x00,
  0xd4, 0xfd, 0xff, 0xff, 0x19, 0x00, 0x00, 0x00, 0x73, 0x65, 0x71, 0x75,
  0x65, 0x6e, 0x74, 0x69, 0x61, 0x6c, 0x2f, 0x64, 0x65, 0x6e, 0x73, 0x65,
  0x5f, 0x31, 0x2f, 0x4d, 0x61, 0x74, 0x4d, 0x75, 0x6c, 0x00, 0x00, 0x00,
  0x02, 0x00, 0x00, 0x00, 0x04, 0x00, 0x00, 0x00, 0x04, 0x00, 0x00, 0x00,
  0xb2, 0xfe, 0xff, 0xff, 0x00, 0x00, 0x00, 0x01, 0x10, 0x00, 0x00, 0x00,
  0x10, 0x00, 0x00, 0x00, 0x06, 0x00, 0x00, 0x00, 0x24, 0x00, 0x00, 0x00,
  0x1c, 0xfe, 0xff, 0xff, 0x17, 0x00, 0x00, 0x00, 0x73, 0x65, 0x71, 0x75,
  0x65, 0x6e, 0x74, 0x69, 0x61, 0x6c, 0x2f, 0x64, 0x65, 0x6e, 0x73, 0x65,
  0x2f, 0x4d, 0x61, 0x74, 0x4d, 0x75, 0x6c, 0x00, 0x02, 0x00, 0x00, 0x00,
  0x04, 0x00, 0x00, 0x00, 0xf0, 0x00, 0x00, 0x00, 0x00, 0x00, 0x16, 0x00,
  0x1c, 0x00, 0x18, 0x00, 0x17, 0x00, 0x10, 0x00, 0x0c, 0x00, 0x08, 0x00,
  0x00, 0x00, 0x00, 0x00, 0x00, 0x00, 0x07, 0x00, 0x16, 0x00, 0x00, 0x00,
  0x00, 0x00, 0x00, 0x01, 0x14, 0x00, 0x00, 0x00, 0x14, 0x00, 0x00, 0x00,
  0x05, 0x00, 0x00, 0x00, 0x00, 0x00, 0x00, 0x02, 0x28, 0x00, 0x00, 0x00,
  0x7c, 0xfe, 0xff, 0xff, 0x18, 0x00, 0x00, 0x00, 0x73, 0x65, 0x71, 0x75,
  0x65, 0x6e, 0x74, 0x69, 0x61, 0x6c, 0x2f, 0x66, 0x6c, 0x61, 0x74, 0x74,
  0x65, 0x6e, 0x2f, 0x43, 0x6f, 0x6e, 0x73, 0x74, 0x00, 0x00, 0x00, 0x00,
  0x01, 0x00, 0x00, 0x00, 0x02, 0x00, 0x00, 0x00, 0x56, 0xff, 0xff, 0xff,
  0x00, 0x00, 0x00, 0x01, 0x10, 0x00, 0x00, 0x00, 0x10, 0x00, 0x00, 0x00,
  0x04, 0x00, 0x00, 0x00, 0x38, 0x00, 0x00, 0x00, 0xc0, 0xfe, 0xff, 0xff,
  0x29, 0x00, 0x00, 0x00, 0x73, 0x65, 0x71, 0x75, 0x65, 0x6e, 0x74, 0x69,
  0x61, 0x6c, 0x2f, 0x64, 0x65, 0x6e, 0x73, 0x65, 0x5f, 0x31, 0x2f, 0x42,
  0x69, 0x61, 0x73, 0x41, 0x64, 0x64, 0x2f, 0x52, 0x65, 0x61, 0x64, 0x56,
  0x61, 0x72, 0x69, 0x61, 0x62, 0x6c, 0x65, 0x4f, 0x70, 0x00, 0x00, 0x00,
  0x01, 0x00, 0x00, 0x00, 0x04, 0x00, 0x00, 0x00, 0xaa, 0xff, 0xff, 0xff,
  0x00, 0x00, 0x00, 0x01, 0x10, 0x00, 0x00, 0x00, 0x10, 0x00, 0x00, 0x00,
  0x03, 0x00, 0x00, 0x00, 0x38, 0x00, 0x00, 0x00, 0x14, 0xff, 0xff, 0xff,
  0x29, 0x00, 0x00, 0x00, 0x73, 0x65, 0x71, 0x75, 0x65, 0x6e, 0x74, 0x69,
  0x61, 0x6c, 0x2f, 0x64, 0x65, 0x6e, 0x73, 0x65, 0x5f, 0x32, 0x2f, 0x42,
  0x69, 0x61, 0x73, 0x41, 0x64, 0x64, 0x2f, 0x52, 0x65, 0x61, 0x64, 0x56,
  0x61, 0x72, 0x69, 0x61, 0x62, 0x6c, 0x65, 0x4f, 0x70, 0x00, 0x00, 0x00,
  0x01, 0x00, 0x00, 0x00, 0x03, 0x00, 0x00, 0x00, 0x00, 0x00, 0x16, 0x00,
  0x18, 0x00, 0x14, 0x00, 0x00, 0x00, 0x10, 0x00, 0x0c, 0x00, 0x08, 0x00,
  0x00, 0x00, 0x00, 0x00, 0x00, 0x00, 0x07, 0x00, 0x16, 0x00, 0x00, 0x00,
  0x00, 0x00, 0x00, 0x01, 0x10, 0x00, 0x00, 0x00, 0x10, 0x00, 0x00, 0x00,
  0x02, 0x00, 0x00, 0x00, 0x34, 0x00, 0x00, 0x00, 0x80, 0xff, 0xff, 0xff,
  0x27, 0x00, 0x00, 0x00, 0x73, 0x65, 0x71, 0x75, 0x65, 0x6e, 0x74, 0x69,
  0x61, 0x6c, 0x2f, 0x64, 0x65, 0x6e, 0x73, 0x65, 0x2f, 0x42, 0x69, 0x61,
  0x73, 0x41, 0x64, 0x64, 0x2f, 0x52, 0x65, 0x61, 0x64, 0x56, 0x61, 0x72,
  0x69, 0x61, 0x62, 0x6c, 0x65, 0x4f, 0x70, 0x00, 0x01, 0x00, 0x00, 0x00,
  0x04, 0x00, 0x00, 0x00, 0x00, 0x00, 0x16, 0x00, 0x1c, 0x00, 0x18, 0x00,
  0x00, 0x00, 0x14, 0x00, 0x10, 0x00, 0x0c, 0x00, 0x00, 0x00, 0x00, 0x00,
  0x08, 0x00, 0x07, 0x00, 0x16, 0x00, 0x00, 0x00, 0x00, 0x00, 0x00, 0x01,
  0x14, 0x00, 0x00, 0x00, 0x28, 0x00, 0x00, 0x00, 0x28, 0x00, 0x00, 0x00,
  0x01, 0x00, 0x00, 0x00, 0x40, 0x00, 0x00, 0x00, 0x04, 0x00, 0x00, 0x00,
  0xff, 0xff, 0xff, 0xff, 0x50, 0x00, 0x00, 0x00, 0x03, 0x00, 0x00, 0x00,
  0x01, 0x00, 0x00, 0x00, 0x04, 0x00, 0x04, 0x00, 0x04, 0x00, 0x00, 0x00,
  0x19, 0x00, 0x00, 0x00, 0x73, 0x65, 0x72, 0x76, 0x69, 0x6e, 0x67, 0x5f,
  0x64, 0x65, 0x66, 0x61, 0x75, 0x6c, 0x74, 0x5f, 0x69, 0x6e, 0x70, 0x75,
  0x74, 0x5f, 0x31, 0x3a, 0x30, 0x00, 0x00, 0x00, 0x04, 0x00, 0x00, 0x00,
  0x01, 0x00, 0x00, 0x00, 0x50, 0x00, 0x00, 0x00, 0x03, 0x00, 0x00, 0x00,
  0x01, 0x00, 0x00, 0x00, 0x03, 0x00, 0x00, 0x00, 0x30, 0x00, 0x00, 0x00,
  0x14, 0x00, 0x00, 0x00, 0x04, 0x00, 0x00, 0x00, 0xe8, 0xff, 0xff, 0xff,
  0x19, 0x00, 0x00, 0x00, 0x00, 0x00, 0x00, 0x19, 0xf4, 0xff, 0xff, 0xff,
  0x09, 0x00, 0x00, 0x00, 0x00, 0x00, 0x00, 0x09, 0x0c, 0x00, 0x0c, 0x00,
  0x0b, 0x00, 0x00, 0x00, 0x00, 0x00, 0x04, 0x00, 0x0c, 0x00, 0x00, 0x00,
  0x16, 0x00, 0x00, 0x00, 0x00, 0x00, 0x00, 0x16
};
