const unsigned char model[] __attribute__((aligned(4))) = {
  0x1c, 0x00, 0x00, 0x00, 0x54, 0x46, 0x4c, 0x33, 0x14, 0x00, 0x20, 0x00,
  0x1c, 0x00, 0x18, 0x00, 0x14, 0x00, 0x10, 0x00, 0x0c, 0x00, 0x00, 0x00,
  0x08, 0x00, 0x04, 0x00, 0x14, 0x00, 0x00, 0x00, 0x1c, 0x00, 0x00, 0x00,
  0x8c, 0x00, 0x00, 0x00, 0xe4, 0x00, 0x00, 0x00, 0xc4, 0x21, 0x00, 0x00,
  0xd4, 0x21, 0x00, 0x00, 0xac, 0x28, 0x00, 0x00, 0x03, 0x00, 0x00, 0x00,
  0x01, 0x00, 0x00, 0x00, 0x10, 0x00, 0x00, 0x00, 0x00, 0x00, 0x0a, 0x00,
  0x10, 0x00, 0x0c, 0x00, 0x08, 0x00, 0x04, 0x00, 0x0a, 0x00, 0x00, 0x00,
  0x0c, 0x00, 0x00, 0x00, 0x1c, 0x00, 0x00, 0x00, 0x38, 0x00, 0x00, 0x00,
  0x0f, 0x00, 0x00, 0x00, 0x73, 0x65, 0x72, 0x76, 0x69, 0x6e, 0x67, 0x5f,
  0x64, 0x65, 0x66, 0x61, 0x75, 0x6c, 0x74, 0x00, 0x01, 0x00, 0x00, 0x00,
  0x04, 0x00, 0x00, 0x00, 0x9c, 0xff, 0xff, 0xff, 0x0c, 0x00, 0x00, 0x00,
  0x04, 0x00, 0x00, 0x00, 0x07, 0x00, 0x00, 0x00, 0x64, 0x65, 0x6e, 0x73,
  0x65, 0x5f, 0x35, 0x00, 0x01, 0x00, 0x00, 0x00, 0x04, 0x00, 0x00, 0x00,
  0x2a, 0xde, 0xff, 0xff, 0x04, 0x00, 0x00, 0x00, 0x07, 0x00, 0x00, 0x00,
  0x69, 0x6e, 0x70, 0x75, 0x74, 0x5f, 0x32, 0x00, 0x02, 0x00, 0x00, 0x00,
  0x34, 0x00, 0x00, 0x00, 0x04, 0x00, 0x00, 0x00, 0xdc, 0xff, 0xff, 0xff,
  0x0f, 0x00, 0x00, 0x00, 0x04, 0x00, 0x00, 0x00, 0x13, 0x00, 0x00, 0x00,
  0x43, 0x4f, 0x4e, 0x56, 0x45, 0x52, 0x53, 0x49, 0x4f, 0x4e, 0x5f, 0x4d,
  0x45, 0x54, 0x41, 0x44, 0x41, 0x54, 0x41, 0x00, 0x08, 0x00, 0x0c, 0x00,
  0x08, 0x00, 0x04, 0x00, 0x08, 0x00, 0x00, 0x00, 0x0e, 0x00, 0x00, 0x00,
  0x04, 0x00, 0x00, 0x00, 0x13, 0x00, 0x00, 0x00, 0x6d, 0x69, 0x6e, 0x5f,
  0x72, 0x75, 0x6e, 0x74, 0x69, 0x6d, 0x65, 0x5f, 0x76, 0x65, 0x72, 0x73,
  0x69, 0x6f, 0x6e, 0x00, 0x10, 0x00, 0x00, 0x00, 0xdc, 0x20, 0x00, 0x00,
  0xd4, 0x20, 0x00, 0x00, 0xb8, 0x20, 0x00, 0x00, 0x88, 0x20, 0x00, 0x00,
  0x58, 0x20, 0x00, 0x00, 0x40, 0x20, 0x00, 0x00, 0x30, 0x02, 0x00, 0x00,
  0x20, 0x01, 0x00, 0x00, 0xb0, 0x00, 0x00, 0x00, 0xa8, 0x00, 0x00, 0x00,
  0xa0, 0x00, 0x00, 0x00, 0x98, 0x00, 0x00, 0x00, 0x90, 0x00, 0x00, 0x00,
  0x88, 0x00, 0x00, 0x00, 0x68, 0x00, 0x00, 0x00, 0x04, 0x00, 0x00, 0x00,
  0xde, 0xde, 0xff, 0xff, 0x04, 0x00, 0x00, 0x00, 0x54, 0x00, 0x00, 0x00,
  0x0c, 0x00, 0x00, 0x00, 0x08, 0x00, 0x0e, 0x00, 0x08, 0x00, 0x04, 0x00,
  0x08, 0x00, 0x00, 0x00, 0x10, 0x00, 0x00, 0x00, 0x24, 0x00, 0x00, 0x00,
  0x00, 0x00, 0x06, 0x00, 0x08, 0x00, 0x04, 0x00, 0x06, 0x00, 0x00, 0x00,
  0x04, 0x00, 0x00, 0x00, 0x00, 0x00, 0x00, 0x00, 0x00, 0x00, 0x0a, 0x00,
  0x10, 0x00, 0x0c, 0x00, 0x08, 0x00, 0x04, 0x00, 0x0a, 0x00, 0x00, 0x00,
  0x02, 0x00, 0x00, 0x00, 0x02, 0x00, 0x00, 0x00, 0x04, 0x00, 0x00, 0x00,
  0x06, 0x00, 0x00, 0x00, 0x32, 0x2e, 0x31, 0x30, 0x2e, 0x30, 0x00, 0x00,
  0x3e, 0xdf, 0xff, 0xff, 0x04, 0x00, 0x00, 0x00, 0x10, 0x00, 0x00, 0x00,
  0x31, 0x2e, 0x35, 0x2e, 0x30, 0x00, 0x00, 0x00, 0x00, 0x00, 0x00, 0x00,
  0x00, 0x00, 0x00, 0x00, 0x28, 0xd9, 0xff, 0xff, 0x2c, 0xd9, 0xff, 0xff,
  0x30, 0xd9, 0xff, 0xff, 0x34, 0xd9, 0xff, 0xff, 0x38, 0xd9, 0xff, 0xff,
  0x6e, 0xdf, 0xff, 0xff, 0x04, 0x00, 0x00, 0x00, 0x60, 0x00, 0x00, 0x00,
  0xbe, 0x46, 0x5d, 0xbf, 0x8d, 0xff, 0x8a, 0xbf, 0x5c, 0xcd, 0x83, 0xbf,
  0xa6, 0x19, 0x76, 0x3e, 0xfb, 0x61, 0xb2, 0xbf, 0x08, 0x59, 0x96, 0x3e,
  0xb8, 0xe8, 0x04, 0xbf, 0xbb, 0x0e, 0xcb, 0xbf, 0xc2, 0x93, 0x1c, 0x3f,
  0x85, 0x6e, 0x24, 0xbf, 0x73, 0x8b, 0x76, 0xbd, 0xfa, 0x21, 0x89, 0xbf,
  0xe5, 0x36, 0xea, 0xbe, 0x9a, 0x9b, 0x2e, 0xbf, 0xe1, 0x3a, 0x1a, 0x3f,
  0x73, 0x60, 0x0d, 0xbe, 0x0a, 0x15, 0x8d, 0x3f, 0x9b, 0x89, 0x16, 0x3f,
  0xbe, 0x82, 0x87, 0x3f, 0xf2, 0xee, 0xf5, 0x3d, 0xb7, 0x17, 0x19, 0x3f,
  0xe1, 0xe5, 0x44, 0x3f, 0x69, 0x28, 0x9c, 0x3f, 0x9e, 0x2c, 0xcf, 0x3e,
  0xda, 0xdf, 0xff, 0xff, 0x04, 0x00, 0x00, 0x00, 0x00, 0x01, 0x00, 0x00,
  0x65, 0x0a, 0x04, 0x3f, 0xb5, 0xe5, 0x83, 0x3f, 0xb5, 0xb4, 0xcc, 0x3e,
  0x3e, 0xdb, 0x3b, 0x3f, 0x25, 0x04, 0x60, 0x3f, 0x52, 0xa4, 0x5a, 0x3f,
  0x14, 0x1b, 0x53, 0x3f, 0x9e, 0xbb, 0x3e, 0x3f, 0xf2, 0x94, 0x25, 0x3f,
  0x67, 0xeb, 0x58, 0x3f, 0xdd, 0xae, 0x35, 0x3f, 0x01, 0x82, 0xb3, 0x3e,
  0x76, 0x21, 0x3e, 0x3f, 0x25, 0x6e, 0xeb, 0x3e, 0x09, 0x92, 0xc6, 0x3e,
  0x4e, 0x76, 0x25, 0x3f, 0x9a, 0xdd, 0xd3, 0xb9, 0x84, 0x63, 0x4c, 0x3e,
  0xb6, 0x6b, 0x0e, 0x3f, 0x8d, 0x2b, 0xf4, 0x3e, 0xb2, 0xaa, 0x1c, 0x3f,
  0x4d, 0xe4, 0x0f, 0x3f, 0xfb, 0xd8, 0x05, 0x3f, 0x19, 0x7a, 0x53, 0x3f,
  0x79, 0x2f, 0x21, 0x3f, 0x91, 0xcf, 0x09, 0xbf, 0x2b, 0xb2, 0x13, 0xbe,
  0x23, 0x4b, 0x1a, 0xbf, 0x23, 0xd5, 0x3a, 0xbe, 0xad, 0x07, 0xac, 0xbe,
  0x7a, 0xf0, 0x8f, 0xbe, 0x30, 0x43, 0xa8, 0xbe, 0x94, 0xee, 0x05, 0x3f,
  0xbc, 0x27, 0x08, 0x3f, 0xc2, 0x76, 0x2b, 0x3f, 0x4f, 0x3c, 0x09, 0x3f,
  0xd6, 0x81, 0x03, 0x3f, 0x35, 0xb4, 0xc7, 0x3e, 0xb5, 0xd8, 0xee, 0x3e,
  0x20, 0x4a, 0x52, 0x3f, 0xb6, 0xd0, 0x86, 0x3e, 0x5f, 0xaa, 0xa5, 0x3e,
  0x2c, 0x22, 0x89, 0x3f, 0xaa, 0xff, 0x0e, 0x3f, 0xec, 0xea, 0xca, 0x3e,
  0x7c, 0xd5, 0xbc, 0xbe, 0x5d, 0x00, 0xef, 0xbe, 0x99, 0x76, 0x0d, 0x3f,
  0x02, 0x0e, 0x94, 0x3f, 0xba, 0xb3, 0xf5, 0x3e, 0x7d, 0x91, 0x31, 0x3f,
  0x4b, 0xab, 0x1f, 0x3f, 0x9e, 0x9d, 0x14, 0x3f, 0xf7, 0xf9, 0x69, 0x3f,
  0xef, 0x4d, 0x49, 0x3f, 0x90, 0x60, 0xcd, 0x3e, 0x80, 0xd9, 0x77, 0x3f,
  0xf2, 0x13, 0x3f, 0x3f, 0xbd, 0x64, 0x99, 0x3e, 0x29, 0x84, 0x38, 0x3f,
  0x2c, 0x87, 0x71, 0x3f, 0xce, 0x8c, 0x67, 0x3f, 0x07, 0x94, 0x1a, 0x3f,
  0x0d, 0xa1, 0x39, 0x3f, 0xe6, 0xe0, 0xff, 0xff, 0x04, 0x00, 0x00, 0x00,
  0x00, 0x1e, 0x00, 0x00, 0xf6, 0x34, 0x03, 0xbf, 0x35, 0x97, 0x50, 0xbe,
  0xa8, 0x3b, 0x99, 0xbe, 0x4d, 0xa9, 0x28, 0xbf, 0x8b, 0xab, 0x03, 0x3e,
  0x9a, 0xbd, 0x34, 0xbe, 0x19, 0x1c, 0x2e, 0x3e, 0x15, 0x4d, 0xb0, 0x3e,
  0xf1, 0x5e, 0x63, 0x3e, 0x43, 0xf6, 0x18, 0xbf, 0xbf, 0xf7, 0x93, 0xbe,
  0xae, 0x95, 0xb2, 0xbe, 0x51, 0x1c, 0x6e, 0xbe, 0x21, 0x11, 0x95, 0xbe,
  0x93, 0xb0, 0xf9, 0x3d, 0xbd, 0xb5, 0x2b, 0xbf, 0xcc, 0xea, 0x11, 0xbf,
  0xe4, 0x30, 0x47, 0xbe, 0xbd, 0x07, 0x0d, 0xbe, 0xee, 0x31, 0x0e, 0x3f,
  0xf1, 0xaa, 0x30, 0x3e, 0xce, 0x04, 0x83, 0x3e, 0x66, 0xc2, 0x9e, 0xbe,
  0x8c, 0xe9, 0x0a, 0xbd, 0xa8, 0xec, 0xce, 0x3e, 0xde, 0x65, 0x25, 0xbd,
  0x98, 0x0d, 0xc1, 0x3e, 0x82, 0xcb, 0x59, 0x3f, 0x67, 0xc7, 0x31, 0x3f,
  0x06, 0x47, 0xd7, 0x3e, 0x4d, 0xbf, 0xfa, 0x3e, 0x87, 0xf9, 0x40, 0x3e,
  0x9e, 0x53, 0xeb, 0x3d, 0x3b, 0xba, 0xc2, 0x3e, 0xf0, 0x94, 0x3a, 0x3e,
  0x16, 0xe2, 0x96, 0x3c, 0xa7, 0x51, 0xfe, 0x3d, 0x16, 0xce, 0x5b, 0xbe,
  0x68, 0xcc, 0x24, 0xbe, 0x43, 0xfb, 0x46, 0x3e, 0x75, 0x84, 0x2a, 0xbe,
  0x50, 0x81, 0xd9, 0xbd, 0xa2, 0xfe, 0x6f, 0x3c, 0xc0, 0xdb, 0xcc, 0xbe,
  0xa1, 0xfc, 0x0a, 0xbe, 0xd3, 0x51, 0x9d, 0xbd, 0xe9, 0x62, 0x71, 0xbe,
  0x19, 0x28, 0x9a, 0xbe, 0xdb, 0x15, 0x15, 0xbe, 0x3d, 0xc6, 0xc8, 0xbe,
  0xd0, 0x15, 0x12, 0xbe, 0x00, 0xbc, 0x8a, 0xbd, 0xb3, 0x42, 0x74, 0xbe,
  0xa6, 0xf2, 0x77, 0xbe, 0x60, 0x07, 0x6c, 0xbe, 0xb3, 0xff, 0x1f, 0xbe,
  0x18, 0x69, 0xfb, 0xbd, 0x40, 0xac, 0x3e, 0xbd, 0x78, 0x85, 0x32, 0xbe,
  0x0c, 0x3d, 0x9b, 0xbd, 0xba, 0x84, 0x73, 0xbe, 0x1a, 0x94, 0x8a, 0x3b,
  0x10, 0xeb, 0xeb, 0xbc, 0xe6, 0x27, 0x83, 0xbc, 0x7e, 0x9d, 0x2b, 0xbd,
  0xf5, 0x67, 0x00, 0x3d, 0xbc, 0x03, 0x32, 0xbe, 0xe1, 0xa6, 0xcd, 0xbd,
  0xe4, 0xe9, 0x06, 0x3d, 0xa8, 0xf1, 0x4f, 0x3d, 0x44, 0xa5, 0xcf, 0x3d,
  0x42, 0x83, 0x74, 0x3d, 0xf5, 0x46, 0x26, 0xbd, 0x49, 0x30, 0x89, 0x3b,
  0xa4, 0x60, 0xad, 0x3d, 0x28, 0x07, 0x85, 0x3d, 0x54, 0xfe, 0x34, 0x3e,
  0x93, 0xf8, 0x36, 0x3e, 0x0f, 0xa6, 0x55, 0xbd, 0x62, 0x66, 0xb4, 0x3c,
  0xb4, 0xb4, 0xb6, 0x3d, 0x84, 0xf6, 0xaf, 0xbc, 0xab, 0x78, 0x81, 0x3d,
  0x41, 0xdf, 0x0c, 0x3e, 0xe0, 0x20, 0x2f, 0x3d, 0xfd, 0xa8, 0x04, 0x3e,
  0x66, 0xbb, 0xef, 0x3d, 0x1d, 0xbd, 0x0e, 0x3c, 0x60, 0x69, 0x04, 0x3e,
  0xd5, 0x56, 0xdf, 0x3d, 0xa1, 0x0f, 0x4f, 0x3e, 0x64, 0x15, 0x18, 0x3e,
  0x04, 0xf0, 0xde, 0x3d, 0x6c, 0x7d, 0x52, 0xbd, 0x4d, 0x0f, 0x2f, 0x3e,
  0x7a, 0x3c, 0x0b, 0x3e, 0xef, 0xba, 0x07, 0x3e, 0xfa, 0xba, 0xba, 0x3d,
  0xcd, 0x95, 0xb8, 0x3d, 0x9c, 0xd8, 0xde, 0xbc, 0x74, 0x69, 0x22, 0x3e,
  0x64, 0x6f, 0x21, 0x3d, 0xd0, 0xa9, 0x92, 0x3d, 0xa6, 0x47, 0xb8, 0x3d,
  0x61, 0x42, 0x96, 0x3d, 0x96, 0x0c, 0x84, 0x3d, 0xd4, 0x86, 0x46, 0x3e,
  0x67, 0xfe, 0x61, 0x3d, 0x06, 0x62, 0x1a, 0x3d, 0x21, 0xc5, 0xa1, 0x3d,
  0x41, 0x54, 0x99, 0xbc, 0x21, 0x83, 0x39, 0x3d, 0xa5, 0x6b, 0x9d, 0x3d,
  0xbd, 0x19, 0x52, 0xbc, 0xd5, 0x5a, 0xae, 0x3c, 0x5d, 0x71, 0x94, 0x3b,
  0x0b, 0x50, 0x51, 0xbd, 0xd3, 0x09, 0x2c, 0x3d, 0xc7, 0x8d, 0xd1, 0xb9,
  0xb6, 0x98, 0xbb, 0xbd, 0xb3, 0xbf, 0xce, 0x3c, 0x43, 0xb6, 0x91, 0x3c,
  0x75, 0xda, 0xdb, 0xbc, 0x60, 0xd7, 0xf9, 0x3c, 0xa3, 0x5a, 0xc2, 0xbc,
  0x89, 0x33, 0x8f, 0xbd, 0x16, 0xe6, 0x7f, 0xbd, 0x96, 0x88, 0x2a, 0xbd,
  0xb6, 0xbf, 0xb3, 0xbd, 0x61, 0x25, 0x88, 0x3b, 0xd8, 0xdf, 0xa3, 0xbd,
  0x6f, 0x18, 0xd0, 0xbd, 0x2f, 0x6a, 0x12, 0xbd, 0xd9, 0xf0, 0xd4, 0x3b,
  0x24, 0xcb, 0xaf, 0xbd, 0x9c, 0xbc, 0x91, 0xbb, 0x3f, 0x02, 0xf0, 0x3c,
  0x80, 0xba, 0x78, 0xbd, 0x98, 0x9a, 0x1a, 0xbd, 0xf4, 0xac, 0x3f, 0x3d,
  0xfa, 0x7a, 0x53, 0xbd, 0x29, 0x68, 0x28, 0xbc, 0x92, 0x31, 0x88, 0x3d,
  0xbf, 0x30, 0xc0, 0xbd, 0xab, 0xbd, 0x6a, 0xbc, 0x09, 0x5e, 0x6b, 0xbc,
  0x14, 0xc2, 0xbb, 0xbd, 0xf4, 0xba, 0x8e, 0xbc, 0xb7, 0x14, 0xd9, 0x3d,
  0xae, 0x43, 0x23, 0xbd, 0xbe, 0xc2, 0x5b, 0x3c, 0xb9, 0xd3, 0x99, 0x3d,
  0xe8, 0xbb, 0x5c, 0xbd, 0xf6, 0xcb, 0x17, 0x3d, 0x61, 0x62, 0xe9, 0x3a,
  0x58, 0xd7, 0x18, 0xbd, 0x6d, 0x94, 0x84, 0x3d, 0x82, 0x11, 0x91, 0xbd,
  0x0a, 0xbc, 0x4b, 0xb9, 0xb0, 0x3f, 0xe3, 0xbb, 0xbe, 0xaf, 0x23, 0xbc,
  0x15, 0xd2, 0x34, 0x3c, 0x16, 0x6b, 0x8c, 0x3d, 0x5e, 0x16, 0x25, 0x3d,
  0x65, 0x3f, 0x8d, 0x3b, 0xbe, 0xf9, 0xa5, 0x3d, 0x04, 0x60, 0x0c, 0x3d,
  0xd1, 0xa0, 0xa1, 0x3d, 0xae, 0x1d, 0x0c, 0x3e, 0xac, 0xd3, 0x7b, 0x3d,
  0x06, 0x49, 0x85, 0x3d, 0x1b, 0x6c, 0x10, 0x3e, 0x15, 0x2f, 0xbd, 0x3d,
  0x68, 0x71, 0xa4, 0x3d, 0x61, 0xf5, 0x15, 0x3e, 0x42, 0x16, 0x01, 0x3d,
  0x22, 0x01, 0xc6, 0x3d, 0xf0, 0xaa, 0xd6, 0x3d, 0x5a, 0x82, 0x96, 0x3c,
  0xd6, 0x94, 0xf6, 0x3d, 0xed, 0xcf, 0xa9, 0x3d, 0x47, 0x62, 0xdb, 0xbc,
  0x07, 0x24, 0xb3, 0x3d, 0x0b, 0xeb, 0x80, 0x3d, 0x98, 0x05, 0x7c, 0xbd,
  0x65, 0xff, 0xbc, 0x3d, 0x07, 0xc7, 0xc7, 0x3c, 0x22, 0x5b, 0x8e, 0xbd,
  0xe3, 0x9d, 0x2c, 0x3d, 0x6c, 0xff, 0x60, 0x3c, 0xa9, 0x52, 0x4a, 0xbd,
  0x03, 0x0a, 0x34, 0x3d, 0xfa, 0xee, 0x13, 0xbd, 0x2d, 0xd8, 0x7e, 0xbd,
  0x51, 0xa9, 0xc3, 0x3c, 0xaf, 0xf8, 0x54, 0xbd, 0xdc, 0x7c, 0x23, 0xbd,
  0xcd, 0xa8, 0x73, 0x3d, 0xe3, 0x83, 0x6b, 0xbd, 0x8a, 0x01, 0x5a, 0xbd,
  0x79, 0x86, 0xe9, 0x3c, 0xf8, 0xdc, 0x8b, 0xbd, 0xaf, 0xc4, 0x04, 0xbc,
  0xfe, 0x42, 0x21, 0x3d, 0xf7, 0x36, 0xca, 0xbd, 0x7f, 0x28, 0x7a, 0xbd,
  0x79, 0xa3, 0xa4, 0xbb, 0x28, 0x7b, 0xe6, 0xbd, 0xca, 0x1d, 0x22, 0xbd,
  0x35, 0xce, 0x0c, 0xbd, 0x1e, 0x5c, 0xd2, 0xbd, 0xdb, 0xa3, 0x8a, 0xbd,
  0x6c, 0x28, 0xdb, 0xbc, 0xe1, 0x2f, 0xa0, 0xbd, 0x99, 0xd7, 0x2c, 0xbd,
  0xe6, 0x51, 0x22, 0xbd, 0x1a, 0x3c, 0xb6, 0xbd, 0x1a, 0x0c, 0x1e, 0xbd,
  0x40, 0x5e, 0x42, 0xbd, 0x69, 0xa1, 0x83, 0xbd, 0xd3, 0xaa, 0x4c, 0xbd,
  0xeb, 0xd8, 0x19, 0xbc, 0x95, 0xa7, 0xa7, 0xbd, 0x3d, 0xa4, 0x4d, 0xbc,
  0xa5, 0x61, 0x2b, 0xbd, 0x7c, 0x4d, 0x69, 0xbd, 0xff, 0x69, 0x1b, 0xbc,
  0x0a, 0x9d, 0x1c, 0xbd, 0xbd, 0x6a, 0xc0, 0xbd, 0x57, 0x83, 0xcc, 0xbc,
  0x6a, 0x84, 0xc1, 0xbd, 0xf9, 0x3e, 0xac, 0xbd, 0x15, 0x63, 0xe9, 0x3c,
  0x45, 0xd9, 0x2f, 0xbd, 0x98, 0x13, 0xa5, 0xbd, 0xef, 0xbd, 0xdd, 0xbc,
  0xbe, 0xac, 0x92, 0xbd, 0x9c, 0x9d, 0x0e, 0x3d, 0x53, 0xcd, 0x52, 0x3d,
  0x7e, 0xd2, 0x43, 0x3d, 0x35, 0x2e, 0xce, 0x3e, 0x4e, 0xe0, 0xc2, 0x3d,
  0x39, 0x3e, 0x24, 0x3e, 0x58, 0xf0, 0xfb, 0x3e, 0xb0, 0xaf, 0xf4, 0x3e,
  0xf5, 0x72, 0x87, 0xbd, 0x08, 0xee, 0x15, 0xbf, 0xda, 0x33, 0x14, 0xbf,
  0xec, 0xa1, 0xfb, 0xbe, 0xde, 0x2c, 0x71, 0x3e, 0xc7, 0x58, 0xaf, 0x3d,
  0x8c, 0xd9, 0xdc, 0x3e, 0xd4, 0x41, 0x33, 0xbf, 0x11, 0xf6, 0xb3, 0xbd,
  0x38, 0xa3, 0xa1, 0xbe, 0xfd, 0x53, 0x03, 0xbf, 0xd7, 0x1e, 0xad, 0xbe,
  0x25, 0x4d, 0x84, 0xbd, 0xe6, 0x5b, 0x33, 0xbe, 0xa9, 0xaf, 0x13, 0x3f,
  0xcb, 0x30, 0x19, 0x3e, 0x1c, 0x7c, 0xf8, 0xbe, 0x58, 0x17, 0x2e, 0xbf,
  0xac, 0x89, 0xde, 0xbe, 0x56, 0x37, 0x76, 0xbe, 0xf2, 0xf8, 0x85, 0x3e,
  0x8b, 0xbc, 0xa5, 0xbe, 0xbe, 0x51, 0xa8, 0xbd, 0x69, 0x6c, 0xe3, 0xbe,
  0x87, 0x20, 0xda, 0xbe, 0x07, 0xd8, 0x8a, 0xbd, 0x7e, 0x01, 0xbb, 0xbe,
  0xb0, 0x82, 0x9b, 0x3d, 0x66, 0x7e, 0x8e, 0xbe, 0x7e, 0xaa, 0xbb, 0xbe,
  0x4f, 0x9e, 0x82, 0xbd, 0x85, 0x78, 0xcd, 0xbe, 0x0d, 0x65, 0x9b, 0xbe,
  0xc5, 0xe9, 0xfe, 0xbd, 0x49, 0x8e, 0xeb, 0xbd, 0x00, 0x32, 0xcb, 0xbc,
  0xbd, 0xe0, 0x6b, 0x3d, 0x3e, 0x5e, 0x4a, 0xbe, 0xac, 0xa2, 0x55, 0xbc,
  0x3e, 0x93, 0x04, 0xbe, 0xf1, 0x4f, 0x69, 0xbe, 0xc0, 0x8c, 0xca, 0x3b,
  0xde, 0x70, 0x21, 0xbe, 0x86, 0x5b, 0x83, 0x3e, 0x3d, 0x6c, 0xb5, 0x3d,
  0xe4, 0xa8, 0x9a, 0x3c, 0xc9, 0x50, 0xd0, 0x3d, 0xa2, 0x5a, 0xda, 0x3d,
  0x9c, 0xec, 0x78, 0xbd, 0xb2, 0x91, 0x32, 0x3e, 0x40, 0xf6, 0x14, 0x3e,
  0x87, 0xb8, 0xbb, 0x3d, 0x3b, 0x21, 0x3c, 0x3e, 0x61, 0xa3, 0x40, 0x3e,
  0x2b, 0xf5, 0xa5, 0x3d, 0x3f, 0x25, 0xae, 0x3e, 0x3a, 0xc6, 0xd9, 0x3d,
  0xb9, 0xba, 0x37, 0x3e, 0x40, 0xef, 0x8e, 0x3e, 0xbb, 0xbf, 0x15, 0x3e,
  0x15, 0x92, 0x0d, 0x3e, 0x56, 0x4f, 0x4e, 0x3e, 0x36, 0xa4, 0x04, 0x3d,
  0x74, 0xac, 0x4d, 0x3e, 0x2e, 0x77, 0xa3, 0x3e, 0x0c, 0x97, 0x74, 0x3d,
  0x2b, 0xc3, 0x47, 0x3e, 0x83, 0x31, 0xad, 0x3d, 0xc7, 0xbd, 0x28, 0xbd,
  0x71, 0x87, 0x1a, 0x3e, 0x66, 0xed, 0x60, 0x3e, 0xea, 0x13, 0xf1, 0x3d,
  0xd6, 0xc1, 0x5b, 0x3e, 0xbd, 0x67, 0x21, 0x3e, 0xd1, 0xb7, 0x83, 0x3d,
  0x4f, 0x0f, 0x17, 0x3e, 0xf3, 0xc4, 0x0d, 0x3e, 0x0a, 0xde, 0xa7, 0x3b,
  0xb0, 0x19, 0x1f, 0x3e, 0xea, 0xc5, 0x0a, 0x3e, 0x4c, 0x9b, 0x37, 0x3d,
  0x30, 0x40, 0x29, 0x3e, 0xf5, 0x41, 0xa5, 0xbc, 0x9e, 0x75, 0x8d, 0x3d,
  0xe6, 0xc8, 0xdb, 0x3d, 0xdf, 0xef, 0x5b, 0x3d, 0x6c, 0x0f, 0xce, 0x3c,
  0xb2, 0x57, 0xd3, 0x3d, 0x00, 0x40, 0x00, 0xbd, 0xe5, 0x57, 0x99, 0xbd,
  0xd1, 0xab, 0x3b, 0x3d, 0xb9, 0x59, 0x70, 0x3d, 0xf1, 0xee, 0x45, 0xbd,
  0xf0, 0x9b, 0x1d, 0x3d, 0x49, 0x01, 0x5f, 0xbd, 0xd1, 0xaf, 0x98, 0x3d,
  0x01, 0x91, 0xcb, 0x3c, 0x2a, 0x9b, 0xfb, 0xbb, 0xb4, 0xf8, 0xd4, 0x3d,
  0x41, 0x9e, 0x32, 0x3c, 0xd0, 0xa2, 0xd6, 0xbb, 0x2e, 0x43, 0x86, 0x3d,
  0x45, 0x44, 0xc1, 0x3b, 0x73, 0x5a, 0x72, 0xbd, 0x16, 0x78, 0x0a, 0x3e,
  0x5a, 0x59, 0xcc, 0x3b, 0x00, 0xfb, 0x19, 0x3d, 0xce, 0x74, 0x0c, 0x3d,
  0xc3, 0x73, 0x54, 0xbd, 0xd6, 0x1c, 0x04, 0xbd, 0xd8, 0x07, 0x37, 0x3d,
  0x90, 0x47, 0x52, 0xbd, 0x38, 0x33, 0x95, 0xbc, 0xde, 0x96, 0x3c, 0x3d,
  0xf3, 0x8f, 0x87, 0xbd, 0xcd, 0xfa, 0x48, 0xbd, 0x3e, 0xae, 0x98, 0xbd,
  0xec, 0x24, 0xe9, 0xbd, 0xf3, 0x0d, 0x96, 0x3c, 0x63, 0xd9, 0x08, 0xbd,
  0x3d, 0x7e, 0xc6, 0xbd, 0x96, 0xf0, 0x45, 0xbd, 0xae, 0x26, 0x09, 0xbd,
  0x3e, 0xc7, 0x01, 0xbe, 0x15, 0xae, 0x12, 0xbe, 0x54, 0x70, 0x9d, 0xbd,
  0xfe, 0x1a, 0x01, 0xbe, 0x6e, 0x4f, 0xfa, 0xbd, 0xa3, 0x5b, 0xbc, 0xbd,
  0x7f, 0xea, 0x05, 0xbe, 0x14, 0xfb, 0xa5, 0xbd, 0x3b, 0xe2, 0x13, 0xbe,
  0x20, 0x9e, 0xbc, 0xbd, 0xb2, 0x7d, 0x09, 0xbe, 0xd6, 0xf2, 0x10, 0xbe,
  0x19, 0x29, 0x02, 0xbe, 0x28, 0x6e, 0xe5, 0xbd, 0x03, 0x50, 0xb2, 0xbb,
  0x5e, 0xdc, 0x8e, 0xbd, 0x20, 0xad, 0xd4, 0xbd, 0xcd, 0x11, 0x4a, 0xbd,
  0xfc, 0x5f, 0x3b, 0xbd, 0x6b, 0x56, 0xed, 0xbc, 0x6a, 0xe4, 0xcb, 0xbc,
  0x2f, 0x01, 0x8e, 0xbb, 0xc4, 0xd0, 0x8e, 0xbd, 0x63, 0xbd, 0x9a, 0xbd,
  0xa5, 0x84, 0xe9, 0x3a, 0x99, 0x16, 0x39, 0xbd, 0x60, 0xdc, 0x91, 0xbd,
  0xd5, 0xc1, 0x3a, 0x3d, 0x49, 0x21, 0x4f, 0xbd, 0x6e, 0x96, 0xa9, 0xbd,
  0x51, 0x9a, 0x36, 0x3d, 0x98, 0xe5, 0x97, 0xbd, 0x96, 0xa4, 0x7b, 0xbd,
  0x86, 0x55, 0x6c, 0x3d, 0x63, 0x3e, 0x8e, 0xbd, 0xa6, 0x6b, 0x89, 0xbd,
  0x23, 0xa4, 0x91, 0x3d, 0x37, 0xf3, 0xb7, 0xbd, 0x33, 0xba, 0x2f, 0xbd,
  0x1e, 0x16, 0x70, 0x3d, 0x2e, 0xc9, 0x4d, 0xbd, 0x08, 0x51, 0x86, 0xbd,
  0xff, 0x1d, 0x9a, 0x3d, 0xb5, 0xc8, 0x60, 0xbd, 0x31, 0x0a, 0xf4, 0x3c,
  0x65, 0xcc, 0x9a, 0x3d, 0xa1, 0x3b, 0x6f, 0xbd, 0xd9, 0x43, 0xbd, 0xbb,
  0x01, 0xe0, 0xbf, 0x3d, 0x79, 0x65, 0x8e, 0xbd, 0x33, 0x8d, 0x97, 0x3d,
  0x22, 0x50, 0xd0, 0x3d, 0x89, 0xd6, 0x60, 0xbd, 0x5d, 0x11, 0x3a, 0xbc,
  0xff, 0x2a, 0x65, 0x3d, 0x15, 0x89, 0xde, 0x3c, 0x33, 0xf3, 0x1d, 0x3d,
  0xe2, 0xe8, 0x63, 0x3d, 0x81, 0x53, 0x10, 0x3d, 0x48, 0x6d, 0x73, 0x3d,
  0x7a, 0x63, 0x20, 0x3d, 0x19, 0x74, 0x5b, 0x3d, 0x84, 0x55, 0xec, 0x3d,
  0x59, 0xeb, 0xd2, 0x3c, 0x88, 0x2a, 0xa7, 0x3d, 0x3d, 0x0e, 0x7e, 0x3d,
  0x0a, 0x35, 0xb2, 0x3b, 0x81, 0x7f, 0xaf, 0x3d, 0xa6, 0x34, 0x0c, 0x3c,
  0x21, 0xea, 0x65, 0xbb, 0xae, 0xc1, 0x9e, 0x3d, 0x09, 0xa9, 0x91, 0x3d,
  0x03, 0xb1, 0x3d, 0xbb, 0x29, 0x10, 0xc0, 0x3d, 0x35, 0x1e, 0x9b, 0x3d,
  0x55, 0x98, 0x22, 0xbb, 0x87, 0x4a, 0xb5, 0x3d, 0x7d, 0xdb, 0xb3, 0x3d,
  0x71, 0xc2, 0x11, 0xbb, 0x12, 0x2a, 0xe9, 0x3d, 0x47, 0x89, 0xa5, 0x3d,
  0x5a, 0xa3, 0xc0, 0xbb, 0x15, 0x9f, 0xd9, 0x3d, 0x93, 0xee, 0xa4, 0x3d,
  0x4e, 0xc4, 0x3e, 0xbc, 0xad, 0xe4, 0xc5, 0x3d, 0xca, 0x7d, 0xb2, 0x3d,
  0x86, 0x77, 0xdf, 0x3c, 0x67, 0x18, 0xfe, 0x3c, 0xa5, 0x2d, 0x9c, 0x3c,
  0xcf, 0xfc, 0x3f, 0x3c, 0x7e, 0x4d, 0x59, 0x3d, 0x4f, 0x3f, 0x8c, 0x3c,
  0x1e, 0x0c, 0x1a, 0x3d, 0x0c, 0x5d, 0x5e, 0x3d, 0x10, 0x08, 0x05, 0x3d,
  0xc5, 0xaf, 0x03, 0x3d, 0x38, 0x2f, 0x2b, 0x3d, 0xf7, 0xfb, 0x08, 0x3d,
  0x97, 0xef, 0xbf, 0x3b, 0x40, 0xa6, 0x95, 0x3d, 0x53, 0x5e, 0x76, 0x3a,
  0x0b, 0x42, 0x1c, 0x3d, 0x23, 0x57, 0xb5, 0x3c, 0x41, 0xf5, 0x3d, 0x3d,
  0x47, 0xa4, 0x25, 0x3d, 0xa8, 0xa9, 0xbe, 0x3d, 0x32, 0xe9, 0x99, 0x3b,
  0xab, 0xd6, 0xae, 0x3d, 0x9e, 0xe2, 0x44, 0xbd, 0x26, 0x13, 0x54, 0x3d,
  0x01, 0x3b, 0x80, 0x3c, 0x95, 0x53, 0x49, 0xbd, 0xf8, 0x8d, 0xb0, 0x3e,
  0x36, 0xf3, 0xce, 0xbd, 0x1b, 0x28, 0xcf, 0xbe, 0x82, 0x02, 0x97, 0xbd,
  0x4e, 0x6c, 0xe4, 0xbe, 0x10, 0x16, 0x9f, 0xbd, 0xa2, 0x9d, 0x4f, 0xbd,
  0x54, 0x9c, 0xa7, 0xbe, 0xf2, 0x10, 0xba, 0x3e, 0xd3, 0x21, 0x8b, 0xbd,
  0x59, 0xf4, 0x7a, 0xbe, 0x0a, 0xb2, 0xba, 0x3d, 0xf2, 0xb3, 0xcd, 0x3c,
  0x5f, 0xe8, 0x0f, 0x3e, 0x33, 0x6b, 0x2a, 0x3f, 0xc8, 0xcc, 0x3b, 0xbe,
  0xf2, 0xad, 0x97, 0x3e, 0xd4, 0x4a, 0x16, 0x3f, 0xeb, 0xbc, 0x01, 0xbe,
  0x28, 0xa0, 0x2f, 0x3e, 0xd2, 0xa2, 0xc3, 0x3e, 0xf0, 0x4b, 0x06, 0xbe,
  0x6d, 0xa0, 0x90, 0x3e, 0x28, 0x52, 0xec, 0x3e, 0xe3, 0xc4, 0x93, 0x3e,
  0x8c, 0xf9, 0xa8, 0x3e, 0x14, 0x97, 0xdf, 0xbe, 0x67, 0x5b, 0x86, 0xbd,
  0x5c, 0x9e, 0x9d, 0xbe, 0x45, 0xf8, 0x3d, 0xbe, 0x72, 0x1c, 0xd4, 0xbc,
  0xda, 0x56, 0xca, 0x3c, 0x3a, 0xd0, 0x0a, 0xbf, 0xf8, 0x11, 0xcf, 0x3d,
  0x7a, 0x67, 0x53, 0xbe, 0x37, 0x7b, 0x28, 0xbe, 0x81, 0xbc, 0xf0, 0x3c,
  0x33, 0x2b, 0xed, 0x3d, 0xf6, 0xe8, 0xd8, 0xbe, 0xc8, 0x3b, 0x91, 0xbd,
  0xd0, 0x15, 0x13, 0xbe, 0x43, 0x4f, 0xdb, 0xbe, 0x54, 0x29, 0xa4, 0xbe,
  0xa1, 0x64, 0x57, 0xbe, 0x09, 0x33, 0xe4, 0xbd, 0x1b, 0xf6, 0x12, 0x3b,
  0xbf, 0x64, 0xab, 0xbc, 0x1c, 0x68, 0x8c, 0xbe, 0x93, 0x4b, 0x5d, 0xbe,
  0x11, 0xb0, 0x39, 0xbe, 0xb9, 0x0d, 0xfc, 0xbd, 0xf1, 0x44, 0xce, 0x3d,
  0xf8, 0xb4, 0x00, 0xbe, 0xd8, 0x8c, 0x57, 0x3c, 0x20, 0xe6, 0xe0, 0xbd,
  0xea, 0x42, 0x0a, 0xbe, 0x9f, 0xe3, 0xda, 0xbd, 0x18, 0xf8, 0x8a, 0x3d,
  0xe8, 0xc8, 0x3b, 0xbe, 0xf8, 0x43, 0x19, 0x3c, 0xca, 0x8d, 0x29, 0x3e,
  0xea, 0x36, 0x12, 0xbe, 0x64, 0xf0, 0x60, 0x3d, 0xa4, 0x62, 0x35, 0x3e,
  0xec, 0x13, 0xa9, 0xbc, 0x6b, 0x50, 0x28, 0x3e, 0xa8, 0x26, 0x68, 0x3e,
  0x2d, 0x26, 0xb8, 0xbd, 0x4d, 0xf0, 0x3c, 0x3d, 0xe7, 0x72, 0x24, 0x3e,
  0xd5, 0xb0, 0xaf, 0xbd, 0xd3, 0xd8, 0x58, 0x3e, 0x5a, 0x6a, 0x2d, 0x3e,
  0x7e, 0xe5, 0x7c, 0xbd, 0x41, 0x12, 0xb9, 0x3d, 0x5b, 0xa7, 0x06, 0x3e,
  0x59, 0x7a, 0xa9, 0xbd, 0xa6, 0xa6, 0x96, 0x3e, 0x63, 0xb3, 0x9c, 0x3e,
  0x2e, 0x34, 0xca, 0x3d, 0x9a, 0xb6, 0xb5, 0x3d, 0x5f, 0x08, 0x01, 0x3e,
  0x19, 0xc4, 0xb5, 0x3d, 0xde, 0xb0, 0x1b, 0x3e, 0x65, 0x7f, 0x4c, 0x3e,
  0x08, 0x58, 0xb2, 0x3d, 0x7e, 0x51, 0x4e, 0x3e, 0xea, 0xc3, 0xad, 0x3d,
  0xd9, 0x05, 0x38, 0x3e, 0xb3, 0x03, 0xe4, 0x3d, 0xf9, 0xdc, 0x44, 0x3e,
  0x25, 0x53, 0x56, 0x3e, 0x21, 0x29, 0x20, 0x3e, 0x65, 0x25, 0xdf, 0x3c,
  0xbc, 0xbe, 0x58, 0x3e, 0xf3, 0xf0, 0x26, 0x3d, 0x20, 0x27, 0x2b, 0x3d,
  0xb1, 0xa8, 0x4c, 0x3e, 0x2d, 0x63, 0xc0, 0x3d, 0x9e, 0x55, 0xb9, 0xbd,
  0x44, 0x8d, 0x67, 0x3e, 0x30, 0x10, 0xe2, 0x3c, 0xf5, 0x44, 0x9a, 0xbd,
  0x04, 0x8a, 0x34, 0x3e, 0x98, 0x5f, 0xd1, 0xb8, 0x6b, 0xbd, 0x11, 0xbe,
  0x80, 0xdc, 0x33, 0x3e, 0x6a, 0x89, 0xd4, 0xbb, 0x56, 0x43, 0x55, 0xbe,
  0x8a, 0x1a, 0xe2, 0x3d, 0xdb, 0x4d, 0xeb, 0xbb, 0xe5, 0x0a, 0x6e, 0xbe,
  0x30, 0x60, 0xa9, 0x3d, 0x25, 0x34, 0x10, 0xbd, 0x44, 0x86, 0x6c, 0xbe,
  0x9a, 0x47, 0x21, 0x3d, 0x8f, 0xf1, 0x00, 0xbe, 0xfb, 0xd5, 0x82, 0xbe,
  0x77, 0x3c, 0x15, 0x3b, 0xd4, 0x4c, 0x01, 0xbd, 0x0c, 0xc4, 0x5b, 0xbe,
  0x1d, 0xcc, 0xae, 0xbd, 0x3c, 0x72, 0x26, 0xbe, 0x84, 0xda, 0x67, 0xbe,
  0xdb, 0x96, 0xb0, 0xbd, 0x20, 0x60, 0x05, 0xbe, 0xbd, 0x89, 0x4c, 0xbe,
  0xb7, 0xbd, 0xce, 0xbd, 0x28, 0x00, 0x11, 0xbe, 0x80, 0x57, 0x10, 0xbe,
  0x68, 0xe4, 0x14, 0xbe, 0x94, 0xdf, 0x14, 0xbd, 0x5e, 0x21, 0x99, 0xbd,
  0xc6, 0x64, 0x15, 0xbe, 0xd8, 0x44, 0x0c, 0xbe, 0x11, 0x68, 0xba, 0xbd,
  0xee, 0xcb, 0x2d, 0xbe, 0x75, 0x76, 0x6c, 0xbd, 0x44, 0x22, 0x34, 0x3d,
  0x63, 0xd5, 0x19, 0xbe, 0x83, 0x1c, 0xa2, 0xbd, 0xc3, 0x69, 0xf0, 0x3b,
  0x9c, 0x7f, 0x05, 0xbe, 0xb9, 0xc6, 0xac, 0xbd, 0x9e, 0xfb, 0x6a, 0x3d,
  0xdb, 0xc2, 0xd9, 0xbd, 0xd0, 0xbc, 0x7d, 0xbd, 0x4d, 0x22, 0x33, 0x3d,
  0x56, 0x26, 0x97, 0xbd, 0x2b, 0xbf, 0x51, 0xbc, 0x75, 0xf0, 0x20, 0x3e,
  0x58, 0x23, 0x28, 0xbd, 0x56, 0x5e, 0x0d, 0x3d, 0xc9, 0x7c, 0xe6, 0x3d,
  0x73, 0x46, 0x04, 0xbd, 0xec, 0xe1, 0x0d, 0x3d, 0xb0, 0x2b, 0x29, 0x3e,
  0x27, 0x6c, 0x67, 0xbb, 0x6c, 0xf2, 0x9b, 0x3b, 0xd3, 0xdf, 0x1b, 0x3d,
  0xce, 0x6a, 0x24, 0x3d, 0xa5, 0x3e, 0x63, 0x3d, 0x10, 0x07, 0x16, 0x3e,
  0xa5, 0xbb, 0x45, 0x3d, 0x2f, 0x50, 0xa4, 0x3d, 0x70, 0xe5, 0xca, 0x3d,
  0xcc, 0x78, 0x7b, 0x3d, 0x19, 0xf0, 0x13, 0x3d, 0x99, 0xc0, 0x06, 0x3e,
  0xb2, 0x33, 0x8f, 0x3d, 0xd6, 0x57, 0x3b, 0x3c, 0x59, 0x62, 0x95, 0x3d,
  0x36, 0xe7, 0x97, 0x3d, 0x81, 0x74, 0xb2, 0x3d, 0xf5, 0x1b, 0x0b, 0x3e,
  0x84, 0x75, 0x42, 0x3d, 0xad, 0xfb, 0xd5, 0x3c, 0xed, 0xcc, 0x8c, 0xbc,
  0x48, 0xfb, 0x90, 0xbc, 0x47, 0x29, 0x81, 0x3d, 0xc4, 0x0b, 0xb8, 0x3d,
  0xcc, 0x5c, 0x38, 0xbc, 0x18, 0x32, 0x10, 0x3d, 0xa4, 0xaf, 0x4c, 0x3d,
  0xac, 0x3c, 0x2e, 0xbd, 0xfa, 0x43, 0x93, 0xbb, 0x3a, 0xc3, 0x11, 0xbc,
  0xed, 0xf5, 0xb0, 0xbd, 0xca, 0xe5, 0x8c, 0x3d, 0x31, 0xea, 0xd6, 0x3c,
  0xd2, 0x75, 0x77, 0xbd, 0xbe, 0x13, 0x8b, 0x3b, 0x8a, 0x40, 0xc9, 0x3c,
  0x53, 0xbd, 0xc5, 0xbd, 0xd1, 0xe2, 0x6e, 0x3c, 0xaf, 0x00, 0x9a, 0x3c,
  0x35, 0x85, 0x06, 0xbe, 0x2a, 0x1e, 0x65, 0x3c, 0x2b, 0xa0, 0xc5, 0x3c,
  0x54, 0x80, 0xc7, 0xbd, 0x89, 0xca, 0x45, 0xbc, 0x05, 0xb9, 0xee, 0x3b,
  0x04, 0x35, 0x94, 0xbd, 0x92, 0x35, 0xe3, 0x3c, 0xee, 0x4e, 0x4b, 0xbc,
  0xf4, 0x26, 0xeb, 0xbc, 0x8d, 0x1a, 0x77, 0x3d, 0x3a, 0x43, 0x02, 0xbd,
  0x32, 0xed, 0x20, 0xbd, 0x35, 0x51, 0xf9, 0x3c, 0x5e, 0x37, 0x71, 0xbc,
  0xef, 0x1f, 0x1f, 0xbc, 0x0a, 0x43, 0x58, 0x3d, 0xec, 0xb5, 0x4a, 0x3b,
  0xca, 0x78, 0x90, 0xbb, 0x0a, 0xb2, 0x30, 0x3d, 0x6e, 0x60, 0xe0, 0xb9,
  0xaa, 0xd5, 0x1a, 0x3a, 0x15, 0x04, 0x04, 0x3d, 0xdc, 0x8d, 0x52, 0xbc,
  0x29, 0x47, 0x6c, 0x3d, 0x34, 0x90, 0x9e, 0x3c, 0x3a, 0x0b, 0xcc, 0x3c,
  0x45, 0x4c, 0x40, 0x3d, 0xed, 0x62, 0x36, 0x3d, 0x07, 0x30, 0x35, 0x3d,
  0xe6, 0xe8, 0x89, 0x3d, 0x52, 0x1c, 0x95, 0x3c, 0xd6, 0x33, 0x2d, 0x3d,
  0x7f, 0x36, 0x5a, 0x3d, 0x92, 0x4e, 0x6d, 0x3d, 0x7b, 0x97, 0xa3, 0xb9,
  0xd6, 0x8f, 0xa9, 0x3d, 0xb0, 0xbd, 0x9c, 0x3c, 0x71, 0x34, 0x98, 0x3d,
  0xfd, 0x45, 0x2c, 0x3d, 0x3d, 0x14, 0x87, 0x3d, 0x88, 0xd1, 0xea, 0x3c,
  0x55, 0xd3, 0x65, 0x3d, 0x3e, 0xd4, 0xd6, 0x3e, 0x78, 0x6f, 0x0c, 0x3f,
  0x9e, 0x4b, 0x95, 0x3c, 0xad, 0xfd, 0xf8, 0x3e, 0xe0, 0xe8, 0x7e, 0x3e,
  0x9c, 0xd8, 0xed, 0x3e, 0x16, 0x88, 0x0b, 0x3f, 0x03, 0xf8, 0x72, 0x3e,
  0x4a, 0x0f, 0x13, 0x3f, 0x1f, 0x2c, 0x0c, 0xbf, 0x11, 0xc4, 0x19, 0xbc,
  0x6b, 0x15, 0x76, 0xbe, 0x3b, 0xc7, 0xe8, 0xbd, 0xed, 0xa3, 0xb1, 0xbe,
  0xeb, 0x1b, 0x08, 0xbe, 0x39, 0xfc, 0xe9, 0x3e, 0x62, 0x1e, 0x0d, 0x3f,
  0xee, 0x61, 0xbe, 0x3e, 0x85, 0xbb, 0x19, 0xbf, 0xfd, 0xe7, 0xe8, 0xbe,
  0x0b, 0xaf, 0xd8, 0xbe, 0x6e, 0xb0, 0xc5, 0x3e, 0xb1, 0x0d, 0x90, 0x3e,
  0x5f, 0xac, 0xce, 0xbe, 0xad, 0x57, 0xfa, 0xbd, 0xd8, 0x99, 0xc0, 0xbe,
  0x72, 0xe8, 0x1f, 0xbe, 0xe9, 0x8f, 0x30, 0x3e, 0xf8, 0x2f, 0x62, 0xbd,
  0x35, 0x84, 0xa4, 0xbe, 0x81, 0xe8, 0x1d, 0xbe, 0x8e, 0x9b, 0x3a, 0xbe,
  0xe2, 0xd6, 0xfe, 0x3c, 0x85, 0x2c, 0xf2, 0x3d, 0x28, 0xed, 0x98, 0xbc,
  0x0f, 0x55, 0x11, 0xbd, 0xca, 0x1d, 0xac, 0xbe, 0xdf, 0x3d, 0xd2, 0xbe,
  0x45, 0xe2, 0xb5, 0x3d, 0x26, 0x16, 0x52, 0x3d, 0x4f, 0xb5, 0xed, 0x3d,
  0x2c, 0xaa, 0x1a, 0x3d, 0xcb, 0xfe, 0x86, 0xbe, 0xa2, 0x33, 0x63, 0xbe,
  0x43, 0xb7, 0x27, 0x3e, 0x41, 0x19, 0x7c, 0xbd, 0x51, 0xf3, 0x51, 0x3e,
  0xd9, 0xfa, 0xfc, 0x3d, 0xe8, 0x14, 0x63, 0xbd, 0x14, 0x24, 0x25, 0x3e,
  0x8f, 0x06, 0x1d, 0x3e, 0x4e, 0x05, 0x62, 0xbd, 0x04, 0x39, 0x2d, 0x3e,
  0xdb, 0xdd, 0x6c, 0x3e, 0x79, 0x15, 0x2b, 0xbe, 0xb0, 0xae, 0x50, 0x3e,
  0x8b, 0xf8, 0xa1, 0x3d, 0x93, 0xda, 0x29, 0xbe, 0x87, 0xb0, 0xa4, 0x3e,
  0xb5, 0x10, 0x52, 0x3d, 0xa3, 0xca, 0xeb, 0xbd, 0xe9, 0x2a, 0x86, 0x3e,
  0x10, 0x03, 0xcb, 0x3c, 0xe3, 0x04, 0x4a, 0xbd, 0x5b, 0xf9, 0x52, 0x3e,
  0xa0, 0x63, 0xeb, 0xbc, 0x82, 0x4e, 0xd9, 0xbb, 0xff, 0xe6, 0x0e, 0x3e,
  0x0e, 0x33, 0xef, 0xbd, 0x74, 0x74, 0x00, 0xbe, 0x82, 0x02, 0x16, 0x3e,
  0x3a, 0x5a, 0xa6, 0xbd, 0x75, 0x54, 0xb3, 0x3c, 0xd8, 0xd9, 0x93, 0x3d,
  0x8c, 0x6e, 0x09, 0xbe, 0x25, 0xd5, 0xa6, 0x3d, 0xeb, 0xe8, 0x95, 0xbc,
  0x1b, 0xa0, 0x18, 0xbe, 0x52, 0x81, 0x8d, 0xbd, 0x77, 0xfc, 0x8b, 0xbd,
  0x18, 0x9b, 0x11, 0xbe, 0x89, 0x4a, 0xe1, 0xbc, 0xfb, 0xea, 0xa3, 0xbd,
  0x2c, 0x31, 0xa9, 0xbd, 0x27, 0x70, 0xd1, 0xbd, 0x48, 0xbf, 0x7b, 0xbe,
  0x87, 0xf8, 0xbe, 0xbd, 0x3b, 0x7c, 0x15, 0xbe, 0x6e, 0xa3, 0x6b, 0xbe,
  0x8c, 0x8d, 0x2c, 0xbd, 0xb2, 0x26, 0x17, 0xbe, 0x5e, 0x88, 0x31, 0xbe,
  0x80, 0x2d, 0xae, 0xbd, 0x67, 0x11, 0xf0, 0xbc, 0xd9, 0x54, 0xae, 0xbd,
  0xfe, 0xdd, 0x79, 0x3b, 0xc0, 0x8e, 0x19, 0x3c, 0xcc, 0xdd, 0xf2, 0xbd,
  0x26, 0x23, 0xc9, 0xba, 0x97, 0x1e, 0xd7, 0x3d, 0x18, 0x2a, 0x2b, 0xbe,
  0x5d, 0xe3, 0x25, 0x3d, 0x04, 0x13, 0x06, 0x3e, 0x92, 0x92, 0x33, 0xbd,
  0xd7, 0x9b, 0x8c, 0x3a, 0x1a, 0x7b, 0xde, 0x3d, 0x13, 0x20, 0x1e, 0xbe,
  0xe1, 0xad, 0x9a, 0x3d, 0x2a, 0xe4, 0x32, 0x3e, 0x3b, 0xa1, 0x99, 0xbd,
  0xc6, 0xb8, 0xca, 0x3d, 0xd7, 0xdf, 0x0c, 0x3e, 0x2a, 0xc5, 0xa6, 0xbd,
  0x90, 0x57, 0x9d, 0x3d, 0x9f, 0xae, 0x21, 0x3e, 0x18, 0x4d, 0xe9, 0xbc,
  0x7e, 0x9b, 0xec, 0x3d, 0x9d, 0x8b, 0x12, 0x3e, 0x1f, 0x88, 0x74, 0x3d,
  0xf3, 0xde, 0xcf, 0x3d, 0x78, 0x9a, 0x23, 0x3e, 0x70, 0x87, 0xc1, 0x3d,
  0x11, 0x93, 0xce, 0x3d, 0x38, 0x76, 0x59, 0x3e, 0xdb, 0xc7, 0x1b, 0x3e,
  0x5d, 0x31, 0x93, 0x3d, 0x79, 0xa9, 0x23, 0x3e, 0x37, 0xea, 0xc2, 0x3d,
  0xe0, 0x73, 0x91, 0x3d, 0xfd, 0xdc, 0x1b, 0x3e, 0xc8, 0x22, 0xf5, 0x3d,
  0x58, 0x90, 0x12, 0x3d, 0x3d, 0x87, 0xd2, 0x3d, 0x84, 0x3b, 0xa3, 0x3d,
  0x94, 0x49, 0x4a, 0x3d, 0x2c, 0x28, 0x22, 0x3e, 0x0e, 0x32, 0xbe, 0x3d,
  0x25, 0x58, 0xd3, 0x3c, 0x7e, 0x93, 0xeb, 0x3d, 0xf0, 0xc5, 0x7f, 0x3d,
  0xd3, 0x4c, 0x38, 0xbd, 0xdd, 0xef, 0xce, 0x3d, 0x0a, 0xe8, 0x09, 0x3d,
  0x55, 0x93, 0x81, 0xbd, 0xe2, 0xf9, 0xdc, 0x3d, 0xa1, 0x30, 0xa3, 0x3d,
  0x1a, 0x8c, 0x8e, 0xbd, 0x4a, 0x19, 0x0b, 0x3a, 0x29, 0x9d, 0x8f, 0xbc,
  0xa3, 0x13, 0xd3, 0xbd, 0xbe, 0xe7, 0x0e, 0x3d, 0x6f, 0xaf, 0x2e, 0xbd,
  0x89, 0xf9, 0xdb, 0xbd, 0xc5, 0xf1, 0x11, 0xbd, 0x02, 0xcf, 0x16, 0x3b,
  0x82, 0xfe, 0xca, 0xbd, 0xbe, 0x24, 0xaa, 0xbd, 0xe8, 0xec, 0xeb, 0x3c,
  0x93, 0x19, 0x8c, 0xbd, 0xa9, 0xce, 0xcd, 0xbd, 0x52, 0x9b, 0x82, 0x3d,
  0x79, 0x86, 0x97, 0xbc, 0xb5, 0x9b, 0xc2, 0xbd, 0xfd, 0x60, 0x90, 0x3d,
  0xa1, 0xe5, 0x91, 0x3c, 0x3e, 0x0a, 0xb1, 0xbd, 0x08, 0xc1, 0xaf, 0x3c,
  0x97, 0xe7, 0x85, 0x3d, 0x7d, 0x90, 0xc1, 0xbd, 0x77, 0x4f, 0x03, 0x3d,
  0x2f, 0x84, 0x9c, 0x3d, 0x9b, 0x55, 0x94, 0xbd, 0xda, 0xbb, 0xb9, 0x3c,
  0xe3, 0x27, 0xd7, 0x3d, 0x1b, 0x6b, 0x0e, 0xbe, 0xe2, 0x13, 0x89, 0x3d,
  0xb3, 0x26, 0xcf, 0x3d, 0xba, 0xd4, 0x00, 0xbe, 0x37, 0x2e, 0x99, 0x3d,
  0x9f, 0x40, 0x02, 0x3e, 0x3b, 0x08, 0xc8, 0xbd, 0xdc, 0x97, 0x4b, 0x3d,
  0x1a, 0x8a, 0x3b, 0x3e, 0x78, 0xe5, 0x0a, 0xbe, 0x0f, 0x12, 0x7b, 0x3d,
  0xea, 0xe6, 0x32, 0x3e, 0x6c, 0x8b, 0x20, 0xbe, 0x22, 0x85, 0x72, 0xbc,
  0x48, 0xd0, 0x19, 0x3e, 0xda, 0xb5, 0x0f, 0xbe, 0xce, 0xa8, 0x20, 0xbc,
  0x2f, 0xb8, 0xf3, 0x3d, 0xf2, 0x11, 0x0a, 0xbe, 0x1b, 0x9f, 0x9d, 0xbd,
  0xa4, 0x5f, 0x9c, 0x3d, 0x47, 0x95, 0xb3, 0xbd, 0xc2, 0x66, 0x95, 0xbd,
  0xa7, 0x1d, 0xa0, 0x3d, 0x84, 0x89, 0x5d, 0xbd, 0x14, 0xe7, 0x27, 0xbd,
  0xb3, 0x77, 0x21, 0x3d, 0x51, 0x63, 0xa5, 0xbd, 0xc1, 0xf6, 0x85, 0xbd,
  0x7f, 0xdf, 0x04, 0x3d, 0x9a, 0xa6, 0x83, 0xbd, 0xa6, 0x4d, 0x6d, 0xbd,
  0x42, 0xf7, 0xe8, 0xbc, 0x80, 0x0a, 0xb5, 0xbd, 0x90, 0xf8, 0xea, 0xbd,
  0xb7, 0xb1, 0x70, 0xbd, 0xe0, 0x4c, 0x01, 0xbd, 0xbe, 0x98, 0x54, 0xbc,
  0xe4, 0xa1, 0xbd, 0xbd, 0x88, 0xc2, 0x04, 0xbc, 0xd9, 0x7f, 0xfd, 0xbc,
  0x99, 0xd5, 0xba, 0xbd, 0xbd, 0x22, 0x99, 0xba, 0x11, 0xa0, 0x69, 0x3c,
  0x5f, 0x76, 0xdf, 0xbd, 0xd8, 0xb4, 0x81, 0xbc, 0x02, 0x33, 0xf7, 0xbb,
  0xad, 0x46, 0x06, 0xbe, 0x03, 0xa1, 0x02, 0x3d, 0x87, 0xa4, 0x47, 0x3d,
  0x4a, 0x5a, 0xe0, 0xbd, 0x20, 0xc6, 0x31, 0xbc, 0xf9, 0xd4, 0xad, 0xbc,
  0xcb, 0xbb, 0x92, 0xbd, 0xe3, 0x6b, 0x97, 0x3d, 0x25, 0x78, 0x0a, 0x3d,
  0xee, 0x93, 0xca, 0xbd, 0x8f, 0x0b, 0xd9, 0xba, 0x76, 0x94, 0x08, 0xbd,
  0x31, 0x8f, 0x81, 0xbd, 0x69, 0x4a, 0xe8, 0x3d, 0x07, 0x12, 0xa9, 0x3d,
  0xe1, 0x00, 0x96, 0xbd, 0x17, 0x24, 0x2f, 0xbd, 0xfb, 0x3e, 0xbf, 0xbd,
  0x5b, 0xf9, 0x80, 0xbd, 0x6f, 0x77, 0xa4, 0x3e, 0xb4, 0x3c, 0x22, 0x3e,
  0x5a, 0x5e, 0x09, 0xba, 0x8b, 0x23, 0x68, 0x3e, 0x5e, 0x3e, 0xc7, 0x3e,
  0x8f, 0xb0, 0x84, 0xbe, 0x9d, 0x87, 0x52, 0x3e, 0xb7, 0x25, 0x93, 0x3e,
  0x16, 0x92, 0x8f, 0x3e, 0x21, 0x6f, 0x1f, 0x3f, 0x84, 0x04, 0x22, 0x3f,
  0x4d, 0x13, 0xef, 0x3e, 0x10, 0x55, 0x90, 0xbe, 0x81, 0xf8, 0xa1, 0xbe,
  0x84, 0x4b, 0x5a, 0x3e, 0x8e, 0xd5, 0x01, 0x3f, 0x91, 0x4a, 0xfe, 0xbd,
  0x92, 0xa2, 0x83, 0x3e, 0xc9, 0xd2, 0x85, 0xbd, 0x3c, 0x05, 0x65, 0xbe,
  0xcb, 0xd6, 0x84, 0x3e, 0x87, 0xf0, 0x6a, 0x3e, 0xe8, 0xd6, 0xad, 0x3d,
  0x5b, 0x3f, 0x01, 0x3f, 0x7b, 0x84, 0x5a, 0xbe, 0xe0, 0x63, 0x3a, 0xbe,
  0x16, 0xf6, 0xd7, 0x3d, 0x6f, 0xf8, 0xd8, 0xbe, 0x10, 0x35, 0x54, 0xbd,
  0x7c, 0xa6, 0xfc, 0x3d, 0x2e, 0x40, 0xa0, 0x3b, 0x9c, 0xc2, 0xc5, 0x3e,
  0x07, 0xaa, 0x26, 0xbe, 0x97, 0x85, 0xfd, 0xbd, 0x0f, 0xea, 0xd8, 0xbd,
  0x44, 0x5f, 0x08, 0x3e, 0x57, 0x22, 0xf2, 0x3e, 0xae, 0x9a, 0xeb, 0x3e,
  0x66, 0x05, 0x8d, 0x3b, 0xbe, 0xda, 0x89, 0x3d, 0x3e, 0x49, 0x94, 0x3d,
  0xe0, 0x7a, 0xb6, 0x3c, 0x94, 0xe2, 0xb6, 0x3e, 0xeb, 0x19, 0x9a, 0x3e,
  0xc4, 0x9a, 0x14, 0xbc, 0xdd, 0x9a, 0x9c, 0x3d, 0x73, 0xdf, 0x07, 0xbe,
  0x60, 0x8c, 0x24, 0xbd, 0xff, 0xc3, 0x21, 0x3e, 0xd1, 0x53, 0x4c, 0xbd,
  0x5a, 0xe4, 0x94, 0xbd, 0xd1, 0xb3, 0x8c, 0x3d, 0x03, 0xe5, 0x64, 0xbe,
  0x8f, 0x85, 0x3b, 0xbd, 0x51, 0x6a, 0x9b, 0xbd, 0x42, 0x33, 0xfc, 0xbd,
  0xbe, 0x7f, 0xcb, 0xbd, 0xcd, 0x1a, 0x24, 0xbc, 0x07, 0xed, 0xa3, 0xbe,
  0xc4, 0x52, 0xb9, 0xbd, 0x06, 0xa4, 0x0d, 0xbe, 0x5e, 0xa5, 0x83, 0xbe,
  0xd2, 0xaa, 0x49, 0xbe, 0x05, 0x29, 0x10, 0xbe, 0xc7, 0xb7, 0xbe, 0xbe,
  0x85, 0xfd, 0x66, 0xbe, 0x3f, 0x6d, 0x00, 0xbe, 0x9d, 0x95, 0x06, 0xbe,
  0x77, 0x34, 0x2b, 0xbe, 0x9b, 0x17, 0x46, 0xbd, 0x84, 0xb6, 0x1d, 0xbe,
  0xdd, 0x57, 0x48, 0xbe, 0xf1, 0xa8, 0x70, 0xbd, 0x13, 0x48, 0x97, 0xbd,
  0x5f, 0x71, 0xaa, 0xbd, 0xdd, 0xd2, 0x8f, 0xbd, 0xa4, 0x65, 0x21, 0xbe,
  0x4f, 0x2e, 0xb9, 0xbd, 0xe8, 0x37, 0x0b, 0xbe, 0x99, 0x78, 0xeb, 0xbd,
  0xec, 0xf6, 0xbf, 0xbd, 0xfc, 0x65, 0x89, 0xbd, 0x19, 0x00, 0x0c, 0xbd,
  0xf2, 0xcc, 0x51, 0xbb, 0xd4, 0x94, 0x3e, 0xbe, 0xc9, 0x9c, 0x6e, 0xbd,
  0xed, 0x5e, 0x5d, 0xbd, 0x21, 0xbf, 0xfc, 0xbd, 0x50, 0xc1, 0x0c, 0xbd,
  0xdd, 0x9c, 0x1a, 0xbd, 0x1b, 0x63, 0xd5, 0xbd, 0x5c, 0xeb, 0x58, 0xbd,
  0x1e, 0xd1, 0xb1, 0xbc, 0xac, 0xb9, 0xa0, 0xbd, 0x2c, 0xbf, 0xb1, 0x3a,
  0x22, 0xec, 0x79, 0xbc, 0xe9, 0x6f, 0x28, 0xbe, 0x11, 0xd7, 0xde, 0x3d,
  0xee, 0xbd, 0x49, 0x3b, 0xdb, 0x5c, 0x31, 0xbe, 0x0b, 0x8e, 0xb1, 0x3c,
  0x32, 0x75, 0xdb, 0x3c, 0x7d, 0x91, 0xa6, 0xbd, 0x74, 0x0f, 0x91, 0x3d,
  0x0f, 0xa8, 0xb7, 0x3c, 0x92, 0x3b, 0xad, 0xbd, 0xaa, 0x98, 0xd5, 0x3d,
  0x23, 0x00, 0x06, 0x3c, 0x28, 0x91, 0xc6, 0x3a, 0xf2, 0x20, 0xd0, 0x3d,
  0x10, 0xcd, 0x55, 0x3d, 0xb0, 0x1b, 0x08, 0x3d, 0x27, 0xbd, 0x34, 0x3e,
  0x68, 0xf3, 0x6f, 0x3d, 0xfd, 0xf0, 0xf7, 0x3d, 0x9c, 0xda, 0x1d, 0x3e,
  0xe7, 0xaf, 0xf5, 0x3d, 0xb0, 0x36, 0xc4, 0x3d, 0x7f, 0x20, 0xda, 0x3d,
  0x88, 0x71, 0xe5, 0x3d, 0x8e, 0xa2, 0xbf, 0x3d, 0x7a, 0xff, 0xf5, 0x3d,
  0x3f, 0x53, 0x0f, 0x3e, 0xcd, 0x80, 0xec, 0x3d, 0x4f, 0xa5, 0x9e, 0x3d,
  0x54, 0xa4, 0x08, 0x3e, 0xd6, 0xae, 0x18, 0x3d, 0x26, 0x68, 0x78, 0x3b,
  0x34, 0x5c, 0xfe, 0x3d, 0xb1, 0xfe, 0xa2, 0x3d, 0xe0, 0x6c, 0x18, 0x3d,
  0x73, 0xe5, 0xa3, 0x3d, 0x07, 0x13, 0x08, 0x3e, 0xcf, 0xb8, 0x06, 0xbd,
  0xfb, 0x30, 0xab, 0x3d, 0xa2, 0x79, 0xe5, 0x3b, 0x9b, 0xe3, 0xf2, 0xbc,
  0xf8, 0x52, 0x3a, 0x3d, 0x67, 0x28, 0x66, 0x3d, 0x2f, 0xeb, 0x43, 0xbd,
  0x07, 0x84, 0x91, 0x3d, 0x5b, 0xf0, 0x8f, 0x3d, 0x1d, 0x28, 0xff, 0xbd,
  0x75, 0xd1, 0xce, 0x3c, 0xc4, 0xf4, 0x53, 0x3b, 0xdb, 0x8a, 0xa2, 0xbd,
  0x20, 0x3e, 0xd5, 0x3c, 0x97, 0xf7, 0x03, 0x3c, 0x31, 0x8d, 0x0a, 0xbc,
  0xa4, 0x52, 0x06, 0xbc, 0x85, 0xad, 0xcd, 0xbc, 0x06, 0xbd, 0xf1, 0xbc,
  0x43, 0xdd, 0x2e, 0xbd, 0xf9, 0x41, 0x3b, 0xbd, 0x29, 0x55, 0xfe, 0xbc,
  0x6f, 0x11, 0x46, 0xbd, 0xc1, 0x72, 0xeb, 0xbc, 0x7d, 0x2b, 0x10, 0xbd,
  0x3a, 0xf3, 0x74, 0xbd, 0xc6, 0x2c, 0x39, 0x3c, 0xa1, 0xe4, 0x66, 0xbd,
  0x1e, 0x6e, 0x97, 0xbd, 0xa9, 0x3d, 0x77, 0xbd, 0xe9, 0x2d, 0xb8, 0xbd,
  0x48, 0xcb, 0xe3, 0xbd, 0x74, 0x4f, 0x2b, 0xbd, 0xc2, 0xd0, 0x47, 0xbd,
  0xfe, 0x5e, 0x11, 0xbe, 0xc5, 0xc4, 0x10, 0xbd, 0x1b, 0x23, 0x6f, 0xbc,
  0x04, 0x80, 0xd6, 0xbd, 0xbf, 0xfe, 0x06, 0x3c, 0xf3, 0x05, 0x5c, 0x3c,
  0x0a, 0x98, 0xe7, 0xbd, 0x0e, 0xd6, 0x1c, 0x3d, 0xb4, 0xd0, 0x0b, 0x3d,
  0xbc, 0xd8, 0xba, 0xbd, 0x5a, 0x7f, 0x06, 0x3d, 0x38, 0x10, 0x12, 0x3d,
  0xdb, 0x49, 0x8a, 0xbd, 0x54, 0x59, 0x56, 0x3d, 0x34, 0x6f, 0x8c, 0x3d,
  0x03, 0x60, 0x74, 0xbd, 0xcb, 0xfb, 0xfa, 0x3c, 0x20, 0xde, 0x81, 0x3d,
  0x90, 0x23, 0x31, 0xbd, 0x9a, 0xfc, 0xbc, 0x3c, 0xe9, 0x2e, 0x2e, 0x3d,
  0x61, 0xa8, 0x16, 0xbc, 0x0b, 0x43, 0x42, 0x3d, 0x8a, 0x84, 0xb9, 0x3d,
  0xdf, 0x64, 0xd5, 0xbb, 0xca, 0x5b, 0x88, 0x3d, 0x61, 0x18, 0x44, 0x3d,
  0x2a, 0x8c, 0xb0, 0x3c, 0xec, 0x05, 0x0e, 0x3d, 0x6c, 0xae, 0x29, 0x3d,
  0xfd, 0xcd, 0x36, 0x3c, 0x4e, 0x97, 0x04, 0x3d, 0x0e, 0x0b, 0x9a, 0x3c,
  0xfe, 0xf3, 0x82, 0x3c, 0x6e, 0x2d, 0x8f, 0x3b, 0xe4, 0x6a, 0x72, 0x3d,
  0x13, 0x46, 0xbb, 0x3c, 0xe2, 0x80, 0x28, 0x3d, 0xe2, 0xf2, 0x04, 0x3b,
  0x60, 0xc7, 0x6a, 0x3d, 0x2a, 0x60, 0x50, 0x39, 0x21, 0x52, 0x2f, 0x3d,
  0xb9, 0x39, 0x83, 0x3d, 0xd9, 0xbf, 0x48, 0x3d, 0x8b, 0x14, 0x94, 0xbc,
  0xd6, 0x31, 0x47, 0x3d, 0xc2, 0x86, 0xde, 0x3b, 0x03, 0x95, 0x19, 0x3c,
  0x30, 0x1d, 0x56, 0x3d, 0xac, 0xcf, 0xe8, 0x3c, 0x0d, 0x04, 0xac, 0xbc,
  0xaa, 0x16, 0x88, 0x3d, 0x8c, 0xcf, 0xb0, 0x3b, 0x04, 0xd3, 0xdb, 0xbc,
  0x74, 0x3b, 0x8f, 0x3c, 0xc6, 0x96, 0xe1, 0x39, 0x7b, 0x79, 0x4d, 0xbd,
  0x83, 0x2b, 0x21, 0x3d, 0xa8, 0x00, 0x11, 0xbc, 0xf4, 0x57, 0xea, 0xbc,
  0x24, 0x61, 0x39, 0x3c, 0x6d, 0xd6, 0xfd, 0x3c, 0xbd, 0x77, 0x70, 0xbd,
  0x28, 0x31, 0xe0, 0x3c, 0x2a, 0xe5, 0x22, 0x3c, 0x87, 0xe2, 0xa6, 0xbb,
  0xd7, 0x14, 0x92, 0x3c, 0x22, 0x04, 0x85, 0x3d, 0x21, 0x19, 0x2d, 0xbd,
  0x5a, 0x1e, 0x14, 0x3d, 0xce, 0x9f, 0x07, 0xbd, 0x3f, 0x07, 0x20, 0xbd,
  0xcf, 0x4d, 0x87, 0x3c, 0x5a, 0x7f, 0x83, 0xbe, 0x71, 0x9d, 0xa9, 0xbe,
  0xf2, 0xc4, 0x15, 0x3e, 0x38, 0xa3, 0xdc, 0x3e, 0x34, 0xfb, 0x0d, 0xbf,
  0x39, 0x54, 0x0e, 0x3e, 0xfa, 0x8c, 0x13, 0x3f, 0x5f, 0x32, 0x1f, 0x3e,
  0x47, 0x1d, 0xd4, 0x3e, 0xf2, 0x85, 0x9e, 0x3d, 0x2e, 0x7d, 0x9f, 0x3e,
  0x79, 0xa0, 0x26, 0x3e, 0xc2, 0x5a, 0xae, 0x3e, 0x04, 0xf0, 0x43, 0x3e,
  0x11, 0x15, 0xa8, 0xbe, 0x2f, 0xeb, 0xdd, 0xbe, 0xf6, 0xc7, 0x56, 0x3f,
  0x2a, 0xab, 0x8e, 0x3e, 0x43, 0xad, 0x30, 0x3f, 0x70, 0x71, 0xdd, 0x3e,
  0x8d, 0x61, 0x00, 0x3f, 0xfa, 0x16, 0x43, 0xbf, 0xed, 0x27, 0x80, 0x3e,
  0xee, 0x2c, 0x55, 0x3d, 0x60, 0xb3, 0x94, 0x3e, 0xdf, 0xd2, 0x87, 0x3e,
  0xa5, 0x30, 0xb5, 0xbe, 0xcb, 0x8a, 0xd9, 0xbd, 0x9a, 0x3d, 0xb4, 0xbe,
  0xf7, 0xb1, 0xbf, 0x3e, 0xb5, 0xf5, 0x01, 0xbe, 0xc2, 0x41, 0x76, 0x3e,
  0x34, 0x5b, 0xa0, 0xbd, 0xd5, 0xaf, 0x4a, 0x3e, 0x8e, 0x69, 0x4c, 0xbe,
  0xf2, 0x42, 0xa4, 0xbd, 0x1c, 0xfa, 0x96, 0xbd, 0x65, 0x53, 0x84, 0x3d,
  0x44, 0x09, 0x90, 0xbd, 0x71, 0x43, 0x03, 0x3e, 0xd5, 0xb3, 0x81, 0xbd,
  0xa0, 0x1d, 0x04, 0xbe, 0x30, 0x14, 0x1c, 0xbe, 0xbb, 0x1e, 0x92, 0xba,
  0xd4, 0x6d, 0xb5, 0xbd, 0x82, 0x65, 0x38, 0x3d, 0x43, 0x79, 0x61, 0xbd,
  0xd4, 0x6a, 0x11, 0xbd, 0x10, 0xa5, 0x4c, 0xbe, 0xe2, 0x62, 0x69, 0xbd,
  0x4f, 0xc1, 0xf2, 0xbd, 0xcf, 0xd0, 0x80, 0x3d, 0x9f, 0x63, 0x28, 0xbe,
  0xad, 0x01, 0xac, 0xbc, 0xa2, 0xe9, 0x1d, 0x3d, 0xc1, 0x8e, 0x64, 0xbe,
  0xa3, 0x35, 0xd1, 0xbd, 0x47, 0x50, 0xd9, 0x3d, 0x4f, 0x43, 0x82, 0xbd,
  0x97, 0x9c, 0x31, 0xbd, 0xbe, 0xf3, 0x1d, 0x3d, 0xe2, 0x11, 0x08, 0xbe,
  0x9f, 0x17, 0xbb, 0xbc, 0x74, 0x9a, 0x5d, 0xbd, 0xdd, 0x0b, 0xfa, 0xbc,
  0x23, 0xed, 0x0c, 0x3d, 0xea, 0x34, 0xbf, 0x3d, 0xdb, 0x02, 0xf6, 0xbd,
  0x78, 0x86, 0x53, 0x3d, 0xa1, 0xa9, 0x0e, 0x3d, 0xf1, 0x38, 0xbc, 0xbd,
  0x89, 0x3c, 0x89, 0x3d, 0xfc, 0xc1, 0xe7, 0x3c, 0x1d, 0x01, 0x56, 0xbd,
  0x00, 0x05, 0x64, 0x3d, 0xa0, 0xdf, 0x2f, 0xbb, 0x70, 0xa5, 0x91, 0xbd,
  0x15, 0x92, 0x0e, 0x3d, 0x51, 0x16, 0xf4, 0x3c, 0x03, 0xd0, 0x8d, 0xbd,
  0xfe, 0xe0, 0xa8, 0x3d, 0xce, 0x4d, 0xd0, 0xbb, 0x58, 0x34, 0xe3, 0xbc,
  0xdb, 0x20, 0x2b, 0xbc, 0x5f, 0xe5, 0x4e, 0xbd, 0xc0, 0x4b, 0x46, 0x3c,
  0xde, 0xc4, 0xc8, 0xbc, 0x0e, 0xab, 0x30, 0x3e, 0x0d, 0x90, 0x38, 0xbc,
  0xfc, 0xb0, 0x74, 0x3d, 0xcb, 0x54, 0x1f, 0xbd, 0xd6, 0x02, 0x6d, 0xbd,
  0x66, 0xf7, 0x10, 0xbd, 0x73, 0xbf, 0x07, 0x3d, 0xf6, 0xe5, 0xef, 0xbd,
  0x93, 0x72, 0xca, 0xbc, 0x86, 0xf0, 0x41, 0x3c, 0xd0, 0x72, 0xdb, 0xbd,
  0xf0, 0x05, 0x79, 0xbd, 0x73, 0x29, 0xa3, 0x3c, 0x2c, 0x60, 0x3a, 0xbe,
  0x90, 0x14, 0x48, 0xbd, 0x92, 0x1e, 0x4c, 0xbd, 0x7e, 0x23, 0x19, 0xbe,
  0xef, 0xcb, 0xfd, 0xbc, 0x26, 0xa9, 0x37, 0xbe, 0x3c, 0xce, 0x39, 0xbe,
  0x6a, 0xc7, 0xd0, 0xbd, 0x77, 0x5d, 0x3e, 0xbe, 0x7e, 0x81, 0x5f, 0xbe,
  0x62, 0x7c, 0x6e, 0xbd, 0x41, 0x86, 0x25, 0xbe, 0xb1, 0xae, 0x15, 0xbe,
  0xa6, 0x60, 0x1b, 0xbe, 0x0c, 0x76, 0x74, 0xbe, 0x85, 0xcd, 0xdb, 0xbd,
  0x9a, 0xc1, 0xc8, 0xbd, 0x85, 0x71, 0xf7, 0xbd, 0x85, 0x3c, 0x0d, 0x3d,
  0x99, 0xf0, 0x93, 0xbd, 0x6b, 0xe2, 0xec, 0xbd, 0x25, 0x0c, 0xd1, 0x3c,
  0x47, 0x6f, 0x06, 0xbe, 0x6f, 0xab, 0xc5, 0xbd, 0xc2, 0x04, 0xc6, 0x3d,
  0xcc, 0xd5, 0xc2, 0xbd, 0x03, 0x26, 0x90, 0xbd, 0x41, 0x7e, 0xda, 0x3d,
  0x0c, 0xda, 0x0b, 0xbd, 0xcd, 0x70, 0x84, 0x3d, 0xcb, 0x89, 0xae, 0x3d,
  0xaf, 0x0e, 0xfe, 0xbc, 0x60, 0x31, 0x34, 0xbd, 0xe9, 0x0b, 0xa0, 0x3d,
  0x44, 0xf1, 0x67, 0xbd, 0xf0, 0xf8, 0x53, 0x3c, 0x56, 0x43, 0x30, 0x3e,
  0x18, 0x36, 0x07, 0x3c, 0xd6, 0xc3, 0xb1, 0x3d, 0x66, 0xf9, 0x83, 0x3e,
  0x0e, 0x4b, 0x24, 0x3d, 0x8f, 0x78, 0x05, 0x3e, 0xe7, 0xa9, 0x84, 0x3e,
  0x6d, 0x78, 0xb5, 0x3d, 0x1e, 0xf1, 0x3f, 0x3e, 0xe0, 0x97, 0x7c, 0x3e,
  0xab, 0x35, 0x08, 0x3e, 0x44, 0xfe, 0x65, 0x3e, 0xc9, 0x06, 0x77, 0x3e,
  0xce, 0x11, 0x02, 0x3e, 0x41, 0xd9, 0x6f, 0x3e, 0x6b, 0x8d, 0x4a, 0x3e,
  0x10, 0xb4, 0x0f, 0x3e, 0x28, 0xb9, 0x5e, 0x3e, 0x2e, 0x41, 0x7c, 0x3e,
  0xa6, 0xca, 0x13, 0x3e, 0x53, 0x13, 0x72, 0x3e, 0xbe, 0x9b, 0x5b, 0x3e,
  0x76, 0xe9, 0x17, 0x3e, 0x77, 0xe8, 0x77, 0x3e, 0x4a, 0x64, 0x40, 0x3e,
  0x05, 0xa9, 0xc1, 0x3d, 0xd0, 0xba, 0x23, 0x3e, 0x4b, 0xdb, 0xdf, 0x3d,
  0x03, 0x21, 0xbd, 0x3d, 0x94, 0x22, 0xf1, 0x3d, 0x54, 0xce, 0x21, 0x3d,
  0xa3, 0x5e, 0x24, 0x3d, 0x9e, 0xed, 0xcc, 0x3d, 0x16, 0x27, 0x10, 0xbb,
  0xb4, 0x10, 0x23, 0xbb, 0xdf, 0x4d, 0x47, 0x3d, 0x64, 0x08, 0x91, 0xbd,
  0x63, 0xca, 0x38, 0xbd, 0xd4, 0x26, 0xc7, 0x3b, 0xc7, 0x0b, 0xc7, 0xbd,
  0x24, 0xa9, 0x66, 0xbd, 0xe7, 0x84, 0x86, 0xbc, 0x7e, 0x30, 0x00, 0xbe,
  0x49, 0x18, 0xd6, 0xbd, 0xe6, 0x38, 0x5b, 0xbd, 0x7b, 0x12, 0xfc, 0xbd,
  0xa8, 0x77, 0x83, 0xbd, 0x7d, 0x2e, 0x42, 0xbd, 0xb3, 0x0a, 0x04, 0xbe,
  0x22, 0xa4, 0x9b, 0xbd, 0xf0, 0x60, 0xab, 0xbd, 0x0e, 0xde, 0x1e, 0xbe,
  0x63, 0x19, 0x5e, 0xbd, 0x11, 0x4d, 0xd1, 0xbd, 0x2e, 0x9d, 0x45, 0xbe,
  0xd6, 0xec, 0x56, 0xbd, 0x1f, 0xa5, 0xe4, 0xbd, 0x32, 0xa2, 0xe5, 0xbd,
  0xb3, 0x29, 0x6b, 0xbd, 0x44, 0x8f, 0x0d, 0xbe, 0xd0, 0x83, 0x60, 0xbd,
  0xa7, 0xe3, 0x65, 0xbd, 0x50, 0x38, 0xb6, 0xbd, 0x3f, 0xc5, 0x5e, 0xbd,
  0x9c, 0x66, 0x5f, 0xbd, 0x65, 0xe8, 0x42, 0xbd, 0x66, 0xea, 0xae, 0xbd,
  0x76, 0x41, 0x36, 0xbd, 0xf0, 0xe2, 0xda, 0x39, 0x52, 0xdb, 0x3a, 0xbd,
  0xfa, 0x64, 0x4e, 0x3c, 0x1e, 0x53, 0x45, 0xbc, 0x98, 0x54, 0xf9, 0xbc,
  0x0d, 0xec, 0xc3, 0xbb, 0xb2, 0x9b, 0xa1, 0x3b, 0x68, 0xba, 0xdb, 0xbc,
  0xbd, 0xd4, 0x84, 0xbc, 0x63, 0xfb, 0x32, 0x3c, 0x4d, 0xfb, 0x84, 0x3c,
  0xc4, 0x12, 0x8b, 0x3c, 0xba, 0xed, 0xb1, 0x3b, 0x7a, 0x7f, 0x80, 0x3d,
  0xc9, 0x4b, 0x09, 0x3d, 0x2a, 0x70, 0x31, 0x3c, 0x43, 0xb0, 0x84, 0x3c,
  0x8a, 0x64, 0xd9, 0x3c, 0xf7, 0x0b, 0x5b, 0xbb, 0x76, 0x6e, 0x84, 0x3b,
  0xe5, 0x9d, 0xce, 0x3c, 0x0a, 0x8c, 0x29, 0x3b, 0x3e, 0x91, 0x99, 0x3d,
  0x80, 0x42, 0xb1, 0x3c, 0x2e, 0x99, 0xb8, 0x3b, 0xad, 0x95, 0x07, 0x3d,
  0xa1, 0x97, 0x89, 0x3d, 0xde, 0xf2, 0xb6, 0x3c, 0xef, 0x0e, 0x58, 0x3d,
  0x3b, 0x12, 0x0d, 0x3d, 0x13, 0xf8, 0xa8, 0xbc, 0x47, 0xad, 0xf3, 0xbb,
  0x77, 0xec, 0x82, 0x3d, 0xa6, 0xa3, 0x69, 0x3d, 0x01, 0x33, 0x35, 0x3d,
  0xc2, 0x6f, 0x1c, 0x3c, 0xcc, 0x63, 0x00, 0xbe, 0x3d, 0x3b, 0xad, 0xbe,
  0x97, 0xd9, 0x7c, 0x3d, 0xfc, 0xdb, 0x04, 0x3e, 0xc6, 0x54, 0x69, 0xbe,
  0xae, 0xf1, 0x07, 0x3f, 0xb0, 0x84, 0xd5, 0xbe, 0x52, 0x6f, 0xb3, 0x3e,
  0x4d, 0xa1, 0xe6, 0xbe, 0x43, 0xc2, 0x01, 0xbe, 0xad, 0xd8, 0xfb, 0xbe,
  0x3f, 0xe1, 0xb9, 0x3d, 0x6e, 0x34, 0x20, 0x3f, 0x4b, 0x3f, 0x79, 0x3f,
  0xd4, 0x9b, 0x1b, 0x3f, 0x09, 0x11, 0x2d, 0x3d, 0xec, 0x3e, 0x8c, 0x3e,
  0x41, 0xe9, 0x98, 0xbe, 0xf6, 0x21, 0x24, 0xbd, 0xfd, 0x4f, 0x20, 0xbf,
  0x2d, 0x37, 0xa7, 0xbe, 0x8d, 0xce, 0x9f, 0x3c, 0x58, 0x30, 0x5a, 0xbe,
  0x55, 0xd5, 0xff, 0xbe, 0xf9, 0x1b, 0xce, 0x3d, 0xc3, 0x35, 0x11, 0xbf,
  0xfc, 0xce, 0x64, 0x3e, 0xdf, 0x8f, 0x93, 0x3d, 0xdc, 0x4f, 0x10, 0xbe,
  0x38, 0xec, 0x3f, 0xbe, 0x98, 0xac, 0xed, 0x3e, 0xd9, 0xa0, 0x44, 0xbe,
  0xc0, 0x9c, 0xc6, 0x3d, 0x89, 0xd2, 0x77, 0xbe, 0x0d, 0x36, 0x6f, 0x3e,
  0xd5, 0x24, 0x83, 0xbe, 0x45, 0x78, 0x1b, 0x3f, 0x9d, 0x1f, 0x28, 0x3e,
  0x18, 0x1d, 0x2f, 0x3e, 0x2f, 0x8a, 0xe0, 0xbd, 0xc0, 0x4e, 0x4a, 0xbc,
  0x87, 0x3a, 0x9f, 0xbd, 0xa8, 0xcc, 0xa1, 0x3e, 0xe9, 0x93, 0xd2, 0x3d,
  0x37, 0x12, 0x8f, 0x3d, 0x30, 0x65, 0x1f, 0x3e, 0xf3, 0x37, 0x42, 0x3e,
  0x74, 0x29, 0xb5, 0x3d, 0xe0, 0x46, 0xdd, 0x3d, 0x76, 0xd5, 0x45, 0x3e,
  0xe3, 0x79, 0x04, 0x3e, 0x2a, 0x1c, 0x8e, 0x3c, 0x19, 0xe3, 0x87, 0x3e,
  0xdf, 0xbc, 0x0c, 0x3e, 0xae, 0x37, 0xe0, 0x3d, 0x62, 0x26, 0x7b, 0x3e,
  0x17, 0xe1, 0x24, 0x3e, 0x77, 0xc3, 0xcf, 0x3b, 0x8a, 0x7c, 0xf6, 0x3c,
  0x16, 0x15, 0x0e, 0x3e, 0x4b, 0x9e, 0xaf, 0xbd, 0x9e, 0xd1, 0x87, 0x3d,
  0x9f, 0xe1, 0x01, 0x3e, 0x49, 0xda, 0xd3, 0xbc, 0x68, 0xe7, 0x89, 0xbd,
  0x4b, 0x30, 0xcf, 0x3d, 0x14, 0x10, 0x0c, 0xbe, 0x26, 0xa5, 0x5b, 0xbb,
  0x5b, 0x32, 0xd5, 0x3d, 0xa3, 0x71, 0x57, 0xbe, 0xe8, 0x68, 0x8c, 0xbc,
  0x0f, 0x85, 0xc7, 0x3d, 0x0e, 0x38, 0x86, 0xbe, 0x4d, 0xf7, 0xdf, 0x3c,
  0xb9, 0x3b, 0x87, 0x3d, 0xec, 0x0e, 0x88, 0xbe, 0xac, 0x78, 0xc2, 0xbd,
  0x6f, 0x2f, 0x22, 0xbd, 0xd4, 0x46, 0x92, 0xbe, 0xcd, 0x1c, 0x2b, 0xbe,
  0x8a, 0xc5, 0xfd, 0xbc, 0x49, 0xe4, 0x3c, 0xbe, 0x48, 0xbc, 0xa5, 0xbd,
  0x5f, 0x45, 0x12, 0xbe, 0xeb, 0x3c, 0x4e, 0xbe, 0x3f, 0x66, 0xdd, 0xbd,
  0xbb, 0x40, 0xc0, 0xbd, 0xed, 0x63, 0x2b, 0xbe, 0x46, 0x42, 0x9f, 0xbb,
  0x02, 0xb2, 0x44, 0xbe, 0x51, 0x2f, 0xe7, 0xbd, 0xd4, 0xe4, 0x36, 0xbd,
  0x54, 0xef, 0x24, 0xbe, 0xda, 0xce, 0x0c, 0xbd, 0x61, 0x3c, 0x5f, 0x3d,
  0x69, 0x5d, 0x51, 0xbe, 0x39, 0xb0, 0xcf, 0x3b, 0x23, 0xf9, 0x3e, 0x3d,
  0x02, 0x39, 0xf0, 0xbd, 0x7a, 0xbf, 0xe1, 0x3d, 0x07, 0xa6, 0x89, 0x3d,
  0xae, 0x48, 0xe2, 0xbd, 0x7f, 0x03, 0x0c, 0x3d, 0x2e, 0xcb, 0x97, 0xbd,
  0x44, 0xb1, 0x10, 0xbe, 0xae, 0x5c, 0xcb, 0x3d, 0x3c, 0x9a, 0x3f, 0x3c,
  0x9c, 0xb5, 0x05, 0xbe, 0x39, 0x3b, 0xba, 0x3d, 0x9f, 0x51, 0x61, 0xbd,
  0x32, 0xef, 0xc5, 0xbd, 0x26, 0xb9, 0x01, 0x3e, 0xd4, 0xa8, 0x49, 0x3c,
  0xaf, 0xe3, 0x4f, 0xbd, 0xac, 0x24, 0xa2, 0x3d, 0xf4, 0x1f, 0x5c, 0x3d,
  0xb7, 0x9f, 0xe0, 0xbb, 0x87, 0xd5, 0x90, 0x3d, 0xa6, 0xe8, 0x80, 0xbd,
  0xfc, 0x9e, 0x3a, 0x3a, 0x97, 0xdb, 0x80, 0x3d, 0x7d, 0x1c, 0x7d, 0xbd,
  0x52, 0xae, 0x0f, 0x3d, 0x48, 0x7b, 0x98, 0xbb, 0x5e, 0xc1, 0x2a, 0xbd,
  0x6d, 0x05, 0x90, 0x3d, 0x9a, 0x73, 0x65, 0x3d, 0xab, 0xe0, 0xef, 0x3d,
  0xa8, 0xc4, 0x10, 0x3e, 0xa4, 0xd8, 0x9f, 0x3d, 0xb6, 0x17, 0xf9, 0x3d,
  0x2b, 0x49, 0x2f, 0x3e, 0x99, 0x8e, 0xe7, 0x3c, 0x99, 0x85, 0x96, 0x3d,
  0x1f, 0x26, 0x3b, 0x3e, 0x48, 0xaa, 0x6b, 0x3d, 0xaa, 0x1e, 0x2e, 0x3d,
  0x95, 0x82, 0x4f, 0x3e, 0x23, 0x29, 0xb4, 0x3c, 0x4b, 0xd3, 0xf9, 0x3c,
  0x18, 0x49, 0x22, 0x3e, 0x5f, 0x92, 0xee, 0x3c, 0x4a, 0x42, 0x02, 0xbd,
  0x7c, 0x2b, 0x3f, 0x3e, 0xb8, 0x94, 0xf6, 0x3c, 0x28, 0x12, 0xf5, 0xbc,
  0x6e, 0xb4, 0x29, 0x3e, 0xf6, 0x50, 0x6c, 0xbc, 0x7e, 0x33, 0x09, 0xbe,
  0xb9, 0xc4, 0x06, 0x3e, 0x7d, 0x81, 0xb1, 0xbc, 0xd4, 0x5d, 0xba, 0xbd,
  0x84, 0xe7, 0xe0, 0x3d, 0x93, 0xfb, 0x9d, 0xbd, 0xaa, 0xcf, 0x0d, 0xbe,
  0xb0, 0x2c, 0xfa, 0x3c, 0x57, 0x18, 0xe5, 0xbc, 0x9d, 0x0e, 0xf2, 0xbd,
  0x4c, 0x8d, 0xd0, 0x3c, 0xe4, 0xde, 0xcc, 0xbb, 0xf2, 0x8e, 0xa4, 0xbd,
  0x04, 0xc5, 0x0c, 0x3b, 0x11, 0x6d, 0x1d, 0x3d, 0x0b, 0x18, 0x36, 0xbd,
  0xbc, 0x54, 0x25, 0x3c, 0x89, 0x51, 0xd4, 0x3c, 0xed, 0xf6, 0x60, 0xbd,
  0x49, 0xc9, 0xd5, 0xbc, 0xc2, 0x3a, 0x6b, 0x3c, 0x17, 0x29, 0xc1, 0xbd,
  0xc0, 0x36, 0x93, 0xbd, 0x08, 0x0e, 0x30, 0x3d, 0xad, 0x04, 0x79, 0xbc,
  0x8e, 0x0a, 0x14, 0xbd, 0x95, 0x93, 0x31, 0x3d, 0x66, 0xb4, 0x90, 0x3b,
  0x6a, 0x36, 0xc8, 0xbd, 0x3c, 0xf2, 0x60, 0x3d, 0x31, 0x14, 0xf4, 0x3c,
  0x12, 0x1c, 0x1c, 0xbd, 0xbd, 0xae, 0xc2, 0x3d, 0xdd, 0xfa, 0xa0, 0x3d,
  0xdb, 0x0a, 0xa7, 0xbd, 0x12, 0xfe, 0xcd, 0x3d, 0x3f, 0x2a, 0x07, 0x3d,
  0x95, 0x1b, 0x81, 0xbd, 0x0c, 0x70, 0x03, 0x3e, 0x80, 0x1c, 0xa7, 0x3d,
  0xb5, 0xf3, 0xce, 0xbd, 0xb7, 0x9d, 0xf3, 0x3d, 0x40, 0xa0, 0x21, 0x3d,
  0x6b, 0x16, 0x09, 0xbd, 0xc2, 0x1d, 0x10, 0x3d, 0x31, 0xd5, 0xb8, 0x3d,
  0xe7, 0xd8, 0x8c, 0xbd, 0x2d, 0xe5, 0xe4, 0x3c, 0x28, 0x8c, 0x04, 0x3d,
  0x2f, 0xe6, 0xd2, 0xbc, 0xb2, 0x6e, 0x02, 0xbd, 0x6e, 0x33, 0x95, 0x3d,
  0x49, 0x7e, 0x83, 0xbd, 0x8d, 0xae, 0xea, 0xbc, 0x13, 0x66, 0x57, 0x3d,
  0x56, 0x10, 0x4f, 0xbd, 0x3a, 0xb5, 0x90, 0xbd, 0xf1, 0x32, 0xb5, 0x3d,
  0x5d, 0x8d, 0xa5, 0xbd, 0x17, 0xb5, 0x8d, 0xbd, 0x98, 0xb9, 0xc3, 0x3c,
  0x6a, 0x71, 0x1a, 0xbc, 0x7e, 0x52, 0xc5, 0xbd, 0x82, 0x33, 0x13, 0x3c,
  0x8e, 0x37, 0x0b, 0xbd, 0x59, 0x02, 0x9e, 0xbd, 0x34, 0xec, 0x71, 0xbd,
  0x5f, 0xa6, 0x02, 0x3b, 0x99, 0x91, 0xa6, 0xbd, 0x29, 0x02, 0x86, 0xbd,
  0x18, 0x32, 0x0d, 0xbd, 0x87, 0x20, 0xae, 0xbb, 0x3a, 0xef, 0xc8, 0xbd,
  0x3d, 0x5e, 0x10, 0x3c, 0xaa, 0x88, 0x1f, 0xbd, 0x38, 0x7e, 0xe8, 0xbd,
  0xf1, 0x00, 0x6e, 0x3b, 0xcf, 0xb3, 0x33, 0x3d, 0xed, 0xd7, 0x87, 0xbd,
  0x70, 0x71, 0x0f, 0x3c, 0x16, 0x4d, 0x8e, 0x3c, 0xf5, 0x23, 0xb6, 0xbd,
  0x72, 0xc6, 0x19, 0xbc, 0x3d, 0xfe, 0x1b, 0x3d, 0x3c, 0xc1, 0x86, 0xbd,
  0x6e, 0x08, 0x34, 0x3d, 0x43, 0xcc, 0x83, 0xbd, 0xf3, 0xbe, 0x8e, 0xbd,
  0xac, 0xc8, 0x17, 0xbc, 0x00, 0x20, 0xf3, 0x3c, 0x2b, 0x7d, 0x21, 0x3c,
  0xb4, 0x58, 0xf1, 0x3c, 0x8e, 0x20, 0x25, 0xbe, 0xe2, 0x16, 0xc5, 0xbd,
  0x28, 0x49, 0x1e, 0x3d, 0x50, 0xd6, 0x1b, 0xbf, 0x92, 0x7e, 0xd3, 0xbe,
  0x83, 0xa1, 0x26, 0xbe, 0xd3, 0x43, 0x5c, 0xbe, 0x2b, 0xfb, 0x12, 0xbf,
  0x12, 0xf7, 0x92, 0xbe, 0x8d, 0xe0, 0xee, 0xbd, 0x73, 0x67, 0xb7, 0xbe,
  0x37, 0x37, 0xca, 0xbe, 0xe7, 0x3d, 0xc4, 0x3e, 0x75, 0x52, 0x0f, 0xbd,
  0x3a, 0xcf, 0x5e, 0xbe, 0xd7, 0xcf, 0x3b, 0xbd, 0x28, 0x1a, 0xaf, 0xbe,
  0x55, 0xfa, 0x17, 0xbf, 0x90, 0xd2, 0xe0, 0xbd, 0x66, 0xb8, 0x01, 0xbe,
  0x4f, 0x8a, 0xb3, 0xbe, 0xfe, 0x32, 0xa9, 0x3d, 0x62, 0x23, 0x0a, 0x3f,
  0x45, 0x21, 0xab, 0x3e, 0x41, 0xae, 0x05, 0xbf, 0x08, 0x3e, 0x9a, 0x3e,
  0x23, 0x72, 0xec, 0xbd, 0xc2, 0x79, 0xd1, 0x3c, 0x66, 0x59, 0xa9, 0x3e,
  0xf2, 0x39, 0x9c, 0x3e, 0x22, 0x82, 0xa6, 0xbe, 0x82, 0x1e, 0x8f, 0xbd,
  0xf7, 0xb9, 0x46, 0xbc, 0x32, 0x41, 0xc3, 0x3e, 0xb2, 0x78, 0x77, 0x3e,
  0x7c, 0x09, 0xbe, 0x3e, 0x57, 0xdf, 0x8a, 0xbd, 0x44, 0x4c, 0x76, 0x3d,
  0x77, 0x83, 0x21, 0x3d, 0x86, 0x72, 0x2d, 0x3e, 0xa3, 0xad, 0x36, 0x3e,
  0x6b, 0xb6, 0x9d, 0x3e, 0x12, 0x1f, 0xa9, 0x3e, 0x08, 0xeb, 0xb1, 0x3e,
  0x5e, 0xce, 0xb0, 0x3e, 0x55, 0x4f, 0x18, 0x3e, 0xcf, 0xf7, 0x32, 0x3e,
  0xbd, 0xa3, 0x7e, 0x3e, 0x31, 0x4c, 0x31, 0x3e, 0x24, 0x7f, 0x82, 0x3e,
  0xaf, 0xcd, 0x59, 0x3e, 0x80, 0x21, 0xbb, 0x3c, 0x50, 0x2d, 0xa6, 0x3d,
  0x29, 0xa3, 0xa0, 0x3d, 0x47, 0x0c, 0x9d, 0x3d, 0xce, 0x4f, 0x14, 0x3d,
  0xb6, 0x17, 0xf3, 0x3d, 0x88, 0xc8, 0x44, 0x3d, 0x4d, 0x79, 0x95, 0x3d,
  0x9a, 0xeb, 0x11, 0x3d, 0x9c, 0x2f, 0xd1, 0x3d, 0x7d, 0x39, 0x69, 0xbd,
  0x24, 0x19, 0x23, 0x3d, 0x59, 0x8a, 0xe4, 0xbc, 0x91, 0xdc, 0x9f, 0x3d,
  0x5e, 0xe5, 0x97, 0x3c, 0x83, 0xce, 0x98, 0x3d, 0xef, 0x58, 0x24, 0xbd,
  0xa8, 0x16, 0x1a, 0x3a, 0x82, 0x32, 0x82, 0xbd, 0x6e, 0xd1, 0xf1, 0xbd,
  0x1e, 0xf1, 0xfb, 0xbc, 0xd6, 0x41, 0xd4, 0x3d, 0xab, 0xfc, 0xa9, 0xbd,
  0xc7, 0x75, 0xb1, 0xbd, 0xb4, 0x7c, 0x93, 0xbd, 0xf5, 0x2e, 0x92, 0xbd,
  0x41, 0xc6, 0x00, 0xbe, 0x93, 0x4d, 0xd6, 0x3d, 0xb9, 0x9f, 0x00, 0xbd,
  0x80, 0x10, 0xca, 0xbd, 0x55, 0x2c, 0xb7, 0x3d, 0x52, 0x42, 0xe1, 0xbd,
  0x61, 0x0d, 0xe2, 0xbd, 0x98, 0xfb, 0x5b, 0x3e, 0xad, 0x91, 0x93, 0x3c,
  0xdc, 0x5b, 0x83, 0xbd, 0x8d, 0x64, 0x9b, 0x3d, 0x5f, 0xe3, 0x5f, 0xbd,
  0x3a, 0xdd, 0x97, 0xbd, 0xa5, 0xac, 0xca, 0x3d, 0x23, 0x7e, 0x77, 0xbb,
  0x0b, 0xe1, 0xc2, 0xbd, 0x3b, 0xfe, 0x90, 0x3d, 0xda, 0x01, 0x9d, 0xbc,
  0x09, 0xac, 0xa0, 0xbd, 0x9e, 0x7b, 0xbd, 0xbc, 0x10, 0x35, 0x2b, 0xbd,
  0x0d, 0x71, 0x86, 0xbd, 0x02, 0xc0, 0x8d, 0x3c, 0xa3, 0x01, 0x6e, 0x3c,
  0xa0, 0xa7, 0xb8, 0xbd, 0x6d, 0x5f, 0x13, 0xbc, 0x0f, 0x2e, 0x3b, 0xbd,
  0x45, 0xf4, 0x06, 0xbe, 0x79, 0x06, 0x86, 0x3d, 0x74, 0x84, 0x4f, 0x3d,
  0xc6, 0xa9, 0x25, 0xbd, 0x52, 0x05, 0xda, 0xbc, 0x57, 0x42, 0xfe, 0x3d,
  0x78, 0xf5, 0x22, 0xbd, 0x6d, 0x24, 0xee, 0xbc, 0xb1, 0xf4, 0xd3, 0x3c,
  0xa9, 0x57, 0xb6, 0xbc, 0x95, 0x55, 0x00, 0xbd, 0x72, 0x43, 0x94, 0x3d,
  0x9b, 0xc3, 0xea, 0xbc, 0x24, 0x1a, 0x92, 0xbd, 0x3a, 0x3f, 0x86, 0x3b,
  0xa4, 0x79, 0x69, 0x3c, 0xea, 0xc1, 0x87, 0xbb, 0x58, 0xf6, 0xd7, 0x3c,
  0x4f, 0x6f, 0xb9, 0x3c, 0x6a, 0xbe, 0x7a, 0xba, 0xb9, 0x3a, 0xa2, 0xbc,
  0xde, 0x9d, 0x6f, 0x3d, 0x4c, 0xee, 0x62, 0x3b, 0xbc, 0xbe, 0x4c, 0xbd,
  0xf7, 0x36, 0x8c, 0x3d, 0xaf, 0x1e, 0x04, 0xbd, 0x56, 0x4e, 0x89, 0xbd,
  0xde, 0x28, 0x35, 0x3d, 0xe5, 0xa3, 0x62, 0x3b, 0x5a, 0xe1, 0x56, 0xbc,
  0x37, 0xdc, 0x1b, 0x3d, 0x65, 0x33, 0x17, 0x3d, 0x9d, 0x96, 0x2f, 0xbd,
  0x44, 0x5e, 0x0a, 0x3d, 0x74, 0xcd, 0x31, 0xbd, 0xb3, 0x61, 0x08, 0xbe,
  0x97, 0xb1, 0x0f, 0x3d, 0x39, 0x1c, 0x35, 0xbd, 0x3a, 0x67, 0xf7, 0xbd,
  0x85, 0xb5, 0x49, 0xbc, 0x62, 0x5a, 0xb4, 0xbd, 0x5f, 0x5e, 0x1a, 0xbe,
  0xcb, 0xd6, 0x6d, 0x3c, 0x3f, 0x72, 0xc1, 0xbd, 0x47, 0x21, 0x0b, 0xbe,
  0x5b, 0x1e, 0xc3, 0xbb, 0x08, 0xf5, 0x05, 0xbe, 0xa9, 0x61, 0xda, 0xbd,
  0x81, 0xc0, 0x1b, 0xbd, 0xf5, 0xd4, 0x59, 0xbd, 0xa8, 0xe3, 0x2b, 0xbd,
  0xe4, 0x83, 0xab, 0xbc, 0xd1, 0x47, 0xd6, 0xbd, 0x8b, 0x13, 0x76, 0xbd,
  0x93, 0x9f, 0xa4, 0xbd, 0xfa, 0xcb, 0x44, 0xbd, 0x0c, 0xb7, 0x92, 0xbc,
  0xe6, 0x27, 0xa6, 0xbd, 0xcf, 0x86, 0x7d, 0xbd, 0xae, 0xa4, 0x53, 0xbd,
  0x4d, 0xf4, 0xb3, 0xbd, 0x7d, 0x49, 0xc4, 0xbc, 0xba, 0xa8, 0x88, 0xbc,
  0x4d, 0x5b, 0xed, 0xbd, 0x14, 0xc5, 0x99, 0xbd, 0x54, 0xeb, 0xd0, 0xbc,
  0xbc, 0x24, 0xef, 0xbd, 0x22, 0x53, 0xc9, 0xbc, 0xa7, 0xbc, 0x94, 0xbd,
  0xd3, 0xd3, 0xf0, 0xbd, 0x19, 0xa0, 0xf3, 0xbc, 0xa2, 0xeb, 0x96, 0xbd,
  0x83, 0x00, 0xb7, 0xbd, 0x4e, 0xca, 0x80, 0xbd, 0x17, 0x78, 0xa3, 0xbd,
  0xf3, 0x18, 0xe4, 0xbd, 0x5a, 0xcc, 0xda, 0xbc, 0xeb, 0x27, 0x31, 0xbd,
  0x23, 0x04, 0x75, 0xbd, 0x00, 0xae, 0x84, 0xbc, 0x44, 0x9e, 0x93, 0xbd,
  0x2f, 0x1c, 0x30, 0x3b, 0x91, 0x90, 0xcd, 0x3c, 0x3b, 0x77, 0x09, 0xbc,
  0x36, 0xf3, 0x28, 0xbc, 0x29, 0xd3, 0x33, 0x3d, 0xbe, 0x61, 0x63, 0xbd,
  0xb9, 0xea, 0xd9, 0x3b, 0xf3, 0xba, 0xac, 0x3d, 0x91, 0x77, 0x88, 0xbc,
  0x03, 0x6e, 0x5d, 0x3d, 0x9b, 0x70, 0x12, 0x3e, 0xc5, 0x9d, 0x95, 0xbc,
  0xd8, 0xa3, 0x5c, 0x3d, 0xe1, 0xcb, 0x06, 0x3e, 0x5e, 0x19, 0x09, 0xbd,
  0xba, 0x84, 0xb0, 0x3d, 0x2b, 0x7a, 0x1a, 0x3e, 0xaf, 0xf7, 0x3d, 0x3c,
  0x02, 0x80, 0xcf, 0x3d, 0xdd, 0x1c, 0xe9, 0x3d, 0x7b, 0x88, 0x86, 0xbc,
  0x77, 0x93, 0xef, 0x3d, 0x9a, 0x61, 0xc7, 0x3d, 0x18, 0x69, 0xe8, 0x3c,
  0x09, 0xc2, 0x04, 0x3e, 0x04, 0xf7, 0xe1, 0x3d, 0x9c, 0x96, 0x53, 0x3d,
  0x56, 0xa8, 0xfe, 0x3d, 0x67, 0xa7, 0x82, 0x3d, 0x90, 0x3f, 0x93, 0x3d,
  0x9f, 0xc5, 0xd0, 0x3d, 0xf7, 0x73, 0xb2, 0x3d, 0x33, 0x8a, 0xa1, 0x3d,
  0x4b, 0x2f, 0xe7, 0x3d, 0x97, 0xdb, 0xd6, 0x3c, 0x10, 0xeb, 0xc7, 0x3d,
  0x7a, 0xbf, 0x95, 0x3d, 0x38, 0x8a, 0x7e, 0x3d, 0x45, 0x65, 0xfe, 0x3d,
  0x7f, 0x28, 0xe5, 0x3d, 0xeb, 0x80, 0x75, 0x3d, 0x9e, 0xf3, 0xc1, 0x3d,
  0xad, 0x43, 0xc8, 0x3d, 0xac, 0xfe, 0x15, 0x3d, 0x5e, 0x6e, 0x13, 0x3d,
  0x58, 0x3a, 0xb5, 0x3d, 0x16, 0xff, 0xd0, 0x3b, 0xeb, 0x29, 0x35, 0x3d,
  0x16, 0x52, 0x08, 0x3d, 0xe2, 0xb8, 0xca, 0xbc, 0xc8, 0xaa, 0x2c, 0x3d,
  0xb5, 0x2c, 0xa7, 0x3c, 0x56, 0xd4, 0x9a, 0x3c, 0x22, 0x63, 0x34, 0x3d,
  0xf8, 0xa0, 0x8f, 0xbc, 0xf2, 0xfe, 0xff, 0xff, 0x04, 0x00, 0x00, 0x00,
  0x08, 0x00, 0x00, 0x00, 0xff, 0xff, 0xff, 0xff, 0xf0, 0x00, 0x00, 0x00,
  0x06, 0xff, 0xff, 0xff, 0x04, 0x00, 0x00, 0x00, 0x20, 0x00, 0x00, 0x00,
  0xb8, 0x36, 0x4d, 0xbe, 0x32, 0x67, 0x17, 0xbe, 0x90, 0x54, 0x6a, 0xbe,
  0xb4, 0x48, 0x33, 0xbe, 0x86, 0xcd, 0x15, 0xbe, 0xf7, 0x85, 0x27, 0xbe,
  0x6e, 0x2e, 0x18, 0xbe, 0x3f, 0x65, 0x27, 0xbe, 0x32, 0xff, 0xff, 0xff,
  0x04, 0x00, 0x00, 0x00, 0x20, 0x00, 0x00, 0x00, 0x3e, 0x78, 0x99, 0xbb,
  0xd7, 0xc3, 0x50, 0xbe, 0xb1, 0x8a, 0x92, 0xbb, 0x91, 0xeb, 0xee, 0xbd,
  0x63, 0x44, 0xe9, 0xbb, 0xb0, 0x3d, 0xf3, 0xbd, 0x8c, 0xac, 0xa4, 0xbb,
  0x37, 0xe2, 0x92, 0xbb, 0x5e, 0xff, 0xff, 0xff, 0x04, 0x00, 0x00, 0x00,
  0x0c, 0x00, 0x00, 0x00, 0xb9, 0xcd, 0xca, 0x3f, 0x6c, 0x62, 0x4c, 0x3f,
  0xd5, 0x5e, 0xe3, 0xbf, 0x44, 0xf9, 0xff, 0xff, 0x48, 0xf9, 0xff, 0xff,
  0x0f, 0x00, 0x00, 0x00, 0x4d, 0x4c, 0x49, 0x52, 0x20, 0x43, 0x6f, 0x6e,
  0x76, 0x65, 0x72, 0x74, 0x65, 0x64, 0x2e, 0x00, 0x01, 0x00, 0x00, 0x00,
  0x14, 0x00, 0x00, 0x00, 0x00, 0x00, 0x0e, 0x00, 0x18, 0x00, 0x14, 0x00,
  0x10, 0x00, 0x0c, 0x00, 0x08, 0x00, 0x04, 0x00, 0x0e, 0x00, 0x00, 0x00,
  0x14, 0x00, 0x00, 0x00, 0x1c, 0x00, 0x00, 0x00, 0x50, 0x01, 0x00, 0x00,
  0x54, 0x01, 0x00, 0x00, 0x58, 0x01, 0x00, 0x00, 0x04, 0x00, 0x00, 0x00,
  0x6d, 0x61, 0x69, 0x6e, 0x00, 0x00, 0x00, 0x00, 0x05, 0x00, 0x00, 0x00,
  0x14, 0x01, 0x00, 0x00, 0xc4, 0x00, 0x00, 0x00, 0x78, 0x00, 0x00, 0x00,
  0x40, 0x00, 0x00, 0x00, 0x04, 0x00, 0x00, 0x00, 0x5a, 0xff, 0xff, 0xff,
  0x1c, 0x00, 0x00, 0x00, 0x00, 0x00, 0x00, 0x09, 0x1c, 0x00, 0x00, 0x00,
  0x20, 0x00, 0x00, 0x00, 0x02, 0x00, 0x00, 0x00, 0x00, 0x00, 0x06, 0x00,
  0x08, 0x00, 0x04, 0x00, 0x06, 0x00, 0x00, 0x00, 0x00, 0x00, 0x80, 0x3f,
  0x01, 0x00, 0x00, 0x00, 0x0c, 0x00, 0x00, 0x00, 0x01, 0x00, 0x00, 0x00,
  0x0b, 0x00, 0x00, 0x00, 0x92, 0xff, 0xff, 0xff, 0x14, 0x00, 0x00, 0x00,
  0x00, 0x00, 0x00, 0x08, 0x10, 0x00, 0x00, 0x00, 0x14, 0x00, 0x00, 0x00,
  0x01, 0x00, 0x00, 0x00, 0x04, 0xfa, 0xff, 0xff, 0x01, 0x00, 0x00, 0x00,
  0x0b, 0x00, 0x00, 0x00, 0x03, 0x00, 0x00, 0x00, 0x0a, 0x00, 0x00, 0x00,
  0x07, 0x00, 0x00, 0x00, 0x01, 0x00, 0x00, 0x00, 0xc6, 0xff, 0xff, 0xff,
  0x14, 0x00, 0x00, 0x00, 0x00, 0x00, 0x00, 0x08, 0x14, 0x00, 0x00, 0x00,
  0x18, 0x00, 0x00, 0x00, 0x01, 0x00, 0x00, 0x00, 0xb6, 0xff, 0xff, 0xff,
  0x00, 0x00, 0x00, 0x01, 0x01, 0x00, 0x00, 0x00, 0x0a, 0x00, 0x00, 0x00,
  0x03, 0x00, 0x00, 0x00, 0x09, 0x00, 0x00, 0x00, 0x06, 0x00, 0x00, 0x00,
  0x02, 0x00, 0x00, 0x00, 0x00, 0x00, 0x0e, 0x00, 0x1a, 0x00, 0x14, 0x00,
  0x10, 0x00, 0x0c, 0x00, 0x0b, 0x00, 0x04, 0x00, 0x0e, 0x00, 0x00, 0x00,
  0x1c, 0x00, 0x00, 0x00, 0x00, 0x00, 0x00, 0x08, 0x1c, 0x00, 0x00, 0x00,
  0x20, 0x00, 0x00, 0x00, 0x01, 0x00, 0x00, 0x00, 0x00, 0x00, 0x06, 0x00,
  0x08, 0x00, 0x07, 0x00, 0x06, 0x00, 0x00, 0x00, 0x00, 0x00, 0x00, 0x01,
  0x01, 0x00, 0x00, 0x00, 0x09, 0x00, 0x00, 0x00, 0x03, 0x00, 0x00, 0x00,
  0x08, 0x00, 0x00, 0x00, 0x05, 0x00, 0x00, 0x00, 0x03, 0x00, 0x00, 0x00,
  0x00, 0x00, 0x0a, 0x00, 0x0c, 0x00, 0x00, 0x00, 0x08, 0x00, 0x04, 0x00,
  0x0a, 0x00, 0x00, 0x00, 0x08, 0x00, 0x00, 0x00, 0x0c, 0x00, 0x00, 0x00,
  0x01, 0x00, 0x00, 0x00, 0x08, 0x00, 0x00, 0x00, 0x02, 0x00, 0x00, 0x00,
  0x00, 0x00, 0x00, 0x00, 0x04, 0x00, 0x00, 0x00, 0x01, 0x00, 0x00, 0x00,
  0x0c, 0x00, 0x00, 0x00, 0x01, 0x00, 0x00, 0x00, 0x00, 0x00, 0x00, 0x00,
  0x0d, 0x00, 0x00, 0x00, 0xe8, 0x04, 0x00, 0x00, 0x78, 0x04, 0x00, 0x00,
  0x08, 0x04, 0x00, 0x00, 0xb0, 0x03, 0x00, 0x00, 0x60, 0x03, 0x00, 0x00,
  0xfc, 0x02, 0x00, 0x00, 0xb0, 0x02, 0x00, 0x00, 0x64, 0x02, 0x00, 0x00,
  0x04, 0x02, 0x00, 0x00, 0x70, 0x01, 0x00, 0x00, 0xdc, 0x00, 0x00, 0x00,
  0x60, 0x00, 0x00, 0x00, 0x04, 0x00, 0x00, 0x00, 0x62, 0xfb, 0xff, 0xff,
  0x00, 0x00, 0x00, 0x01, 0x14, 0x00, 0x00, 0x00, 0x1c, 0x00, 0x00, 0x00,
  0x1c, 0x00, 0x00, 0x00, 0x0d, 0x00, 0x00, 0x00, 0x34, 0x00, 0x00, 0x00,
  0x02, 0x00, 0x00, 0x00, 0xff, 0xff, 0xff, 0xff, 0x03, 0x00, 0x00, 0x00,
  0x44, 0xfb, 0xff, 0xff, 0x19, 0x00, 0x00, 0x00, 0x53, 0x74, 0x61, 0x74,
  0x65, 0x66, 0x75, 0x6c, 0x50, 0x61, 0x72, 0x74, 0x69, 0x74, 0x69, 0x6f,
  0x6e, 0x65, 0x64, 0x43, 0x61, 0x6c, 0x6c, 0x3a, 0x30, 0x00, 0x00, 0x00,
  0x02, 0x00, 0x00, 0x00, 0x01, 0x00, 0x00, 0x00, 0x03, 0x00, 0x00, 0x00,
  0xba, 0xfb, 0xff, 0xff, 0x00, 0x00, 0x00, 0x01, 0x14, 0x00, 0x00, 0x00,
  0x1c, 0x00, 0x00, 0x00, 0x1c, 0x00, 0x00, 0x00, 0x0c, 0x00, 0x00, 0x00,
  0x54, 0x00, 0x00, 0x00, 0x02, 0x00, 0x00, 0x00, 0xff, 0xff, 0xff, 0xff,
  0x03, 0x00, 0x00, 0x00, 0x9c, 0xfb, 0xff, 0xff, 0x38, 0x00, 0x00, 0x00,
  0x73, 0x65, 0x71, 0x75, 0x65, 0x6e, 0x74, 0x69, 0x61, 0x6c, 0x5f, 0x31,
  0x2f, 0x64, 0x65, 0x6e, 0x73, 0x65, 0x5f, 0x35, 0x2f, 0x4d, 0x61, 0x74,
  0x4d, 0x75, 0x6c, 0x3b, 0x73, 0x65, 0x71, 0x75, 0x65, 0x6e, 0x74, 0x69,
  0x61, 0x6c, 0x5f, 0x31, 0x2f, 0x64, 0x65, 0x6e, 0x73, 0x65, 0x5f, 0x35,
  0x2f, 0x42, 0x69, 0x61, 0x73, 0x41, 0x64, 0x64, 0x00, 0x00, 0x00, 0x00,
  0x02, 0x00, 0x00, 0x00, 0x01, 0x00, 0x00, 0x00, 0x03, 0x00, 0x00, 0x00,
  0x32, 0xfc, 0xff, 0xff, 0x00, 0x00, 0x00, 0x01, 0x14, 0x00, 0x00, 0x00,
  0x1c, 0x00, 0x00, 0x00, 0x1c, 0x00, 0x00, 0x00, 0x0b, 0x00, 0x00, 0x00,
  0x6c, 0x00, 0x00, 0x00, 0x02, 0x00, 0x00, 0x00, 0xff, 0xff, 0xff, 0xff,
  0x08, 0x00, 0x00, 0x00, 0x14, 0xfc, 0xff, 0xff, 0x52, 0x00, 0x00, 0x00,
  0x73, 0x65, 0x71, 0x75, 0x65, 0x6e, 0x74, 0x69, 0x61, 0x6c, 0x5f, 0x31,
  0x2f, 0x64, 0x65, 0x6e, 0x73, 0x65, 0x5f, 0x34, 0x2f, 0x4d, 0x61, 0x74,
  0x4d, 0x75, 0x6c, 0x3b, 0x73, 0x65, 0x71, 0x75, 0x65, 0x6e, 0x74, 0x69,
  0x61, 0x6c, 0x5f, 0x31, 0x2f, 0x64, 0x65, 0x6e, 0x73, 0x65, 0x5f, 0x34,
  0x2f, 0x52, 0x65, 0x6c, 0x75, 0x3b, 0x73, 0x65, 0x71, 0x75, 0x65, 0x6e,
  0x74, 0x69, 0x61, 0x6c, 0x5f, 0x31, 0x2f, 0x64, 0x65, 0x6e, 0x73, 0x65,
  0x5f, 0x34, 0x2f, 0x42, 0x69, 0x61, 0x73, 0x41, 0x64, 0x64, 0x00, 0x00,
  0x02, 0x00, 0x00, 0x00, 0x01, 0x00, 0x00, 0x00, 0x08, 0x00, 0x00, 0x00,
  0xc2, 0xfc, 0xff, 0xff, 0x00, 0x00, 0x00, 0x01, 0x14, 0x00, 0x00, 0x00,
  0x1c, 0x00, 0x00, 0x00, 0x1c, 0x00, 0x00, 0x00, 0x0a, 0x00, 0x00, 0x00,
  0x6c, 0x00, 0x00, 0x00, 0x02, 0x00, 0x00, 0x00, 0xff, 0xff, 0xff, 0xff,
  0x08, 0x00, 0x00, 0x00, 0xa4, 0xfc, 0xff, 0xff, 0x52, 0x00, 0x00, 0x00,
  0x73, 0x65, 0x71, 0x75, 0x65, 0x6e, 0x74, 0x69, 0x61, 0x6c, 0x5f, 0x31,
  0x2f, 0x64, 0x65, 0x6e, 0x73, 0x65, 0x5f, 0x33, 0x2f, 0x4d, 0x61, 0x74,
  0x4d, 0x75, 0x6c, 0x3b, 0x73, 0x65, 0x71, 0x75, 0x65, 0x6e, 0x74, 0x69,
  0x61, 0x6c, 0x5f, 0x31, 0x2f, 0x64, 0x65, 0x6e, 0x73, 0x65, 0x5f, 0x33,
  0x2f, 0x52, 0x65, 0x6c, 0x75, 0x3b, 0x73, 0x65, 0x71, 0x75, 0x65, 0x6e,
  0x74, 0x69, 0x61, 0x6c, 0x5f, 0x31, 0x2f, 0x64, 0x65, 0x6e, 0x73, 0x65,
  0x5f, 0x33, 0x2f, 0x42, 0x69, 0x61, 0x73, 0x41, 0x64, 0x64, 0x00, 0x00,
  0x02, 0x00, 0x00, 0x00, 0x01, 0x00, 0x00, 0x00, 0x08, 0x00, 0x00, 0x00,
  0x52, 0xfd, 0xff, 0xff, 0x00, 0x00, 0x00, 0x01, 0x14, 0x00, 0x00, 0x00,
  0x1c, 0x00, 0x00, 0x00, 0x1c, 0x00, 0x00, 0x00, 0x09, 0x00, 0x00, 0x00,
  0x38, 0x00, 0x00, 0x00, 0x02, 0x00, 0x00, 0x00, 0xff, 0xff, 0xff, 0xff,
  0xf0, 0x00, 0x00, 0x00, 0x34, 0xfd, 0xff, 0xff, 0x1e, 0x00, 0x00, 0x00,
  0x73, 0x65, 0x71, 0x75, 0x65, 0x6e, 0x74, 0x69, 0x61, 0x6c, 0x5f, 0x31,
  0x2f, 0x66, 0x6c, 0x61, 0x74, 0x74, 0x65, 0x6e, 0x5f, 0x31, 0x2f, 0x52,
  0x65, 0x73, 0x68, 0x61, 0x70, 0x65, 0x00, 0x00, 0x02, 0x00, 0x00, 0x00,
  0x01, 0x00, 0x00, 0x00, 0xf0, 0x00, 0x00, 0x00, 0x1a, 0xfe, 0xff, 0xff,
  0x00, 0x00, 0x00, 0x01, 0x10, 0x00, 0x00, 0x00, 0x10, 0x00, 0x00, 0x00,
  0x08, 0x00, 0x00, 0x00, 0x28, 0x00, 0x00, 0x00, 0x80, 0xfd, 0xff, 0xff,
  0x1b, 0x00, 0x00, 0x00, 0x73, 0x65, 0x71, 0x75, 0x65, 0x6e, 0x74, 0x69,
  0x61, 0x6c, 0x5f, 0x31, 0x2f, 0x64, 0x65, 0x6e, 0x73, 0x65, 0x5f, 0x35,
  0x2f, 0x4d, 0x61, 0x74, 0x4d, 0x75, 0x6c, 0x00, 0x02, 0x00, 0x00, 0x00,
  0x03, 0x00, 0x00, 0x00, 0x08, 0x00, 0x00, 0x00, 0x62, 0xfe, 0xff, 0xff,
  0x00, 0x00, 0x00, 0x01, 0x10, 0x00, 0x00, 0x00, 0x10, 0x00, 0x00, 0x00,
  0x07, 0x00, 0x00, 0x00, 0x28, 0x00, 0x00, 0x00, 0xc8, 0xfd, 0xff, 0xff,
  0x1b, 0x00, 0x00, 0x00, 0x73, 0x65, 0x71, 0x75, 0x65, 0x6e, 0x74, 0x69,
  0x61, 0x6c, 0x5f, 0x31, 0x2f, 0x64, 0x65, 0x6e, 0x73, 0x65, 0x5f, 0x34,
  0x2f, 0x4d, 0x61, 0x74, 0x4d, 0x75, 0x6c, 0x00, 0x02, 0x00, 0x00, 0x00,
  0x08, 0x00, 0x00, 0x00, 0x08, 0x00, 0x00, 0x00, 0xaa, 0xfe, 0xff, 0xff,
  0x00, 0x00, 0x00, 0x01, 0x10, 0x00, 0x00, 0x00, 0x10, 0x00, 0x00, 0x00,
  0x06, 0x00, 0x00, 0x00, 0x28, 0x00, 0x00, 0x00, 0x10, 0xfe, 0xff, 0xff,
  0x1b, 0x00, 0x00, 0x00, 0x73, 0x65, 0x71, 0x75, 0x65, 0x6e, 0x74, 0x69,
  0x61, 0x6c, 0x5f, 0x31, 0x2f, 0x64, 0x65, 0x6e, 0x73, 0x65, 0x5f, 0x33,
  0x2f, 0x4d, 0x61, 0x74, 0x4d, 0x75, 0x6c, 0x00, 0x02, 0x00, 0x00, 0x00,
  0x08, 0x00, 0x00, 0x00, 0xf0, 0x00, 0x00, 0x00, 0x00, 0x00, 0x16, 0x00,
  0x1c, 0x00, 0x18, 0x00, 0x17, 0x00, 0x10, 0x00, 0x0c, 0x00, 0x08, 0x00,
  0x00, 0x00, 0x00, 0x00, 0x00, 0x00, 0x07, 0x00, 0x16, 0x00, 0x00, 0x00,
  0x00, 0x00, 0x00, 0x01, 0x14, 0x00, 0x00, 0x00, 0x14, 0x00, 0x00, 0x00,
  0x05, 0x00, 0x00, 0x00, 0x00, 0x00, 0x00, 0x02, 0x2c, 0x00, 0x00, 0x00,
  0x74, 0xfe, 0xff, 0xff, 0x1c, 0x00, 0x00, 0x00, 0x73, 0x65, 0x71, 0x75,
  0x65, 0x6e, 0x74, 0x69, 0x61, 0x6c, 0x5f, 0x31, 0x2f, 0x66, 0x6c, 0x61,
  0x74, 0x74, 0x65, 0x6e, 0x5f, 0x31, 0x2f, 0x43, 0x6f, 0x6e, 0x73, 0x74,
  0x00, 0x00, 0x00, 0x00, 0x01, 0x00, 0x00, 0x00, 0x02, 0x00, 0x00, 0x00,
  0x56, 0xff, 0xff, 0xff, 0x00, 0x00, 0x00, 0x01, 0x10, 0x00, 0x00, 0x00,
  0x10, 0x00, 0x00, 0x00, 0x04, 0x00, 0x00, 0x00, 0x38, 0x00, 0x00, 0x00,
  0xbc, 0xfe, 0xff, 0xff, 0x2b, 0x00, 0x00, 0x00, 0x73, 0x65, 0x71, 0x75,
  0x65, 0x6e, 0x74, 0x69, 0x61, 0x6c, 0x5f, 0x31, 0x2f, 0x64, 0x65, 0x6e,
  0x73, 0x65, 0x5f, 0x33, 0x2f, 0x42, 0x69, 0x61, 0x73, 0x41, 0x64, 0x64,
  0x2f, 0x52, 0x65, 0x61, 0x64, 0x56, 0x61, 0x72, 0x69, 0x61, 0x62, 0x6c,
  0x65, 0x4f, 0x70, 0x00, 0x01, 0x00, 0x00, 0x00, 0x08, 0x00, 0x00, 0x00,
  0xaa, 0xff, 0xff, 0xff, 0x00, 0x00, 0x00, 0x01, 0x10, 0x00, 0x00, 0x00,
  0x10, 0x00, 0x00, 0x00, 0x03, 0x00, 0x00, 0x00, 0x38, 0x00, 0x00, 0x00,
  0x10, 0xff, 0xff, 0xff, 0x2b, 0x00, 0x00, 0x00, 0x73, 0x65, 0x71, 0x75,
  0x65, 0x6e, 0x74, 0x69, 0x61, 0x6c, 0x5f, 0x31, 0x2f, 0x64, 0x65, 0x6e,
  0x73, 0x65, 0x5f, 0x34, 0x2f, 0x42, 0x69, 0x61, 0x73, 0x41, 0x64, 0x64,
  0x2f, 0x52, 0x65, 0x61, 0x64, 0x56, 0x61, 0x72, 0x69, 0x61, 0x62, 0x6c,
  0x65, 0x4f, 0x70, 0x00, 0x01, 0x00, 0x00, 0x00, 0x08, 0x00, 0x00, 0x00,
  0x00, 0x00, 0x16, 0x00, 0x18, 0x00, 0x14, 0x00, 0x00, 0x00, 0x10, 0x00,
  0x0c, 0x00, 0x08, 0x00, 0x00, 0x00, 0x00, 0x00, 0x00, 0x00, 0x07, 0x00,
  0x16, 0x00, 0x00, 0x00, 0x00, 0x00, 0x00, 0x01, 0x10, 0x00, 0x00, 0x00,
  0x10, 0x00, 0x00, 0x00, 0x02, 0x00, 0x00, 0x00, 0x38, 0x00, 0x00, 0x00,
  0x7c, 0xff, 0xff, 0xff, 0x2b, 0x00, 0x00, 0x00, 0x73, 0x65, 0x71, 0x75,
  0x65, 0x6e, 0x74, 0x69, 0x61, 0x6c, 0x5f, 0x31, 0x2f, 0x64, 0x65, 0x6e,
  0x73, 0x65, 0x5f, 0x35, 0x2f, 0x42, 0x69, 0x61, 0x73, 0x41, 0x64, 0x64,
  0x2f, 0x52, 0x65, 0x61, 0x64, 0x56, 0x61, 0x72, 0x69, 0x61, 0x62, 0x6c,
  0x65, 0x4f, 0x70, 0x00, 0x01, 0x00, 0x00, 0x00, 0x03, 0x00, 0x00, 0x00,
  0x00, 0x00, 0x16, 0x00, 0x1c, 0x00, 0x18, 0x00, 0x00, 0x00, 0x14, 0x00,
  0x10, 0x00, 0x0c, 0x00, 0x00, 0x00, 0x00, 0x00, 0x08, 0x00, 0x07, 0x00,
  0x16, 0x00, 0x00, 0x00, 0x00, 0x00, 0x00, 0x01, 0x14, 0x00, 0x00, 0x00,
  0x28, 0x00, 0x00, 0x00, 0x28, 0x00, 0x00, 0x00, 0x01, 0x00, 0x00, 0x00,
  0x40, 0x00, 0x00, 0x00, 0x04, 0x00, 0x00, 0x00, 0xff, 0xff, 0xff, 0xff,
  0x50, 0x00, 0x00, 0x00, 0x03, 0x00, 0x00, 0x00, 0x01, 0x00, 0x00, 0x00,
  0x04, 0x00, 0x04, 0x00, 0x04, 0x00, 0x00, 0x00, 0x19, 0x00, 0x00, 0x00,
  0x73, 0x65, 0x72, 0x76, 0x69, 0x6e, 0x67, 0x5f, 0x64, 0x65, 0x66, 0x61,
  0x75, 0x6c, 0x74, 0x5f, 0x69, 0x6e, 0x70, 0x75, 0x74, 0x5f, 0x32, 0x3a,
  0x30, 0x00, 0x00, 0x00, 0x04, 0x00, 0x00, 0x00, 0x01, 0x00, 0x00, 0x00,
  0x50, 0x00, 0x00, 0x00, 0x03, 0x00, 0x00, 0x00, 0x01, 0x00, 0x00, 0x00,
  0x03, 0x00, 0x00, 0x00, 0x30, 0x00, 0x00, 0x00, 0x14, 0x00, 0x00, 0x00,
  0x04, 0x00, 0x00, 0x00, 0xe8, 0xff, 0xff, 0xff, 0x19, 0x00, 0x00, 0x00,
  0x00, 0x00, 0x00, 0x19, 0xf4, 0xff, 0xff, 0xff, 0x09, 0x00, 0x00, 0x00,
  0x00, 0x00, 0x00, 0x09, 0x0c, 0x00, 0x0c, 0x00, 0x0b, 0x00, 0x00, 0x00,
  0x00, 0x00, 0x04, 0x00, 0x0c, 0x00, 0x00, 0x00, 0x16, 0x00, 0x00, 0x00,
  0x00, 0x00, 0x00, 0x16
};
